#version: 0.2
Ġ ì
Ġ ë
ì Ŀ
í ķ
Ġ ê
ë Ĭ
ëĬ Ķ
Ġ í
ì Ĺ
ë ĭ
ìĿ Ħ
ê ³
ìĿ ´
ìĿ ĺ
ìĹ Ĳ
ëĭ ¤
íķ ľ
íķ ĺ
ë ¥
ë ¡
ê °
ì §
ë¡ ľ
ë ĵ
ë ¦
ê³ ł
ê ²
ì ŀ
Ġì Ŀ
ë¥ ¼
ì Ħ
Ġì ŀ
Ġì ķ
ë Ĥ
ì ĭ
ì ķ
Ĥ ¬
ê° Ģ
ì§ Ģ
ìĿ Ģ
¸ °
Ġê ·
Ĭ ¤
ì ł
ë¦ ¬
Ġë §
ë §
Ġê· ¸
ë į
ĸ ´
ê² Į
ëĵ ¤
Ġì ł
ê ¸°
ì Ĭ¤
â Ģ
Ġê °
ë ł
íķ ´
ìĦ ľ
Ġì Ĺ
Ġë °
ìĿ ¸
ì ľ
Ġì ĭ
Ġë Ĥ
Ġì Ĥ¬
Ġì ľ
ĠìĿ ´
Ŀ ¼
ì ĸ´
Į Ģ
ı Ħ
Ġë Ĳ
ê µ
Ġë ª
Ġì §
ìķ Ħ
Ġê ²
ì ļ
ë Ŀ¼
ìŀ Ĳ
ë ŀ
Ī ĺ
Ġê ³
ìľ ¼
ì ĥ
ëĤ ĺ
ì Ļ
ì ¹
Ġì Ħ
Ġë ĭ
ë Ł
č Ċ
Ġìľ Ħ
ìľ¼ ë¡ľ
Ġìķ Ħ
ìĻ Ģ
ê³ ¼
ë ©
ë ²
ìĹĲ ìĦľ
ë§ Į
ë ħ
Ġì ĺ
ìĭ ľ
ë °
ë ıĦ
ì ĺ
Ġë§ Ī
Ġ íķĺ
ëį °
¶ Ģ
ëį ĺ
íķľ ëĭ¤
Ġê° Ģ
ì Ĥ¬
. .
ì Ľ
Ġë ³
Ġì ĥ
Ġìŀ Ī
ë ª
ë ¬
Ġìĭ ľ
Ġì Ĩ
Ġ âĢ
Ġìŀ Ĳ
£ ¼
Ĭ ¸
âĢ Ļ
Ġì§ Ģ
ë ĮĢ
Ġë ¹
ìĭ ł
¯ ¸
ĠâĢ ĺ
í ĥ
ëŁ ¬
Ġì Īĺ
ëĬĶ ëį°
ľ ëĭ¤
ë ³
Ġì ļ
í ĺ
Ġìł Ħ
ëĵ ľ
Ġì Ĥ
í Ĭ¸
ĠëĲ ĺ
ë Ĳ
ìĥ ģ
Ġë ı
Ġ íķ
êµ ¬
ëĭ Ī
Ġëª ¨
Ġì °
Ġë ²
ì ²
Ġë ¬
ê° Ħ
ìĹĲ ê²Į
Ġì ¹
Ġì ĸ´
í Ħ
± °
ìŀ ¥
ì§Ģ ë§Į
ëł ¤
ì ¡
ĠìĿ ¸
Ġë ĵ
Ġê µ
íĦ °
í Ļ
ì °
ë ¹
ì¹ ĺ
Ġë ĮĢ
ì§ Ħ
Ġí ĺ
ë§ Ī
Ġê² ĥ
ë ¶Ģ
íķĺ ê³ł
Ġ íķľ
Į Į
Ġë ¶
Ġëĭ ¤
íķĺ ëĬĶ
ĠìľĦ íķ´
í Ķ
ì Īĺ
ģ ¬
ìł ģ
ì £¼
Ġì ¡
í ĸ
ĠëĤ ĺ
ĠìĤ ´
Ġì Ļ
ìļ ´
ĠìĦ ¸
ĠìĿ ¼
ê³ Ħ
Ġí ı
Ġë ıĦ
Ġë§ Į
í ŀ
Ġë³ ´
Ġí ĥ
ë £
Ġí Ķ
ìŀ ĳ
Ġì Ĭ¤
Ġì ²
ĠìĤ¬ ëŀ
Ġê ¸°
ĠìŀĲ ìĭł
ë© ´
ë² Ħ
ì Ĩ
ĠìĨ Į
ë Ķ
ëĤ ´
Ġë į
ëħ Ģ
ìł Ħ
Ġìķ Į
ë¦ °
ë© °
Ġë ¯¸
ĠìĹ Ĩ
ì Ĭ
Ġë¬ ´
.. .
ĠëĲ ľëĭ¤
ëª ħ
ê ¸
ĳ Ĳ
í Ĥ
ĠìĹ ¬
ìĥ Ŀ
ìĽ Ĳ
ìĿ ¼
ìł ľ
ë¹ Ħ
ë ı
íŀ Ī
ëħ Ħ
Ġìł ķ
íĥ Ģ
ìł ķ
í ĭ
Ġë ¶Ģ
êµ Ń
¤ ĳ
ìļ °
Ġì ¶
± ´
Ġìĭľ ìŀĳ
ë¥ ´
Ġìł ľ
ëł ¥
Ġê³ ł
Ġë¹ Ħ
ìĺ ¤
ìĿ Į
íķĺ ê²Į
ĠëĤ ¨
Ġìĺ ¤
Ġí Ļ
ê ¹
Ġê³ µ
ë ¯¸
ëł Ī
ëĵ¤ ìĿĢ
í Ĺ
Ġê ±°
ëĤ ľ
ëĵ¤ ìĿĦ
ì ĸ
í ģ¬
í Ĩ
ìķ ¼
ëĵ¤ ìĿ´
ëĶ Ķ
Ġí ĮĮ
Ġì° ¾
Ġì Ī
Ġë° Ķ
Ġìľ ł
Ġí ĸ
ëĵ ł
Ġìĥ Ŀ
ê¹ Į
ê² ©
íĤ ¤
ê ·
Ġëı Ļ
ê »
íĸ ī
ë³ ´
íĻ Ķ
ë Ħ
Ġë° ľ
ľ êµ¬
Ġìĭ ł
ê ±°
Ġêµ ¬
ĠìŀĪ ëĬĶ
ëĲ ĺ
Ġì £
í İ
ëĬ Ĳ
Ġìļ °
Ľ Ħ
ìĦ ±
Ġì £¼
Ġìĥ ģ
ì Ĥ
Ġíķ ¨
Ġì¡ °
Ġê ´
âĢ ¦
ê» ĺ
ëĵ¤ ìĿĺ
Ġë Ķ
ë¬ ´
íĹ ĺ
ìķ Ī
ëª ¨
ì¡ ±
Ġë ĸ
ë¬ ¼
ĠìĤ¬ëŀ Į
ì ¶
ĠëĤ ł
ë£ ¨
ìĹ Ī
ê ±´
Ġ íķ´
ë¬ ¸
Ġë¶ Ī
ë¦¬ ê³ł
ëĿ¼ ëĬĶ
í ı
Ġê² °
Ġíķ¨ ê»ĺ
ìĭ ¤
ì ¦
íķĺ ê¸°
Ġì£ ½
ì² ´
Ġê·¸ ëħĢ
Ġë° Ľ
Ġí Ĩ
Ġì Ľ
íĭ °
ê ´
µ ľ
Ġì ¤ĳ
ìĦ ¸
ì ½
ëŀ ĺ
Ġì¹ ľêµ¬
ĠìĿ ĺ
Ġë ģ
Ġë ©
Ġë ¡
Ġìķ Ĭ
ĠëĲ ľ
Ġìĸ´ ëĬĲ
Ġìĺ ģ
Ġì µľ
Ġíķĺ ì§Ģë§Į
¸ Į
Ġì ĸ
ìĹ °
íķ Ļ
ìĹ ¬
Ġê·¸ ëŁ¬
ë ¨
Ġì§ ĳ
í ļ
ìĨ Į
Ġë ħ
ĠìĨ į
ĠíĶ ¼
íķ ł
ìłģ ìĿ¸
ì Ī
ê³ µ
ìĺ ¨
íĶ Ħ
ëĲ ľ
ì¹ ´
Ġëı Į
Ġë¶ Ħ
ë¥ ¸
Ġì ´
Ġë Ī
Ġë Ĭ
ë° Ģ
ìĭ ¬
ħ Į
Ġì°¾ ìķĦ
í ĮĮ
Ġ 1
Ġë ĳĲ
Ġê² ½
ĠìĹĨ ëĬĶ
ëĭ¤ ëĬĶ
ìĦ ł
ìĭ Ŀ
ë©´ ìĦľ
Ġëĵ ¤
ĠìĹ °
ĠìĹ Ĳ
Ġìĥ Ī
ëı Ļ
ì§ ģ
Ġê³ ¼
Ġê ¸
Ġí Ĺ
ë¦¬ ìĬ¤
Ġëĸ ł
Ġì Ĭ
Ġë¹ ł
Ī ¬
ëĭ ¹
íİ ¸
Ġì ±
íĶ ¼
ë ĳĲ
Ġí ŀ
ĠìŀĲìĭł ìĿĺ
ë¡ľ ìļ´
Ġë ¦
Ġê·¸ ìĿĺ
ëŀ Ģ
Ġë¡ ľ
į ¼
Ġí İ
ĠëĲĺ ëĬĶëį°
ì° ¨
ë¶Ģ íĦ°
Ġí Ŀ
ĠëĲĺ ê³ł
ëĭ ¨
Ġëª »
ëĬĶ ëĭ¤
ìŀ ¬
ìł ¸
ìĿ´ ëĭ¤
ìŀ Ħ
ë ¶
Ġë Ħ
Ġë Ĩ
ë§ Ŀ
Ġìĭ ¤
ì¦ Ī
Ġì¡ ´
íĨ ł
Ġê°Ģ ì¡±
ì¡ °
Ġí Į
ĠìĦ ľ
ĠìĦ¸ ê³Ħ
Ġìķ ħ
ë¦¬ ëĬĶ
íĺ ¸
Ġëį Ķ
ĠìĤ¬ ê±´
ĠíĶ Ħ
Ġëį °
Ġí ĽĦ
íķĺ ëĬĶëį°
Ġì ½
Ġí ģ¬
ê¹Į ì§Ģ
ĠìĦ ±
ĠìķĦ ìĿ´
ìĽ Į
» ¤
Ġíĸ ī
ķ Į
Ġë§ ŀ
ĠìĻ ķ
Ġìķ Ī
Ġê° ķ
ë ģ
ê² ¬
ĠëĤ ´
Ġëħ ¸
ì ħ
Ġëª¨ ëĵł
ĠìĤ´ ìķĦ
ĠìĿ¸ ê°Ħ
Ġíĺ ¸
ĠìĤ¬ëŀ ĳ
Ġë¦ ¬
ìĤ ´
Ġë§ Ĳ
Ġë ł
êµ °
Ġìŀ ¥
ëį Ķ
ĠìŀĪ ëĭ¤
Ġ íķľëĭ¤
Ġëª ©
Ġê ¹
Ġê° Ĳ
Ġì§ Ħ
Ġìļ Ķ
ì ¼
ëĤ ł
Ġê·¸ ë¦¬ê³ł
ì² ĺ
Ġë§ ¤
ê¸° ë¥¼
Ġë° ©
Ġë° ĺ
íı ¬
Ġë¹Ħ ë°Ģ
Ġëł Ī
ĠìĦ ł
ìľ ł
ìĨ į
í Į
Ł ģ
ìĸ ¸
Ġê³ Ħ
ì¶ ľ
Ġì² ĺ
íļ Į
Ġê·¸ ëĬĶ
ĠìĻ ¸
ë²Ħ ì§Ģ
ë ¸Į
ì Łģ
Ġ '
ëŁ °
Ī ìĿĦ
Ġëĭ ¨
í į¼
ëł ¹
Ġëĭ ¬
ê· ¸
ģ ´
ë¥ ĺ
ë¦ Ħ
ìļ ©
Ġì ¢
Ġì§Ģ êµ¬
Ġëĵ ľ
ĠëıĮ ìķĦ
ë² ķ
ëħ ¸
íĺ ¼
Ġê²ĥ ìĿĦ
Ġë§Į ëĤĺ
Ġìŀ ĳ
í Ī¬
ëĵ¤ ê³¼
ëĲ ľëĭ¤
Ġì º
Ġë° °
ìĬ ¨
ë¨ ¸
Ġë Ĵ
Ġìĺ Ī
Ġì¶ Ķ
Ġê·¸ëŁ¬ ëĤĺ
ìł Ģ
êµ Ĳ
ê´ Ģ
Ġë§Ī ìĿĦ
ĠìĦ¸ ìĥģ
Ġê ¿
Ġë Ŀ¼
Ġíı ī
ĠìķĮ ê²Į
ĠëĴ ¤
íĸ Ī
Ġìł Ģ
Ġìķ ŀ
Ġê´ Ģ
Ġíķ ł
Ġëĭ¤ ìĭľ
Ġë ķĮ
ìĽ Ģ
ìľ Ħ
Ġíĥ Ģ
Ġëª ħ
Ġíı ¬
Ġë°ľ ê²¬
Ġ 2
Ġìŀ ¬
ĠìķĦ ë²Ħì§Ģ
ë° Ķ
ë ĳ
ĠìĹ Ħ
ëĤ ľëĭ¤
ì§Ħ ëĭ¤
Ġíı Ń
ìĿĮ ìĿĦ
Ġì´ Ī
ë§ ī
ĠíĨ µ
ëĦ Ī
ì½ Ķ
ê³ ³
Ġëĭ ¹
Ġìł ģ
ìĬ¤ íĦ°
ĠìľĦ íĹĺ
ī ´
ì ³
ĺ ìĿĦ
Ġê² Į
Ġë² Į
ĠëĤ¨ ìŀĲ
ê° Ĳ
ê° ģ
ë§ ¨
Ġì¹ ´
ĠëĪ Ħ
ĠìĤ¬ ìĿ´
ë³ µ
Ġíĺ Ħ
Ġí ħĮ
Ġëĵ ±
Ġì¹ ĺ
Ġìļ ´
ĠëĤĺ íĥĢ
ĠìĥĪ ë¡ľìļ´
Ġë ¨
ê¸ Ī
¯ ¼
ìł Ī
Ġìĺ ¨
Ġë² Ħ
ì ¤ĳ
ëĬ ¥
ìĬ¤ ëĬĶ
Ĭ ¹
ë° ©
Ġíĥ Ī
ĠìĪ ¨
Ġì± Ħ
ê² °
Ġìŀ ł
Ġíĸ ¥
íķĺ ì§Ģë§Į
ìķ ħ
ì¹ ¨
Ġë¬ ¼
íĻ ľ
Ġíķľ íİ¸
ĠìĪ ľ
Ġì½ Ķ
Ġì ¤
Ġí Ĥ
ê² ¨
ìĦ ¤
ì³ Ĳ
ìļ Ķ
ë° ľ
« ĵ
ì§ ĳ
Ġì° ¨
¸ Ķ
ë¦¬ ë¥¼
Ġë§ ī
ìļ ķ
Ġê ±
ĠìĨ Ĳ
Ġêµ Ĳ
ĠìĤ´ ìĿ¸
ëłĪ ìĿ´
ì »¤
ê¸° ë¡ľ
Ġë³ µ
Ġë³ Ģ
ĠíĨ ł
í ĽĦ
ĠìĹ ´
Ġíķĺ ëĬĶ
ĠëĶ ¸
ĠìĽ Ĳ
ì ¸
Ġë ĺ
ìĹ ħ
Ġê° Ħ
Ġê° ľ
¨ ìĿĦ
ëªħ ìĿĺ
Ġëĭ¤ ë¥¸
Ġëĵ¤ ìĸ´
ë ¯¼
Ġë² Ķ
ì £
íķĺ ëįĺ
ìĬ µ
Ġê´ ´
Ġëģ Ŀ
ë¡ Ŀ
Ġìŀ ĥ
ëĮĢ íķľ
Ļ ìĿĢ
Ġìł Ĳ
ë² Ķ
ì¡ ´
ëł¥ ìĿĦ
Ġí Ĭ¹
ëĭ ¬
Ġê¿ Ī
ê ¾
Ġë ĳ
ì§Ģ ê³ł
Ġíĺ ķ
ìĹĪ ëĭ¤
Ġì «ĵ
ëŀ ĳ
ê¸ ´
ê°Ħ ëĭ¤
ë£ Į
ì ´
íĻ ©
Ġì ¦
Ġë ī´
ĠìłĦ ìŁģ
íķĺ ë©°
ì° ©
Ġê¹ ¨
Ŀ ½
Ġëª¨ ëĳĲ
Ġì¡´ ìŀ¬
ìŀ ħ
Ġìķ ł
ìł Ĳ
ê¸° ìĹĲ
Ġê³ ³
ì² Ń
ëł¤ ëĬĶ
ĠëĶ °
ìĭ¤ ìĿĦ
Ġí Ĵ
ì¹ ľ
Ģ ìĿ´
ĠìĤ¬ ëĿ¼
ìĺ ģ
Ġìĭľ ê°Ħ
Ġë² ł
ìĪ ł
Ġë £
Ġíķĺ ëĤĺ
Ġêµ °
Ġíĺ ¼
ë Ŀ½
ì ¢
Ġìŀ Ħ
ĠìľĦ íķľ
Ġìļ ©
ëĤ ¨
ìķ ½
ëĦ ¤
Ġê ±´
Ġì§ ģ
ë© Ķ
íĺ Ģ
íĺ ķ
ì° °
Ġëĺ Ĳ
í ħĮ
Ġìł Ī
Ġíķ Ļ
ë¶ Ħ
ê° ľ
í ħ
í Ĵ
ëĵ¤ ìĹĲê²Į
Ġìĭ ¬
Ġë³ ¸
íĺ ĳ
Ġìĭľìŀĳ íķľëĭ¤
Ġí ľ
ê² ½
Ġìŀ ħ
ĠìĿ´ ìĥģ
Ġê²ĥ ìĿ´
Ġì¶ ľ
í ģ´
ëĭ¤ ê°Ģ
Ġê·¸ ë¥¼
ìĬ¤ ë¥¼
ëģ ¼
¸ ìĿĦ
ì§Ģ ëĬĶ
Ġê°Ģ ìŀ¥
Ġìłķ ì²´
Ġìµľ ê³ł
ì£ Ħ
ë ĸ
Ġë ¸Į
Ġë° ¤
ĠìľĦ íĺĳ
Ġëĳ ĺ
ìĿ´ ìŀĲ
ìĬ¤ ìĿĺ
ĠìķĦ ëĤ´
Ġí Ĭ¸
ëĿ¼ ê³ł
ëŀ ľ
ĠìŀĪ ìĿĦ
ĠìĤ ¶
Ġê± ¸
Ġ 3
ĠìĿ Į
ìĸ´ ëĤĺ
íĥ ľ
ĠìĬ Ī
Ġìļ° ìĹ°
ì¢ ħ
ë¦ ´
ìħ ĺ
ë§ ¤
Ġì° ¸
ĠëĬ ¥
© ì¹ĺ
ì Ķ
Ġë ŀ
Ġí Ľ
ìĬ¤ íĬ¸
ĠëĲĺ ìĸ´
ĠìĨĮ ëħĢ
ê´ ´
íĮĮ ìĿ´
Ġëĸł ëĤĺ
ì ¤
ĠìĿ Ģ
ĠìĿ´ ìłľ
ëŁ ¼
ë² Ī
ìĤ °
ĠíĤ ¤
ĠìĹ Ń
Ġë° ķ
Ġìĭ ¸
Ġëª °
ë³ Ħ
ĠëĮĢ íķľ
ĠëıĦ ìĭľ
Ġë¯¸ êµŃ
Ġê³µ ê²©
íĨ µ
Ġìļ° ì£¼
Ġê³¼ ê±°
ĠìĦľ ë¡ľ
ë¡ ł
ĠìĿ¸ ë¥ĺ
ìĸ µ
ëĲĺ ê³ł
ĠíĥĪ ì¶ľ
íķĺ ì§Ģ
ìķ ł
ĠìŀĲìĭł ìĿ´
Ġì¶ ©
ëĤ ¸
Ġê° ĻìĿĢ
ĠíĻ ĺ
ìĿ´ ëĬĶ
ë° Ľ
Ġì² «
ë¦° ëĭ¤
Ġê±° ëĮĢíķľ
ĠíĹ ¤
Ġì ¼
ìĹĲ ëĬĶ
ëĿ¼ ìĿ´
Ġë§Ī ì§Ģ
ë³ ĳ
ëı Į
Ġìĥģ íĻ©
ë¨¸ ëĭĪ
ì§ Ī
ë¦ Ń
Ġìŀ ¡
ĠëĬ Ĳ
0 0
Ġë ¯
ëĭ Į
ìĦ Ŀ
ì¹ĺ ëĬĶ
Ġíĥ ľ
Ġì¡° ì§ģ
íĸĪ ëįĺ
ĠìĿ´ ìķ¼
ìĹĪ ëįĺ
Ġê²° êµŃ
Ġë§ŀ ìĦľ
Ġë£ ¨
Ġìļ°ìĹ° íŀĪ
ĠìĤ¬ ê³ł
Ġê²° íĺ¼
Ġê·¸ëŁ¬ ëįĺ
ĠëĪ Ī
Ġê·¸ ê³³
ë° ĺ
ìĺ Ģ
ĠìŀĪ ëįĺ
Ġë³´ ëĤ´
Ġê·¸ëħĢ ìĿĺ
Ġë³µ ìĪĺ
Ġ 4
ìĹ ĺ
ë§ Ĳ
ìļ ¸
ĠìĻ Ħ
Ġìłľ ìĿ´
ĠëĤ ©ì¹ĺ
íļ į
Ġëī´ ìļķ
Ġë§Īì§Ģ ë§ī
¿ Ĳ
íķĺ ìĹ¬
ë¦ ¼
ê°Ģ ëĬĶ
ĠìĿ¸ íķ´
ĠíĻ Ķ
Ġê²½ ì°°
ì¼ ľ
ĠìĹĦ ë§Ī
ë ĥ
Ĭ ìĿĢ
Ġì ĵ
Ġë ľ
ĠìĤ¬ ìĭ¤ìĿĦ
Ġë§Į ëĵ¤
Ġë© Ķ
Ġì´ Ŀ
Ġë¯ ¿
ĠìĹ ĺ
Ġê°Ģ ì§Ħ
ĠìĤ °
Ġë² Ī
Ġìĭľìŀĳ ëĲľëĭ¤
ĠìĿĺ íķ´
í ĳ
ëĵ ±
ìŀ Ī
ë° °
Ġë§Ī ë²ķ
ë ´
ëł ī
ìĸ ĳ
ĠìŀĦ ë¬´
Ġì »¤
Ġí ĭ
íĥ Ħ
Ġìĸ ¼
Ġë Ł
Ġìķ Ķ
ë¦¬ ìĿĺ
ëł ¨
ëĮĢ ë¡ľ
Ġë¹ Į
ëĵľ ëĬĶ
ì² ľ
Ġí ĮĢ
ìĹ Ĩ
ëŁ ½
ìĺ Ī
Ġë¬ ¸
ĠìĤ´ ê³ł
ê¸ ī
Ġíİ ĺ
ĠëĦ ĺ
Ġíģ¬ ë¦¬ìĬ¤
Ġìķ ¼
Ġë§ ¥
Ġì§Ģ íĤ¤
Ġíŀ ĺ
ì²ĺ ëŁ¼
Ġì¢ ħ
Ġê·¸ ëŁ°
ìĬ¤ ë¡ľ
Ġë§Ī ì¹¨
Ġëª¨ íĹĺ
ĠìĨĮ ëħĦ
ĠíĻ ©
Ġëĸ ¨
ĠíĮ ¨
Ġê³Ħ íļį
ë Ī
Ġí Ħ
Ġí ļ
ìĹ Ń
ë¡ Ń
ë¡ľ ë¶ĢíĦ°
Ġê·¸ ëĵ¤ìĿĢ
Ġê¸° ìĸµ
Ġê·¸ëħĢ ëĬĶ
ĠíĿ ¬
· ¨
ì ±
ë¦ ½
ë¦¬ ìķĦ
ë² ł
ĠìĹ¬ ìŀĲ
ìĺ¨ ëĭ¤
Ġëª© ìĪ
Ġìº Ĳ
Ġìļ´ ëªħ
ĠìĪľ ê°Ħ
ì¸ ł
Ġë²Ķ ì£Ħ
ë ¸Ķ
Ġí ģ´
ìĿ´ ëĿ¼ëĬĶ
ìķ ĺ
âĢĻ (
Ġìĸ´ ëĸ
ë¥´ ëĬĶ
Ġê³µ íı¬
Ġì£½ ìĿĮ
ìĦ¸ ê³Ħ
Ġíıī íĻĶ
ĠëĤĺíĥĢ ëĤĺ
Ġìµľê³ł ìĿĺ
ìĸ´ ì§Ħ
Ġëı ħ
ĠìĤ´ íķ´
ĠëıĦ ìĽĢ
Ġì² Ń
ìłĦ ìĿĦ
Ġíŀ Ī
ĠëĨ ĵ
ĠëķĮ ë¬¸
Ġê²Į ìŀĦ
ĠìłĲ ìłĲ
¶ Į
ë¦¬ ê°Ģ
ìĤ¬ ë¥¼
íĤ ¨
Ġëª» íķľ
ìľ¼ ë©°
íĥ Ŀ
Ġëª¨ ìĬµ
ìŀ¥ ìĿĦ
íĶ Į
Ġì² ľ
ë¨ ¼
ĠìĦ± ê³µ
Ġì¤ Ģ
¿ ł
íķ ©
Ġìŀ Ń
ĠìĿ´ ëģ
Ġìĺ ¬
ìĺ ¥
Ġíķĺ ê³ł
Ġë³ ĳ
ĠìĹĨ ìĿ´
ĠìĥĿ ì¡´
ëĭ ĺ
ê° ķ
Ġê° ĳ
ë° ķ
Ġì¹ ¨
ĠìĨį ìĹĲìĦľ
ĠíĶĦ ë¡ľ
İ ìĿĢ
ëĭ ´
ìĬ¤ ê°Ģ
ĠìķĦ ëĵ¤
Ġë§Ī ì£¼
Ġë¯¸ ëŀĺ
ìłķ ìĿĦ
Ġìľł ìĿ¼
ĠìĥĿ íĻľ
Ġìĸ »
ë¶ Ī
ê¾ ¸
Ġìķ ½
Ġê·¸ ê°Ģ
Ġê° ĸ
ìĿ¸ ìĿĺ
ĠìłĦ ìĦ¤
Ġêµ Ń
Ġìĭľìŀĳ íķĺëĬĶëį°
Ġë°Ķ ë¡ľ
Ġíİ ¼
ĠíħĮ ëŁ¬
íķĺ ë©´ìĦľ
ìĸ´ ë¡ľ
ëª ©
ìĥģ ìĿĦ
ìĬ ¹
ëı ħ
Ġêµ¬ íķĺê¸°
ëĲĺ ìĸ´
Ġìĺģ íĻĶ
ìŀ ¡
Ġê· Ģ
Ġìľ Į
ìĸ´ ëĤľ
Ġë§Ī ìĿ´
ë¹ ł
Ġíŀ ĺìĿĦ
Ġëį° ìĿ´
ìĭľ íĤ¤
Ġíķĺ ëĬĶëį°
ëĮĢ ìĿĺ
ĠìĬĪ íį¼
Ġê·¸ ëĵ¤ìĿĺ
Ġê° ģ
ëł Į
Ġë° Ŀ
Ġìĭ ¶
ìľ¼ë¡ľ ë¶ĢíĦ°
Ġëĵ £
ë¹ Ī
ìłģ ìľ¼ë¡ľ
íŀ Į
ĠìŀĲìĭł ìĿĦ
Ġê³¼ ìĹ°
Ġë§Īì¹¨ ëĤ´
ë² ½
Ġë§Ī ìĿĮ
Ġìĸ´ ë¦°
Ġíĥ Ĳ
ë²Ħ ë¦°
ĠìĥĿ ê°ģ
ĠëĨ Ģ
Ġê°ķ ëł¥
ĠëĿ¼ ìĿ´
Ġíļ Į
ìĬ¤ ìĻĢ
ìŀĲ ê°Ģ
íĸī ìĿĦ
íİ ĺ
ĠìļĶ ìĽĲ
íĮ ¨
ĠìĦ¸ìĥģ ìĿĦ
ë ľ
Ġí ģ
Ġí Ī¬
ê² ł
Ġìŀ Ķ
ìĤ¬ ìĿĺ
ĠëłĪ ìĿ´
ëĵ Ŀ
ê² ĥ
Ġê° Ī
ĠìľĦ ê¸°ìĹĲ
ĠìķĦ ëĭĪ
âĢĻ .
íĥ Ī
ì° į
ìĬ ¬
ë³´ ëĭ¤
ĠìĤ¬ëŀĮ ìĿĢ
Ġê·¸ëħĢ ë¥¼
Ġê¸ Ī
Ġë§ĮëĤĺ ê²Į
Ġì¤ Ħ
Ġëª©ìĪ ¨ìĿĦ
ë¬¸ ìĿĺ
Ġíĸī ë³µ
ë Ĩ
ìŀĲ ë¥¼
ìĽ Ķ
Ġê²ĥ ìĿ´ëĭ¤
ĠëıĦ ì°©
Ġë§Į ëĭ¤
ĠìķĬ ëĬĶ
ĠìĻķ êµŃ
íĮ Ĳ
Ġìķŀ ìĹĲ
ĠíĨµ íķ´
ì ĩ
ìĿ´ ê³ł
ìĹĲ ëıĦ
ì§ ¸
Ġê· ¹
ìĿ¸ ìĿĦ
ĠìĿ´ íĽĦ
ëĤĺ ëĬĶ
ĠëıĻ ë£Į
Ġë¹ł ìł¸
ĠëĦ ¤
Ġë¨ ¸
ë´ ĩ
Ġë ¸Ķ
ê° Ī
Ġìĭ Ŀ
ĠëĤ¨ íİ¸
ê· ¼
ĠëĶ Ķ
íħ Ķ
ëĭ¤ ê³ł
ìĿ¸ ëĭ¤
ĠìĦ ¬
Ġíķ ©
ëĭĪ ëĬĶ
ê¸ ¸
ĠìĬ ¹
Ġì¦ Ĳ
Ġìĵ °
ìĿ¸ ìĿ´
ĠìĿ´ ëĵ¤ìĿĢ
ĠìĦ ¤
ê³¼ ìĿĺ
ĠëıĻ ìķĪ
ìĭĿ ìĿĦ
Ġíĸī ìĦ±
ĠìĤ´ìķĦ ëĤ¨
ĠìĻ¸ ê³Ħ
ĠìĹĦ ì²Ń
ĠìŀĪìĿĦ ê¹Į
ĠëĬ¥ ëł¥ìĿĦ
Ģ ë¡ľ
ì§Ģ ë¥¼
ĠëĤ ľ
ĠìĿ´ ë¥¼
Ġëª ¸
ìĤ¬ ëĬĶ
íĺ ¹
ĠíĮĮ ê´´
Ġì± ħ
Ġìķħ ëĭ¹
ĠìĤ¶ ìĿĦ
ĠíĦ °
ĠëķĮë¬¸ ìĹĲ
Ġíģ °
íķ Ń
Ġí ĳ
Ġìł ĳ
ê¸° ëĬĶ
ĠìĿ´ ë¦Ħ
ë² ¤
ìĭľ ìķĦ
ë³ ¸
ĠëĲĺ ëĬĶ
Ġë°ľ ìĥĿ
íķĻ êµĲ
ĠìĤ¬ê±´ ìĿĦ
ĠëĶ° ëĿ¼
ëĥ ¥
ë¦¬ ìĹĲ
Ġê·¸ ìĹĲê²Į
ìŀĲ ë¡ľ
ìŀĲ ê¸°
ĠìķĦ ë¹ł
íĸ ¥
íĭ ´
Ġë¹Ħë°Ģ ìĿĦ
ĠíķĻ êµĲ
Ġ C
Ľ °
íķĺ ëł¤
ìĿ¸ ê°Ģ
ê¸ Ģ
ë¬¼ ìĿĦ
ĠìĹĦì²Ń ëĤľ
íķ ¨
Ġìł ĬìĿĢ
ê¸° ê°Ģ
Ġë° ±
ĠëĲ ł
Ġê² ª
ìĥ ī
Ġë°Ľ ìķĦ
ĠìĿĮ ëª¨
Ġë ±
Ġìķ ¤
ìĬ¤ íĥĢ
íķ´ ìķ¼
Ġê³ §
ìĻ ķ
Ġíķĺ ë£¨
ĠìŀĪ ëĭ¤ëĬĶ
íĬ¸ ëĬĶ
ĠìĻ Ģ
ìĺ¤ ëĬĶ
ì¦ Ŀ
ĠëĪĦ êµ¬
ĠìľłìĿ¼ íķľ
Ķ ì°į
ìĹ Ķ
íķĺ ëł¤ëĬĶ
ìĬ¤ ëŁ¬
Ġìĸ´ ë¨¸ëĭĪ
íĭ Ģ
Ġìłľ ìķĪ
ĠíĮĮ íĭ°
ê· ¹
ëĲĺ ëĬĶ
ĠëıĮìķĦ ê°Ģ
Ġë²Į ìĸ´
ĠìĪ¨ ê²¨
Ġê´´ ë¬¼
Ġê°ĳ ìŀĲê¸°
í Ĭ
Ġ 5
Ġ 6
ìĿ´ ëĿ¼
Ġê² Ģ
ë³ Ģ
Ġë² Ĺ
íĦ ´
Ġê¸° ëĭ¤
Ġê³µ ì£¼
ê²© ìĿĦ
Ġìĸ ¸
ĠìĨį ìĹĲ
Ġë°© ë²ķ
Ġê´Ģ ê³Ħ
Ġë Ľ°
íķ Ħ
ì§ ľ
ĠìĿ´ ìĹĲ
íĥ ģ
Ġíķ Ħ
Ġë§Į ëĤľ
Ġë¶Ģ ëª¨
ĠìĪ ²
Ġë°Ķ ëĭ¤
Ġê´ ĳ
Ġëģ Į
ëĳ ł
ĠíĴ Ģ
ĠíĽ Ķ
Ġì¼ ĢìĿ´
1 9
ê³ ¤
ë¦¬ ê²Į
ë¦¬ ìĻĢ
Ġëĭ ´
Ġê°Ģ ê¹Į
ĠìŀĪ ìĹĪëĭ¤
ëĭĪ ëĭ¤
Ġíĥ Ħ
Ġëģ Ķì°į
Ġìŀĳ ìłĦ
Ġë¨ ¹
ê¾ ¼
Ġíĺ¼ ëŀĢ
Ġí į¼
êµ ´
Ġì§Ģ ì¼ľ
ëĮĢ ë¥¼
ĠìķĮ ê³ł
Ġìĭł ë¹Ħ
Ġì£¼ ìĿ¸
Ġê²° ìĭ¬
Ġê¸ ī
Ġê³Ħ ìĨį
ĠìľĦíĹĺ ìĹĲ
ĠíĬ¹ ë³Ħ
ì¤ Ģ
í ģ
í Ŀ
Ġë§ ¡
Ġê·¸ ëĵ¤ìĿĦ
ìŀĲ ìĿ¸
ì¹ ľêµ¬
ë² Į
Ġë§Ī ìķ½
ĠìłĦ íĪ¬
Ġì¹ ¼
Ġìĸ´ ëĳł
ĠìĿ¸ ìĥĿ
ĠìĬ¤ íĥĢ
ëĶĶ ëĬĶ
ì¶ Ķ
ĠíĹ Ī
ĠíĥĢ ê³ł
Ġê·¸ê³³ ìĹĲìĦľ
¶ ģ
ë ķĮ
Ġ M
ì§Ģ ê²Į
íķ´ ìĦľ
ĠìĤ¬ ëĬĶ
ĠìĿ´ ìĸ´
ìŀĲ ìĿĺ
ìĽ ħ
ĠìĤ ¼
ĠëĤĺ ìĦł
ëªħ ìĿĦ
Ġë°Ľ ëĬĶëĭ¤
Ġê°Ģì¡± ìĿĦ
Ġëĵľ ëŁ¬
íĴ Ī
Ġì¤Ģ ë¹Ħ
ĩ ´
Ġê ¼
íķĺ ìŀĲ
Ġëª ¬
ìĻ Ķ
ìĺ ¬
ëĵľ ìĿĺ
ì° ¾
Ġëĭ¤ ê°Ģ
ĠìĹĨ ëĭ¤
Ġìłķ ìĭł
Ġìĸ´ëĬĲ ëĤł
íķĻ ìĥĿ
Ġì¶Ķ ìłģ
ĠëģĿ ìĹĲ
Ġíĭ °
ì »
Ġë ¿Ĳ
Ġì§Ģ íķĺ
ëĵľ ë¥¼
íĬ¸ ë¥¼
ĠëĲĺ ì°¾
ìļ´ ëį°
Ġìłķ ë¶Ģ
ĠìľĦíĹĺ íķľ
Ġì¦ Ŀ
ĠìĿ´ìĥģ íķľ
ĠëĬĲ ëģ¼
ĠëŁ ¬
Ġë§ İìĿĢ
Ġë° ĸ
ìļ ±
ĠìķĦ ë¦Ħ
Ġì§Ģ ëĭĮ
Ġì° °
ì° ¸
ĠëĮĢ ê²°
ĠìĬ¤ íĮĮìĿ´
ĠíĻ ľ
ĠìĿĺ ë¬¸ìĿĺ
ĠíĶ¼ íĦ°
Ġ1 0
Ġëĸł ëĤľëĭ¤
Ġë¡ľ ë´ĩ
ìŀĦ ìĿĦ
Ġì¢ ĭ
ëĤ¸ ëĭ¤
ëĪ Ħ
ĠëģĶì°į íķľ
Ġì§ Ī
ĠëĤĺ ìĦľ
ëĶ ĺ
Ġë¹Ħ íĸī
Ġë°Ľ ê³ł
ì½ ľ
Ġê¸ ¸
ĠëĦ Ī
ĠëįĶ ìļ±
Ġì²ĺ ìĿĮ
Ġì§Ģêµ¬ ë¥¼
ë²Ķ íķľ
ĠìłĪ ëĮĢ
ĠìŀĦë¬´ ë¥¼
Ġìĸ´ëĸ ¤
Ġê°ķëł¥ íķľ
ê°Ģ ê³ł
ëŀ Į
Ġëĭ Ī
ìĻĢ ìĿĺ
ìĪĺ ë¡Ŀ
Ġíı Ĳ
ĠëıĦ ë§Ŀ
ĠíĶ Į
Ġì¶ ķ
ĠìķĬ ìĿĢ
Ġì§ĳ ìľ¼ë¡ľ
ĠìĤ¬ê±´ ìĿ´
Ġëĵ± ìŀ¥
ì´ Ī
ĠìĿ´ìķ¼ ê¸°
Ġì§ĢíĤ¤ ê¸°
Ġëĸ¨ ìĸ´
ī ¬
Ġìķ ¨
ìĭ ¸
Ġê· ¼
Ġê·¸ ëĵ¤
ĠìĤ¬ ëĥ¥
ĠìĿ´ ë¯¸
ì¹ ¸
ì¹ ł
ĠìŀĲ ìľł
Ġê²ĥ ìĿĢ
Ġë³´ íĺ¸
Ġì°¾ ê¸°
ê· Ģ
ĠìĬ µ
Ġë³µìĪĺ ë¥¼
ĠìĻĦ ë²½
ĠíŀĪ ìĸ´ë¡ľ
Ġë± Ģ
ì º
Ġê ¾
ê¸° ê³ł
Ġë° Ģ
ìĥ Ī
Ġíķĺ ê²Į
ëª ¬
ì¡ Į
ëı Ī
Ġìĺģ ìĽħ
Ġë¹ł ì§Ħëĭ¤
ĠíĮ Ĳ
ĠíĮ Ķ
ĠìĤ¬ëŀĳ ìĹĲ
ĠìĤ¬ëŀĳ íķĺëĬĶ
ëł¹ ìĿĦ
ëĳ Ķ
Ġíĸ¥ íķľëĭ¤
ìŀĪ ëĬĶ
ìĹĨ ìĿ´
Ġê·¸ëŁ° ëį°
Ġíİ¼ ì³Ĳ
ì ĵ
ķ ħ
Ġì ĩ
ê³ ¨
Ġìŀ ĺ
ìķ Į
ë¦¬ ì¹´
Ġê° ĩ
ìĦľ ëĬĶ
ìĻ ¸
Ġë¹ ¼
Ġì¹ ľ
Ġë¯¸ ìĬ¤íĦ°
ìłľ ìĿ´
ĠìĽ Ķ
Ġë¶Ħ ëħ¸
ìĭ¬ ìĿĦ
Ġë¹ł ì§Ħ
ì¼ Ģ
ìĶ ¨
Ġë±Ģ íĮĮìĿ´
Ġ 7
ëĭ «
ëĤ ¬
ëŁ ī
ë° ±
ë§Ī ìłĢ
ĠìķĮ ìķĦ
ĠíĻ ķ
ĠëıĻ ìĥĿ
Ġë°Ľ ìĿĢ
Ġë°Ľ ê²Į
ĠìķĬ ê³ł
Ġìĺģ êµŃ
Ġëĵ¤ìĸ´ ê°Ģ
Ġê¿Ī ê¾¸
Ġíľ ´
ìĶ ©
ĠíĽ Ī
íĳ ľ
Ġë°Ŀ íĺĢ
ĠíĬ¹ë³Ħ íķľ
) ,
Ġì ·¨
ìĹ ´
ëĭ ī
ë¦ ¿
ìĭ ±
ìĦľ ë¥¼
ĠìķĦ ë¬´
ë² ¨
Ġë§Ī ìĿĮìĿĦ
Ġê°Ģ ëĵĿ
ìĤ¬ ê°Ģ
íĺ Ħ
ĠìłĦ ìĦ¸ê³Ħ
íĬ¸ ìĿĺ
ëĵł ëĭ¤
íĻĶ ë¥¼
Ġì£½ ìĿĢ
ĠíĶ¼ íķ´
ë¥¸ ëĭ¤
ĠìłĢ ì£¼
Ġìŀł ìĭľ
Ġìŀĥ ìĿĢ
ë¡Ń ê²Į
ĠíĿ¬ ë§Ŀ
ĠëıĦìĽĢ ìĿĦ
ĠìĿ´ëģ Į
ê ¶Į
ë ¿Ĳ
ì ¿ł
Ļ ìĿ´
Ġì ħ
ìĦ ¼
ĠìĿ´ ìļ©
Ġë³ Ħ
ìŀ¥ ìĿ´
Ġì² ´
ìļ° ëĬĶ
íĨ ¤
Ġìĥģ ìĥģ
Ġì§ĳ ìĹĲ
ĠìĬ ¬
ĠëıĮìķĦ ìĺ¨
Ġê¿ ĪìĿĦ
ĠíĬ¹ ìĪĺ
ĠíĴ Ī
Ġìłķì²´ ë¥¼
ĠìĹŃ ìĭľ
Ġì¶© ê²©
ìĺĢ ëįĺ
Ġëª¨íĹĺ ìĿĦ
ìĬ¤ëŁ¬ ìļ´
ì ģ
Ġì§Ģ ê¸Ī
Ġì° ©
ìŀ¥ ìĹĲìĦľ
ë¥´ ê³ł
ĠëıĻ ë¬¼
Ġêµ¬ íķ´
ì¶ ĺ
íı ī
Ġëģ Ĭ
Ġì§ĳ ìĿĦ
Ġëĸł ëĤľ
Ġíİ ¸
Ġëª© ê²©
Ġëªħ ìĿĺ
ì´ Į
! !
ª ½
ëĭ¤ ìļ´
ê°Ģ ëįĺ
ĠëĤ ¯
ëŀ Ń
ë§Į ìĿ´
Ġê°Ģ ìļ´ëį°
ĠìŀĪ ìĹĪ
ëĮĢ ìĹĲ
Ġëı Ī
ëĭĪ ìķĦ
Ġíı ´
ĠìĽ Į
Ġìĺģ íĺ¼
íķĻ ìŀĲ
ĠìĤ¬ëŀĳ ìĿĦ
Ġ2 0
ê°Ĳ ìĿĦ
ëĬ¥ íķľ
ìķħ íķľ
ĠìłľìĿ´ ìĬ¨
Ġëľ »
ĠìĹĺ ë¦¬
Ġíģ¬ë¦¬ìĬ¤ ë§Ī
ĠëıĦì°© íķľ
Ġëª¬ ìĬ¤íĦ°
Ġë±ĢíĮĮìĿ´ ìĸ´
ì ·¨
í ľ
Ġ F
Ġì »
Ġë ´
ìĦ ¯
ìĿ¸ ìĿĢ
ìľ Ī
ĠìĤ¬ ìĥģ
ëĿ¼ ìĿĺ
ìĥ ¤
Ġëĭ ¥
ëıĦ ë¥¼
Ġê²ĥ ìĿ¸ê°Ģ
ìĪĺ ë¥¼
ĠìĿ¼ íĸī
ìĨ ¡
ĠìķĮ ëł¤
ìłľ ë¥¼
ìłķ íķľ
Ġìłľ ê±°
Ġíķ´ ê²°
Ġë© Ģ
Ġê²½ íĹĺ
ĠìĤ´ìĿ¸ ë§Ī
Ġìĭľê°Ħ ìĿĦ
íĴ į
ĠìŀĶ ìĿ¸
¨ ë¦¬
í Ĥ¬
ëĬ ĺ
ì§Ģ ìĿĺ
ë¦¬ íķľ
ëł ĩ
ĠìĿ´ ê³³
Ġê² ©
ëħ Ĳ
ìĭľ ëĬĶ
ëıĦ ë¡ľ
Ġíķ Ń
ì° ½
ìĺ¤ ê³ł
íģ¬ ëĬĶ
ĠìĹ° êµ¬
ĠíĶĦ ëłĪ
Ġëĭ¬ ë¦¬
ĠìĥĿíĻľ ìĿĦ
Ġê¾ ¸
¨ ìĿ´
ı ĺ
Ġë ķħ
Ġê ¶Į
ìĹ Ħ
âĢ Ŀ
ìŀĲ ëĬĶ
ì¹ ľëĭ¤
Ġìĺ Ľ
ìĭľ ê°Ħ
Ġìĭľ ìłĪ
Ġë¹ Ī
íĬ¸ ë¡ľ
ëł¤ ê³ł
Ġëĵ ¯
ĠëĮĢ ìĭł
Ġëĭ¤ ìĿ´
Ġë³´ ê³ł
ìĬ Ī
ìĽĲ ìĿĦ
ê´ ĳ
ĠìķĬ ëĬĶëĭ¤
ĠëĳĲ ëł¤
ĠëĨ į
ĠìĦ¸ê³Ħ ë¥¼
ĠìĦł íĥĿ
ĠíĺĦ ìĭ¤
ĠìĨĲ ìĹĲ
Ġê¹¨ ëĭ«
ĠëĬ¥ ëł¥
ì± ħ
Ġëª¨ìĬµ ìĿĦ
Ġìĩ ¼
í ĮĢ
ìł ĳ
ĠìĿ´ ë£¨
ëŀ Ļ
ëª ½
Ġì§Ģ ëĤĺ
íĥ ķ
ĠìłĦ ìĹĲ
ëĭĪ ìĬ¤
ì¹ĺ ê³ł
ĠìĿ¼ ìĿ´
Ġê¸° íļĮ
ĠìĹ¬ ìĦ±
ìłķ ìĹĲ
Ġìľł ëł¹
Ġì£ Ħ
Ġì£½ ìĿĮìĿĦ
Ġì¹ľêµ¬ ëĵ¤ìĿĢ
ĠíĿ Ķ
Ġëį° ëł¤
Ġë§Ĳ ìĿĦ
ĠìļĶ ìłķ
ìķħ ìĿĺ
ê¸´ ëĭ¤
Ġíľ ĺ
Ġë§Įëĵ¤ ìĸ´
Ġê³Ħíļį ìĿĦ
ĠëĤĺìĦł ëĭ¤
ĠëĦĪ ë¬´
Ġ L
Ġì ¿ł
ëĭ ¥
ê³ ¡
ìĿ´ ì§Ģ
ë¡ ¤
ìł ¤
ëį ¸
ĠìľĦ ê¸°ë¥¼
ĠìķĦ ëĭĮ
ìĹĲìĦľ ëĬĶ
ĠìłĦ ë¬¸
Ġë² ķ
ĠìĹ¬ íĸīìĿĦ
ìĽĲ ìĿ´
ë¥´ ê²Į
ĠëĤ¨ ìĿĢ
ĠìĤ¬ëŀĮ ëĵ¤ìĿĢ
ĠìĤ¬ëŀĮ ëĵ¤ìĿ´
Ġë© ¸
Ġìķħ ë§Ī
Ġë§ŀ ìĿ´
ĠìĿ¸ê°Ħ ìĿĺ
ĠìĺĪ ìĥģ
Ġíıī ë²Ķíķľ
ìĽĢ ìĿĦ
ì¤ Ħ
ĠëĬĲ ëĤ
ĠìĿ´ìķ¼ ê¸°ë¥¼
ìĩ Ħ
ĠìķĦë¦Ħ ëĭ¤ìļ´
) .
ê ¿
ì ª½
Ħ ëĬĶ
ìĹ ĩ
ìĿ´ ë¥¼
Ġê·¸ ê²ĥ
ê¸° ìĿĺ
ëĿ¼ ìļ´
ë© ¸
ĠìŀĪ ìĿĮìĿĦ
âĢĻ ,
ĠìĪĺ ìĤ¬
ë³ ¼
ìŀ¥ ìĹĲ
ĠìĿ¼ ìľ¼
Ġë³´ ìķĪ
ë£ ¡
ëĤ´ ëĬĶ
Ġë¯¸ ìħ
ìķ¼ ë§Į
ë¬¸ ìĿĦ
Ġë¶Ī ëŁ¬
ĠìĹĲ ìĿ´
Ġíģ¬ ë¦¬
Ġì§Ģêµ¬ ìĹĲ
Ġìŀĳ ìĿĢ
Ġë¨ ¼
Ġíľ ©
Ġì¶ľ ìĭł
Ġê³µê²© ìĿĦ
ĠìĤ´ìķĦëĤ¨ ìĿĢ
Ġìĸ´ëĳł ìĿĺ
ĠëĤ¯ ìĦł
B I
Ġì Į
Ġê ¶ģ
íķĺ ëĭ¤
ë¡ Ģ
ê° Ŀ
Ġìķ ¡
ì§Ģ ëĬĶëį°
ëł Ĳ
Ġìľ ¡
ìĸ´ ëĤľëĭ¤
ìķĦ ëĤĺ
ëŀ µ
Ġëĭ ī
ëıĦ ë¡Ŀ
Ġëı ĪìĿĦ
ĠìĿ¸ íĺķ
ë¹ Į
ë§Ī ëĭ¤
ê³Ħ ë¥¼
ĠìķĮ ëłī
ë¹Ħ ìķĦ
Ġìłķ ë³´
Ġìµľ ê°ķ
Ġìµľ ìķħìĿĺ
ë¨ ¹
Ġëħ Ħ
Ġê°Ĳ ìĺ¥
Ġì§Ħ ì§ľ
ëĳ ¥
Ġë§ī ê¸°
Ġë³Ģ íķ´
ĠìĤ¬ëĿ¼ ì§Ħ
Ġìļ© ìĿĺ
Ġìļ°ì£¼ ìĦł
Ġëľ ¨
Ġíĳ ľ
Ġë²Ĺ ìĸ´ëĤĺ
ë§ ģ
Ġê·¸ ë¦¬
Ġê·¸ ëłĪìĿ´
ìĬ¤ íĭ°
íķ´ ì§Ħ
ĠìĤ¬ ìĭ¤
ëĿ¼ ë¥¼
Ġë§Ī ëħĢ
Ġì§Ģ ë°°
ĠìĪĺ íĸī
Ġìļ ¸
íĬ¸ ëĦĪ
Ġë² ¨
ìĪĺ ë¡ľ
Ġë§Į ëĤľëĭ¤
Ġì² ł
ìłĦ íŀĪ
Ġë¶Ģ ë¶Ģ
Ġë¶Ģ íĻľ
Ġë¶Ģ íĥģ
íĹ Ī
íģ¬ ë¦¬ìĬ¤
ì²´ ë¥¼
Ġìĸ ĳ
Ġì½ ľ
Ġë¦¬ ëįĶ
Ġë§¤ ìĿ¼
Ġì¢ Ģ
Ġìº ł
ĠìķĦë²Ħì§Ģ ìĿĺ
Ġì´Ī ëĮĢ
ë©Ķ ìĿ´
ìĹĨ ëĬĶ
ìķĺ ëįĺ
Ġë§ĪìĿ´ íģ´
Ġê¼ ¬
ĠìĬµ ê²©
ĠF BI
Ġ D
Ġë Ń
Ġí Ģ
ìĿ´ ë©°
ë¡ ¯
ëĤ ¼
ë¦¬ ê¸°
Ġê·¸ ë¦°
ìĿ¸ ê³¼
ĠìĿ´ ì§ĳ
ìĭľ ìĹĲ
Ġë³ ¼
ĠâĢ ľ
ĠìłĦ ìĤ¬
ĠëĮĢ íķ´
ì£¼ ëĬĶ
ĠìĿ¼ ìĿĦ
ĠìĿ¼ ìĸ´ëĤĺ
Ġë¬´ ìĤ¬
ĠìĹ¬ íĸī
Ġê³ł íĸ¥
Ġê±° ëĮĢ
ĠìĥĿ ëªħ
ĠìĤ¬ëŀĮ ëĵ¤ìĿĦ
Ġê¸ ´
ëĭ¹ íķľ
ëĭ¨ ìĿĺ
Ġìĭ¤ ì¢ħ
ĠíĶĦ ëŀŃ
Ġíĸī ëıĻ
Ġë°ľê²¬ íķľëĭ¤
Ġë°ľê²¬ íķĺê³ł
Ġê°ľ ë°ľ
Ġíĺķ ìłľ
Ġëŀ Į
ĠëŁ °
ĠìķĶ ìĤ´
ì± Ħ
Ġíĸīë³µ íķľ
ĠëĽ° ìĸ´
ê ±
ķ ìĭľ
Ġí ħ
ìķ Ĺ
Ġë§ Ŀ
ĠìĹ Ķ
ĠìĤ¬ íĪ¬
ĠìĿ´ ìľł
Ġëª ĩ
ë§Į ìĿĦ
ë§Į ìĿĺ
Ġìļ ķ
íĬ¸ ë§¨
ìŀ¥ íķľ
ì¹ĺ ê²Į
ĠìĿ¼ ëĭ¹
ĠíĻ Ģë¡ľ
ĠíĮĮ íĬ¸ëĦĪ
ìĤ ¼
Ġë¡ Ŀ
ĠëĬ ĺ
ĠìĹĲ ëĵľ
Ġê¸ ¸ìĿĦ
Ġìĭ¤ íĹĺ
ì¡° ì°¨
Ġíĺķ ìĤ¬
ê°ľ ìĿĺ
Ġëĳĺ ìĿĢ
ë¶Ī ëªħìĿĺ
ĠìľĮ ë¦¬
ê²ł ëĭ¤ëĬĶ
ĠìĻĦë²½ íķľ
ķìĭľ ì½Ķ
¢ °
ë ¢°
Ġë ®
ë¦¬ ë©°
ëĵ¤ ìĸ´
ìĬ¤ ìĹĲ
ìķĦ ë²Ħì§Ģ
ĠìĦ ¹
ëıĦ ëĬĶ
Ġê°Ģ ëĬĶ
ìĤ¬ ê±´
ìĤ¬ ëŀĳ
ìĽ ĥ
Ġì° ½
Ġìĸ´ ëĶĶ
ìŀ¥ ìĿĺ
ìŀ¥ ìľ¼ë¡ľ
Ġëĭ¤ ëĭĪ
Ġëĭ¤ ìĦ¯
Ġê¸° ìĪł
ĠìĨĮ ìĭĿìĿĦ
ìłĦ ìĿ´
ìĽĲ ìľ¼ë¡ľ
íŀĪ ëĬĶ
ìļ° ê³ł
Ġìĺ¤ ëŀľ
ëĶĶ ìĸ´
ëĲĺ ëĬĶëį°
ìĦ± ìĿĦ
Ġë¶Ī ê°Ģ
Ġìĺģ ìĽĲ
Ġ1 9
êµ° ê°Ģ
ì¼ ĵ
Ġíķł ë¨¸ëĭĪ
ĠíĺĦ ìĥģ
Ġì«ĵ ìķĦ
ĠìĿ´ëģ ĦëĬĶ
ëĨ ĵ
ĠìĪ¨ê²¨ ì§Ħ
ë Ģ
ì ī¬
Ġ T
Ļ ìĿĦ
Ġí Ĥ¬
ëį ¤
ëł ¬
ëĿ¼ ê°Ģ
ìŀĲ ë¹Ħ
ë° ĸ
ê°Ħ ìĹĲ
Ġíķľ ë²Ī
ĠíĮĮ ìĿ´
íĤ¤ ëĬĶ
Ġì¹ľêµ¬ ëĵ¤ê³¼
Ġì§ĳ ìĹĲìĦľ
Ġíģ¬ ë£¨
êµ° ìĿĺ
Ġíķł ë¡ľ
ĠíıŃ ë°ľ
íĽĦ ìĿĺ
Ġê°Ħ ëĭ¤
Ġíĺ¼ ìŀĲ
ëŀľ ëĵľ
Ġëĵ£ ê²Į
ëľ ¨
Ġë¸Ķ ëŀĻ
Ġë¹¼ ìķĹ
ì ©
í ĩ´
Ġ 8
ìĿ´ ì§Ģë§Į
ĠìĿ µ
ëł µ
ìĿ¸ ê°Ħ
ĠìĿ´ ìĤ¬
ëĿ¼ ìĻĢ
ìĭľ íĤ¨
Ġìĭľ ì²´
ëĮĢ ëĬĶ
ĠìłĦ ì§ģ
Ġíĺ ¹
Ġë¶ Ļ
ĠëıĦ ì¤ĳ
ë²Ħ íĬ¸
ëĤ´ ê¸°
Ġë¬´ ê¸°
Ġë¬´ ìĭľ
Ġë¬´ ìĹĩ
Ġìĭľìŀĳ íķĺê³ł
Ġê³ł ëĵ±
Ġíĸ Ī
ê±° ìļ´
ëıĻ ìķĪ
ĠíĹ Į
Ġë¹ł ì§Ģê²Į
ĠëĨ Ĵ
Ġìĭ¤ íĮ¨
Ġìķħ ëª½
íĺ¸ ë¥¼
Ġë§ĪìĿĦ ìĿĺ
ĠìĦ¸ìĥģ ìĹĲ
Ġë°ľê²¬ íķľ
ĠíĨµ ìłľ
ĠëĪĦ êµ°ê°Ģ
Ġì¹ĺ ë£Į
ìļĶ íķľ
ĠíĻĺ ìĥģ
ëĿ¼ìĿ´ ìĸ¸
Ġì£½ìĿĮ ìĿĺ
ĠëĬĲëĤ Ģ
Ġë¬´ìĤ¬ íŀĪ
a n
¤ ë²Ħ
¥ Ĳ
» ê²Į
ì ıĺ
Ġ 9
Ġë ĥ
ìĿ´ íķľ
ìĿ´ ê²Į
ì§ Ŀ
ë¦¬ ìĸ¸
Ġê·¸ ëĵ¤ìĿ´
ëĵ¤ ë¡ľ
ĠëĤ ¸
ĠìĤ¬ ìķħíķľ
ĠìĿ´ ëĵ¤ìĿĺ
Ġê³ ¨
ë§Į íķľ
Ġì§Ģ ëıĦ
ìĭł ìĿĦ
íĥ Ĳ
ĠëĮĢ íķĻ
ë¶Ģ ë¥¼
ìļ´ ëĭ¤
ĠìĿ¼ ìĥģ
ĠìĬ¤ ì¹´
ìĬ ´
ĠìĹ¬ ë¦Ħ
ìĿ¼ ëŁ¬
ĠìĪ Ļ
Ġìľł ëªħ
ê±° ëĤĺ
Ġìĥģ ì²ĺ
ë£¨ íĨł
ìĨĮ ìĹĲ
ìŀĦ ìĬ¤
ĠëĦ £
ĠíĮ ¬
ĠíĶĦ ë¦¬
ĠëĤĺíĥĢ ëĤľ
ì¸ ¡
Ġìŀĥ ê³ł
ĠìłĲ ì°¨
Ġìłķì²´ ë¶ĪëªħìĿĺ
íĳ ¸
Ġìĸ¼ ë§Ī
ĠíĿ¬ ìĥĿ
ĠëıĦìĽĢ ìľ¼ë¡ľ
ĠìłĦìĦ¤ ìĿĺ
Ġìłĳ ê·¼
íĬ ¼
ĠëŁ° ëįĺ
ĩ Į
Ń ìĿ´
ëĭ µ
ë¡ľ ëĬĶ
ë¦¬ ë¡ľ
ë§ İìĿĢ
ëĵ¤ ìĹĲ
ìĦľ íŀĪ
Ġê² ¨
ìĭľ ë¥¼
Ġê°Ģ ìłķ
Ġìĥ Į
Ġë² ¤
ĠëĤĺ ê°Ģ
ĠìĻ Ķ
ĠìĦ¸ ëł¥
ĠìĬ¤ ìĬ¤ë¡ľ
Ġë¯¸ ìħĺ
Ġë¬´ ìŀĲë¹Ħ
ĠíĻ Ģ
ëĶĶ ìĺ¤
ĠìĪ ł
Ġêµ¬ íķł
íı Ń
ì½ ©
Ġë© ¤ë²Ħ
ĠëĪ ĪìĿĦ
ĠíĿ ĳ
Ġëª» íķĺê³ł
ĠìĦľ ìĦľíŀĪ
Ġëħ¸ ìĺĪ
êµ° ìĿĢ
Ġë¹Ħë°Ģ ìĿ´
ìŁģ ìĿ´
Ġìŀĳ íĴĪ
ĠëĴ¤ ë¥¼
Ġê´Ģ ë¦¬
ĠìķĦë²Ħì§Ģ ë¥¼
Ġê²Į ëĭ¤ê°Ģ
ĠëĤĺíĥĢ ëĤľëĭ¤
ĠìĪ¨ ìĸ´
Ġíĸ¥ íķ´
ĠíĤ ¹
ë°Ľ ìĿĢ
ĠìĤ¬ê³ł ë¡ľ
Ġìļ´ëªħ ìĿĦ
ĠíıīíĻĶ ë¡ľìļ´
Ġì²Ń ëħĦ
Ġì¹¨ ìŀħ
ĠëĨĢ ëĿ¼ìļ´
ĠíĥĦ ìĥĿ
ĠëŁ¬ ìĭľìķĦ
Ġìķ¡ ìħĺ
ê± ¸
I A
ì į
Ġ S
Ġì į
ê°Ģ ë¡ľ
ë¦¬ ì§Ģ
Ġê·¸ ëłĩ
ĠìĹ ī
ìĿ¸ ì§Ģ
ĠìĤ¬ ìĹħ
ëĿ¼ ëıĦ
ĠìķĦ ëĵ¤ìĿĦ
Ġìĭľ ê³¨
ĠìĪĺ ìĥģ
íĻ ĺ
ì¹ĺ ë¥¼
Ġì¡ ¸
ĠëĤĺ ëĪĦ
ìłĦ ìĹĲ
ĠìĹ¬ ìĿ¸
Ġê³ł ìĸĳ
ë¯¸ ìĬ¤
íĹ ¤
íģ¬ ë¥¼
ëĶĶ ìĿĺ
Ġë°Ķ ìĿ´
ĠìĥĿ ìĿ¼
ë³´ ëĬĶ
Ġêµ¬ ì¶ľ
Ġì¹ľêµ¬ ê°Ģ
Ġìµľ íĽĦìĿĺ
Ġëª» íķĺëĬĶ
ĠìķĦìĿ´ ëĵ¤ìĿĦ
Ġíĺ¸ íħĶ
Ġì¶Ķ ê²©
ĠìłĢ ì§Ģ
ĠìłĢ íĥĿ
Ġìķŀ ìĹĲìĦľ
Ġìŀĥ ìĸ´
ì´ Ŀ
ĠìłĦìŁģ ìĿĦ
Ġì¡´ìŀ¬ ë¥¼
ĠíķĻ ìĥĿ
ĠìĿ¸ë¥ĺ ìĿĺ
Ġë§Īë²ķ ìĤ¬
Ġìĸ´ëĸ »ê²Į
Ġëĵ£ ê³ł
ĠìķĦëĭĪ ëĿ¼
ĠëĪĦêµ¬ ëıĦ
ì¤Ģ ëĭ¤
íľ ĺ
Ġë¯¸ìħ ĺìĿĦ
Ġíľ© ìĭ¸
ìĿ´ ê¸°
ìĿ´ ìĬ¤
ìĿ´ ë¹Ħ
íķĺ ë©´
ê°Ģ ì§Ģ
Ġê· ľ
ë¦¬ ëįĺ
ë¦¬ ìļ°
ë¦¬ ìķĪ
Ġê·¸ ëĤł
ĠìĹ ħ
ëŀ Ħ
ìĻ Ħ
ì¹ ¼
Ġë§Ī ëĬĶëį°
Ġíķĺ ë©°
íķľëĭ¤ ëĬĶ
Ġê°Ģ ì§Ģ
ìĤ¬ ìĹĲ
Ġìĭľ ëĭ¬
Ġì§Ģ ìĺ¥
ĠìĪĺ ë§İìĿĢ
íĬ¸ ê°Ģ
ĠëĲĺ ë©´ìĦľ
Ġëª¨ ë¥´ëĬĶ
Ġë¶ ģ
Ġëĭ¤ ìĿĮ
ìĪĺ ìĿĺ
íĤ ¹
ĠìĹ¬ ìĻķ
Ġìĺ¤ ëŀĺ
Ġë¶Ī ìķĪ
íķĺê¸° ë¡ľ
ĠìĽ Ģ
Ġ1 2
ĠìĹ° ìĿ¸
ëĭ¨ ìĿĦ
ĠìĤ¬ê±´ ìĿĺ
ĠëĤ´ ëł¤
Ġëħ¸ ëł¥
Ġë§¤ ëł¥
ë¸Į ë¦¬
Ġì§Ģêµ¬ ìĿĺ
ĠíıŃ ëł¥
Ġë¬¼ ë¦¬
ĠìĨĲ ìĺ¤
ĠêµĲ ëıĦ
ĠëĺĲ íķľ
Ġìĭ¸ ìļ°
Ġì¡°ì§ģ ìĿĺ
Ġì¢ħ ì¡±
Ġì²ľ ìŀ¬
íĺ¹ íķľ
Ġë¶Ģëª¨ ëĭĺ
íģ ¼
ĠìĿ´ìļ© íķ´
ĠL A
ĠìĺĪìĥģ ì¹ĺ
ĠíĤ¬ ëŁ¬
( ?
Ġ "
Ġë Į
íķĺ ëŁ¬
ì§ Ĳ
ê² Ĳ
ìķ ķ
ê°Ģ ë¥¼
Ġê·¸ ìĻĢ
Ġê·¸ ë¦¬ìĬ¤
ëł ¸
ìĸ´ ê°Ģ
Ġê² ¬
Ġíķĺ ëįĺ
Ġê°Ģ ì§Ģê³ł
Ġì§Ģ ìĹŃ
Ġë¹ ħ
ëĵľ ìĻĢ
Ġíķ µ
ĠëĮĢ ëĭĪ
ë¶Ģ ìĿĺ
íĶ Ī
ìłģ ìĿĦ
ĠìŀĲìĭł ê³¼
ëĤ´ ê³ł
íģ¬ ìĿĺ
Ġë°Ķ ëĢ
ĠìĤ¬ëŀĮ ìĿĦ
ĠìĤ¬ëŀĮ ìĿ´
Ġê·¸ëħĢ ê°Ģ
Ġê·¸ëħĢ ìĹĲê²Į
Ġìµľ ëĮĢìĿĺ
Ġì°¾ìķĦ ê°Ģ
Ġëĵ¤ ê³ł
ĠìĹ° ìĩĦ
ëĳĲ ê³ł
ì¦Ī ìĿĺ
Ġíĺ¸ ê¸°
Ġê¹ ĬìĿĢ
Ġì§Ħ ìłķíķľ
ĠìļĶ êµ¬
Ġë°© ë¬¸
Ġë§ĪìĿĦ ìĹĲ
íĸĪ ëĭ¤
ĠìķĦë²Ħì§Ģ ê°Ģ
ìļĶ ìĽĲ
Ġì°¨ ì§Ģ
Ġë³Ģ ìĭł
ĠëĶ¸ ìĿĦ
ì¸ µ
Ġì§ģ ìıĺ
ĠìĦľë¡ľ ìĿĺ
Ġì±ħ ìĿĦ
ĠìĿĮëª¨ ë¥¼
Ġíĺ¼ëŀĢ ìĹĲ
Ġì£¼ìĿ¸ ê³µ
Ġì¢ĭ ìķĦ
Ġì» ´
Ġíľĺ ë§Ĳ
Ġë©¸ ë§Ŀ
Ġë³´ìķĪ ê´Ģ
ĠìĤ¬íĪ¬ ë¥¼
ĠìĽĢ ì§ģ
(? )
í Ģ
ĵ ¨
Ġê ½
ĠìĿ ĳ
ìĦ ¬
ìķ Ķ
ì§Ģ ê°Ģ
ì§Ģ ê¸°
ë¦¬ ìĹĲìĦľ
ëł ¨ìĿĦ
ĠìĤ¬ ë§Ŀ
ĠìĤ¬ íļĮ
ĠìĿ´ ë²Ī
Ġì§ Ĳ
ĠìľĦ ê¸°
ĠìķĦ ì§ģ
ìĭľ íķľ
Ġê°Ģ ê²Į
ìĽ ¨
ëĵľ ë¡ľ
ëĲ ł
ìĹĲê²Į ìĦľ
ĠëĮĢ íĨµ
Ġíĺ Ī
íĶ Ķ
ĠìĿ¼ ë³¸
Ġë³´ ëĤ¸ëĭ¤
ĠìĬ¤ íĭ°
Ġë¹Ħ ë¡¯
íĨ °
Ġìľł ëŁ½
ë¬¼ ê´Ģ
ë£¨ ìĬ¤
íı ´
íı Ĳ
Ġì¹ľêµ¬ ëĵ¤
Ġë© ķìĭľì½Ķ
ìĨĮ ë¥¼
ĠìĨį ìľ¼ë¡ľ
ĠìĹĲ ë¦Ń
Ġì± Ķ
íĶ¼ ìķĦ
íĶ¼ ìĸ¸
Ġê°Ģì¡± ìĿĺ
ĠíĶĦ ëŀĳ
ĠíĺĦ ìŀ¬
ëĬ¥ ìĿĦ
Ġíĸ¥ íķľ
Ġë¬¼ ë¡ł
Ġì«ĵ ê¸°
Ġê³³ ìĹĲìĦľ
Ġê³³ ê³³
Ġì°¸ ìĹ¬
ĠìĿ¸ë¥ĺ ë¥¼
ĠìĥģíĻ© ìĹĲ
Ġìĸ¼ êµ´
ĠëĦĺ ì¹ĺëĬĶ
Ġë³ĳ ìĽĲ
ĠìĥĿì¡´ ìŀĲ
Ġë§Īì£¼ íķĺê²Į
Ġìķ½ ìĨį
Ġíķ© ë¥ĺ
ĠC IA
Ġê²Ģ ìĿĢ
Ġê°Ģê¹Į ìĬ¤ë¡ľ
ĠëĮĢê²° ìĿĦ
ĠíĽĪ ëł¨
Ġëĥ ī
ã Ģ
ë ļ
ë ī´
Ġì ī
ìĿ´ ê°Ģ
ì§ ķ
Ġìŀ Ĭ
ì§Ģ ë¡ľ
ì§Ģ ìŀĲ
ëł Ľ
ìĿ¸ ë°©
ëŀ «
ëĤĺ ìĿĺ
ĠìķĦ íĶĦ
ìĭľ ìĿĺ
ìĭľ ì¼ľ
Ġíķĺ ìĿ´
Ġíķĺ ëĬĺ
ìĤ¬ ìĿ¸
ëĵľ ê°Ģ
íĬ¸ ìĹĲ
Ġëª¨ ìĦ¸
íĦ° ë¥¼
Ġíĺ ĳ
Ġë³´ ìĬ¤
ĠìŀĲìĭł ëĵ¤ìĿĺ
ĠìĹ¬ ëŁ¬
Ġìłķ ìĿĺ
Ġê³µ ë£¡
ìĸ ¼
ê» ı
ëĦ ·
ëĦ Ĳ
Ġìĥģ íĥľ
ĠìĤ¬ëŀĮ ëĵ¤ìĿĺ
ì²´ ê°Ģ
ëŀĺ ê³¤
ĠìĿĺ ë¢°
Ġë© Ī
Ġê°Ģì¡± ìĿĢ
ĠìķĪ ìĹĲ
ĠìĤ´ìķĦ ê°ĢëĬĶ
ĠìļĶ ì²Ń
Ġì²ĺ íķľ
Ġëĵľ ëĶĶìĸ´
Ġëĵľ ëŀĺê³¤
Ġë§ĪìĿĦ ìĿĦ
ìľĦ ë¥¼
ĠìĤ¬ìĿ´ ìĹĲìĦľ
Ġì¹ĺ ëªħ
ĠìľĦíĺĳ íķĺëĬĶ
Ġì°¸ ìĦĿ
ĠìĿĢ íĸī
Ġë¬¸ ìłľ
ëĪ Ī
Ġê¸°ìĸµ ìĿĦ
Ġëıħ ìĿ¼
Ġë¯¸ëŀĺ ë¥¼
Ġìĭ¶ ìĿĢ
Ġê°Ī ëĵ±
Ġë°©ë²ķ ìĿĦ
ĠíĽĶ ì³Ĳ
Ġê¿Īê¾¸ ëĬĶ
ìģ ľ
Ġë´ ī
) âĢĻ
e r
¾ Į
íķ ¨ìĿĦ
Ġí ĩ´
ìĿ´ ìĸ´
ìĿ´ ìĹĪëįĺ
ë¡ľ ë¥¼
Ġìķ ķ
ì§Ģ ìĹĲ
ìĬ¤ ì½Ķ
ìĬ¤ ëŁ½
ìĿ¸ ìľ¼ë¡ľ
Ġìĭ Ń
ĠìĿ´ ëŁ°
ìĸ´ ìķ¼
Ġê² ģ
ëĿ¼ ìĬ¤
ëį° ìĿ´
Ġìĭľ ëıĦ
ĠìŀĲ ê¸°
ëĮĢ ê°Ģ
íĺ Ī
ĠëĲĺ ì§Ģë§Į
ĠëĤĺ ë£¨íĨł
ë£ ©
Ġê¸° ìļ´
ëĶ ´
ê¸ ĪìĿĦ
ìĽĲ ëĵ¤ìĿĢ
íŀĪ ê²Į
ìļ° ìĬ¤
ĠëıĻ ìĭľìĹĲ
Ġì¡° ì¢ħ
ĠìĤ¬ëŀĮ ìĿĺ
Ġíķ´ ë¦¬
ìĭ¤ ìĹĲ
ĠíĨ °
ìĭ¬ ìĿ´
ìĭ¬ ìľ¼ë¡ľ
Ġì°¾ìķĦ ìĺ¨
Ġì°¾ìķĦ ìĺ¨ëĭ¤
Ġê³¼ ìłķ
ĠíĹ ¬
ì¦Ī ëĬĶ
ĠìĦ¸ê³Ħ ëĮĢ
Ġê°ķ íķľ
Ġëħ¸ ë¦¬ëĬĶ
ìħ Ģ
Ġìŀ¥ ëĤľ
Ġëĭ¨ ìĦľë¥¼
Ġìº ¡
Ġë°° ìĭł
ĠëĴ¤ ì§ĳ
ĠíıŃ íĴį
ìłĪ íķľ
Ġê´´ ë¡Ń
Ġìķł ëĭĪ
Ġê³¼ê±° ë¥¼
ĠìĦľë¡ľ ë¥¼
Ġì¼ Ģ
ĠìĤ¬ê³ł ë¥¼
ĠíħĮëŁ¬ ë¦¬ìĬ¤
ĠìĻķêµŃ ìĿĦ
íĬ ľ
Ġìĭłë¹Ħ íķľ
Ġê²°ìĭ¬ íķľëĭ¤
ĠM I
Ġìµľê°ķ ìĿĺ
Ġë¬´ìŀĲë¹Ħ íķľ
? !
ë Ń
Ġ `
Ġì ¿
Ġë ¥
ìĹ ¼
íķĺ ëĿ¼
ëĵ Ń
ĠìĹ ĳ
ĠìĤ¬ ë§ī
ĠìĿ´ ëĵ¤
ĠìĿ´ ìĽĥ
ëĤĺ ê°Ģ
ëŁ ´
ëŁ Ń
ĠìķĦ ì¹¨
Ġìĥ ĺ
ëª »
Ġì§Ģ ëª©
ĠëĲĺ ìŀĲ
ì² Ļ
ì² ł
Ġìĸ´ ì©
ĠìľĦíķ´ ìĦľ
ì£¼ ë¥¼
ĠëĤĺ ìĿ´
Ġë¬´ ëĦĪ
íŀĪ ìĸ´ë¡ľ
ëħĦ ìĿ´
Ġìłľ ìŀĦìĬ¤
Ġê³ł ë¯¼
ë¯¸ ëĬĶ
ëłĪ ìĿ¸
Ġê±° ëĵŃ
ëĤľ íķľ
íģ¬ ê°Ģ
ëĶĶ ê°Ģ
ĠíĮĮ ì»¤
Ġë°Ķ ëŀĮ
ëĦ ¬
ì¶ ķ
Ġë¶Ī êµ¬
Ġì£½ ìĿ´ê³ł
Ġì¤ĳ ìĿ¸
ì½ ĺ
Ġë© ĭ
ìĪ Ļ
ìĪ ľ
Ġ1 3
Ġê²½ ê³ł
ìĭĿ ê°ĦìĹĲ
ëıĻ ìĿĦ
ëıĻ ì°¨
ë¶ ģ
ì¡° ì§ģ
ĠìĻķ ìŀĲ
Ġì§Ħ ìĭ¤ìĿĦ
Ġì²ĺ ì°¸
Ġì§Ģêµ¬ ë¡ľ
Ġìº £
Ġë°° ìļ°
Ġë°ľê²¬ íķĺê²Į
ë°© ìĿĦ
ĠìĪľ ìĭĿê°ĦìĹĲ
ëĿ½ íķľ
Ġìŀħ ê³ł
Ġë°ķ ë¬¼ê´Ģ
Ġê³¼ê±° ìĿĺ
ê²ł ëĭ¤ê³ł
Ġì¦Ĳ ê¸°
Ġë²Įìĸ´ ì§ĢëĬĶ
ìĵ °
Ġìºł íĶĦ
ĠìľĮë¦¬ ìĹĦ
Ġíķłë¡ľ ìľĪ
Ġì¡¸ ìĹħ
2 0
Ġ N
ł ë§Ī
ìĿ ĳ
ëĭ Ŀ
ìĿ´ ëįĺ
ìĿ´ ëĿ¼ê³ł
ëĭ¤ ë¥¸
ìł Ŀ
Ġë§ ĺ
ê¸° ìķ¼
ìľ ¡
Ġëª ¸ìĿĦ
Ġì§ ľ
Ġíķĺ ê¸°
ìĤ¬ ê³ł
ĠìŀĪ ê³ł
Ġë¹ Ļ
Ġë¹ Ľ
ĠìĪĺ ëıĦ
Ġëı ķ
Ġìĸ´ ëł¤
ìŀ¥ ìĿĢ
Ġíĥ ĳ
Ġì² Ļ
Ġê¸° ê³Ħ
Ġëį ¤
ĠìĹ¬ ìłķìĿĦ
íŀĪ ëł¤
ëħĦ ìĿĺ
Ġìłķ ê¸Ģ
êµŃ ìĿĺ
ĠëĤ¨ ë§¤
Ġë°Ķ ê¿
Ġìĭł ë¶Ģ
Ġìĭł ìĦ¸
Ġêµ¬ ì¡°
ëª¨ ë¥¼
Ġë°Ľ ëĬĶ
ĠìĽ ¬
ĠìĽ ĥ
ì½ ¤
íķĻ ìĿĦ
ĠìĹ° ëĿ½
ëıĻ ìĥĿ
ëĭ¹ íķĺê³ł
ĠíĿ ĺ
ĠìĦ¸ê³Ħ ë¡ľ
ĠìĤ´ìķĦ ê°Ħëĭ¤
ĠìŀĪëĭ¤ ê³ł
Ġì§Ħ íĸī
ëĤł ìĿĦ
Ġë§¤ ëĭĪ
Ġíķł ìķĦë²Ħì§Ģ
Ġëªħ ëł¹ìĿĦ
ĠëĤ¨ìŀĲ ì¹ľêµ¬
Ġìĭľê°Ħ ìĿ´
ĠìłĪ ì¹ľ
ê²½ ìĿĦ
Ġ3 0
Ġì°¸ ê°Ģ
Ġëª° ìķĦ
Ġì¶© ëıĮ
Ġíĥľ ìĸ´ëĤĺ
Ġë³´ëĤ´ ê³ł
ĠíĻ© ìłľ
ĠìĦ±ê³µ íķľ
ĠìŀŃ ìĬ¨
ĠíĶĦë¡ľ ê·¸
Ġìĸ» ê²Į
Ġìĭ¶ ìĸ´
ĠìĻ¸ê³Ħ ìĿ¸
íķĦ ëĵľ
ĠëģĮ ëł¤
Ġê¸ī ê¸°ìķ¼
ĠìĬ¤íĮĮìĿ´ ëįĶ
ĠìĤ¬ëĥ¥ ê¾¼
ìº Ĳ
ĠìķĦë¬´ ëıĦ
Ġì¶©ê²© ìłģìĿ¸
ĠìŀĶìĿ¸ íķľ
ĠìĿ´ì§ĳ íĬ¸
ĠìĹĲëĵľ ìĽĮ
ĠëĨĴ ìĿĢ
ĠëĮ Ħ
¨ ëĭ¨
Ģ ìĦĿ
ê° Ķ
ê² ģ
ìŀ Ķ
ê°Ģ ê°Ģ
ë§ ¹
Ġê·¸ ë¦¼
ìĬ¤ ëŁ°
ĠìĤ¬ ìļ©
ĠìĿ´ ëª¨
Ġì§ ĵ
Ġê³ ģ
ĠìķĦ íĮĮ
ë° ¤
Ġë§Ī ë¦¬
ĠìĪĺ ìĪĺ
ĠìłĦ ë¶Ģ
ëĭĪ ë¥¼
Ġëª¨ ë¥¼
Ġëª¨ ìĿ¸
Ġì° ¬
ĠìĿ¸ ëĶĶ
ĠìĿ¸ ë¬¼
Ġëĵ Ģ
ì° ¬
ì¹ĺ ê¸°
ë¶Ģ ëĮĢ
ĠìĬ¤ íĬ¸
Ġê¸° ìĿ´íķľ
ë²Ħ ë¦°ëĭ¤
Ġë¯¸ ì§ĢìĿĺ
ë¹Ħ ëĬĶ
Ġìĭľìŀĳ íķľ
ĠëĤ¨ ìķĦ
ĠëĤ¨ ê²¨
Ġìĺ¤ ë¥¸ëĭ¤
Ġê±° ëŀĺ
Ġê±° ìłĪ
ĠíĮĮ ìĽĮ
Ġì°¾ ëĬĶ
ìĦ± ìĿ´
ê»ĺ ëģ¼
ëª¨ ìĿĺ
Ġë°Ľ ìľ¼ë©°
Ġë© ´
ĠìķĬ ê²Į
Ġëħ ĢìĦĿ
ìĭĿ ìľ¼ë¡ľ
Ġê³¼ íķĻìŀĲ
Ġëª» íķľëĭ¤
ĠìĦ¸ê³Ħ ìĿĺ
Ġìķħ ëªħ
Ġì½ ĺ
Ġê°ķ ìķĦ
Ġëħ¸ ëŀĺ
ìħ Ķ
Ġëª© íĳľ
Ġê¹ Ĭ
íĮ ħ
ĠìĻ¸ ëĶ´
Ġìŀĳ ìłĦìĿĦ
ëĳ ĳ
Ġëĭ¹ íķĺê³ł
ĠëĤ¨ìŀĲ ìĿĺ
ĠëĤ¨ìŀĲ ê°Ģ
ĠìĤ¬ìĿ´ ìĹĲ
ì¤ĳ ìĹĲ
Ġê± ·
ĠêµĲ ìĪĺ
Ġëª¨ëĳĲ ê°Ģ
Ġì¡´ìŀ¬ ê°Ģ
Ġêµ° ëĭ¨
Ġìļ© ë³ĳ
Ġì§ģ ìłĳ
Ġìĭ¬ ë°Ķ
Ġëĳĺ ëŁ¬
ĠìĿĮ ìķħ
ĠëĸłëĤĺ ê²Į
ĠìĿĢ íķĺ
Ġìĭ¸ ìĽĢ
Ġëª° ëŀĺ
Ġíĥľ ìĸ´ëĤľ
Ġëĸ¨ ìĸ´ì§Ħ
ĠíĶĦë¡ľ ìłĿ
Ġê¸Ī ì§Ģ
Ġìĵ° ëŁ¬
ĠíĮĮíĭ° ë¥¼
Ġê°Ģê¹Į ìĽĮ
Ġì¦Ŀ ê±°
ĠíĻľ ìķ½
ĠíıĲ íĹĪ
Ġíģ¬ë¦¬ìĬ¤ë§Ī ìĬ¤
ĠìĮ į
Ġê¼¬ ë§Ī
Ġì±Ķ íĶ¼ìĸ¸
a r
ì ¿
Ġ (
ĳ ëĮĢ
Ġë ¿
ë¥ Ļ
ê° ĸ
ê° ĻìĿ´
ìĭ Ń
ê°Ģ ê²Į
ìĬ¤ íĨł
âĢ ĺ
Ġê° ±
ìĦľ ìĿĺ
ĠìĿ´ ëĵ¤ìĿĦ
ìľ¼ ëł¤
ëĤĺ ê³ł
ìĻĢ ëĬĶ
ëıĦ ìĭľ
ëį° ëłĲ
Ġê°Ģ ìł¸
ìĤ¬ ìĻĢ
ĠìŀĲ ëıĻì°¨
ĠìĪĺ íĺ¸
íĬ¸ ë¦Ń
Ġëı ¼
Ġë² ½
ìĹĲê²Į ëĬĶ
ĠìĿ¸ ê¸°
ĠìĿ¸ ê³µ
ë§Ī ìĿ´
ì£¼ ìĿĺ
ĠìĿ¼ ìĥģìĿĦ
Ġë³´ ìĿ´ëĬĶ
ë£ ¬
ĠìĬ¤ íĶ¼
ĠìĬ¤ íħĮ
ëĶ ©
ĠìĹĨ ìķł
Ġë¬´ ìĦľ
Ġë¬´ ëłµ
ìĽĲ ìĿĺ
íĥĢ ëĬĶ
Ġê³ł ëĮĢ
Ġê³ł êµ°
Ġê³ł íĨµ
Ġê³ł ëĭ´
ìĺ¤ ëĬĶëį°
ĠíĮĮ íĹ¤
ê· ľ
ëĲĺ ìŀĲ
Ġì£¼ ë³Ģ
ìĹĪ ëĭ¤ëĬĶ
Ġíķ´ ìłģ
Ġë¶Ī ë¦¬ëĬĶ
Ġê²° ìłķ
Ġì¹ľêµ¬ ëĵ¤ìĿĺ
ìĹ¬ ê³¡
ĠíĶ¼ íķł
ĠìĹ° íķ©
ëĭ¹ íķĺëĬĶ
ĠíĿ Ĳ
Ġìĭ¤ ìĪĺë¡ľ
ĠìĦ¸ê³Ħ ìĹĲ
ĠìĦ± ìŀ¥
ĠìķĪ ê³ł
ĠìķĪ ìłĦ
ĠëĤ´ ìļ©
Ġíĺ¸ ìĪĺ
Ġê°Ĳ ìĭľ
ì¼ ĢìĿ´
Ġíıī ìĥĿ
Ġëªħ ëł¹
Ġëªħ ìĺĪ
Ġëĭ¹ íķľ
ë§¨ ìĿĺ
Ġì¹´ ë©Ķ
Ġìļ´ ìĺģ
Ġìĺ¨ ê°ĸ
ì»¤ ìĬ¤
ì£ ½
Ġì«ĵ ê¸°ëĬĶ
Ġë²ł ìĿ´ë¹Ħ
ë¶Ħ íĪ¬
íħ ľ
Ġë¸Į ëĿ¼ìĿ´ìĸ¸
ĠìķĦëĤ´ ë¥¼
ĠìĿĢ íĩ´
ìĤ° ìĿĦ
Ġê²°íĺ¼ ìĿĦ
ìĹĺ ìĿĢ
ĠíĻĶ ëł¤
Ġìĵ ´
Ġë§Īë²ķ ìĿĺ
Ġíİĺ ë¥´
ĠíĮ¨ ë°Ģ
ĠíĦ ¸
ĠìĹ¬ìŀĲ ì¹ľêµ¬
Ġíģ´ ëŁ½
ìķĺ ëĭ¤
Ġê²ĮìŀĦ ìĿĦ
ĠêµŃ ìłľ
ĠíĪ¬ ìŀħ
ĠìĿ´ë¦Ħ ìĿĦ
Ġìĸ¸ ìłľ
Ġê´Ģê³Ħ ë¥¼
ĠëĤĺìĦľ ëĬĶëį°
ĠíĽĪ ëł¨ìĿĦ
Ġê°ĢëĵĿ íķľ
ĠìłĦìĦ¸ê³Ħ ë¥¼
ĠìłĢì£¼ ë¥¼
ëł¬ íķľ
ĠìĨĲìĺ¤ ê³µ
ĠêµĲëıĦ ìĨĮ
ĠëĮĢíĨµ ëł¹
Ġì¹ĺëªħ ìłģìĿ¸
Ġê³¼ìłķ ìĹĲìĦľ
Ġë¶Īêµ¬ íķĺê³ł
ĠìĪĺìĪĺ ê»ĺëģ¼
Ġê³łêµ° ë¶ĦíĪ¬
o n
ê ¶ģ
í Ĭ¹
Ġ A
Ġì Ķ
ìĿ´ ë¡ľ
ê° ĳ
ë¡ľ ìļ°
ìŀ Ń
ì§Ģ ë©´ìĦľ
Ġë§ ¨
ë§ ¥
Ġìĭ «
ĠìĿ´ ë¸Į
ìĸ´ ìł¸
Ġë§Ī ë¥´
Ġíķĺ ì§Ģ
Ġê°Ģ ëĬĶëį°
Ġìĭľ ëĵľ
Ġì§Ģ ëĤ´
Ġë¹ ¨
ĠìĪĺ ìļ©
ĠìłĦ íĻĶ
ìĥģ ìĿ´
Ġëª¨ ë¥¸
Ġë¬ »
ìĹĲê²Į ëıĦ
ĠìĿ¸ ì§Ī
ë¹ Ĺ
ĠëĮĢ ë¶Ģ
ìłģ ìĿ´
ĠìĿ¼ íķĺëĬĶ
ĠìĿ¼ ìĤ¼
ĠëıĦ ìłĦ
Ġë§Į ëĵł
ĠìĬ¤ íĨ¤
íŀĪ ê³ł
Ġì¶ ¤
Ġìłľ ìŀĳ
Ġê³ł ìļ©
ë¯¸ ë¥¼
ëłĪ ìĬ¤
Ġê±° ë¶Ģ
ëĶĶ ìĻĢ
ĠìĥĿ ëªħìĿĦ
Ġìĭł ë¶Ħ
íİ ľ
Ġìļ° ìĹ¬ê³¡
Ġì¹ľêµ¬ ëĵ¤ìĿ´
Ġìĸ µ
ìĪ ŃìĿ´
Ġ1 5
Ġê°Ģì¡± ìĿ´
Ġê°Ģì¡± ê³¼
Ġìķħ ëł¹
ĠìĤ´ìķĦ ê°Ģê³ł
Ġëª© ìĨĮ
Ġìº ĺ
Ġë°° íĬ¸ë§¨
íĸĪ ëĭ¤ëĬĶ
ĠìłĢ íķŃ
ĠíĥĢ ìĿ´
Ġíı¬ ê¸°
Ġ2 4
Ġëĭ¹ íķľëĭ¤
Ġë²Į ìĿ´ëĬĶ
Ġìŀł ìŀħ
Ġì°¨ ë¥¼
ĠíĴ į
Ġê±¸ ê³ł
Ġê±¸ ë¦°
Ġë°ķ ìĤ¬ëĬĶ
ĠëıĦìĭľ ìĿĺ
ĠìĥģíĻ© ìĹĲìĦľ
Ġëī´ìļķ ìĿĺ
Ġë²Ī ì§¸
Ġìķ¼ ìĥĿ
Ġì²Ń ìĨĮ
ĠìĬĪíį¼ íŀĪìĸ´ë¡ľ
ëľ »
ìĩ ł
Ġë°ľìĥĿ íķľëĭ¤
ĠìłľìķĪ ìĿĦ
Ġê¸°ëĭ¤ ë¦¬ê³ł
íģ ĺ
íĿ ¬
Ġë§¡ ê²Į
ĠìĿ¸ìĥĿ ìĿĦ
ĠëĲĺì°¾ ê¸°
Ġë°ĸ ìľ¼ë¡ľ
Ġíİ¼ì³Ĳ ì§Ħëĭ¤
ĠìłĦë¬¸ ê°Ģ
ĠíĢ ¸
Ġë¡Ŀ íĤ¤
ìĭľíĤ¨ ëĭ¤
Ġê³łëĵ± íķĻêµĲ
Ġìľłëªħ íķľ
ë ±
ë ·
į ìĤ¬
Ĳ ëĭ¤
Ġì ı
Ġì ī¬
Ġë ¯¼
ìĿ´ ëĤĺ
ìĿ´ ëĵľ
ìĿ´ ìĹĪëĭ¤
ì§ ĵ
ë¡ľ ìŀ¡
ìķ ¤
ì§Ģ ì§Ģ
ë¦¬ ëĭ¤
Ġë§ ģ
ìĬ¤ íĤ¤
ìĬ¤ ì¹´
ĠëĤ Ļ
ĠìĤ¬ ë¡ľìŀ¡
ìķĦ ìĿĺ
ìŀĲ ìĻĢ
ëĤĺ ìĻĢ
ì¹ Ļ
ĠìľĦ ì¹ĺ
ĠìķĦ ëĤĺ
ĠìķĦ ëĵ¤ìĿ´
ê³¼ ëĬĶ
Ġìĺ Ĩ
ìĤ¬ ë¡ľ
Ġìĥ ¤
ĠìŀĪ ëĬĶëį°
ĠìŀĪ ì§Ģë§Į
Ġìĭľ íĭ°
ĠìĨ Ķ
Ġì§Ģ ìĥģ
Ġì§Ģ ëĤľ
ë³ ĢìĿ´
ĠìłĦ íĺĢ
ĠëĲĺ ê¸°
ëĭĪ ìĿĺ
ëĭĪ ìĸ´
Ġëª¨ ìĹ¬
Ġì° į
Ġìĸ´ ë¦´
íĦ° ëĬĶ
íĦ° ìĿĺ
ĠëĮĢ íĺķ
Ġê²ĥ ëıĦ
ë¶Ģ ê°Ģ
ìĪĺ íķľ
Ġì¡ ±
ĠìĻ ľ
ĠëıĦ ìĤ¬
Ġë³´ ê²Į
ĠìĬ¤ ì½
ĠìĬ¤ íİĺ
ĠìĨĮ ìĨį
ĠìĨĮ ìĦ¤
ĠìĹĨ ëįĺ
ĠìĹ¬ ê¸°
ĠìĹ¬ ìłĦíŀĪ
ìĥĿ íĻľ
ìłľ ë¡ľ
ë¹Ħ ë¥¼
ëħĦ ëĮĢ
ëħĦ ê°Ħ
Ġë¶Ģ ì¡±
ìĺ¤ ìĿĺ
Ġìĺ¤ ì§ģ
Ġê³µ ê°Ħ
ëłĪ ëĵľ
ĠíĮĮ ìĿ¼
ĠíĮĮ ê²¬
ëĦ ĺ
ë¬´ ìĭľíķľ
ì¶ ©
íı °
Ġê²° ìĦ±
ìĭ¤ ìĹĲìĦľ
Ġì£½ ê³ł
ìĦ¸ ê¸°
Ġì¹ľêµ¬ ëĵ¤ìĿĦ
ĠìĿĺ ìĭ¬
Ġìĸ ½
Ġì§ĳ ìķĪ
Ġë¶Ħ ìľĦ
ĠëĬ ĳëĮĢ
Ġì°¾ìķĦ ê°Ħëĭ¤
Ġê²½ ìŁģ
ĠìĥĪ ë¡ľ
ì§ģ íķľ
ë¦¬ìĬ¤ ëĬĶ
ĠíĿ ¥
ĠíĮ ħ
ĠìĤ¬ê±´ ìĹĲ
ĠìķĦìĿ´ ëĵ¤ìĿ´
ĠìķĦìĿ´ ìĸ¸
Ġê°ķ ëıĦ
ĠìĿ¸ê°Ħ ëĵ¤ìĿĢ
Ġë¦¬ íĶĮ
Ġíķľëĭ¤ ëĬĶ
Ġëª© ìłģ
Ġë°© íķ´
ìľł ìĿĺ
íļĮ ìĹĲ
íļĮ ë¥¼
Ġì¢ Į
ĠëıĮìķĦ ê°Ī
Ġìķŀ ëĳĶ
Ġìķŀ ëĳĲê³ł
Ġê´Ģ ëł¨
ĠìľĦíĹĺ ì²ľ
ĠìĤ¬ìĿ´ ë¨¼
Ġë²Ħ ë¦°
ĠìĪ¨ ë§ī
Ġíĸ¥ íķĺëĬĶ
Ġë¬¼ ëł¤
ìļķ ìĿĦ
Ġê³³ ìĿĢ
ĠìĤ¬ëĿ¼ ì§Ģê³ł
ë©Ķ ë¦¬ì¹´
Ġê²ĥìĿ´ ëĿ¼ëĬĶ
ĠìķĦëĤ´ ìĻĢ
Ġëŀ ľ
ë²Ī ì§¸
ĠìĹŃ ìĤ¬
ĠëıĦìĭľ ë¥¼
ĠìĦľë¡ľ ìĹĲê²Į
ĠíĥĪì¶ľ ìĿĦ
Ġì²« ëĤł
Ġìŀ¡ ìķĦ
ìĺĢ ëĭ¤
Ġë¯¿ ê³ł
Ġë¹Į ëŁ°
ĠíĻ© ê¸Ī
Ġìĺ¬ ëĿ¼
Ġê°ĳ ìŀĳ
ĠìłĦìĦ¤ ìłģìĿ¸
ĠêµŃ ê°Ģ
ëıħ íķľ
íŀĮ ëĭ¤
ĠëĿ¼ìĿ´ ìĸ¸
Ġë°ľìĥĿ íķĺê³ł
íķĺëł¤ ê³ł
ì¦Ŀ ìĿĦ
Ġìĭłë¹Ħ ë¡ľìļ´
ìĻĶ ëįĺ
Ġë¯¸ìĬ¤íĦ° ë¦¬íķľ
Ġëĵ¤ìĸ´ê°Ģ ê²Į
Ġëľ¨ ê±°ìļ´
ĠëŃ ī
ĠìĿ´ìľł ë¡ľ
Ġìļķ ë§Ŀ
Ġë¶Īê°Ģ ëĬ¥íķľ
ĠìĺģìĽĲ íŀĪ
ĠT V
Ġë¶Ļ ìŀ¡
Ġë°ĶìĿ´ ëŁ¬
Ġë°ĶëĢ Į
ĠíħĮëŁ¬ë¦¬ìĬ¤ íĬ¸
Ġë©ĭ ì§Ħ
ĠìĮį ëĳ¥
Ġìļ°ìĹ¬ê³¡ ìłĪ
¤ Ħ
¬ ëŀĢ
± íķľ
ë ¤Ħ
ì µľ
í ĵ¨
ī ìĿĢ
Ĳ ë¦¬
Ġë ļ
ìĿ´ ëĬĶëį°
ìĿ´ ëĵł
ìķ ¡
ìķ ŀ
ì§Ģ ëıĦ
ë¦¬ íı¬
Ġë§ º
Ġë§ İ
Ġê·¸ ë£¨
ëį ķ
ëĵ¤ ìĹ¬
ê¸° ìĻĢ
ê¸° ë§Į
Ġê° ĵ
Ġê° Ļ
íķ´ ì§Ħëĭ¤
ìĿ¸ ëį°
ĠìĤ¬ íĥľ
ĠìĿ´ ê²ĥ
ìĸ´ ëĬĲ
Ġì§ Ŀ
ëŀ ¨
ĠìĦ Ŀ
ìĹĲìĦľ ìĿĺ
ë§Į ìĹĲ
ë§Į ìĿĢ
ëıĦ ìĿĺ
Ġë§Ī ë¦¬ìķĦ
Ġíķĺ ëĭ¤
ìĽ ¬
ëª °
Ġìĭľ ëĮĢ
ĠìŀĲ ìĤ´
Ġì§Ģ íľĺ
ìĭł ìĿĺ
ëĵľ ë²¤
íĬ¸ ìĻĢ
ìĥģ ìľ¼ë¡ľ
ì² ¼
Ġìĸ´ ëĵľë²¤
ĠìĿ¸ íĦ°
ĠìĿ¸ ìłķ
ë§Ī ìĬ¤
ë¶Ģ ëĬĶ
ĠëıĦ ë¯¸
ĠìĬ¤ íģ¬
Ġê¸° ì°¨
ë²Ħ ê·¸
ìĨ Ĳ
ëĶ °
ĠìķĮ ëĿ¼
Ġë¬´ ìŀ¥
Ġê³ł ìķĦ
ìĺ¤ ëĶĶ
Ġìĺ¤ íŀĪëł¤
Ġê±° ë¯¸
Ġìľł ìłĦ
Ġìľł íĺ¹
ê· Ħ
Ġìĭł ëį°ëłĲ
ëĲĺ ë©´ìĦľ
Ġì£¼ ìĭĿ
Ġì¡° ìĤ¬
Ġì¡° ê¸Ī
âĢ¦ .
ĠìĤ¬ëŀĮ ëĵ¤
ì¶ °
ĠëĤł ìķĦ
ê±´ ìĿĦ
Ġíķ´ ë³Ģ
Ġì£½ ìĸ´
ìĦ¸ ìĬ¤
Ġì¹ľêµ¬ ë¥¼
ĠìĿĺ ìĤ¬
Ġë¡ ł
Ġ1 8
ìĦł ìĿĦ
ĠìĹ° ìķł
ĠìĹĲ ë°Ģ
ĠíĹ ĺ
ĠìĤ¬ê±´ ìľ¼ë¡ľ
ĠìķĦìĿ´ ê°Ģ
Ġë§ŀ ìķĦ
ĠìĿ¸ê°Ħ ê³¼
Ġê°Ĳ ì§Ģ
Ġë°ĺ ëŀĢ
ĠìĦł ë¬¼
Ġëĭ¨ ìĦľ
ĠìĺĪ ì¸¡
Ġì¶Ķ ëĿ½
ĠëĴ¤ ë¡ľ
ĠíıŃ íĮĮ
ĠíıŃ íĥĦ
ĠëĤ¨ìŀĲ ë¥¼
Ġìĺ¨ ëĭ¤
Ġì½Ķ ëĦĪ
ëłĪìĿ´ ëĵľ
Ġëĵ¤ìĸ´ ê°Ħ
ì´ ī
ĠìłĦìŁģ ìĿ´
ĠëĶ° ëľ»
ìĪł ìĿĦ
ĠìĬĪ ëłī
Ġë³´ëĤ´ ëįĺ
ĠìĻĦ ìłĦíŀĪ
ĠìĹĦë§Ī ìĻĢ
ëĥ Ĳ
Ġë¯¿ ì§Ģ
íĳ ¼
Ġì»¤ íĶĮ
ĠìľłìĿ¼ íķĺê²Į
Ġê°ĸ ê²Į
Ġíĳ ¸
íķ´ìķ¼ ë§Į
ì» ¨
ì» ¬
ĠëĬĲëģ¼ ê³ł
ĠíĶ¼íĦ° ëĬĶ
Ġë¹Ħíĸī ê¸°
ëĤ¬ ëĭ¤
Ġì²´ íı¬
Ġëĭ¥ íĦ°
ĠìĿ¼íĸī ìĿĢ
ĠëĳĲëł¤ ìĽĢ
Ġê·¸ê²ĥ ìĿĢ
ĠìĥĿëªħ ì²´
Ġë® ¬ëŀĢ
ë°ĸ ìĹĲ
ĠëĬĲëĤĢ ëĭ¤
Ġìŀĥìĸ´ ë²Ħë¦°
ëĪĪ ìĹĲ
Ġìº¡ íĭ´
ĠìĬ¤ì½ §
ĠìľĦíĹĺì²ľ ë§Įíķľ
ĠëĶ°ëľ» íķľ
¡ ìĿĢ
¥ ¬
º ¼
ë ĩĮ
ì «ĵ
ì ¥Ĳ
ì ¾Į
ìĿ´ ìĹĪ
ìĿ´ ëŀĢ
íķĺ ë£¨
ìķ Ļ
ìł ł
Ġê·¸ ëĵ¤ìĹĲê²Į
ê²Į ìŀĦ
ìĬ¤ íį¼
ìĬ¤ íĨ¤
ìľ Į
ĠìĤ¬ ê¸°
ĠìĿ´ íĥĪ
ĠìĿ´ ëķĮ
ìŀĲ ìĹ°
ìŀĲ ë¯¼
ìľ¼ ëĤĺ
ëĤĺ ìĿ´
ĠìľĦ ìŀ¥
ë© ĺ
ë© ľ
Ġìĺ ®
ìĭľ ìĻĢ
ìĭľ ì°©
ìĭľ íĤ¬
Ġê°Ģ ë¡ľ
Ġê°Ģ ë©´
Ġê°Ģ ë¥´
ĠìŀĪ ìĹĪëįĺ
ĠìŀĲ ìĹ°
Ġìĸ´ ìļ¸
Ġëĵ ł
ì¹ĺ ëįĺ
ĠëĮĢ íķŃ
ĠìľĦíķ´ ìĦľëĬĶ
ĠìĿ¼ ìĿĢ
ĠëıĦ ë¡ľ
Ġë§Į ìĹĲ
Ġë§Į ëĤ¨
Ġë³´ ëĤ¸
ĠìĬ¤ íĥ
ĠìĬ¤ íĨł
Ġê¸° ê´´
Ġê¸° ìģ
ë²Ħ ë¦¬ê³ł
Ġëį ķ
Ġë¬´ ì°¨
ĠìĹ¬ ëıĻìĥĿ
ë¹Ħ ê°Ģ
ë¹Ħ ìĬ¤
Ġë¶Ģ íķĺ
Ġë¶Ģ ëĮĢ
Ġìĭľìŀĳ ëĲĺëĬĶëį°
Ġìłľ êµŃ
ĠíĻ į
ìĸ Ģ
ĠíĮĮ ëĿ¼
Ġì°¾ ê³ł
Ġìĭł ê²½
Ġë¶Ī ìĭľì°©
Ġì£½ ìĿ¸
ì²´ ìĿĺ
ìĦ¸ ìĿĺ
ìĦ¸ ë¥¼
Ġëģ ¼
ìĹ° ìĿĦ
ìĨĮ ë¡ľ
Ġëħ ¹
ìĦł ëĭ¤
ĠìĹĲ ìĬ¤
Ġë¡ľ ë²Ħ
Ġíİ ł
Ġëª» íĸĪëįĺ
Ġëį° ë¦¬ê³ł
ĠíĽĦ ê³Ħ
ĠìķĦìĿ´ ë¥¼
ĠìķĦìĿ´ ëĵ¤ìĿĢ
ìĽĮ ëĵľ
ĠìķĪ ìĹĲìĦľ
ĠìĿ¸ê°Ħ ìĿĦ
Ġíĺ¸ íģ¬
êµ° ìĿĦ
ëįĶ ëĬĶ
ì¼ Ħ
ìľł íķľ
Ġê³Ħ ê¸°ë¡ľ
Ġëĭ¬ ëł¤
Ġì§Ģêµ¬ ëĬĶ
ĠìĺĪ ìĪĺ
Ġë§ĪìĿĦ ìĹĲìĦľ
Ġê´Ģ íķľ
Ġë²Į ìĿ¸ëĭ¤
Ġìļ´ ìłĦ
ì¤ĳ íķľ
Ġë§ī ìķĦ
Ġëĳ Ķ
Ġì¦ ī
Ġê¹¨ ìĸ´ëĤĺ
Ġê¹¨ ìĸ´ëĤľ
Ġê³³ ìĹĲ
ĠìĤ¬ëĿ¼ ì¡Į
ĠíķĺëĤĺ ìĿĺ
ĠíĬ¸ ëłĪìĿ´
Ġê±¸ ëł¤
Ġë°ķ ìĤ¬
Ġìĭ¸ ìĽĢìĿĦ
ĠíĥĪì¶ľ íķľ
ë°Ľ ëĬĶ
ë°Ľ ëĬĶëĭ¤
Ġì¼ Ħ
Ġì¡°ì§ģ ìĹĲ
ĠìĤ¬ê³ł ê°Ģ
Ġê²°íĺ¼ ìĭĿ
Ġì´Ŀ ìĿĦ
Ġì»¤ ìł¸
ĠìķĶ íĺ¸
ĠíĮĢ ìĿĦ
Ġê³µíı¬ ìĹĲ
Ġê°ĸ ê³ł
Ġëį°ìĿ´ ë¸Į
ëĨ Ģ
ĠìĤ´ìķĦëĤ¨ ê¸°
Ġë°©ë²ķ ìľ¼ë¡ľ
íĿ ĳ
Ġì¢ĭ ìĿĢ
Ġì¶ķ ìłľ
ìĭ± íĦ´
ĠìĬ¬ íĶĶ
Ġíģ¬ë¦¬ìĬ¤ë§Ī ìĬ¤ë¥¼
ĠëĦĪë¬´ ëĤĺ
Ġë¶Ģíĥģ íķľëĭ¤
ë©ĶìĿ´ ìħĺ
Ġë¬´ìĭľ ë¬´ìĭľíķľ
Ġê·¸ëłĩ ê²Į
Ġê³łìĸĳ ìĿ´
Ġê½ ĥ
ĠìĬ¤íĭ° ë¸Į
Ġë¹Ħë¡¯ íķľ
ĠìĪ¨ë§ī íŀĪëĬĶ
Ġë¬´ì°¨ ë³Ħ
© ë³´
µ íĳ¸
½ ê²Į
ê ¶
Ġ B
Ġ K
Ġ X
íķ Ģ
ìĹĲ ê²Ĳ
ëĭ¤ ìĭľ
ê° ĻìĿĢ
ê² Ģ
Ġìķ Ļ
ìĭ ¼
ë¦¬ ëĤĺ
Ġê·¸ ëķĮ
Ġìł ł
Ġê° Ķ
íķ´ ì§Ģê³ł
Ġë° ´
ìĿ¸ ëĵ¤ìĿĢ
ĠëĤ ¡ìĿĢ
ĠìĤ¬ ì§Ħ
ìĸ´ ìĦľ
ìŀĲ ëĵ¤ìĿĦ
ìŀĲ ëĵ¤ìĿ´
Ġê³ ¤
Ġê³ °
ìľ¼ ëł¤ëĬĶ
ìĥ ĺ
ëĤĺ ë¨¼
ëŁ ¿
ĠìķĦ ëŀĺ
Ġíķĺ ë©´
ìĽ ¨ìĿ´
Ġìĭľ ë¯¼
ĠìĪĺ ëħĢ
ĠìĪĺ ê°Ĳ
ĠìĪĺ ë°±
ëĵľ ìĭľ
ĠëĲĺ ìĤ´
ìĥģ ìĹĲ
ìĥģ íķľ
ì¹ĺ ìĿĺ
ĠëĮĢ ëł¹
Ġê²ĥ ìľ¼ë¡ľ
ìłģ ìĿ´ê³ł
ì£¼ ê³ł
ĠëĤĺ ë¬´
ĠìĿ¼ ìĥĿ
ĠìĿ¼ ëĵ¤ìĿ´
Ġë§Į ëĵłëĭ¤
Ġë§Į íģ¼
Ġë³´ ìĿ´ì§Ģ
ĠìĬ¤ ë¦´
ĠìŀĲìĭł ëıĦ
ë²Ħ ë¦¬
ìłĦ íĬ¸
ìłĦ ìŁģ
ë¦° ìĿĢ
ĠìĹĨ ëĭ¤ëĬĶ
ëªħ ìĿ´
ìĿ¼ ë¦¬
ìĿ¼ ê¹Į
Ġìĭľìŀĳ ëĲľ
ë¥´ ìĿĺ
ëł¥ íķľ
ëł¥ ìľ¼ë¡ľ
ĠëĤ¨ ê¸´
Ġìĺ¤ ëĬĶ
ë¯¸ êµŃ
Ġì°¾ ìĿĢ
Ġë°Ķ ëĿ¼
ĠëıĻ íĻĶ
ĠëıĻ ëĦ¤
ĠëıĻ êµ´
Ġêµ¬ ìĦ±
Ġìĥģ ìĸ´
Ġì¡° ìļ©
ìķĪ ìĿĢ
ĠëĤł ìĿ´
Ġì£½ ìĿ´
Ġì¤ĳ ìļĶíķľ
ì½ ¥
Ġì¹ľêµ¬ ìĿ¸
Ġìµľ ì²
Ġì°¾ìķĦ ìĻĢ
Ġ1 00
ĠëĳĲ ëª©
ĠìĥĪ ë¡Ńê²Į
Ġê¸ Ģ
íĶ¼ ëĬĶ
ĠìĦľ ì»¤ìĬ¤
ĠìĦ± ê²©
ĠìĤ´ìķĦ ê°Ģëįĺ
Ġìŀ¥ ìķħ
Ġê°Ĳ ëıħ
Ġë°ĺ ëĵľìĭľ
ĠìĦł ìĪĺ
ĠìĦł ìĥĿ
Ġì²ĺ íķĺê²Į
Ġëĭ¨ ì§Ŀ
Ġë§ĮëĤĺ ê³ł
Ġìŀĳ ê°Ģ
ĠìĺĪ ê¸°
Ġë§ĪìĿĦ ë¡ľ
Ġíıī ìĨĮ
ĠìłĢ ìĬ¹
Ġíı¬ íķ¨
ë°Ķ ìĿ´
Ġì´Ī ëĬ¥
Ġìłģ ìĿ´
Ġìłģ ìĿĳ
ĠíĥĪ ì·¨
Ġíĸ¥ íķĺëĬĶëį°
ĠìĨĲ ìĿĦ
ĠìĤ´ìĿ¸ ìĿĦ
ĠìĽĲ íķĺëĬĶ
Ġëĺ ĳ
ìĬµ ëĭĪëĭ¤
ĠìłĦìŁģ ìĹĲ
Ġê¹¨ ëĭ¬
ĠìľĦíĺĳ ìĿĦ
Ġëŀ ĺ
Ġëŀ Ń
ĠìĨĮëħĢ ê°Ģ
ĠìĿ¸ë¥ĺ ëĬĶ
ĠíĹ¤ ìĸ´
ĠìĥģíĻ© ìĿĦ
ìĺĢ ì§Ģë§Į
Ġë³µìĪĺ ìĿĺ
ìŀĪ ëįĺ
Ġëª¨íĹĺ ìĿ´
ĠìĨĮëħĦ ìĿ´
Ġìļ´ëªħ ìĿ´
íķ© ëĭĪëĭ¤
ĠìŀŃ ìĿĢ
ĠìĥĿì¡´ ìĿĦ
Ġë§ĪìĿ´ ìĸ´
ĠíĥĲ íĹĺ
ĠìĭĿ ëŁī
ĠíĸīìĦ± ìĿĺ
Ġëª¸ ìĹĲ
ë²¤ ìł¸
Ġê²ª ê²Į
ìĬ¤íĥĢ ìĥ¤
ĠìĻĢ ì¤ĳìĹĲ
ĠìłľìķĪ íķľëĭ¤
ĠíĮĮíĭ° ìĹĲ
ĠëĽ° ìĸ´ëĤľ
ĠëģĮ ìĸ´
Ġê³ĦìĨį íķ´ìĦľ
ĠìłĦíĪ¬ ë¥¼
Ġë°ĸ ìĹĲ
ëĶĺ ìĿĢ
Ġìŀĺ ëª»
Ġê°ĩ íĺĢ
ìłľìĿ´ ìĬ¨
ĠìĿ´ëģĮ ê³ł
ĠëģĬ ìŀĦ
ĠìĽĮ ìĭ±íĦ´
Ġìĺģíĺ¼ ìĿĦ
Ġëľ» íķĺì§Ģ
ĠíĿĶ ëĵ¤
ĠìĮ ĵ
Ġê°Ĳìĺ¥ ìĹĲ
Ġìĭ¤ì¢ħ ëĲľ
Ġë® ¤
ĠíĸĪ ëįĺ
Ġë²¤ ìŀĲë¯¼
ĠíĿĳ ìĿ¸
ĠìĹ°ìĩĦ ìĤ´
ĠìķłëĭĪ ë©ĶìĿ´ìħĺ
Ġì¼Ģ ë¹Ī
Ġì¿ µíĳ¸
Ġë¥ ´
Ġíĥĳ ìĬ¹
Ġê°ķìķĦ ì§Ģ
ĠíĻĶëł¤ íķľ
ĠíĮĮìĿ¼ ëŁ¿
Ġìĸ´ëĵľë²¤ ì²ĺ
r e
¬ ìĺģ
í Ľ
Ġ :
Ġ I
Ĳ ìĿĺ
Ġì ¥Ĳ
ëĭ ·
íķĺ ëĤĺ
ê°Ģ ëĬĶëį°
ë¦¬ ìĺ¤
ĠìĹ łë§Ī
ìĿ¸ ìĿ¸
ĠëĤ ³
ĠìĿ´ ëĵ¤ìĿ´
ĠìĿ´ íĺ¼
ĠìĿ´ ê²¨
ìĸ´ ëĤł
ìķĦ ëĬĶ
ìŀĲ ë²ł
ĠìķĦ ëĵ¤ìĿĺ
ĠìķĦ ë©Ķë¦¬ì¹´
ìĹĲìĦľ ëıĦ
Ġë§Ī ìĪł
ìĤ¬ ìĿ´
ìĽ °
ĠìŀĲ ë¦¬ë¥¼
ìĭł ìĿĢ
ĠëĲĺ ëıĮ
ëĭĪ íį¼
Ġëª¨ ìķĦ
Ġë¬ ĺ
Ġë¬ ¸ìĿĦ
ê°Ħ ìĿĺ
íĦ° ë¡ľ
íĻ į
ë§Ī íģ¬
Ġê²ĥ ì²ĺëŁ¼
ìłģ íķľ
ĠëĤĺ ëĤłìĿĦ
ĠìĦ¸ ìļ´ëĭ¤
ĠìĿ¼ ìĸ´ëĤľ
ĠëıĦ ë°ķ
ĠëıĦ ëĳĳ
ĠìĨĮ ëł¨
Ġëį ĺ
ìłĦ ìĿĺ
ĠìķĮ ìķĺëįĺ
Ġë¬´ ê¸°ë¥¼
ĠìĹ¬ ìłķ
ìĽĲ ìĿ¸
ìĿ¼ ìĿĦ
ëħĦ ìĿĦ
Ġìłķ ë³µ
Ġìłķ ëıĦë¡ľ
íĥĢ ìĿĺ
ë¥´ ëħ¸
Ġê³ł ë¦½
Ġìĺ¤ ê²Į
Ġìĺ¤ ëŀ«
ë¯¸ ìĿĺ
íģ¬ ìĻĢ
Ġìľł ì§Ģ
Ġìľł ìĿ¸
ĠìĥĿ ë¬¼
íĸī íķľëĭ¤
ë³´ ìĿ´
Ġìļ° ìĬ¹
Ġì£¼ ë¯¼
Ġì£¼ ë¨¹
ĠìĽ ¨
Ġëģ Ī
Ġë© ĺ
Ġì´ ¬ìĺģ
ìĭ¬ ìĹĲ
Ġëĸł ëıĮ
ëŀĢ ìĭľ
ĠíĿ ©
ĠíĿ ī
íĺ¸ ìĤ¬
ĠìķĦìĿ´ ìĿĺ
ĠìķĦìĿ´ ëĵ¤
Ġëħ¸ ë¦¬ê³ł
Ġëħ¸ ì¶ľ
ĠìĿ¸ê°Ħ ìĿ´
Ġì§Ħ íĻĶ
Ġì§Ħ ìĭ¤
Ġë°ĺ ëĮĢ
ĠëłĪ ìĺ¤
ìĸ¸ ìĿĦ
Ġì²ĺ íķľëĭ¤
ĠìĻ¸ ëª¨
Ġëĭ¬ ëŁ¬
ĠìĦ¸ìĥģ ìĿĺ
Ġìŀ¬ íļĮ
ì³ ¤
ĠíĨł ëĭĪ
ĠìĹ´ ì°¨
Ġê°ľ ìĿĺ
Ġì«ĵ ê²¨
ĠìłĦìŁģ ìĿĺ
Ġê¹¨ ìĸ´ëĤľëĭ¤
Ġê³³ ìĿĦ
ĠìĤ¬ëĿ¼ ìł¸
ĠìłĪ ë§Ŀ
ëĸ ¨
ĠìķĦëĤ´ ê°Ģ
ëŀľ ëĵľìĿĺ
ë¦´ ëĿ¼
ĠíĤ¤ ìĽĮ
Ġëª° ëł¤
Ġë¯¸êµŃ ìĿĺ
Ġìŀ¡ íĺĢ
00 0
ĠëĪĪ ìĹĲ
Ġëī´ìļķ ìľ¼ë¡ľ
ĠìĹĦë§Ī ìĿĺ
Ġíĭ Ī
ĠëĦĺ ìĸ´
Ġíŀĺ ìĿ´
Ġë²Ķì£Ħ ë¥¼
Ġëıħ ë¦½
Ġì¹¨ ê³µ
Ġë¯¸ëŀĺ ìĿĺ
Ġê°ģ ìŀĲìĿĺ
Ġë§ĪìĿĮ ìĿ´
Ġìĸ´ë¦° ìĿ´
ĠíĥĲ ìĤ¬
Ġëĭ´ ìĿĢ
ì¶Ķ ê³ł
ĠìĤ¼ ì´Į
Ġìłķë¶Ģ ìĿĺ
Ġëĸ¨ìĸ´ ìł¸
Ġê·¼ ì²ĺ
ìĻ¸ íķľ
ìĹ´ íķľ
ĠíĿ¬ë§Ŀ ìĿĦ
íľ ´
ìĬĪ íį¼
ĠìĿ¼ìľ¼ íĤ¤
Ġê¶ģ ê¸Ī
ĠìĤ¬ìĭ¤ ìĿ´
Ġíģ¬ë£¨ ì¦Ī
Ġìĥģì²ĺ ë¥¼
Ġì»´ íĵ¨
ĠìķĦíĶĦ ë¦¬ì¹´
Ġìŀ¥ëĤľ ê°Ĳ
Ġìĸ´ì© Ķ
ĠíĿĺ ëŁ¬
Ġëı¼ ì§Ģ
Ġë¬´ìĦľ ìļ´
ĠìĮįëĳ¥ ìĿ´
Ġê¸°ê´´ íķľ
ĠìĺĪê¸° ì¹ĺ
i n
l l
¸ Ĳ
½ ê³ł
ë İ
ë ¸Ĳ
Ġ J
Ġ V
Ĳ ëįĺ
Ń ê·Ħ
Ġì ³
Ġë ĩĮ
íķ ĳ
Ġê º¼
ê³ ±
ìĿ´ íĬ¸
ëĭ¤ ëĭĪ
íķľ ìĿĺ
ì§ ĪìĿĦ
ëĤ ¨ìĿĦ
ê°Ģ ìĿ´
ê°Ģ ìĹĲ
ê°Ģ ë©°
Ġë§ ¹
Ġê·¸ ë§Į
Ġê·¸ ëłī
ëĵ¤ ê²Į
ìĬ¤ ë§¨
ìĬ¤ íħľ
íķ´ ìł¸
Ġë° ¥
ĠìĤ¬ ì´Į
Ġìľ ħ
ĠìĿ´ ëŁ¬
ĠìĿ´ ìĤ¬ë¥¼
ĠìĿ´ ë¤Ħ
ìĸ´ ë¥¼
ìĸ´ ë¦°
ìķĦ ìĿ´
ìķĦ ë¥¼
ëĿ¼ ìĹĲ
ëĿ¼ ëĵľ
ëĿ¼ ìļ°
ìľ¼ ëĭĪ
ìľ¼ ë©´
ëĤĺ ë¥¼
ëĤĺ ê²Į
ĠìľĦ ë¡ľ
ĠìľĦ ëĮĢíķľ
ĠìľĦ ê¸°ê°Ģ
ĠìķĦ ê¸°
ĠìķĦ ë§Ī
ĠìķĦ ì£¼
ĠìķĦ ëĭ´
ìĭľ ì¹´
ëıĦ ìĸ´
Ġë§Ī ìĬ¤
Ġë§Ī ìĭľ
Ġê°Ģ ë¬¸ìĿĺ
ĠìŀĪ ê²Į
ë¬ ĺ
ìĭł ìĿ´
ĠìłĦ íĻĶë¥¼
ëĵľ ë¦¬
êµ¬ ìĹŃ
Ġëª¨ ìŀĲ
Ġìĸ´ ëĳĲ
Ġêµ ´
íĻ ķ
ë¹ ħ
ë¹ Ľ
ë§Ī ì¹¨
Ġíķľ ë³µ
ìĪĺ ê°Ģ
ĠëĤĺ ëĬĶ
ê³Ħ ìĿĺ
Ġì² ©ë³´
Ġê¸° ëĮĢ
Ġê¸° ëħĲ
ĠìĨĮ ë¦¬
ĠìĨĮ ìĭĿ
Ġëį ®
Ġë¬´ ìĸ¸
Ġë¬´ ëį¤
ìĽĲ ìĹĲ
íĥĢ ë¥¼
Ġë¹Ħ ëĶĶìĺ¤
ìĿĮ ìĿ´
ë¯¸ ìķĦ
Ġë°Ķ ê¾¸
ĠìĥĿ ê¸´
ĠëıĻ ìĽĲ
ë³´ ëĭĪ
íĻĶ ê°Ģ
Ġë°ľ ëªħ
Ġìĭł ë¬¸
ëĲĺ ì§Ģ
Ġìļ° ìłķ
Ġì£¼ ìĸ´
Ġìĥģ ëĮĢ
Ġëĸ ¼
Ġë¶Ī ê¸¸
Ġê²° ê³¼
íķĺê¸° ë§Į
Ġì£½ ìĿĦ
Ġì¤ĳ ìĹĲ
Ġë© °
ĠìķĬ ìķĦ
Ġìĸ ĺ
Ġì§ĳ ëĭ¨
ĠíĶ¼ ìĺ¤
Ġ1 1
Ġëĵ¤ ìĿĢ
Ġëĵ¤ ëł¤
Ġê³¼ íķĻ
Ġëĸł ìĺ¤
Ġë¹ł ì§Ģê³ł
ëĭ¹ íķľëĭ¤
Ġë¦ °
Ġë¡ľ ë§¨
Ġë¡ľ ë²ĦíĬ¸
Ġíİ Ńê·Ħ
Ġìķħ ìĿĺ
Ġíĸī íģ¬
Ġë§Ĳ íķľëĭ¤
Ġë§Ĳ ëłĪ
Ġê°Ĳ ìłķ
Ġë°© ìĭĿìľ¼ë¡ľ
ê·¸ ìĻĢ
ĠëıĮìķĦ ìĺ¨ëĭ¤
ĠìĺĪ ê³ł
ê´Ģ ìĿĦ
ĠìĦ¸ìĥģ ìĹĲìĦľ
Ġê´Ģ ìĭ¬
ê°Ĳ ìĹĲ
Ġì¹´ ìĿ¼
ĠíĤ ´
Ġë§ī ëĤ´
Ġë§ī ê°ķ
Ġê± ±
ì»¤ ë²¨
ĠìĹ´ ìĩł
ĠìĽĲ ìĪŃìĿ´
Ġìŀĥ ê²Į
ĠìłĲ ëł¹
Ġê¿Ī ìĹĲ
Ġê¿Ī ê¾¼
ĠëĶ° ëıĮ
Ġë£ °
Ġêµ° ìĤ¬
Ġì§ģ ê°Ĳ
ĠëĺĲ ëĭ¤ìĭľ
Ġì¶ľ ìĹ°
íģ´ ëłĪ
ĠìķĦëĤ´ ìĿĺ
ĠìĤ¶ ìĿĺ
Ġëŀ ¨
ĠìĿĢ ìĭł
ĠíĤ¤ ìļ°
ë¡ł ìĿĢ
ĠíĻĺ ìĺģ
Ġì²« ìĤ¬ëŀĳ
Ġë£¨ ìĭľ
ĠëĪĪ ìķŀ
Ġë¯¿ ëĬĶ
íĥĦ ìĿĺ
Ġë§¥ ìĬ¤ëĬĶ
Ġíŀĺ ìľ¼ë¡ľ
Ġì¢ħ ë§Ĳ
ĠíĮ¨ ìħĺ
ĠìºĲ ë¦Ń
ĠíıīíĻĶ ë¥¼
Ġëª¨ìĬµ ìľ¼ë¡ľ
Ġìĸ» ê¸°
Ġìķ½ íĺ¼
ìŀ¡ ìĿĦ
ìĭľíĤ¤ ê³ł
ìĭľíĤ¤ ê¸°
ĠíļĮ ë³µ
ĠìĻķêµŃ ìĿĺ
ìĩ ¼
Ġë¨¸ ë¬¼
ĠìķĦë¹ł ìĿĺ
Ġë°ĽìķĦ ëĵ¤ìĿ´
Ġìķ¤ ëĵľ
Ġíķĺë£¨ íķĺë£¨
Ġìĸ´ë¨¸ëĭĪ ë¥¼
Ġì¼ĢìĿ´ ì§Ģ
ĠìŀĳìłĦ ìĹĲ
ĠíĹĪ ëĿ½
Ġëĵ±ìŀ¥ ìľ¼ë¡ľ
Ġìķ¨ ë¹Ī
Ġë³´íĺ¸ íķĺê¸°
ëıĪ ìĿĺ
ìĵ ´
ĠíĻķ ìĿ¸
ê¶Į ìĿĦ
ĠíĬ¹ìĪĺ ë¶ĢëĮĢ
Ġëª©ê²© íķľ
ĠíķŃ ìĥģ
ĠíĶĦëłĪ ëį°
Ġë¹Ī ìĦ¼
Ġê¹¨ëĭ« ê²Į
Ġì£Ħ ìĪĺ
ĠëŀĮ ë³´
Ġíħ įìĤ¬
Ġê¸°ìĪł ìĿĦ
ĠìĺģìĽĲ íķľ
Ġì¹ĺë£Į ë¥¼
ìį ½
ĠìĪĺìĥģ íķľ
ë¦¬ìļ° ëĵľ
Ġì§ģìıĺ ìĿĺ
ĠëĴ¤ì§ĳ ìĸ´
ĠíıĲíĹĪ ê°Ģ
ë§ĪìĿ´ íģ´
ĠìķĦìĿ´ìĸ¸ ë§¨
Ġì£¼ìĭĿ íļĮ
Ġê¸°ìģ ¨
Ġìĺ¤ëŀ« ëıĻìķĪ
Ġíķľë³µ íĮĲ
' .
S A
i e
Â ·
ë »
ì ¥¬
í Ī
Ģ ìĸ´
Ł ìķĦ
ìĿ´ ë©´
ìĹĲ ìĿ´
ìĹĲ ê³ł
ëĭ¤ ëŀĢ
ë¡ľ ìĬ¤
ë¡ľ ëĵľ
ë¡ľ ìĽĮ
ê³ł ìŀĲ
ìķ ĻìĿĦ
ê°Ģ ìĿĺ
ë¦¬ ëĬĶëį°
ë¦¬ ìĹĲê²Į
ë¦¬ ë²Ħ
ë¦¬ ìķĶ
Ġê·¸ ëŀĺ
ëĵ¤ ëıĦ
Ġìł Ĭ
ìĬ¤ ìĹĲê²Į
Ġê° ĻìĿ´
ìĦľ ë¡ľ
ĠìĹ ¼
Ġë° ĳ
ĠìĿ´ ëĬĶ
ĠìĿ´ ëĵ¤ìĹĲê²Į
ì¹ ĻìĿĦ
Ġëĭ Į
ĠìķĦ ëĬĶ
ë§Į íģ¼
Ġë§Ī ìĬ¤íĦ°
Ġë§Ī ëł¨
Ġê°Ģ ê³ł
Ġê°Ģ ëįĺ
Ġê°Ģ ëĬ¥íķľ
Ġê°Ģ ìĬ´
.. ..
ìĽ ł
ĠìŀĲ ë§¤
ĠìłĦ ê¸°
ĠìłĦ ê¹Įì§Ģ
Ġíķ Ģ
Ġëª¨ ìľ¼
Ġìĸ´ ëĶĺ
ì° Į
ĠëĮĢ ìľĦ
ĠëĮĢ ë¦½
ĠëĮĢ íķĻìĥĿ
ë¶Ģ ë¡ľ
Ġíķľ ëķĮ
ĠëĤĺ ìĺ¤ëĬĶ
ĠìĤ´ ëįĺ
ĠìĿ¼ ìĸ´ëĤľëĭ¤
ĠìĿ¼ ê³±
ĠëıĦ ìĻĢ
Ġë³´ ëĬĶ
ĠìĬ¤ ë¯¸ìĬ¤
ë©´ ìĿĦ
ĠìĨĮ íĸī
ĠìĨĮ ë¦¬ë¥¼
ëĤ´ ì§Ģ
ìłĦ ìĤ¬
ĠìĹĨ ê²Į
ĠìĹĨ ìĸ´
ìĽĲ ìĹĲìĦľ
ìĿ¼ ìĿĺ
Ġë¶Ģ ìŀĲ
Ġìĭľìŀĳ íķĺê²Į
ë¥´ ê¸°
ë¥´ ë©°
Ġìłľ ëĮĢë¡ľ
ëł¥ ìĿ´
ëł¥ ê³¼
Ġìĺ¤ íķ´
Ġì°¾ ëĬĶëĭ¤
ëĦ £
Ġë°ľ ëłĪ
Ġêµ¬ íķĺê³ł
ëĲĺ ê¸°
Ġìļ° ìłķìĿĦ
ìĦ± ìĹĲ
ìĦ± ê³¼
Ġì£¼ ìľĦ
Ġì£¼ ìĸ´ì§Ħ
Ġìĥģ ê´Ģ
Ġìĥģ ëĮĢë¡ľ
ìĤ Ń
Ġì¡° ê±´
âĢ¦ !
ìķĪ ìĿĺ
ì¡± ìĿĺ
ë¬¼ ìĿ´
ìĹĪ ê³ł
Ġë¶Ī ë²ķ
ì²´ ìĹĲ
íĭ° ëĬĶ
Ġì¤ĳ ìĿ´ëĭ¤
Ġì¹ľêµ¬ ìĿ´ìŀĲ
Ġìµľ ëĮĢ
Ġìµľ ì´Ī
ìĹ° ë³ĢìĿ´
Ġì§ĳ ì°©
ìĨĮ íķľ
ìĨĮ ìĹĲìĦľ
ĠíĶ¼ ìĹĲ
ĠëıĮ ëł¤
ë°Ģ íķľ
Ġê²½ ê³Ħ
ë§Ŀ ìĿĦ
Ġì¡´ ìĬ¨
Ġì½ ¤
Ġë§ŀ ëĭ¥
Ġê°ķ ê°Ħ
Ġíĺ¸ ê·¸ìĻĢ
ĠìĤ¬ëŀĳ ìĿĺ
Ġë¦¬ ì²ĺ
ìĤ´ ìĿĺ
Ġë§Ĳ ìį½
Ġìŀ¥ êµ°ìĿĢ
Ġê¹ Į
ìĨį ìĹĲ
íĮ Ķ
Ġëĭ¬ ëĿ¼
ĠëıĮìķĦ ìĺ¤
ĠëıĮìķĦ ìĻĶ
ëħ¸ ìĬ¤
ëħ¸ íĤ¤
ĠëĿ¼ ìĬ¤
Ġíıī ìĺ¨
Ġê´Ģ ìĭ¬ìĿĦ
Ġë°ľê²¬ ëĲľ
Ġ2 2
Ġìŀ¬ ëĬ¥ìĿĦ
Ġì´Ī ìĽĶ
ĠëĪĦ ëªħìĿĦ
Ġë²Ħ ë¦¬ê³ł
Ġë§ī ìĿĦ
ĠìĨĲ ëĭĺ
ĠíĨł ë¯¸
ĠìĹ´ ë¦¬ëĬĶ
ìĬµ ìĿĦ
Ġì«ĵ ëįĺ
Ġì¡´ìŀ¬ íķĺëĬĶ
ĠìĤ¬ëĿ¼ ì§ĢëĬĶ
Ġë£ ¸
ĠíķĺëĤĺ ìĶ©
Ġìļ© ê¸°ë¥¼
Ġì§ģ ë©´
íĺķ ìĿĦ
íħĮ ëŀĳ
íħ Ģ
Ġë³¸ ëĬ¥
Ġê²ĥìĿ´ ëĿ¼
ĠíĬ¸ ë¦¬
ĠíĬ¸ ë¡¤
ĠìĤ¶ ìĹĲ
ĠëĸłëĤĺ ëĬĶ
ĠìĹŃ ëĮĢ
Ġìĭ¸ ìĽĮ
Ġê³µê²© ìĹĲ
ĠíĻĺ ìĥĿ
ĠíĹ¤ ë§¤
ĠìĹĦë§Ī ê°Ģ
Ġë§Įëĵ¤ ê³ł
Ġë²Ī ìĿĺ
ĠìķĶ íĿĳ
Ġì§ĢíĤ¤ ëĬĶ
Ġëª©ìĪ ¨
Ġê³µíı¬ ìĿĺ
íĤ¨ ëĭ¤
Ġì²ľ êµŃ
Ġë§Īì£¼ ì¹ĺê²Į
ĠìŀĶ íĺ¹íķľ
ĠëıĦì°© íķľëĭ¤
Ġíķ© ì³Ĳ
ĠìĬ¹ ë¬´
íĸ¥ ìľ¼ë¡ľ
Ġê²ª ìĿĢ
Ġìĸ´ë¨¸ëĭĪ ìĿĺ
Ġë²Įìĸ´ ì§Ģê³ł
ĠìĪ² ìľ¼ë¡ľ
Ġëĭ´ ëĭ¹
Ġëĭ´ ê¸´
ĠìĿ¸ìĥĿ ìĿĺ
Ġìłķìĭł ë³ĳ
ĠìĬµ ê²©ìĿĦ
ìĵ ¸
Ġê°ĩ íŀĪê²Į
ĠìĿ´ëģĮ ëł¤
ĠíĴĪ ê³ł
Ġì§Ģê¸Ī ìĿĢ
ĠìłľìĿ´ìĬ¨ ìĿĺ
Ġëľ» ë°ĸ
Ġì» ¨
Ġë©Ģ ë¦¬
Ġê¾¸ ë¯¸
ĠìĺĽ ëĤł
Ġëĵ¯ íķľ
Ġê¹¨ëĭ« ê³ł
ĠìĿ´ë£¨ ê¸°
ĠíĿĶ ìłģ
Ġë¨¼ ìłĢ
Ġì¶ľìĭł ìĿĺ
Ġì¢Ģ ë¹Ħ
Ġê¸´ ìŀ¥
ì¼ĵ ëª¬
ĠìĬ¤ì¹´ ìĿ´
Ġì¢ĭìķĦ íķĺëĬĶ
ĠìĹĲë¦Ń ìĿĢ
Ġìī ½ê²Į
Ġíĺĳ ë°ķ
Ġì§ľ ë¦¿
Ġë°Ķê¿ Ķ
Ġë§¤ëĭĪ ìłĢ
ĠìĬ¤íĮĮìĿ´ëįĶ ë§¨
ĠëĳĺëŁ¬ ìĭ¼
ê·ľ ëª¨
ĠìĹŃìĤ¬ ìĥģ
ĠëıĦë¯¸ ëĭī
Ġìµľì² ¨ëĭ¨
Ġíı¬íķ¨ íķľ
Ġì»´íĵ¨ íĦ°
Ġì³ Ĳ
Ġìĸ´ëĳĲ ìļ´
Ġë©° ì¹ł
' ,
1 0
1 8
¡ ì¹´
Ġ H
Ġ P
Ġ R
ķ ê´´
Ġì ī´
ìĿ´ ìĿĺ
ëĭ¤ ë©°
íķĺ ëĿ¼ëĬĶ
ë¡ ¬
ë¡ ±
ëĵ ¯
ê³ł ìĿĺ
Ġìŀ ī
ë¦¬ ì¦Ī
Ġë§ ´
Ġê·¸ ëĵ¤ê³¼
Ġê·¸ ìłĢ
ê¸° ëıĦ
ëł Ģ
ìĦľ ë¦°
ìĿ¸ ëĵ¤ìĿĦ
Ġìĭ ±
ĠìĿ´ ëĤ´
ĠìĿ´ ëıĻ
ĠìĿ´ ëłĩ
Ġê² ī
ëĿ¼ íģĺ
ĠìķĦ ìĪĺ
ĠìķĦ ìĬ¬
ë§Į ìŀ¥
Ġìĺ ·
ëıĦ ê°Ģ
Ġê°Ģ ëĤľíķľ
ĠìŀĪ ìĸ´
Ġìĭľ ìłĢ
ĠìŀĲ ìĽĲ
ĠìŀĲ ëŀĢ
Ġì§Ģ ìĨį
Ġì§Ģ ëĬ¥
Ġì§Ģ íĤ¬
Ġë¹ ļ
ìĭł íŀĪ
íĺ ľ
ĠìłĦ ìĹŃ
íĬ¸ ë¦¬
ĠëĲĺ ìĹĪëĭ¤
Ġë² ħ
Ġë¬ ¶
Ġì¹ ¸
ìŀ¥ ìĿ¸
ëł¤ ì§Ħ
íĻ Ģ
ì¹ĺ ëĬĶëį°
ĠëĮĢ ê·ľëª¨
ë¶Ģ ìĹĲ
Ġë¶ ķê´´
Ġëĭ¤ ë£¬
ì£¼ ìĿ¸
ĠëĤĺ ëĿ¼
ĠìĤ´ ê¸°
Ġë³´ ìĹ¬
ĠìĬ¤ íĶĦ
Ġê¸° ìĤ¬
ĠìŀĲìĭł ëĵ¤ìĿ´
ĠìŀĲìĭł ë§ĮìĿĺ
ĠìĨĮ ìľł
ĠìĨĮ ê°ľ
ëĶ ª
ìłĦ ìĹĲìĦľ
ĠìĹ¬ íķĻìĥĿ
ĠìĹ¬ ìłķìĹĲ
ìłķ ìĺĪ
íĭ ¸
Ġë¶Ģ ìĥģìĿĦ
Ġë¶Ģ ëĶª
ëł¥ ìĿĺ
Ġê³ł ìĬ¤íĬ¸
Ġìĺ¤ ëĳĲ
Ġê³µ ì¡´
Ġê±° ì§ĵ
íģ¬ ë¡ľ
ëĶĶ ë¥¼
Ġë°Ķ ëĭ·
ë³´ ê³ł
ë³´ ëįĺ
Ġë°ľ ê°ģ
Ġë°ľ íľĺ
Ġì£¼ ëĬĶ
Ġì£¼ ëª©
Ġìĥģ ì§ķ
ìķĪ ìĿĦ
ë¬¼ ìĹĲ
ĠìĤ¬ëŀĮ ëĵ¤ìĹĲê²Į
Ġíķ´ ìķ¼
Ġë¶Ī ìĿĺ
ì¦ ĺ
ĠìĽ ¡ì¹´
ĠìķĬ ëįĺ
ĠìĨį ìĿĺ
íĶĦ ê°Ģ
íĶĦ ëŀĢìĭľ
ì¹´ ë¥¼
ĠëıĮ ìĹ°ë³ĢìĿ´
ìĭ¬ íķľ
Ġì°¾ìķĦ ëĤ´
Ġëĵ¤ ìĿ´
ĠìĹ° ë°©
ĠíĹ Ĳ
Ġë¡ľ ëĵľ
ë¶ ĵ
ì¦Ī ìĻĢ
Ġì¡´ ìĬ¤
Ġê°Ģì¡± ëĵ¤ìĿĢ
ĠìĦ¸ê³Ħ ìĹĲìĦľ
ĠìķĦìĿ´ ëĬĶ
ĠìķĪ ëĤ´
ĠìķĪ íĨł
Ġíĺ¸ íĶĦ
Ġë¦¬ ìĺ¨
Ġë¦¬ íĭĢ
Ġë§Ĳ ì½¤
ëįĶ ë¸Ķ
Ġê°Ĳ ê¸Ī
Ġê°Ĳ ì¶ĺ
ĠìļĶ ìĥĪ
ĠëłĪ ëĵľ
ĠìĦł ìŀ¥
Ġê³Ħ ëŀµ
íļĮ ìĹĲìĦľ
ĠìĻ¸ ë¡ľìļ´
Ġë°° ìĹĲ
Ġë°° íĽĦ
Ġë°° ëĭ¬
ĠìĺĪ ìĪł
íĸĪ ì§Ģë§Į
Ġ2 00
Ġìŀ¬ ìĤ°ìĿĦ
ĠìķĦë²Ħì§Ģ ëĬĶ
ĠíıŃ ì£¼
Ġì´Ī ë¡Ŀ
Ġì´Ī ì½ľ
Ġì¹´ ë¥´
Ġëĵ± ìĿĦ
Ġì¹ĺ ìĹ´íķľ
ìłĪ ëªħìĿĺ
Ġë²Ħ ë¦°ëĭ¤
ê²° ìĹĲ
Ġìŀł ìŀ¬
íĻľ íķľ
ĠêµĲ íĨµ
ĠìĹ´ ìłķ
ĠëĶ¸ ìĿĺ
ìĹħ ìĿĦ
Ġê°Ħ ìĭłíŀĪ
ë²Ķ ì£Ħ
ĠíĬ¹ ê¸ī
Ġìķł ìĻĦ
ìĺģ íĻĶ
ìķ½ ìĿĦ
ëĦ¤ ìĿ´
ĠìłĪ ì²´
íĴ ĪìĿĦ
ĠìĿĮ ìĭĿ
ĠëĲĺìĸ´ ë²Ħë¦°
Ġê³¼ê±° ìĻĢ
Ġë§ŀìĦľ ê¸°
ĠëĪĪ ì¹ĺ
Ġë§Įëĵ¤ ê¸°
Ġë¯¿ ìĿĦ
ë´ Ĳ
Ġì»¤ ëĭ¤ëŀĢ
Ġíŀĺ ìĹĲ
Ġíŀĺ ëĵł
ĠìĹ¬ìŀĲ ë¥¼
ĠëĨĵ ìĿ¸
ëĭĺ ìĿĺ
ìĭľíĤ¤ ëĬĶ
ĠëĿ¼ìĿ´ ë²Į
ĠíļĮ ìĤ¬
ëľ ©
Ġê°Ī ìĪĺë¡Ŀ
ĠëıĻë£Į ëĵ¤ìĿĦ
ĠìĭĿ ëĭ¹
ĠëĤ¨íİ¸ ìĿĺ
ĠëĶĶ ìĹĲê³ł
ĠìĦ¬ ìĹĲ
Ġì±ħ ìŀĦ
Ġìĸ´ë¨¸ëĭĪ ìĻĢ
ĠìĪ¨ê²¨ ìł¸
ĠëģĮ ê³ł
ĠíĴĢ ìĸ´
19 8
ĠìŀĳìłĦ ìĿ´
ĠìĤ¼ ìķĦ
ĠëĬĲëģ¼ ê²Į
ĠíĻľ ëıĻ
Ġì§Ī íĪ¬
ĠëĤĺìĦľ ê³ł
ĠëıĦë§Ŀ ì¹ĺ
ĠìĺģìĽħ ìĿ´
Ġíİ¼ì³Ĳ ì§ĢëĬĶ
ë¿Ĳ ìĿ¸
Ġìħ Ģ
Ġìħ ĭ
Ġì°© íķľ
ĠìŀĪìĹĪ ê³ł
Ġíķ´ê²° íķĺê¸°
Ġê²½íĹĺ ìĿĦ
ĠíķŃ íķ´
Ġëĭ¤ìĿ´ ìķĦ
Ġê¹¨ëĭ« ëĬĶëĭ¤
ĠëĬ¥ëł¥ ìĿ´
Ġê¸°íļĮ ë¥¼
ĠíĶĦëŀŃ íģ¬
Ġëĭ¤ëĭĪ ìĹĺ
Ġê³łëĵ± íķĻìĥĿ
ìį ¨
ĠìĹī ëļ
Ġíľĺë§Ĳ ë¦¬ê²Į
ĠíĶĦëŀĳ ìĬ¤
Ġìķķ ëıĦ
Ġê¸°ìļ´ ìĿĦ
ìĤ¬ê³ł ë¡ľ
ĠìĭłìĦ¸ ê°Ģ
ĠíĶĦë¡ľê·¸ ëŀ¨
ĠìķĦíĮĮ íĬ¸
Ġëħ¸ëŀĺ ë¥¼
ì¿ Ħ
ĠìĿ¸ì§Ī ë¡ľ
Ġìı ŁìķĦ
ĠìķĦëĤĺ ìĬ¤íĥĢìĥ¤
ĠíĮħ ì»¤ë²¨
Ġëļ «
Ġì§Ŀ ìĤ¬ëŀĳ
ì¾Į íķľ
ĠìĿ´ëŁ¬ íķľ
Ġê¿Īê¾¼ ëĭ¤
ĠìºĲë¦Ń íĦ°
ĠìķĦìĪĺ ëĿ¼
Ġìĺ¤ëĳĲ ë§ī
íĶĦëŀĢìĭľ ìĬ¤ì½Ķ
Ġì´Īì½ľ ë¦¿
A L
N A
a t
e n
o r
µ ìĿĦ
» ë°¤
ê ½
ë ¿
Ġ U
Ġ 00
Ġ ãĢ
Ġì ıĺ
Ġë Ŀ
Ġí Ĭ
ëĭ ĺìĿĦ
ìĹĲ ëĵľ
íķĺ ëĭ¤ëĬĶ
ë¡ľ ìĿĺ
ë¡ľ ê°Ģ
ë¡ľ ë²ĦíĬ¸
ê² Ł
ìŀ İ
ì§Ģ ìĻĢ
Ġê·¸ ë¡ľ
Ġê·¸ ë¡ľë¶ĢíĦ°
ëį ©
ëĵ¤ ëŁ¬
ëĵ¤ ë¡ľë¶ĢíĦ°
ìĬ¤ íı¬
ìĿ¸ ëĵ¤ìĿ´
ìĿ¸ ëĵ¤ìĿĺ
ìľ ½ê³ł
ĠìĤ¬ ë¬´
ĠìĿ´ íķ´
ĠìĿ´ ìľ½ê³ł
ëĿ¼ ë©´
ìŀĲ ëĵ¤ìĿĺ
ëĤĺ ê°Ħëĭ¤
ì¹ µ
ì¹ Ń
ĠìķĦ ê°Ģ
ìĻĢ ìĿ´
ëħ ģ
Ġìĺ ¥
ìĭľ ê°Ģ
ë° ´
ë° į
ìĺ ¹
Ġë§Ī ì¹ĺê³ł
Ġë§Ī íĶ¼ìķĦ
Ġíķĺ ë£
Ġíķĺ ìĸĢ
Ġê°Ģ ìĿĦ
ìĤ¬ ìĿ¼
ëª ¸
Ġìĭľ íĹĺ
Ġìĭľ ìĬ¤íħľ
ĠìĨ ¡
ĠìłĦ íķ´
ĠìłĦ ë©¸
ìĥģ ì¹ĺ
ìĥģ íĥľ
ëĭĪ ê°Ģ
ëĭĪ ìĹĲê²Į
ëĭĪ ì½ľ
Ġëª¨ íĶ¼
Ġìĸ´ ë¥¸
Ġìĸ´ ë²¤ìł¸
íĦ ¸
ĠìĿ¸ ëıĦ
Ġêµ ¶
ì¹ĺ ë©´ìĦľ
ë§Ī ìĿĦ
Ġíķľ ì°½
Ġíķľ ìłģíķľ
Ġëĭ¤ íģ¬
Ġëĭ¤ ì§Ĳ
ìłģ ìĿĺ
ì£¼ ê¸°
ĠëĤĺ ìĺ¤
ĠìĤ´ ê²Į
ĠìĦ¸ ëł¥ìĿĦ
ĠëıĦ ì£¼
Ġë§Į ëĵľëĬĶ
íŀ Ĳ
Ġë³´ ë©°
ĠìĬ¤ íĮ¨
Ġê¸° ìĹħ
ë²Ħ ìĬ¤
ë²Ħ ëĵľ
ĠìĨĮ ìĽĲìĿĦ
ĠìķĮ ë¦¬
ĠìĹĨ ìĹĪëįĺ
Ġë¬´ ë¦¬
Ġë¬´ ë¦¬ìĿĺ
íĤ ´
ĠìĹ¬ ìĭł
ë¹Ħ ìĻĢ
íŀĪ ê¸°
íĥĢ ê°Ģ
Ġë¶Ģ ìĥģ
Ġìĭľìŀĳ ëĲĺê³ł
Ġìĭľìŀĳ íķĺë©´ìĦľ
ëł¥ ìĹĲ
Ġê³ł ê³ł
Ġê³ł ë°±
ìĺ¤ ë¥¼
Ġìĺ¤ ë¡ľ
Ġìĺ¤ íĨł
Ġê³µ íķŃ
Ġê±° ì£¼
Ġì°¾ ìĿĦ
Ġìľł ëĮĢ
ë³´ ë¥¼
Ġë°ľ ì¹µ
ê±° ë¦¬
Ġêµ¬ íķľ
ëĲĺ ìĹĪëĭ¤
ìĦ± ìĿĺ
Ġíķ¨ ìłķìĹĲ
ë¬´ íķĺëĬĶ
ëª¨ ëĳĲ
ë£¨ ëĬĶ
ì¦ Į
Ġê·¸ëħĢ ìĻĢ
ĠìĽ ¨ìĿ´
íĭ° ë¥¼
Ġì¤ĳ êµŃ
Ġì¤ĳ ìĭ¬ìľ¼ë¡ľ
ìĦ¸ ìĿ´
ëŀĺ ëĵľ
ĠìĿĺ ë¯¸
ĠìĿĺ ë¬¸ìĿĦ
Ġë¡ ¤
Ġìµľ ìłķìĺĪ
ĠíĶ¼ ëħ¸íĤ¤
íĶĦ ë¦¬
ĠëıĮ ìŀħ
ĠëĬ ¦
Ġ1 7
ĠëĳĲ ê³ł
ĠìĹ° ê²°
ĠìĥĪ ëģ¼
ĠíĹ ¨ë¦¬
Ġë¹ł ì§Ģ
Ġë¹ł ë¥´ê²Į
íĶ¼ ìĺ¨
Ġíŀ Ĳ
Ġë¡ľ ë§Ī
ĠíĿ ¡
ĠëĨ Ī
Ġìĭ¤ ìłľë¡ľ
íĨł íĻĶ
íĨł íį¼
Ġê°Ģì¡± ìĹĲê²Į
ĠìĦ¸ê³Ħ ê°Ģ
íĺ¸ ëĬĶ
íĺ¸ ìĿĺ
ĠëįĶ ê·¸
Ġíģ¬ ëłĪìĿ´
ĠìĦ± ìĹĲ
Ġë§ŀ ê²Į
ĠìĻķ ìĿ´
Ġëħ¸ ë¥´
ìħ ī
êµ° ìĿ´
êµ° ê³¼
ëįĶ ëĭĪ
Ġë§¤ íĬ¸ë¦Ń
Ġë°© ìĨ¡
Ġë°ĺ ë©´
ĠëłĪ ì§Ģ
ìĨį ìĹĲìĦľ
íĮ ¬
Ġì²ĺ íĤ¤
ë¸Į ëĿ¼
Ġëĭ¬ ë§Ī
Ġëĭ¬ ëĿ¼ê³ł
ë¦Ħ ìĿĦ
Ġëĵľ ëĿ¼ìĿ´
Ġë°° ê²½
Ġì¶Ķ ê²©ìĿĦ
ĠìĦ¸ìĥģ ìĿĢ
ĠëĴ¤ ë°Ķ
ĠëĴ¤ ì«ĵ
ĠìłĢ ëħģ
ĠëķĮ ë¶ĢíĦ°
Ġíı¬ ë¥´ëħ¸
Ġíı¬ ì¼ĵëª¬
Ġë°ľê²¬ ëĲľëĭ¤
Ġìŀ¬ ëĤľ
ĠìķĦë²Ħì§Ģ ìĻĢ
Ġì´Ī ìŀĲìĹ°
Ġì´Ī íĨłíĻĶ
Ġëĭ¹ ìĭľ
Ġê²Į ë¦´ëĿ¼
Ġë²Į ìĸ´ì§Ħ
ĠëĤ¨ìŀĲ ëĬĶ
ê°ģ ìĿĦ
Ġìļ´ ìĦĿ
Ġìļ´ ë°ĺ
ĠìĪ¨ ê¸´
Ġìŀł ìĹĲìĦľ
Ġë¬¼ ê³ł
Ġë¬¼ ëŁ¬
ìļĶ ì»¤
Ġì°¨ ë¡Ģ
ĠíĨł ë¥´
ĠíĨł ëģ¼
ĠëĶ¸ ê³¼
Ġê´´ íķľ
ĠëģĿ ëĤĺ
ĠëģĿ ëĤ´
ëĭ¬ ëĿ¼ê³ł
Ġê¿Ī ê³¼
Ġì«ĵ ëĬĶ
Ġì«ĵ ê³ł
ëŀĳ ìĿ´
Ġëī´ ìļĶì»¤
Ġëª¨ëĳĲ ìĿĺ
Ġëª¨ëĳĲ ë¥¼
ĠíĴ ĭ
ìĺģ ìĿĢ
Ġë²ł íħĮëŀĳ
ĠíķĻ ìĤ´
Ġìŀħ ìĿĢ
ĠìĿ´ìĥģ ìĿĺ
Ġì¶ľ ë°ľ
Ġë¸Į ë£¨ìĬ¤
ĠìĿĢ ëĳĶ
Ġë°ķ ìĤ¬ê°Ģ
Ġê³µê²© ìľ¼ë¡ľ
Ġìļ°ì£¼ ìĿĺ
Ġê³¼ê±° ìĹĲ
ĠìĿ¸ë¥ĺ ê°Ģ
ĠíĥĪì¶ľ íķľëĭ¤
Ġì²« ëĪĪìĹĲ
ĠíĹ¤ ìĸ´ì§Ħ
Ġìŀ¡ ê³ł
Ġìŀ¡ ê¸°
ĠìłľìĿ´ ì½¥
ĠëĤ©ì¹ĺ íķ´
ĠëĤ©ì¹ĺ ëĲľ
Ġëī´ìļķ ìĹĲ
ë¦¼ ìĿĦ
ĠìĹĦë§Ī ë¥¼
ëĥ Ī
Ġëľ ¬
Ġë©Ķ ìĿ´
Ġë©Ķ ìĭľ
ëĵ± íķĻêµĲ
ìĸĳ ìĿĦ
Ġíģ¬ë¦¬ìĬ¤ íĥĪ
ĠìĨĮëħĦ ìĿĦ
ë²ł ìĿ´
ë¸Ķ ë£¨
ĠëĤĺíĥĢëĤĺ ê³ł
ĠíŀĪ ë¸Įë¦¬
Ġê²ĮìŀĦ ìĿĺ
ĠìĦ±ê³µ íķľëĭ¤
Ġì¹¨ ëŀµ
ĠíĥĲ ìļķ
ĠìĥĿê°ģ íķĺëĬĶ
ĠëĿ¼ìĿ´ ì¹¸
ĠëłĪìĿ´ ìĭ±
Ġíĸīë³µ ìĿĦ
Ġíĸīë³µ íķĺê²Į
Ġì¦Ĳ ê±°ìļ´
ĠìĦ¤ ê³Ħ
ĠìĿ´ë¦Ħ ìľ¼ë¡ľ
ì¦Ŀ ìĹĲ
ê·¹ ìłģìĿ¸
Ġê³µì£¼ ë¥¼
Ġë°©ë²ķ ìĿĢ
ĠíķĦ ìļĶ
ĠíķĦ ìļĶíķľ
Ġë°Ķëĭ¤ ë¥¼
ĠíĥĢê³ł ëĤľ
Ġì¤Ģë¹Ħ íķĺëĬĶëį°
ì» µ
Ġì°° ìĬ¤
Ġì²ĺìĿĮ ìľ¼ë¡ľ
Ġì²ĺìĿĮ ìĹĶ
ĠëĭĪ ìĬ¨
ĠíĶĮ ë¡ľ
Ġì¶ķ êµ¬
Ġëĵ±ìŀ¥ íķľëĭ¤
ì¹¸ ëĭ¤
ĠìŀĲìľł ë¥¼
ì¡Į ëįĺ
ìķĮ ëłī
Ġì§Ģê¸Ī ê¹Įì§Ģ
Ġì§Ģê¸Ī ê»ı
ĠìŀĪìĹĪ ëĬĶëį°
ĠìĹĺë¦¬ íĬ¸
ĠìĹĺë¦¬ ìŀĲë²ł
ĠìķĮëł¤ ì§Ħ
ĠìŀĶìĿ¸ íķĺê²Į
ĠëĳĲëł¤ ìĽĮ
Ġê¸°íļĮ ê°Ģ
ë©¸ ìĿĺ
ĠìķĮëłī ìĬ¤ëĬĶ
Ġìłķë³´ ë¥¼
Ġìļ©ìĿĺ ìŀĲë¡ľ
Ġë¶Ģë¶Ģ ëĬĶ
ĠD e
ĠìĿ¼ìĸ´ëĤĺ ê³ł
ĠíĸīëıĻ ìĿĦ
ĠëŀĮ ë³´ëĬĶ
ĠëĽ°ìĸ´ ëĵłëĭ¤
ĠíĮĮìĿ´ íĦ°
íĥĲ ìłķ
ĠíĶĦë¦¬ ìłĢ
Ġê²¨ ìļ°
ĠìĥĮ íĶĦëŀĢìĭľìĬ¤ì½Ķ
ĠíĤ¹ ì½©
Ġê·ľ ì¹ĻìĿĦ
Ġëĭ¤ìĿĮ ëĤł
Ġìĺ¤ëŀĺ ëĲľ
Ġë§¤ëł¥ ìłģìĿ¸
Ġíķµ íıŃ
Ġíĺ¸ê¸° ìĭ¬
íĢ ¸
ĠìĿĳ ì§ķ
Ġì«ĵê¸° ê²Į
Ġê³³ê³³ ìĹĲìĦľ
ëī´ ìļķ
ĠìĦ¸ê³ĦëĮĢ ìłĦ
ĠMI B
ëŃ ī
Ġì²ĺì°¸ íķľ
Ġë¹Ļ íķĺ
Ġê±· ìŀ¡ìĿĦ
Ġê¸Īì§Ģ ëĲľ
ĠìĬ¤íĶ¼ ë¦¿
ĠëªħìĺĪ ë¥¼
Ġìļ´ìĺģ íķĺëĬĶ
ĠA I
ĠìĿ¼ìĤ¼ ëĬĶ
Ġìºĺ ë¦¬íı¬
ë· °
ĠìĺĨ ì§ĳ
Ġì¡°ê¸Ī ìĶ©
ĠíĹĺ ëĤľíķľ
Ġë¡ľë²Ħ íĬ¸ëĬĶ
ĠìĿ¼ìĥĿ ìĿ¼
Ġê¹¨ëĭ¬ ìĿĢ
ĠìĹ°ìĩĦìĤ´ ìĿ¸
íĽ Ī
Ġë¶Īê¸¸ íķľ
Ġê±± ìłķ
ĠìĿĢìĭł ì²ĺ
Ġìµľì´Ī ìĿĺ
Ġë§ŀëĭ¥ ëľ¨
Ġëľ»ë°ĸ ìĿĺ
ĠìĿ´ëłĩ ê²Į
Ġíķĺë£ »ë°¤
Ġìºĺë¦¬íı¬ ëĭĪìķĦ
' (
1 2
b o
i g
r a
© ëĭĪëĭ¤
½ ĳ
ê ¼
Ġ O
Ĳ ģ
Ķ ëĵ¤
Ŀ ê±°
Ġë ½ĳ
Ġí Ī
ìĿĺ ë¥¼
íķĺ ìĿ´
íķĺ ëĭ¤ê°Ģ
ë¥ ł
ë¡ľ ìĦľ
ê³ł ë¥¼
ê² ¼
ĠìĿ ½
ìĦ Ń
Ġìķ µ
ê°Ģ ì¡±
ì§Ģ ìĸ´
ì§Ģ ìĹĲìĦľ
ì§Ģ ë©°
ì§Ģ ëª¨
ë¦¬ ìĸ¼
Ġë§ ·
ëį ®
ëį ´
Ġìł ľëĭ¤
ê¸° ê²Į
ìĬ¤ íħĮ
ìĬ¤ ì¼Ģ
Ġê° ľêµ¬
ìľ ¨
ĠëĤ ®
ĠìĤ¬ ìļ°
ĠìĤ¬ ìĤ¬ê±´
ĠìĿ´ ë¯¼
ĠìĿ´ ë²¤
ìĸ´ ëĤ¬
Ġì§ ķ
ìķĦ ê°Ģ
ìķĦ ìĬ¬
ìľ¼ ë©´ìĦľ
ĠìľĦ ê¸°ìĿĺ
ë© į
ë§Į ìľ¼ë¡ľ
ëħ ¼
Ġë§Ī ì¹ĺ
Ġë§Ī ìĿ¼
Ġë§Ī ìķ¼
Ġë§Ī ì»¤
Ġíķĺ ë©´ìĦľ
Ġíķĺ íį¼
ëį° ìĬ¤
Ġê°Ģ ìĦľ
Ġê°Ģ ë£¨
Ġê°Ģ ë¬¸
ìĤ¬ ëŀĮ
ĠìŀĲ ë¦¬
ĠìŀĲ ì¡´
ĠìŀĲ ë¦¬ìĹĲ
ëĮĢ ìĻĢ
ëŁ¬ ê¸°
ĠìĪĺ ì²ľ
ëĭĪ ìĻĢ
ëĭĪ ì¹´
Ġëª¨ ê¸Ģ
ĠìĿ¸ íķľ
Ġêµ ¿
íĦ° ë¦¬
ĠëĮĢ íĻĶë¥¼
ë§Ī ë¥¼
ë¶Ģ ìĻĢ
Ġíķľ ê°Ģ
Ġë¶ īìĿĢ
ì£¼ ì§Ģ
ì£¼ ë©°
ĠëĤĺ ì¹ĺ
ĠëĤĺ ë¨¸
ĠëĤĺ ê°Ħëĭ¤
ĠìĤ´ ëł¤
ĠëıĦ ì¿Ħ
Ġë³´ ìĦĿ
ë£ ¹
ìŀĳ ìľ¼ë¡ľ
ĠìĬ¤ ì½Ķ
ĠìĬ¤ íĦ´
ĠìĬ¤ ì¹¼
ĠìŀĲìĭł ìĿĢ
ĠìŀĲìĭł ëĵ¤ìĿĦ
ë²Ħ ë¦´
ĠìĨĮ ìĽĲ
ĠìĨĮ íĥķ
ĠìĨĮ ì¤ĳíķľ
Ġëį ©ì¹ĺ
ëħĢ ê°Ģ
ë¦° ìĿĺ
Ġë¯¸ ìĭĿ
Ġë¯¸ ì¹ľ
ĠìĹĨ ê³ł
Ġë¬´ ìĬ¨
Ġë¬´ ìłģìĿĺ
ìĥĿ ìĿĦ
ëħĦ ìĹĲ
Ġìłķ ìĥģ
Ġìłķ ì°©
íĭ ±
Ġë¶Ģ ìľłíķľ
Ġìĭľìŀĳ íķĺëĬĶ
Ġìłľ ìķķ
Ġê³ł êµĲ
ĠíĻ Ī
íĹ ¬
Ġê±° ì¹ľ
Ġê±° ì¹ł
Ġê±° ìĦ¼
Ġì°¾ ëįĺ
Ġë°Ķ íĥķ
ê» ´
ë³´ ì§Ģ
Ġêµ¬ ìĽĲ
Ġêµ¬ íķĺëŁ¬
íİ ł
Ġì£¼ ìŀ¥
Ġìĥģ ë¥ĺ
ëª¨ ëĵł
ë¬¼ ë¡ľ
ê±´ ìĿĢ
Ġíķ´ ìķĪ
Ġíķ´ ëıħ
ìĭ¤ íķľ
ĠìĿĺ ìĭĿ
ĠìĿĺ ìĭĿìĿĦ
Ġì§ĳ íĸī
ĠíĶ¼ ë¡ľ
ĠíĶ¼ ë¥¼
ê³µ ìĿĦ
íĶĦ ëĬĶ
íĶĦ ë¥¼
íĶĦ ëłĪ
Ġì°¾ìķĦ ìĺ¤
ĠëĳĲ ëĩĮ
Ġê²½ íĺ¸
ĠìĹĲ ë¥´
ĠìĹĲ ìĬ¤íĦ°
Ġê¸ Ģë¡ľ
ëĭ¹ íķĺê²Į
íĶ¼ ìĦ¼
Ġë¦ ´
Ġë¡ľ ìłĢ
Ġë¡ľ ëłĮ
Ġëª» íķł
ĠëĨ ĢìĿ´
Ġìĭ¤ ë¹ĦìķĦ
ì¦Ī ëĭĪ
Ġì½ °
Ġíģ¬ ë¡ľ
Ġíĸī ë°©
Ġë§ŀ ìĿĢ
Ġë§ŀ ëĬĶëĭ¤
ĠìĻķ ìľĦë¥¼
ĠëĤ´ ë¦¬
ĠìĤ´ìķĦ ëĤ¨ìĿĦ
Ġíĺ¸ ëŁ¬
Ġë¦¬ ì¹ĺ
Ġë§Ĳ íķ´
êµ° ìĹĲ
Ġíķľëĭ¤ ê³ł
Ġê°Ĳ ìłķìĿĦ
Ġê°Ĳ ìĹ¼
Ġë°ĺ íķŃ
Ġë°ĺ ê²©ìĿĦ
Ġë¹Ħë°Ģ ë¦¬ìĹĲ
ĠìĦł ìĤ¬
ĠìĦł ìĸ¸
ĠìĦł ë°ľ
ìĨį ëıĦë¡ľ
ë¸Į ë£¨ìĬ¤
Ġì¢ ģ
Ġë§ĮëĤĺ ê¸°
ìĬ¨ ìĿĢ
ĠìĺĪ ìłķ
ĠìĺĪ ìĸ¸
Ġì¶Ķ êµ¬
Ġì¶Ķ ë°©
ĠëĿ¼ ëĶĶìĺ¤
ĠëĴ¤ ìĹĲ
ĠëĴ¤ ëį®
Ġìķŀ ìľ¼ë¡ľ
ĠëķĮ ë§Īì¹¨
ĠíĥĢ ìŀĦ
Ġëªħ ìĿĦ
Ġ2 5
Ġìŀ¬ ì¹ĺ
ëĳ ĺ
Ġì´Ī ìľłìĿĺ
ĠíĨµ ê³¼
Ġëĭ¹ íķĺê²Į
Ġìłģ ëĮĢ
Ġë²Į ìĿ´ëĬĶëį°
Ġì¹´ ë¦¬ìĬ¤
ĠëĪĦ ëĤĺ
ĠíĺĦ ìŀ¥ìĿĦ
Ġì¹ĺ ê³ł
Ġìŀł ìĿĦ
Ġì½Ķ ì¹ĺ
ìļĶ ìĿ¼
ĠìĤ´ìĿ¸ ìĤ¬ê±´
Ġë³µ ìłľ
ĠëĶ¸ ìĿ´
Ġë²Ķ ìĿ¸ìĿĦ
ìłĲ ìĿĦ
Ġê³³ ìľ¼ë¡ľ
Ġêµ° ëĮĢë¥¼
ĠìŀĦ ìĭł
Ġìļ© ê°Ĳ
Ġì§ģ ìłĦ
Ġì§ģ ìĽĲ
Ġìŀħ íķĻ
Ġê²ĥìĿ´ ëĿ¼ê³ł
Ġìłķì²´ ëĬĶ
ëĸ ¼
Ġë¸Į ë¡ľ
Ġë¸Į ë£¨
ĠíĬ¸ ëŁŃ
ìĬ¤íĬ¸ ë¥¼
Ġë¯¸êµŃ ìĿ¸
ë¡ł ìĿĺ
ìķł ëĤĺ
Ġì¶© ê²©ìĿĦ
ĠíĻĺ ê²½
ëĿ¼ìĿ´ ëĵľ
ë³ĳ ìĿĦ
ì§Ī ìĪĺë¡Ŀ
Ġë£¨ ìĿ´
ĠìĤ¬ê³ł ëŃī
Ġë³´ëĤ´ ëĬĶ
ë§Ĳ ë¡ľ
ĠìĻĦ ìłĦ
ĠëĤ©ì¹ĺ ë²Ķ
Ġëī´ìļķ ìĿĦ
ĠíĻĶ ê°Ģ
Ġìĵ ¸
Ġë©Ķ ë¦¬
Ġì´Ŀ ê²©
Ġë¯¿ ìĸ´
Ġë¯¿ ìĿĮ
Ġë²Ī ë²Ī
ë´ ī
ĠìŀĦë¬´ ëĬĶ
Ġìĸ¼ ëĸ¨
ĠíĮĢ ìĿ´
ĠíĮĢ ìĿĢ
Ġë¬¸ ìłľë¥¼
ĠëĦĺ ëĤĺ
Ġëª¨íĹĺ ìĹĲ
ĠíĻ© íıĲ
ĠìºĲ ë¦¬
ë¸Ķ ëıĦìĸ´
ĠíıīíĻĶ ìĿĺ
ĠíıīíĻĶ ë¡Ńê²Į
ĠëĨĵ ê³ł
Ġë³ĳ ìĤ¬
Ġì¹¨ íĪ¬
ĠìķĦëĵ¤ ìĿ¸
Ġê°ĸ ìĿĢ
Ġëį°ìĿ´ ë¹Ħ
Ġê°ģ ê¸°
Ġë§ĪìĿĮ ìĶ¨
ìĬ¬ ëŁ¬
Ġë¹łìł¸ ëĤĺ
ĠëĤ¨íİ¸ ìĿ´
ĠëĤ¨íİ¸ ê³¼
ĠëĶĶ ì¦ĪëĭĪ
ĠìĦ¬ ìĿĦ
ê¸¸ ìĹĲ
ĠìĦ¤ ëĵĿ
ĠíĸīìĦ± ìĿĦ
Ġëª¸ ìĿ´
ĠíķĻêµĲ ë¥¼
ĠíķĻêµĲ ìĹĲìĦľ
ĠìĻĢ ì¹¸ëĭ¤
ĠëĪĦêµ¬ ë³´ëĭ¤
ìĬ¤ëŁ¬ ìĽĮ
ê·¹ ìĿĺ
ĠëıĮìķĦê°Ģ ìĭł
Ġë²Įìĸ´ ì§Ħëĭ¤
19 6
Ġì§Ģì¼ľ ë³´ëįĺ
Ġìĭłë¹Ħ ìĿĺ
íģ Ĳ
ĠëĵľëŁ¬ ëĤĺ
Ġê¼ Ń
Ġíĭ° íĮĮ
ĠëĲĺì°¾ ìķĦ
ĠìķĦë¦Ħ ëĭµ
ĠíıĲ ìĩĦ
Ġëĸ¨ìĸ´ ì§Ħëĭ¤
Ġìķ¨ ë¦¬ìĬ¤
ĠìŀĲìľł ë¡ľìļ´
ĠíĮĲ ëĭ¨
Ġê°ĩ íŀĮ
Ġë¯¸ìĬ¤íĦ° ë¦¬
ìĶ¨ ìłľìĿ´
ĠíĻķ ìĭł
Ġì·¨ ê¸ī
Ġíİ¸ ì§ĳ
ì·¨ ë¥¼
Ġë´ Ĳ
ĠìĿ´ê³³ ìĹĲ
Ġê²© íĪ¬
ĠíķŃ ê³µ
Ġëķħ ìľ¼ë¡ľ
ĠëĳĲëł¤ ìĽĢìĿĦ
ĠëĬ¥ëł¥ ìľ¼ë¡ľ
ìłĳ ìĿĦ
ëĭĪìĬ¤ íĥĦ
Ġì£Ħ ì±ħ
Ġë¯¸ìħ ¸
Ġë³Ģíķ´ ë²Ħë¦°
Ġìļ©ìĿĺ ìŀĲ
Ġíĳľ ìłģìĿ´
Ġì§Ģë°° íķĺëĬĶ
Ġë¶ĢíĻľ íķľ
Ġì¢Ģ ì²ĺëŁ¼
ĠëŃ Ķ
Ġë³¼ ëĵľ
ĠìĿµ ìĬ¤
ĠíĹĮ íĦ°
Ġê²¨ ìļ¸
ĠìĻĶ ëĭ¤
ĠìĹī ë§Ŀ
Ġìĸ´ëĸ»ê²Į ëĵł
Ġë¶Ģëª¨ëĭĺ ìĿĺ
ëł¸ ëĭ¤
Ġëª¨ìĦ¸ ëĬĶ
ĠìłķìĿĺ ë¥¼
Ġë´ī ìĿ¸
ìĬ¤ëŁ½ ê³ł
Ġìĸ´ëł¤ ìļ´
Ġë°Ķê¿ Ģ
ĠìĹ°ëĿ½ ìĿĦ
ĠëĮĦ ìĬ¤
ĠëĤ¨ê²¨ ì§Ħ
Ġë¿ Į
Ġë¹¨ ê°Ħ
Ġìĸ½ íŀĮ
Ġë¦¬íĶĮ ë¦¬
Ġë§İ ìĿ´
ĠìķĮëĿ¼ ëĶĺìĿĢ
ĠìľłìłĦ ìŀĲ
ĠìĿ´íĥĪ ë¦¬ìķĦ
ĠìĬ¤íĥ ł
ĠíĬ¸ëłĪìĿ´ ëĦĪ
ĠìĬ¤ë¦´ ëŁ¬
Ġíķĺë£¨íķĺë£¨ ë¥¼
Ġê¸°ìģ¨ ëıĦ
ĠìķĦìĬ¬ ìķĦìĬ¬
ĠìĬ¤íĶĦ ë§ģ
Ġëĵ¤ìĿ´ ëĭ¥
Ġì¹´ë¥´ íħĶ
ĠìłĪì²´ ìłĪëªħìĿĺ
Ġëĭ¤ìĿ´ìķĦ ëª¬
Ŀê±° ê²ĮìŀĦ
ĠìĤ¬ìĤ¬ê±´ ê±´
ĠëĤĺë¨¸ ì§Ģ
ĠìĤ¬ê³łëŃī ì¹ĺ
Ġìĸ¼ëĸ¨ ê²°ìĹĲ
S S
h e
i s
½ ìĭľ
Ĵ ìĿĢ
Ġì ¥
Ġë »
ëĬĶ ì§Ģ
Ġí ĵ¨
ëĭ Ĳ
íķĺ ëıĦë¡Ŀ
ë¡ľ ë§Į
ë¦ ĩ
ê³ł ëĬĶ
ìŀ ī
ëĤ ©
ìķ ¨
ê°Ģ ìĻĢ
ì§Ģ êµ¬
ì§Ģ ëĬ¥
ìł ĪìĿĦ
ë¦¬ ìĸ´
ë¦¬ ë©´ìĦľ
Ġê·¸ ëłĪ
Ġê·¸ ë£¹
ëĵ¤ ê³ł
ê¸° ê¸°
ìĬ¤ ìĹĲìĦľ
ìĬ¤ ë¯¼
ìĬ¤ íħĶ
ìĬ¤ íĦ´
Ġê° ļ
ëł ĺ
íķ´ ëıĦ
ìĿ¸ ë¥ĺ
ĠìĤ¬ íĺķ
ĠìĿ´ ë¡ľ
ĠìĿ´ ë¥´
ĠìĿ´ ë³Ħ
ìķĦ ìĻĢ
ëĿ¼ ë©°
ìŀĲ ìĹĲ
ìŀĲ ëĵ¤ìĿĢ
ìŀĲ ë¦¬ìĹĲ
ìľ¼ ëŁ¬
ĠìĦ ¼
ĠìľĦ íķĺìĹ¬
ĠìľĦ ì¹ĺë¥¼
ĠìķĦ ê¸°ë¥¼
ĠìķĦ ë°Ķ
ë© ķìĭľì½Ķ
ìĭľ ìĹĲê²Į
ìĭľ íĶ¼
Ġíķĺ ìĪĺ
Ġíķĺ ìĹ¬
Ġíķĺ ë²Ħëĵľ
Ġê°Ģ ìĥģ
Ġê°Ģ ê¸°ë¡ľ
Ġê°Ģ ì§ľ
ìĤ¬ íķľ
ĠìŀĪ ìĬµëĭĪëĭ¤
Ġìĭľ íķ©
ĠìŀĲ ëĿ¼
ĠìŀĲ ëŀĳ
ĠìŀĲ ë¦¬ìĹĲìĦľ
Ġì§Ģ íĺľ
ĠìłĦ ë©´
ĠìłĦ êµŃ
ĠìłĦ íĨµ
íĬ¸ ë¦¬ìĬ¤
ĠëĲĺ ë©´
ëĲ Ĳ
ìĥģ ê°Ģ
ìĥģ ìĿ¸
Ġëª¨ ë¥´ê³ł
ĠìĿ¸ ìĭĿ
ĠìĿ¸ ê¸°ë¥¼
íĦ° ìĻĢ
ë¹ Ļ
ì¹ĺ ë©°
ĠëĮĢ ë¡ľ
ĠëĮĢ íĳľ
ĠëĮĢ ê°Ģë¡ľ
ì§Ħ ìĿĦ
ì§Ħ íķľ
ë§Ī ëĬĶ
ë§Ī ë¦¬
ë§Ī ìŀĲ
íķĺê³ł ìŀĲ
Ġëĭ¤ ìĬ¤
Ġëĭ¤ ë¦Ħ
ìĪĺ ëĬĶ
ìĪĺ íķľëĭ¤
ì£¼ ê°Ģ
ĠëĤĺ ìĺ¨
ĠëĤĺ ëĭĪìķĦ
ĠìĦ¸ ìļ°
ĠìĦ¸ ìĽĶ
ĠëıĦ ìłģ
Ġë§Į íķľ
Ġë§Į ë¥ĺ
Ġë³´ ëĭĪ
Ġë³´ ë¬¼ìĿĦ
ĠìĬ¤ ë¯¸
ĠìĬ¤ íĬ¸ë¡ľ
Ġê¸° ìĥģ
ìĨ Ķ
ĠìĨĮ ë¬¸
ĠìķĮ ìĿĦ
ĠìķĮ ì§Ģ
ë¦° ìĿ´
Ġë¯¸ ëħĢ
Ġë¯¸ ìĿ´ëĿ¼
ĠìĹĨ ì§Ģë§Į
Ġë¬´ íķľ
Ġë¬´ ë²ķ
Ġë¬´ ê¸°ë¡ľ
Ġë¬´ ìŀ¥íķľ
ë¹Ħ ìĿĺ
ëı ¼
Ġìłķ ì¹ĺ
Ġìłķ ë¹Ħ
Ġë¶Ģ ìĿ¸
Ġë¶Ģ ìĹ¬
Ġë¶Ģ íĮ¨
ìļ° ìĿĺ
ìļ° íĬ¸
ìļ° ì£¼
ĠëĤ¨ ë¶Ģ
Ġìĺ¤ ë¦¬
Ġìĺ¤ ë¥´
Ġìĺ¤ ë¸Į
Ġìĺ¤ ë¹ł
Ġìĺ¤ ë¥´ê²Į
ê¹ ¥
Ġê³µ ìŀ¥
Ġê³µ ìĹ°
ë¯¸ ëĦ¤ìĿ´
Ġê±° ìĿĺ
Ġê±° ì¹¨
Ġê±° ë¦¬ë¥¼
ìķ¼ ìĿĺ
ëĵ¤ìĿ´ ëĭ¤
ëĶĶ ìĹĲê²Į
ëĶĶ ìĸ¸
ĠíĮĮ ëŀĢ
Ġë°Ķ ê¹¥
ê²© ìľ¼ë¡ľ
ë³´ ì§Ģë§Į
íĻĶ ë¡ľìļ´
íĻĶ ìĭłìĿĢ
Ġë°ľ ìĿĦ
Ġìĭł ì°¸
ëĲĺ ì§Ģë§Į
íİ Ļ
Ġìļ° ë¦¬
Ġì£¼ ë§Ĳ
Ġì£¼ ëĭĪìĸ´
Ġì¡° ëįĺ
âĢ¦ âĢ¦
ë¬´ ì±ħ
ĠìĤ¬ëŀĮ ëĵ¤ê³¼
ìĹĪ ìĿĮìĿĦ
Ġíķ´ ìłĢ
Ġíķ´ ì»¤
Ġíķ´ íĤ¹
Ġë¶Ī íĸī
Ġë¶Ī ëªħìĿĺ
íķĺê¸° ìĹĲ
Ġì£½ ê²Į
Ġë°Ľ ì§Ģ
íĭ° ê°Ģ
íĭ° ìĻĢ
Ġì¤ĳ ëıħ
Ġì¤ĳ ìĿ´ëįĺ
ĠìķĬ ìĿĦ
ĠìķĬ ìķĺ
ĠìķĬ ìķĺëĭ¤
ìĹ¬ ìļ´
ìĹ¬ íĸī
ìĹ¬ íĸīìĿĦ
Ġëħ ¼
ĠíĶ¼ ìĿĺ
ĠíĶ¼ ìĭł
ĠíĶ¼ ëĤľ
ê³µ ìĿĺ
ê³µ ì£¼
íĶĦ ìĻĢ
Ġë¶Ħ íĮĮ
Ġê²½ ë¹Ħ
Ġëĵ¤ íĤ¤
ĠìĹ° ê´Ģ
ĠìĹĲ ëĶĶ
ĠìĹĲ ë¦¬ì¹´
ĠìĹĲ ë¦¬ìĸ¼
Ġë¹ł ë¥¸
Ġë¹ł ì§ĢëĬĶëį°
Ġì± Ļ
ëĳĲ ë¦¬
Ġë¦ Ń
ëŀĢ íķľ
Ġë¡ľ ë¦¬
Ġë¡ľ ì¦Ī
Ġíİ Ħ
ì°¨ ë¡Ģ
Ġëª» íķ´
íĨł ëĬĶ
íĨł ìĻĢ
íĨł ë¡Ŀ
Ġê°Ģì¡± ëĵ¤ìĿĦ
ĠíĶĦ ëĿ¼
Ġì½ ©
ĠìĦ± ìĹĲìĦľ
ĠìķĦìĿ´ ëĵ¤ìĿĺ
Ġíĸī ë°©ìĿĦ
ĠìĻķ ìĿĺ
Ġê°ķ ëł¬íķľ
ëģ Ī
ĠëĤ´ ë¦°
ĠìĤ´ìķĦ ìĺ¨
ĠìĿ¸ê°Ħ ëĵ¤ìĿĦ
ĠìĤ¬ëŀĳ ìĿĢ
ĠìĤ¬ëŀĳ ìĬ¤ëŁ¬ìļ´
Ġë¦¬ ê·¸
Ġë§Ĳ ìĹĲ
Ġìŀ¥ êµĲ
Ġìŀ¥ ì°©
Ġìŀ¥ ë¡Ģ
ëįĶ ìĿĺ
ĠìŀĪëĭ¤ ë©´
Ġê¹ ľ
Ġê°Ĳ ì¶°
ì¼ Ī
Ġë°© íĸ¥ìľ¼ë¡ľ
Ġë°ĺ ë³µ
Ġë¹Ħë°Ģ ìĿĺ
Ġë¹Ħë°Ģ ê³¼
ĠëłĪ ìĿ´ëĬĶ
ĠëłĪ ìĬ¤íĨł
íĮ ©
ì¶ľ ìĿĦ
Ġì²ĺ ìłĪíķľ
ĠìĻ¸ ë©´
íį¼ ì§Ģ
Ġëĭ¬ ìķĦ
Ġëĭ¬ ìķĦëĤĺ
ê·¸ ë¦¬
ĠëıĮìķĦ ìĻĢ
ĠëıĮìķĦ ê°Ħ
ëħ¸ ìĿĺ
Ġë§ĮëĤĺ ëŁ¬
ĠìĺĪ ìłĦ
Ġì¶Ķ ìĸµ
Ġë§ĪìĿĦ ìĿĢ
ĠëĿ¼ ëĿ¼
ĠëĴ¤ íĿ
íĸĪ ê³ł
Ġê´Ģ ì°°
Ġíķł ë¦¬ìļ°ëĵľ
ìľĦ íķ´
ĠíĥĢ ê²Ł
Ġíı¬ ìĻĢ
Ġíı¬ ìĭĿ
ĠìľĦíĹĺ ìĿĦ
ĠëĤ¨ìŀĲ ìĻĢ
ĠìĤ¬ìĿ´ ê°Ģ
ĠíĺĦ ìŀ¥ìĹĲìĦľ
ĠíħĮ íģ¬
ê¸Ī ìĿ´
ĠíĥĪ ìĺ¥
Ġë§ī ê³ł
ĠìĨĲ ìŀ¡
ĠìĤ´ìĿ¸ ë²Ķ
Ġë³µ ìĭ±
Ġë³Ģ íĺ¸ìĤ¬
ĠíĨł ë§ĪìĬ¤
ĠìĽĲ ìłķ
ìĹħ ìŀĲ
Ġê°ľ ì²Ļ
Ġëĵ¤ìĸ´ ê°Ħëĭ¤
ë¯¼ ëĭ¤
Ġë²Ķ ìĿ¸ìľ¼ë¡ľ
ëĭ¬ ìķĦ
ĠìĤ¬ëĿ¼ ì§Ħëĭ¤
Ġìĭľê°Ħ ìĿĢ
Ġë²ł ìĬ¤íĬ¸
Ġë²ł ëĭĪìĬ¤
Ġêµ° ìĿ¸
Ġíĺ¼ ëıĪ
Ġê±´ ëĦĪ
Ġê±´ ìĦ¤
íħĮ ëĤĺ
ë¶Ħ ìĿĺ
ë¶Ħ íķľ
ê°ľ ìĽĶ
ĠìľĦíĺĳ ìĹĲ
ĠìĨĮëħĢ ë¥¼
ĠëĸłëĤĺ ê³ł
ĠëĸłëĤĺ ê¸°ë¡ľ
ĠìĿ´ìłľ ëĬĶ
Ġëª° ë¦¬ê²Į
ĠëıĦìĭľ ëĬĶ
Ġë¯¸êµŃ ìľ¼ë¡ľ
Ġìļ°ì£¼ ë¥¼
Ġê³¼ê±° ë¡ľ
ĠíĥĪì¶ľ ìĹĲ
ë°Ľ ê³ł
Ġê²°íĺ¼ íķľ
Ġê·¸ê³³ ìĿĢ
ë°ĺ ìĿĺ
ìĹĺ ë¦¬
ĠìĻĦ ìĦ±
ĠìłľìĿ´ ë¯¸ëĬĶ
Ġê²½ì°° ìĿĢ
ĠìĹĦë§Ī ëĬĶ
ìŀĪ ëĭ¤
ĠìŀĦë¬´ ìĹĲ
Ġìĸ¼ ìĿĮ
Ġìĸ¼ ë£©
Ġë¹Į ëĶ©
ĠëĦĺ ìĸ´ê°Ģ
Ġë§¥ ìĬ¤
ĠìĨĮëħĦ ìĿĢ
Ġê³Ħíļį íķľëĭ¤
Ġê¸°ìĸµ ìĿ´
ì± Ī
ë²ł ìĿ¼ë¦¬
ĠìºĲ ìĬ¤íį¼
Ġìļ´ëªħ ìĹĲ
Ġìļ´ëªħ ìĿĢ
Ġíģ´ ëĿ¼
Ġê³µíı¬ ë¥¼
Ġê³µíı¬ ìĻĢ
Ġì£½ìĿĮ ìĹĲ
Ġì£½ìĿĮ ìľ¼ë¡ľ
Ġëıħ ìŀ¬
Ġëª¨ìĬµ ìĹĲ
ĠìĦ±ê³µ íķĺì§Ģë§Į
Ġë§Īì£¼ ì¹ľ
ĠìĥĿíĻľ ìĹĲ
ë¶Ī ëªħ
ê¾¸ ëŁ¬ê¸°
ĠìłĦìĦ¤ ìĿ´
ĠêµŃ ê²½
ĠíħĮëŁ¬ ë¥¼
ĠìľĮ ë¦¬ìĬ¤
ìĭľíĤ¤ ëł¤
ĠìĬĪíį¼ ë§¨
Ġìĭ¶ ìĹĪëįĺ
Ġëĵ£ ëĬĶëĭ¤
Ġë§ĪìĿĮ ìĹĲ
ĠíĥĲ ìłķ
ĠëĿ¼ìĿ´ íĬ¸
ĠëłĪìĿ´ ìĿĺ
ĠìķĦëĭĪ ë©´
ëĨ ĴìĿĢ
Ġì¦Ĳ ê¸°ê³ł
Ġì¦Ĳ ê¸´ëĭ¤
Ġìĵ° ê³ł
ĠìĦ¤ ìĥģê°Ģ
ĠëĤľ ìĥĿ
ĠëĤľ ìŁģìĿ´
íĺ¹ íķĺê²Į
Ġìķħëĭ¹ ìĿĦ
ĠíĦ° ëĦĪ
Ġíĳ ¹
Ġìłĳ ì´ī
ĠC E
ĠìłĬìĿĢ ìĿ´
ĠìĿĮëª¨ ê°Ģ
íĭĢ ëŁ¬
ĠëıĮìķĦê°Ģ ê¸°
Ġê´´ë¬¼ ìĿ´
Ġ5 0
Ġê¸°ëĭ¤ ë¦¬ëĬĶ
Ġìĸ¸ ëĭĪ
ĠíķĦ ìĤ¬
Ġë¨¹ ìĸ´
Ġë§¡ ìĿĢ
Ġëĭ¤ê°Ģ ìĺ¨ëĭ¤
Ġìłķìĭł ìĿĦ
Ġë¿Ĳ ìĿ´ëĭ¤
Ġì°° ë¦¬ëĬĶ
ĠíıĲ ê¸°
Ġì¶ķ íķĺ
Ġìķ¨ ë¦¬ìĬ¤ëĬĶ
ëıĪ ëĭ¤
ĠìĽĶ ëĵľ
ì¼Ģ ë¹Ī
ĠëıĻìĥĿ ìĿĦ
Ġê¿Īê¾¸ ëįĺ
íĳľ ë¥¼
ĠìķĦë¬´ ëŁ°
ë¿Ĳ ìĿ´ëĭ¤
ĠìĬ¬ ë¡ľ
Ġì¶©ê²© ìĹĲ
Ġì°© ë¥Ļ
íıī ë²Ķíķľ
Ġëª©ê²© íķľëĭ¤
Ġëª©ê²© íķĺê³ł
Ġ20 2
ĠëĨį êµ¬
ĠëĨį ìŀ¥
ĠìĦłíĥĿ ìĿĦ
Ġê¸°íļĮ ë¡ľ
Ġë©¸ ì¢ħ
ìª½ ìľ¼ë¡ľ
ĠìĿ¼ìľ¼ íĤ¨ëĭ¤
ĠìĹĲìĿ´ ìłĦíĬ¸
Ġëĭī ìĿĢ
Ġìļ°ì£¼ìĦł ìĿ´
Ġì²ł ìłĢ
Ġë¶Ģë¶Ģ ê°Ģ
ĠìĬµê²© ìľ¼ë¡ľ
Ġê³łíĸ¥ ìľ¼ë¡ľ
Ġíħ ľ
ĠìĦ¹ ìĭľ
ĠëıĦì¤ĳ ìĹĲ
ĠíĹĮ íĬ¸ëĬĶ
ĠíĻĺìĥģ ìĿĺ
ĠíĻĺìĥģ ìłģìĿ¸
ĠìĿ¼ìĥģ ìĹĲ
ĠìĿ¼ìĥģ ìľ¼ë¡ľ
ĠëĦ£ ìĸ´
ĠíĮ¬ ëįĶ
ĠëŁ°ëįĺ ìľ¼ë¡ľ
Ġë¯¸ìħĺ ìĿ´
Ġëħ¸ìĺĪ ë¡ľ
Ġìį ¨
Ġìį ¬
ĠìĥĿìĿ¼ ìĿĦ
Ġíľ©ìĭ¸ ìĿ¸ëĭ¤
Ġì§Ģìĺ¥ ìĿĺ
ĠíıŃëł¥ ê³¼
ĠìĿ´ë²Ī ìĹĲëĬĶ
ĠìľĦê¸° ìĹĲìĦľ
ìĽ¨ ìĿ¸
Ġë¹Ħë¡¯ íķ´
Ġíķ©ë¥ĺ íķľëĭ¤
ĠìķĦíĶĦ ê°Ģ
Ġê°Īëĵ± ìĿĦ
ìĬ¤ëŁ½ ê²Į
Ġì¡°ì¢ħ ìĤ¬
ëŃ ĩ
Ġìĥĺ ìĿĢ
ĠíĮĮì»¤ ëĬĶ
Ġë°ĶëŀĮ ìĹĲ
ì¶ķ êµ¬
Ġì²ĺì°¸ íķĺê²Į
Ġìº£ ëĭĪ
ĠìĽĥ ìĿĮ
ê²ģ ê²Į
Ġê³ģ ìĿĦ
ĠìĿ¸ëĶĶ ìĸ¸
Ġíİĺë¥´ ìĭľìķĦ
ĠíĮ¨ë°Ģ ë¦¬
Ġìĸ¸ìłľ ëĤĺ
ĠìĪĺìĪĺê»ĺëģ¼ ìĿĺ
Ġìĭ« ìĸ´
Ġë¹¨ ëł¤
íİľ ëįĶë¸Ķ
ë± ħ
ĠìľĦì¹ĺ íķľ
ĠëıĦìĤ¬ ë¦¬ê³ł
ĠëĬĳëĮĢ ìĿ¸ê°Ħ
Ġê´Ģëł¨ ëĲľ
Ġë°ĶìĿ´ëŁ¬ ìĬ¤
Ġìĭłëį°ëłĲ ëĿ¼
Ġíĳ¸ ë¥¸
ĠìĤ¬ê¸° ê¾¼
ĠíĻį ì½©
ĠëģĬìŀĦ ìĹĨëĬĶ
Ġë®¤ ì§Ģ
ĠëģĪ ì§Ī
Ġìľħ ìĿĢ
Ġë§īê°ķ íķľ
ìĵ´ ëĭ¤
ĠëĭĮ ìŀĲ
ìĽł ëįĺ
Ġì¡°ê±´ ìľ¼ë¡ľ
ĠìķĦìĪĺëĿ¼ ìŀ¥ìĿ´
ê½ ĥ
Ġêµ¶ ì£¼
Ġë°°ê²½ ìľ¼ë¡ľ
ĠíĴĭ ë³¼
ĠíķµíıŃ íĥĦ
ĠìĬ¤íĶ¼ë¦¿ ìĿĢ
ĠìĿ¼ìĥĿìĿ¼ ëĮĢìĿĺ
Ġì½° ì§Ģëª¨
ĠëłĪìĬ¤íĨł ëŀĳ
! âĢĿ
1 7
5 0
? ?
M F
a s
c h
µ íĭ°
ë ĺ
ë ķħ
ì ĳ
Ġ -
Ġ <
Ġ W
ī ë°ľ
į ê²Į
Ķ ìĿ´
ł íķľ
Ġì ¾Į
ëĬ ¦
ëĬ ĺìĿĦ
ìĹ łë§Ī
ë¡ľ ìĿ´
ë¡ľ ì¦Ī
ë¡ľ ìĽĢ
ë¡ľ ìļ°ëĬĶ
Ġìķ ī
ìķ ¨ë¦¬
ê°Ģ íķĦëĵľ
ì§Ģ ëĭĪìĸ´
ë¦¬ ë©´
ë§ ĺ
Ġê·¸ ëĮĢë¡ľ
ëĵ¤ ìĿ¸
ëĵ¤ ë¦°
ëĵ¤ ê¹Įì§Ģ
ëĵ¤ ìĿ¸ëĭ¤
Ġìł ĸ
ê¸° ìĦľ
ê¸° ìłģìĿ¸
ê¸° ê´Ģ
ìĬ¤ íĭ´
ìĬ¤ ë¹Į
íķ´ ìĺ¨
íķ´ ë²Ħë¦°
ìĦľ ìĹĲ
ĠìĹ ½
ìĿ¸ ìłģìĿ¸
Ġìĭ £
ĠìĤ¬ ìŀĲ
ĠìĤ¬ ëĤ´
ĠìĤ¬ ìĤ´
ĠìĤ¬ ê·Ģ
Ġìľ Ī
ĠìĿ´ ëĭ¨
ĠìĿ´ ì¤ĳ
ìĸ´ ëĨĵ
ĠëĲ ©ëĭĪëĭ¤
Ġëª ½
ìķĦ ëĭ´
Ġê² ¸
ëĿ¼ ê¸°
ëĿ¼ ë¯¸
ìŀĲ ìĿ´
ìŀĲ ê³ł
ìŀĲ ë¦¬
ëĤĺ ëĿ¼
ìĻ Ī
ĠìľĦ ìĹĲìĦľ
ĠìľĦ íĥľ
ìľ¼ë¡ľ ìĦľ
ĠìķĦ ëĿ¼
ĠìķĦ íĬ¸
ĠìķĦ ìĿ¼
ĠìķĦ íĭĢ
ĠìķĦ íĶĪ
ĠìķĦ íĶĶ
ë² ¼
ë² ħ
ìĭľ íĥĲ
ëıĦ ìļ°
ìĺ ·
Ġíķĺ ìļ°ìĬ¤
Ġìĥ ī
âĢĻ !
ëĮĢ ìĽĲ
ĠìĪĺ ì¡±
ĠìłĦ ìĭľ
ĠìłĦ íķĻ
ĠëĲĺ ê¸°ë¡ľ
Ġëı Ķ
êµ¬ ìĿĺ
Ġëª¨ ìĿĢ
Ġëª¨ ëį¸
Ġì° ¢
Ġì° Į
ìŀ¥ ê³¼
ëł¤ ëįĺ
ì¹ĺ ì§Ģ
ĠëĮĢ ìŀ¥
ĠëĮĢ íĶ¼
ĠëĮĢ ìŀ¬
ĠëĮĢ ìłĢ
ì§Ħ íķĺê³ł
Ġíĺ ĲìĿĺ
ë§Ī ìĿĺ
ë§Ī íķľ
ë§Ī ë¡ľ
ë§Ī ë²ķ
Ġê²ĥ ìĹĲ
Ġê²ĥ ê³¼
Ġê²ĥ ìĿ¼ê¹Į
Ġíķľ êµŃ
Ġíķľ ê³Ħë¥¼
Ġëĭ¤ íģĲ
ìĪĺ ë¬´ì±ħ
ì£¼ ìĿ¼
ĠëĤĺ ìģľ
ĠëĤĺ ëŃĩ
ĠìĻ ĵ
ĠìĻ ĢìĿ´
ĠìĦ¸ íĭ°
ĠìĿ¼ ëªħ
ĠìĿ¼ íĸīìĿĦ
ê³Ħ ê°Ģ
ĠëıĦ ìĭ¬
Ġë³´ ìĤ´
Ġë³´ ìĿ¸ëĭ¤
Ġë³´ ëĤ¼
ĠíĶ ½ìĭľ
ĠìĬ¤ íĮĮ
ĠìĬ¤ íı¬
ĠìĬ¤ ìº
Ġê¸° ëıĦ
Ġê¸° ë¡Ŀ
ĠìŀĲìĭł ëĵ¤
ë²Ħ ìĬ¤íĦ°
ĠìĨĮ ëıĻ
ëĶ ¸
Ġë¯¸ ì¹ĺ
Ġë¯¸ ëª¨ìĿĺ
Ġë¯¸ ìķĦìĿĺ
ĠìĹĨ ìĿĦ
ìĬ Ĳ
Ġë¬´ ë¦
Ġë¬´ ëıĦ
Ġë¬´ ëª¨
Ġë¬´ ì°¸
ĠëĲľëĭ¤ ëĬĶ
ĠìĹ¬ ê¸°ìĹĲ
ìĥĿ ìĿĺ
ìĥĿ ëªħ
ìĽĲ ëĵ¤ìĿĦ
ìĿ¼ ìĹĲ
ìĿ¼ ë¦¬ìĸ¸
Ġìłķ ë©´
Ġìłķ ìĺĪ
Ġìłķ íĻķ
íĥĢ ìĻĢ
ìłķ ìĿĺ
ìłķ ë¶Ģ
Ġë¶Ģ ëŁ¬
Ġë¶Ģ ëŀĳ
Ġë¶Ģ ë¥´ëĬĶ
ìļ° ë¥¼
ìļ° ìĬ¤ìĿĺ
ìļ° ëıĮ
ë¥´ ë¥¼
Ġìłľ ëĭĪíį¼
Ġê³ł ë¬¸
ìĺ¤ ê°Ģ
ĠëĤ¨ ìĿĦ
ĠëĤ¨ ê¸°
ĠëĤ¨ ëħĢ
ĠëĤ¨ íķĻìĥĿ
Ġìĺ¤ ëĶĶ
Ġìĺ¤ ë¥¸
ê¹ Ģ
ê¹ Ŀ
Ġê³µ ìľł
Ġê³µ ê°ľ
Ġê³µ íĨµ
ë¯¸ ìķĪ
Ġê±° ê¸°ìĦľ
íģ¬ ìĹĲê²Į
íĨ ±
ìķ¼ ë§Ĳë¡ľ
ĠíĮĮ ë¦¬
ĠíĮĮ ë©¸
ĠìĪ Ģ
Ġë°Ķ íĭ°
Ġë°Ķ ëĭ¥
Ġë°Ķ ìģľ
Ġìľł ëĬ¥íķľ
Ġìľł ëł¥íķľ
íĤ¤ ìĬ¤
íĤ¤ ìĻĢ
ĠëıĻ íĸī
ĠëıĻ ê²½
ĠëıĻ ì°¸
ëĦ ¨
Ġë°ľ íĥģ
Ġìĭł ìĿĺ
Ġìĭł ê¸°
Ġìĭł ìŀħ
ê±° ë¦¬ëĬĶ
Ġêµ¬ íķľëĭ¤
Ġêµ¬ íķĺëĬĶ
Ġêµ¬ ìĹŃ
ëĲĺ ìĹĪëįĺ
ëĬĲ ëĬĶ
ëĬĲ ëĥĲ
Ġìļ° ëĶĶëĬĶ
Ġì£¼ ê³ł
Ġì£¼ ìĪł
Ġì£¼ ìĿ¸ìĿ´
Ġì¡° ëĬĶ
Ġì¡° ëĤĺ
ĠëĶ ±
ĠëĶ ´
ë¬´ ë¥¼
ë¬´ ì§Ģ
ĠëĤł ë¶ĢíĦ°
Ġíķ´ ë¦¬ëĬĶ
Ġíķ´ ë³ĳ
Ġíķ´ ë¦¬ìĿĺ
Ġë¶Ī ìĸ´
Ġë¶Ī íĥľ
Ġê²° íĪ¬
ìĭ¤ ë¡ľ
ì¦ Ĳë¦¬
Ġì£½ ëĬĶ
Ġì£½ ëĬĶëĭ¤
Ġì£½ ìĿ´ëĬĶ
Ġë°Ľ ëįĺ
ìĦ¸ ê°Ģ
ìĦ¸ ìĥģìĿĦ
Ġì¹ľêµ¬ ìĿĺ
ĠìĿĺ ì§Ģ
ĠìķĬ ëĬĶëį°
Ġì§ĳ ìĸ´
ìĨĮ ìĿĺ
ìĨĮ ë¦¬
ìĨĮ ìĭľ
ĠìĨį ëıĦë¡ľ
ĠìĨį ìĪĺë¬´ì±ħ
ìĪ ¨
íĶĦ ëŀĳ
ì¹´ ëĬĶ
ì¹´ ìĿĺ
ĠëıĮ ìĿ´
Ġë¶Ħ ëªħ
Ġì°¾ìķĦ ìĺ¤ê³ł
íĮĮ ìĿĺ
Ġ1 4
ĠìĹĲ ë©Ķ
ëıĻ ìĤ°
ĠíĹ ¨
ĠíĹ Ŀê±°ê²ĮìŀĦ
Ġë¹ł ëľ¨
ëĭ¹ íŀĪ
Ġì± Ī
íĶ¼ íĦ°
ëŀĢ ìĿĺ
ëŀĢ íĭ°
Ġëª» íķĺë©´
Ġìĭ¤ ìłľ
Ġìĭ¤ ì²´ë¥¼
ì¦Ī ëį°ìĿ´
Ġì¡´ ìĬ¤ëĬĶ
Ġê°Ģì¡± ëĵ¤
Ġê°Ģì¡± ëĵ¤ê³¼
ì¡° ëĬĶ
ì¡° íķľ
ì¡° ì§Ģ
Ġìķħ ëıĻ
ĠìĤ¬ê±´ ìĿĢ
Ġëį° ìĬ¤
ìĽĮ ì§Ħ
ĠìĻķ ê¶ģ
ĠìķĪ ìĿĺ
Ġê°ķ ìļĶ
ĠëĤ´ ë¦¬ê³ł
ĠëĤ´ ë¦°ëĭ¤
ĠìĿ¸ê°Ħ ìľ¼ë¡ľ
ĠìĿ¸ê°Ħ ëĵ¤ìĿĺ
Ġë¦¬ ì¡°
ìĤ´ ìĿ´
Ġë§Ĳ íķĺëĬĶ
Ġëł Į
Ġìŀ¥ ìĨĮë¡ľ
Ġê¹ ¬
Ġê¹ ĥ
Ġë§¤ íĬľ
Ġë°© ìĹĲìĦľ
Ġë°ĺ íķľëĭ¤
ĠìĦł ë°°
ìĨį ìĿĺ
Ġê³Ħ ìĬ¹
Ġì²ĺ ë¦¬
íļĮ ìĿĺ
Ġëĭ¬ ë¦°
ê·¸ ëłĪìĿ´ëĵľ
Ġëĵľ ëĿ¼íģĺ
íĺ¼ ìĿĦ
Ġìŀĳ ìĹħ
Ġìº Ķ
ë¨¸ ìĬ¤
Ġì¶Ķ ì§Ħ
Ġë§ĪìĿĦ ìĿ´
ĠëĿ¼ ìļ°
Ġíıī ë²Ķ
ĠìłĢ ê²©
ĠëķĮ ê¹Įì§Ģ
ĠíĥĢ ìĿ¼ëŁ¬
Ġìŀ¬ ëĬ¥
Ġìŀ¬ íĮĲ
Ġìŀ¬ ìķĻìĿĦ
ë°Ķ ë¡ľ
ë°Ķ ëŀĮ
Ġëĭ¹ íķ´
Ġëĭ¹ íĻ©
Ġìłģ ìĹĲ
ĠìľĦíĹĺ ìĿ´
ĠëĪĦ ëĵ¤
Ġì¹ĺ íĤ¨
ë°© ìĹĲ
ĠìĪ¨ ê¸°ê³ł
Ġìŀł ëĵł
Ġìŀł ëĵ¤ìĸ´
ì¹¨ ìĹĲ
ĠìĪľ ìĪĺíķľ
Ġì½Ķ ë¯¸
Ġì½Ķ íį¼
ì§ĳ ìĹĲìĦľ
Ġì°¨ ìĹĲ
Ġë³µ ìĦľ
Ġë³µ ê·Ģ
Ġë³Ģ íķľ
ĠìĹ´ ê´ĳ
ĠëĶ¸ ìĿ¸
Ġê°Ħ ìĿĺ
Ġê°Ħ íĺ¸
ë²Ķ ìĿĦ
ĠìłĦìŁģ ìľ¼ë¡ľ
Ġì¡´ìŀ¬ ìĹĲ
Ġì¡´ìŀ¬ íķľëĭ¤ëĬĶ
ìĺģ ìĿĦ
Ġìĭľê°Ħ ìĿĺ
Ġë²ł ì§Ģ
Ġë²ł íĬ¸
Ġìļ© ìĤ¬
Ġìļ© ê¸°ìĻĢ
ëĦ¤ ì¦Ī
Ġì§ģ ìĹħ
ê°ľ ê°Ģ
Ġìĭ¬ ë¦¬
Ġìĭ¬ íķ´
Ġìĭ¬ ì§Ģìĸ´
Ġê²ĥìĿ´ ìĹĪëĭ¤
íģ´ ëŁ½
ëģ¼ ë¦¬
Ġë¸Į ëĿ¼ìĿ´
Ġë°¤ ìĿĦ
ĠìľĦíĺĳ ìĿ´
ĠìľĦíĺĳ ìłģìĿ¸
Ġëĳĺ ìĶ©
ĠìĤ¶ ìĿĢ
Ġ3 00
Ġìļ°ìĹ° íķľ
ë§¤ íĬľ
Ġì°¸ ìłĦ
ìĶ ½
Ġëŀ Ħ
ì¤ Į
Ġìĭ¸ ìļ°ëĬĶ
ĠëıĦìĭľ ê°Ģ
Ġì¶© ìĦ±
ë°Ľ ê²Į
ĠëĬĲ ê»´
Ġíĥľ ìĸ´ëĤľëĭ¤
Ġì¡°ì§ģ ìĿĦ
Ġê²°íĺ¼ ìĭĿìĿĦ
ĠëĪĪ ìĿ´
Ġê·¸ê³³ ìĿĦ
ë°ĺ ìĿĢ
Ġë³´ëĤ´ ì§Ħëĭ¤
Ġë³µìĪĺ ìĹĲ
Ġë§Īì§Ģë§ī ìľ¼ë¡ľ
Ġê²½ì°° ê´Ģ
Ġë§Įëĵ¤ ìĸ´ì§Ħ
Ġì´Ŀ ìķĮ
ĠìĤ° ëĭ¤
ìĸĳ íķľ
Ġë¹Į ë¦¬
ì²ľ ìĻ¸íķľ
ĠíĮĢ ìĿĺ
Ġíģ¬ë¦¬ìĬ¤ íĭ´
Ġë§¥ íģ´ëłĪ
ĠìĨĮëħĦ ìĿĺ
ĠíĮ¨ ë°°
Ġê³Ħíļį ìĿĢ
ë¦¬ìķĦ ëĬĶ
ĠìºĲ ë¡¤
ĠìºĲ ìĦľë¦°
ì¸ł ëĬĶ
Ġë²Ķì£Ħ ì¡°ì§ģ
Ġíģ´ ëłĪ
Ġì£½ìĿĮ ê³¼
ĠëĤĺíĥĢëĤĺ ëĬĶëį°
ĠëĨĵ ìĹ¬
ĠëķĮë¬¸ ìĿ´ëĭ¤
Ġê²ĮìŀĦ ìĿ´
Ġì¤Ģ ëĭ¤
ĠìŀŃ ê³¼
Ġìĺ¬ íķ´
ë°ķ íķľ
ĠìĨįìĹĲìĦľ ëıĦ
ìĬ¤ê°Ģ ë¥´
Ġë§Īì£¼ íķľëĭ¤
Ġë§Īì£¼ ì¹ľëĭ¤
Ġìĸ» ìĿĢ
Ġìĸ» ëĬĶëĭ¤
Ġê°ĸ ì¶ĺ
íķĺë©´ìĦľ ëıĦ
ĠìĺģíĻĶ ë¥¼
ìŀ¡ ìĿ´
Ġê·Ģ ìĭł
Ġê·Ģ ìĹ¬ìļ´
Ġëį°ìĿ´ íĬ¸ë¥¼
ĠìĬĪíį¼ ë°´
ëłĮ ìĿ´
Ġë§ĪìĿĮ ìľ¼ë¡ľ
ĠëĨĢ ëĿ¼
ĠëĨĢ ëŁ¬
ĠëĨĢ ëŀĢ
ëľ ¨ë¦¬
Ġíģ Ĳ
ìĬ¬ ë§ģ
Ġê·¹ ë³µ
ĠëıĻë£Į ëĵ¤ê³¼
Ġë¸Ķ ë¡Ŀ
ĠìĭĿ ë¬¼
ĠëĤ¨íİ¸ ìĿĦ
ĠìĦ¬ ìľ¼ë¡ľ
ĠìĦ¬ ëľ©
ĠìĬ¹ ë¦¬
ĠìĦ¤ ì¹ĺ
ĠíĸīìĦ± ìĹĲìĦľ
ĠíĦ° íĶĦ
ë³¸ ëĭ¤
ĠìķĦë¹ł ë¥¼
íķ¨ ìľ¼ë¡ľ
íķ¨ ê³¼
Ġê²ª ëĬĶëĭ¤
ìĥī íķľ
ĠìĿĮëª¨ ìĹĲ
Ġìķ¤ ëĶĶ
ĠíĮĮíĭ° ê°Ģ
ĠíĮĮíĭ° ìĹĲìĦľ
ê·¹ ìĿĦ
Ġê´´ë¬¼ ë¡ľ
Ġê²Ģ ìĤ¬
Ġë²Ĺ ìĸ´ëĤľ
Ġê´Ģê³Ħ ëĬĶ
Ġê´ĳ ê²½ìĿĦ
ĠíĴĢ ê¸°
ĠíĴĢ ëł¤
ĠíĽĶ ì¹ĺëĬĶ
Ġê²°ìĭ¬ íķĺê³ł
Ġì¹¼ ìĿĦ
ĠìĬ¤íĥĢ íģ¬
ì¶Ķ ì§Ģ
Ġì¤Ģë¹Ħ ë¥¼
Ġì¤Ģë¹Ħ íķľëĭ¤
ìĺ¬ ë¦¬ìĸ¸
Ġëĭ¤ê°Ģ ìĺ¤ëĬĶ
Ġìłķìĭł ê³¼
Ġì¶Ķìłģ íķĺëįĺ
Ġíĭ° ëª¬
ĠëĲĺì°¾ ê³ł
Ġì¦Ŀ ëªħ
ĠëĬĲëģ¼ ë©°
ĠëŁ¬ ë¸Į
Ġì°° ë¦¬
ĠëĮĢê²° ìĿ´
ĠíĶĮ ëłĪìĿ´
Ġì¶ķ ë³µ
Ġìķ¨ ëŁ°
Ġë³´íĺ¸ íķĺëĬĶ
ĠíĮĲ íĥĢ
ĠíĮĶ ìķĦ
ĠíĮĶ ëł¤
Ġìĩ ł
Ġì¹ľ íķľ
Ġë¶Ħëħ¸ íķľ
ëŁī íķľ
ĠìĺģêµŃ ìĿĺ
Ġë°ĿíĺĢ ì§Ħëĭ¤
íıī ìĸĳ
ĠìŀĪìĹĪ ìľ¼ëĭĪ
Ġíı´ ìĿĢ
ĠìłľìĿ´ìĬ¨ ìĿĦ
Ġë©Ģ íĭ°
ĠìĿ´ê³³ ìĹĲìĦľ
Ġê¶Į ëł¥ìĿĦ
ĠíĺĦìĭ¤ ë¡ľ
íĮĢ ìĿĦ
Ġìľłëł¹ ìĿ´
ĠíĿĶ ìłģìĿĦ
Ġíľĺ ëĳĲ
Ġë²ķ ìĿĦ
Ġë§ŀìĿ´ íķĺê²Į
Ġíľ© ìĵ¸
ĠìķĮëłī ìĬ¤ìĿĺ
ë¹ĦìķĦ ìĿĺ
Ġê°Ĳìĺ¥ ìĹĲìĦľ
Ġìļ©ìĿĺ ìŀĲë¥¼
Ġìļ°ì£¼ìĦł ìĿĦ
Ġê·¸ë¦¬ ëįĺ
Ġê·¸ë¦¬ íĶ¼
Ġì½ľ ëŁ¼
Ġë¦¬ëįĶ ìĿ¸
ĠD NA
ĠìĿ´ì§ĳ íĬ¸ìĿĺ
ĠìĿ¼ìĸ´ëĤĺ ê¸°
ĠíĶĦëŀŃ íģ¬ìĿĺ
Ġë§Ŀ ê°Ģ
ĠìĹĶ ì§ĢëĭĪìĸ´
ĠìĿ¼ëĭ¹ ìĿĢ
Ġìĸ´ëĶĶ ìĦľ
ì¼ĵ ìĿĦ
Ġíķłë¨¸ëĭĪ ê°Ģ
Ġíĺ¹ ëıħíķľ
ĠíĸĪ ì§Ģë§Į
Ġìĭ¤íĮ¨ íķĺê³ł
ĠìĬ¤ì¹´ ìļ°íĬ¸
ĠìĪĻ ìłģ
ĠìĦ¸ëł¥ ìĿĺ
Ġë©¤ë²Ħ ëĵ¤ìĿĢ
ì´Ŀ ìĤ¬
ĠìĹħ ê·¸ëłĪìĿ´ëĵľ
ĠíıŃëł¥ ìłģìĿ¸
ëł¸ ëĭ¤ëĬĶ
Ġíĺ¸ê¸° ìĭ¬ìĿĦ
ĠìĿ¼ë³¸ ìĿĺ
Ġê³³ê³³ ìĹĲ
Ġëĥī íĺ¹íķľ
ĠìĿĺë¢° ë¥¼
ĠìļĶì²Ń íķľëĭ¤
ĠëĤĺë£¨íĨł ëĬĶ
Ġê¸°ìļ´ ìĿ´
ìħĢ ëŁ¬
ĠìĹĳ ìĬ¤
ĠìĹĳ ìĨĮìĭľ
ĠìķĦì¹¨ ìĹĲ
ìĵ° ê³ł
ĠN A
Ġëį¤ ë¸ĶëıĦìĸ´
Ġìĭłë¶Ģ ìĻĢ
Ġëª°ìķĦ ëĦ£
ĠìĹĲëĵľìĽĮ ëĵľëĬĶ
ê°Ķ ëĭ¤ê°Ģ
ĠìĿ¸ëĶĶ ìķĦëĤĺ
Ġëª©íĳľ ëĬĶ
Ġê¹Ĭ ìĸ´
Ġê³łëĭ´ ìĭľë¥¼
ĠìĦ±ìŀ¥ íķľëĭ¤
Ġë¸ĮëĿ¼ìĿ´ìĸ¸ ìĿĢ
Ġíİĺë¥´ ëĶĶ
ë± ĥ
Ġë¯¼ ê°Ħ
ìĥĿíĻľ ìĿĦ
ì¶© ìļ°ëıĮ
Ġì¢Į ìłĪ
Ġì¢Į ì¶©ìļ°ëıĮ
ĠëŃī ì¹ľ
ĠìĤ¬íĥľ ê°Ģ
ĠìĿ´ê²ĥ ìĿ´
Ġë¶Īìĭľì°© íķľ
Ġì»¤ìł¸ ë§Į
Ġì¡°ìļ© íŀĪ
Ġì£½ìĿ´ ëł¤
Ġê³łë¦½ ëĲľ
ĠíĿ© ìĸ´ìł¸
ëİ Ģ
Ġê·¸ëłī ìĿĢ
Ġë§ĪìĬ¤ íģ¬ë¥¼
Ġìĸĺ ê¸°ë¥¼
Ġë§ĲëłĪ íĶ¼ìĦ¼
ĠíħįìĤ¬ ìĬ¤
íĪ °
Ġê·¸ëŀĺ ìĦľ
Ġíĺ¸ê·¸ìĻĢ íĬ¸
Ġë¦¬ì²ĺ ëĵľ
ĠìĬ¤ì¹´ìĿ´ ëĦ·
Ġì§ľë¦¿ íķľ
ĠìĹīëļ ±íķľ
Ġ00 7
ìĹĲëĵľ ìĽĮëĵľ
ĠìķĦê°Ģ ìĶ¨
ëĭĪì½ľ ëĿ¼ìĬ¤
Ġë¹łì§Ģ ì§Ģë§Į
Ġëĭ¬ë§Ī ìĭľ
Ġë¬¼ê³ł ê¸°
Ġíķľê°Ģ ìļ´ëį°
Ġë¯¸ìĭĿ ì¶ķêµ¬
Ġë³¼ëĵľ ëª¨
Ġê¸°ìĥģ ì²ľìĻ¸íķľ
Ġìŀ¥ë¡Ģ ìĭĿ
ĠëĴ¤íĿ Ķëĵ¤
ĠCE O
Ġìį¬ ëįĶ
ĠìķĦíĶĦê°Ģ ëĭĪìĬ¤íĥĦ
µíĭ° ë¨¸ìĬ¤
ìķ¨ë¦¬ ìĬ¨
ìĭľíĥĲ íĥĲ
ĠëĮĢìłĢ íĥĿ
Ġëĭ¤íģĲ ë©ĺ
C h
a c
a l
e y
e bo
k m
o l
t e
¤ ë¡ł
ë ®
ë ¯
ë ĩ
ë Į
ĭ íķľ
ĵ ê³ł
Ķ ëŁ¬
ľ ëŁ°
ëĬ Ħ
ê³ ½
ìĿ´ ìĹĲ
ìĿ´ ë©´ìĦľ
ìĿĺ íķľëĭ¤
ëĭ¤ ìĿ´
ëĭ¤ ë¡ľ
ëĭ¤ ë©´
ëĭ¤ ëĭĪëĬĶ
íķĺ ìĹĲ
íķĺ ëĭ¤ê³ł
ë¡ Ģë¡ľ
ë¡ľ ìĹĲ
ë¡ľ ë¡ľ
ê³ł ìĹĲ
ê³ł ëĮĢ
ê³ł ëĵ±íķĻêµĲ
ìŀ ł
Ġìŀ ĩ
Ġìķ °
ìķ ī
ê°Ģ ìĿ¸
ê°Ģ ì§Ģë§Į
ê°Ģ ê¹Į
Ġê· ł
ë¦¬ ìŀĲ
Ġê·¸ ìĹĲ
Ġê·¸ ëıĻìķĪ
Ġê·¸ íĨłë¡Ŀ
ëį §
ëĵ¤ ë¦¬
ê¸° ìĿ¸
ìĬ¤ íģ¬
ëł ¸ìĿĦ
íķ´ ê°Ħëĭ¤
Ġë° ı
ìľ ħ
Ġìĭ ¹
ìĸ´ ë¦¬
ëĿ¼ ìĹĲê²Į
ìŀĲ êµŃ
ìŀĲ ìĿ´ìŀĲ
ëŀ Ĳëįĺ
ìľ¼ ëł¤ê³ł
ëĤĺ ë¥´
ì¹ «
Ġëĭ «
Ġëĭ ®
Ġëĭ Ĳ
ĠìķĦ ë¥´
ĠìķĦ ê·¸
ĠìķĦ ëĵ¤ê³¼
ĠìķĦ ëį¸
ĠìķĦ ìĬ¤ê°Ģë¥´
Ġìĺ µíĭ°ë¨¸ìĬ¤
ìĭľ íĭ°
ë° §
ëıĦ ìĻĢ
ëıĦ ë¯¸
Ġë§Ī ë¹Ħ
Ġë§Ī íģ¬
Ġíķĺ ëĬĺìĿĦ
Ġê°Ģ ê¸°
Ġê°Ģ ëĿ¼
Ġê°Ģ ëĬ¥
Ġê°Ģ ë¸Įë¦¬
Ġê°Ģ ë°©ìĿĦ
Ġìĥ ¹
ĠìŀĪ ìľ¼ë©°
ĠìŀĪ ëıĦë¡Ŀ
Ġìĭľ íĤ¤
Ġìĭľ ì¹´
Ġìĭľ ê°ģ
ĠìŀĲ ë¥¼
ĠìŀĲ ì²´
Ġì§Ģ ìĽĲ
Ġì§Ģ ìļ°
Ġì§Ģ ì¹ľ
Ġì§Ģ ëıĦë¥¼
Ġì§Ģ ëĬ¥ìĿĦ
ëĮĢ ìĹĲìĦľ
íĥ ĪìĿĦ
ëŁ¬ ì½Ķ
ĠìĪĺ ê°Ģ
ĠìĪĺ ì§ĳ
ĠìĪĺ ë°°
ĠìĪĺ ìĨ¡
ë³ ¸ìĿĦ
ĠìłĦ ê³¼
ĠìłĦ ì²´ê°Ģ
ëĵľ ëĿ¼
ëĵľ ë¦¬ìķĪ
ĠìĤ Ń
íĬ¸ ìĹĲê²Į
íĬ¸ ìĽĮ
ĠëĲĺ ì§Ģ
ìĥģ ìĭ¤
Ġíķ «
Ġíķ ¸
êµ¬ ë¥¼
Ġëª¨ ë¥´ê²Į
Ġìĸ´ ì§Ģ
Ġìĸ´ ë§Ī
ĠìĿ¸ ê·¼
ĠìĿ¸ íĦ´
íĻ ĺìĿĦ
ì° ®
ĠëĮĢ ê¸°
ĠëĮĢ íĺ¼
ĠëĮĢ ëĭĪëĬĶ
ĠëĮĢ íļĮìĹĲ
Ġíĺ ģ
ë§Ī ê°Ģ
ë§Ī ìĿ¸
ë§Ī ìĻĢ
ë¶Ģ ìĹĲìĦľ
Ġíķľ ëªħìĿĺ
Ġíķľ ëĪĪìĹĲ
Ġëĭ¤ ëĭĪëĬĶ
Ġëĭ¤ ìĸĳíķľ
íĶ ½
ìĪĺ ëıĦ
ì£¼ ê²Į
ì£¼ ëįĺ
íĸ Ħ
ĠëĤĺ ê°Ħ
ĠëĤĺ ë¦Ħ
ĠëĤĺ ëĪ
ĠëĤĺ ìĺ¨ëĭ¤
ĠìĤ´ ë¦¬ê¸°
ĠìĤ´ ìľ¡
ĠìĿ¼ ìĹĲ
ĠëıĦ ìļ°
ĠëıĦ ëĤľ
Ġë§Į ì¡±
Ġë§Į ëĤł
íŀ ĺìĿĦ
Ġë³´ ì§Ģ
Ġë³´ ê´Ģ
Ġë³´ ê¸Ī
Ġíĥ ģ
Ġíĥ Ŀ
ë£ ¸
ìŀĳ ìłĦìĿĦ
ĠìĬ¤ ì¼Ģ
Ġì² ¨ëĭ¨
Ġê¸° ìŀĲ
ĠìŀĲìĭł ìĹĲê²Į
ĠìĨĮ íĶ¼
ĠìĨĮ íĶ¼ëĬĶ
ëĶ ±
ëĤ´ ëĬĶëį°
ëĤ´ ë©°
ëĤ´ ìķ¼
Ġëį ©
Ġëį ´
ìłĦ ë¬¸
ĠìķĮ íĶĦ
ĠìķĮ ë°Ķ
ĠìĹĨ ìĹĪëĭ¤
Ġë¬´ ìĸ´
Ġë¬´ ëł¤
Ġë¬´ ë£Į
... !
ê¸ ¸ìĿĦ
ĠìĹ¬ ê¸´
ìłľ íĤ¤
ìłľ ìŀĦìĬ¤
ë¹Ħ íĸī
Ġìłķ ë°ĺ
íĭ Ī
íĭ ±íķľ
Ġë¶Ģ ëĳĲ
Ġë¶Ģ ëıĻìĤ°
Ġìłľ ëħ¸
Ġìłľ ìĻ¸íķľ
Ġê³ł ìĪĺ
Ġê³ł ëĮĢìĿĺ
ìĺ¤ ë¡ľ
ìĺ¤ ê¸°
ìĺ¤ ìŀĲ
ĠëĤ¨ ê²Į
Ġìĺ¤ ì§Ģ
Ġìĺ¤ ê³µ
Ġìĺ¤ ëĬĺ
ê¹ ĥ
Ġê³µ ëıĻ
Ġê³µ ì¤ĳ
ë¯¸ ê°Ģ
ë¯¸ ìĻĢ
ë¯¸ ìĬ¤íĦ°
ëłĪ ëĤĺ
ëłĪ ìĺ¤
Ġê±° ìķ¡
ëĤľ ìĿĢ
íĨ ¨
íĨ ¨ìĿ´
ëĶĶ ìķĦ
Ġì°¾ ê²Į
ĠìĪ «
Ġìľł ìĦ±
Ġìľł ë¬¼
Ġìľł íĥľ
Ġìľł ê´´
Ġìľł ë¬¼ìĿĦ
Ġìľł ì¾Įíķľ
ê²© íķľ
íĤ¤ ìĿĺ
ë³´ ë¡ľ
ë³´ ë©°
ë³´ ê·¸
ëĦ Į
Ġìĭł ê³ł
Ġìĭł ëĶĶ
Ġìĭł ì²´
Ġìĭł ëħĲ
Ġìĭł íĺ¸ë¥¼
Ġìĭł ë°§
ê±° ë¦¬ë¥¼
Ġêµ¬ ê²½
Ġêµ¬ íķ´ìķ¼
Ġêµ¬ ë©į
ëĲĺ ë©´
Ġìļ° ì¦Ī
Ġì£¼ ìľł
Ġì£¼ ìľĦë¥¼
Ġì¡° ì§Ģ
Ġì¡° ìŀĳ
Ġì¡° ìĹ¬
Ġì¡° ì»¤
ë¬´ ìĥĪ
ìķĪ ìĿ´
ĠëĤł ìĿĦ
ĠëĤł ëł¤
ë£¨ ì§Ģ
ìĹĪ ì§Ģë§Į
Ġíķ´ ê³ł
Ġíķ´ ìĦľ
Ġíķ´ ëĵł
Ġë¶Ī ê³¼
Ġë¶Ī ì²Ń
Ġë¶Ī ê½ĥ
Ġë°Ľ ìĿĦ
Ġì¤ĳ ê°Ħ
Ġì¤ĳ ëĭ¨
ìĦ¸ ìĥģ
ìĦ¸ ìļĶ
Ġì¹ľêµ¬ ìĻĢ
ĠìĿĺ ê¸°
ĠìĿĺ ëıĦ
ĠìĿĺ ë¯¸ë¥¼
ĠìķĬ ëĭ¤
ĠìķĬ ìľ¼ë©´
Ġìĸ´ëĬĲ ìĥĪ
Ġìĸ´ëĬĲ ëį§
Ġìĺģ ìŀħ
Ġìµľ ê·¼
íķĻ ìŀĲìĿ¸
Ġê·¸ëŁ¬ ë©´ìĦľ
íķł ì§Ģ
ìĪ Ģ
íĶĦ ìĿĺ
ì¹´ ëĵľ
ĠëĬ Ķ
Ġì°¾ìķĦ ê°Ħ
íĮĮ íĶ¼
Ġ1 6
Ġê²½ ê¸°
Ġê²½ ìķħ
ĠìĹ° ìĬµ
ĠìĹ° ìĿ´ìĸ´
ĠìĹĲ ëĭ¨
ĠìĹĲ ê·¸
ĠìĹĲ ëĦĪ
ĠìĹĲ ìĿ¼ë¦¬ìĸ¸
ĠìĥĪ ë²½
ì§ģ ìĿĦ
Ġê³¼ ê°Ĳ
Ġëĸł ëĤł
Ġëĸł ìĺ¬
ëŀĢ ìĿĦ
ëĭ¨ ìĿĢ
ìŀ¬ ë¡ľ
Ġìĭ¤ íĸī
Ġìĭ¤ ìĪĺë¥¼
ì¦Ī ê°Ģ
Ġì¡´ ìĿĢ
íĨł ê°Ģ
íĨł ë§ĪìĬ¤
ì¡° ë¥¼
ì¡° ë¦¬
ì¡° ìĿ¸ê°Ħ
ĠìĦľ ë¶Ģ
ĠìĦ¸ê³Ħ ëĬĶ
ĠìĦ¸ê³Ħ ìĻĢ
Ġìķħ ëŀĦ
ĠìĤ¬ê±´ ê³¼
Ġíģ¬ ë¦Ń
ĠìĦ± ìŀ¥íķľ
ĠìķĦìĿ´ ëĵ¤ê³¼
Ġë§ŀ ê³ł
ĠìĻķ ìĿĢ
ĠìĻķ ë¹Ħ
ĠìĻķ ìľĦ
ĠìķĪ ëĿ½íķľ
ëģ ½
ĠëĤ´ ëĬĶ
ĠëĤ´ ê°Ģ
ìħ ľ
ìħ ĺìĿĦ
ĠìĤ´ìķĦ ëĤĺ
Ġíĺ¸ ê°ĲìĿĦ
Ġíĺ¸ ëŀĳìĿ´
Ġíĺ¸ ìĭľíĥĲíĥĲ
ĠìĤ¬ëŀĳ ìĿ´
ĠìĤ¬ëŀĳ íķĺê²Į
Ġë¦¬ ë¬´
Ġë¦¬ ëħ¸
Ġë§Ĳ ìĤ´
Ġìŀ¥ êµ°
Ġìŀ¥ ë²½
Ġìŀ¥ ë©´ìĿĦ
ëįĶ ê°Ģ
Ġê°Ĳ íĸī
Ġê°Ĳ íĸīíķľëĭ¤
ĠìļĶ ë¦¬
Ġë§¤ ìĿĺ
Ġë§¤ ëł¥ìĿĦ
Ġë§¤ ëĭ¬
Ġë°© ìĹĲ
Ġë°ĺ ê²©
Ġë°ĺ ì§Ģë¥¼
ĠìĦł ë³´
Ġì²ĺ ì¹ĺ
Ġì²ĺ íķĺìŀĲ
ĠìĻ¸ íĨ¨ìĿ´
Ġëĭ¨ ì§Ģ
Ġëĭ¨ íİ¸
ëł¹ ìĿ´
Ġëĭ¬ ì½¤
ê·¸ ëłĪìĿ´
Ġëĵľ ëłĪ
Ġìŀĳ ê³ł
íĪ¬ ë¹ĦìķĦ
Ġë°° íļĮ
ë¨¸ ë¦¬
ĠëĴ ·
ê´Ģ ìĹĲ
ĠìĦ¸ìĥģ ìĿ´
ĠìĦ¸ìĥģ ìľ¼ë¡ľ
íĸĪ ëĭ¤ê³ł
Ġíķł ë¦¬
ĠëķĮ ëł¤
Ġëªħ ìĶ©
Ġ2 8
Ġìŀ¬ ìķĻ
ĠìķĦë²Ħì§Ģ ìĹĲ
ĠíĨµ íķ©
ì½Ķ ëĬĶ
Ġìłģ ìĿĺ
ê°ģ íķľ
Ġì¹´ íĦ°
ĠìĤ¬ìĿ´ ìĿĺ
ĠìĤ¬ìĿ´ ìĸ´
ĠíĺĦ ìŀ¥ìĹĲ
ĠíħĮ ëĵľëĬĶ
ĠíħĮ ìĿ¼ëŁ¬
Ġëĵ± ìĿĺ
Ġì¹ĺ ëĭ«
ĠëĤĺíĥĢ ìĥ¤
ĠëĤĺíĥĢ ëĤ¬ëĭ¤
Ġìĺ¨ ëĿ¼
Ġë²Ħ íģ¬
Ġë²Ħ ëł¤ì§Ħ
Ġì±Ħ ë¡ľ
Ġìŀł ìĿ´
Ġíĸ¥ íķĺê³ł
Ġë¬¼ ê±´
Ġë¬¼ ê±´ìĿĦ
ê²¨ ì§Ħ
ì§ĳ ìĿĦ
Ġì°¨ ëŁī
Ġì°¨ ë¡Ģë¡ľ
Ġë§ī ëĬĶ
ĠêµĲ ìĤ¬
ĠêµĲ íĻ©
ĠêµĲ ìľ¡
Ġë³Ģ íĻĶ
ĠíĨł ë¥´ëĬĶ
ĠíĨł ëĭĪëĬĶ
ĠìĹ´ ê³ł
ĠìĹ´ ìĭ¬
ĠìĹ´ íĺĪ
ĠìĽĲ ìĿ¸ìĿĦ
Ġê´´ ìĥĿëªħ
Ġìŀĥ ëĬĶëĭ¤
ëĭ¬ ëŁ¬
ëĭ¬ ëĿ¼ëĬĶ
Ġê¿Ī ìĿ´
Ġì«ĵ ëĬĶëį°
Ġì«ĵ ëĬĶëĭ¤
ë£Į ë¥¼
Ġëī´ ìĺ¬ë¦¬ìĸ¸
ĠìłĦìŁģ ê³¼
ĠìłĦìŁģ ìĹĲìĦľ
Ġë²ł ìĿ´
ĠíķĺëĤĺ ë¿ĲìĿ¸
Ġêµ° ì¤ĳ
ì¢ Į
Ġìļ© ë§¹
Ġê±´ ëĦ¤
íĺķ ìłľ
ë¶Ħ ìĿĦ
ë¶Ħ ìĹĲ
íħ Ŀ
íĴ Ģ
Ġìĭ¬ ìĥģì¹ĺ
Ġë³¸ ê²©
Ġìŀħ ìĸĳ
Ġì¶ľ ìłĦ
Ġì¶ľ ëıĻ
Ġë¸Į ëłĮ
Ġë¸Į ëĿ¼ìļ´
ĠìľĦíĺĳ íķľëĭ¤
Ġëĳĺ ìĿ´
Ġëĳĺ ìĿĺ
ĠíĬ¸ ëŀľ
ĠíĬ¸ ëĿ¼ìļ°
ìĶ ¬
ìĬ¤íĬ¸ ë¡ľ
ĠíĤ¤ ëĤĺ
ĠíĤ¤ ìļ°ëĬĶ
ĠìĹŃ íķł
Ġëª° ìĤ´
Ġê³µê²© íķĺê³ł
íĨµ ìĿĦ
Ġìļ°ì£¼ ë¡ľ
ìķł ë¥¼
ë°Ľ ì§Ģ
ĠíĹ¤ ëĿ¼
ëĿ¼ìĿ´ ëĤĺ
ëĿ¼ìĿ´ ì¦Ī
ĠìĥģíĻ© ìĿĢ
Ġë¯ ¹
Ġë£¨ íĶ¼
Ġë£¨ ë¯¸ìĬ¤
Ġê·¸ê³³ ìĹĲ
Ġë³´ëĤ´ ê²Į
Ġ4 0
Ġ4 8
ĠìĻĦ ìĪĺ
ĠìłľìĿ´ ë¯¸
ĠëĤ©ì¹ĺ ëĲĺê³ł
ĠëĤ©ì¹ĺ ëĲĺìĸ´
ĠíĻĶ ìŀ¥
Ġê²½ì°° ìĿĦ
Ġê²½ì°° ìĿĺ
Ġê²½ì°° ê³¼
Ġê²½ì°° ì²Ń
Ġë©Ķ íĬ¸ë¡ľ
ìŀĪ ëĭ¤ëĬĶ
ë°° ìļ°
Ġë§Īë²ķ íķĻêµĲ
ĠìŀĦë¬´ ê°Ģ
Ġíĭ Ģ
ëł¨ ìĿĺ
Ġë¬¸ ëªħ
Ġë§¥ íĢ¸
Ġì§ĢíĤ¤ ê³ł
Ġíŀĺ ëĵ¤
Ġì¢ħ êµĲ
Ġëĸ¨ ê²Į
ĠíĮ¨ íĬ¸ë¦Ń
Ġíļ ¡
Ġìļ´ëªħ ìłģìĿ¸
Ġíģ´ ëŀĺ
Ġíģ´ ëĿ½
Ġìĸ´ëĸ łíķľ
Ġê³µíı¬ ë¡ľ
ìĦ¸ê³Ħ ìĿĺ
ĠëĤĺíĥĢëĤĺ ëĬĶ
ĠëĨĵ ëĬĶëĭ¤
íĶĮ ëłī
Ġìĸ» ê³ł
Ġìĸ» ìĸ´
Ġíİ¼ ì¹ĺëĬĶ
ĠìĺģíĻĶ ëĬĶ
Ġê·Ģ ì¡±
Ġë§ĪìĿ´ íģ¬
Ġë§ĪìĿ´ ìķł
ìĭľíĤ¤ ëł¤ëĬĶ
Ġê°ģ ìŀĲ
Ġìĭ¶ ì§Ģë§Į
Ġë§ĪìĿĮ ë¨¹
ĠìĥĿê°ģ ìĿĦ
ĠëĿ¼ìĿ´ íĶĦ
ê²ł ëĭ¤ë©°
Ġê°Ī ë§Ŀ
ĠìķĦëĭĪ ëĭ¤
Ġê·¹ ìĹĲ
Ġê·¹ ë¹Ħ
Ġê·¹ íķľìĿĺ
ĠëĦ¤ ìĺ¤
ĠëĦ¤ íĬ¸ìĽĮ
Ġë¨¸ ëĤĺë¨¼
ĠìĦ¬ ìĹĲìĦľ
ĠíĸīìĦ± ìľ¼ë¡ľ
ĠíĦ° ë¯¸ëĦ¤ìĿ´
íķĻêµĲ ìĹĲ
ĠìķĦë¹ł ê°Ģ
íķĺëł¤ ëįĺ
Ġë°± ìķħ
Ġë°± ìĦ¤
Ġê²ª ê³ł
Ġë± ĥ
ĠìłľìķĪ íķĺê³ł
Ġê´´ë¬¼ ìĹĲê²Į
Ġ6 0
Ġê¸°ëĭ¤ ë¦¬ë©°
Ġê³µì£¼ ê°Ģ
Ġìĸ¸ ëįķ
Ġìĸ¸ ìłł
Ġê´Ģê³Ħ ë¡ľ
Ġê´Ģê³Ħ ê°Ģ
ĠíķĦ ë¦½
Ġë¶Ģëª¨ ë¥¼
ĠìĪ² ìĹĲìĦľ
Ġë°Ķëĭ¤ ë¡ľ
Ġê´ĳ íĻľíķľ
19 7
Ġê°Ģê¹Į ìļ´
Ġë¨¹ ëĬĶ
Ġë¨¹ ìĿĦ
Ġë¨¹ ê³ł
Ġíĺ¼ëŀĢ ìĿĦ
Ġíį¼ ë¶ĵ
Ġì£¼ìĿ¸ ìĿ¸
Ġê²°ìĭ¬ ìĿĦ
Ġê²°ìĭ¬ íķĺëĬĶëį°
ĠìłĦíĪ¬ ìĹĲ
ĠìĿ´ìĸ´ ê°Ħëĭ¤
Ġê¼ ´
ìĻĶ ëĭ¤
Ġëĭ¤ê°Ģ ìĺ¬
Ġìłķìĭł ìłģ
Ġì¶Ķìłģ ìĿĦ
Ġìłķë¶Ģ ëĬĶ
ĠëŁ¬ ëĦĪ
Ġì°° ë¦¬ìĻĢ
ĠíĶ¼íĦ° ìĿĺ
ĠëĤĺìĦľ ì§Ģë§Į
ĠëĦĪ ë¨¸
ĠëıĦë§Ŀ ì³Ĳ
ĠíĶĮ ëĿ¼
Ġì¶ķ ìłľë¥¼
ĠìĿ´ìķ¼ê¸° íķľëĭ¤
Ġëĸ¨ìĸ´ ì§Ģê³ł
Ġê·¼ ê·¼
ĠìĻĦë²½ íķĺê²Į
ĠíŀĪìĸ´ë¡ľ ê°Ģ
Ġë°Ģ ëł¤
Ġë°Ģ ë§¤
ëª¬ ìĬ¤íĦ°
ì¡Į ëĭ¤
ĠìĺģìĽħ ìľ¼ë¡ľ
Ġë¯¸ìĬ¤íĦ° ë¦¬ë¥¼
ìłľìĿ´ íģ¬
Ġë¶Ħëħ¸ ìĻĢ
ĠìķĮìķĦ ëĤ´ê¸°
Ġê¿Īê¾¸ ë©°
Ġíľ´ ê°Ģ
ìĹ´ ì°¨
ë²¨ ëĿ¼
ĠíĿ¬ë§Ŀ ìĿ´
Ġë³Ħ ë¡ľ
Ġìĥģìĥģ íķł
ĠíĴĪ ìĿĢ
!! !
ëŀŃ íģ¬
Ġìĺģíĺ¼ ìĿ´
Ġë±ĢíĮĮìĿ´ìĸ´ ìĿĺ
Ġëĭ¥ ì¹ľ
ĠíĶĦëłĪ ëĵľ
Ġëķħ ìĿĦ
ìĬĪ íĥĢ
ĠìĿ´ë£¨ ìĸ´
Ġì¿ł íį¼
Ġë§ŀìĿ´ íķľ
Ġë§ŀìĿ´ íķľëĭ¤
Ġê·¸ê²ĥ ìĿ´
ĠìĪĺìĤ¬ ìĹĲ
ĠìĪĺìĤ¬ ê´Ģ
ĠìĿ¼ìľ¼ ì¼ľ
ĠìĿ¸íĺķ ìĿĦ
ìĬ¤íĭ° ìĬ¤
Ġìºł íķĳ
Ġì´ĪëĮĢ íĺķ
ĠìłĦìĤ¬ ë¡ľ
ĠíĶĦëŀŃ íģ¬ëĬĶ
Ġê°ľë°ľ ìĹĲ
Ġíĺķìłľ ëĬĶ
ĠëŀĮ ìĦ¸
ĠëĽ°ìĸ´ ëĦĺ
ĠìĹĶ íĦ°
ĠìĿ¼ëĭ¹ ìĿĺ
ĠìĦ¹ ìĬ¤
ëĨĵ ê³ł
Ġíģ¬ë£¨ ìĹĺ
Ġë¹¼ìķĹ ìķĦ
Ġë¹¼ìķĹ ê¸´
ì© į
Ġìĭľì²´ ë¡ľ
Ġíĺ¹ ìĦ±
Ġë¬´ìĹĩ ìĿ´ëĵł
ĠíĨµìłľ íķł
ĠëĪĦêµ°ê°Ģ ìĿĺ
ĠëĤ¸ ëĭ¤
ĠëĤ¸ ìĭľëĬĶ
Ġì§ĢëıĦ ìŀĲ
ĠíĮ¬ íħĢ
ëĭµ ìĿĦ
ĠìĻĶ ëįĺ
ĠìĦ¸ëł¥ ìĿ´
Ġì¹¨ìŀħ íķľ
ĠìłĢì§Ģ íķĺê¸°
ĠìłĢíĥĿ ìĹĲ
ĠìĹħ ê³Ħ
Ġë¶ģ ìª½
Ġë¬¼ë¦¬ ì¹ĺê³ł
Ġì»´ ë±ĥ
ĠìĤ¬ë§Ŀ íķľ
ĠìķĦì§ģ ëıĦ
ĠìĥĿì¡´ìŀĲ ëĵ¤ìĿĢ
Ġìķ½ìĨį ìĿĦ
ãĢ į
ĠíķĺëĬĺ ìĹĲìĦľ
Ġìĥģíĥľ ìĹĲ
Ġë¬¸ìłľ ëĬĶ
Ġë¬¸ìłľ ê°Ģ
ĠìĦ¸ê³ĦëĮĢ ìłĦìĿ´
Ġë°°ìĭł ìľ¼ë¡ľ
Ġì¿ ¨
Ġìĸ´ì© Į
Ġê²½ê³ł íķľëĭ¤
ë¶ģ ìĿ´
Ġì¦Ĳê¸° ëįĺ
Ġì¦Ĳê¸° ë©°
Ġë§ĺ ëª¨
Ġëıķ ëĬĶ
ĠíĻ©ìłľ ìĿĺ
ĠìŀŃìĬ¨ ìĿĢ
ĠìłĦë¶Ģ ìĿ¸
ĠëĤ¨ìķĦ ìŀĪëĬĶ
Ġìķħëªħ ëĨĴìĿĢ
Ġìĭ¬ë°Ķ ëĬĶ
ĠëĳĺëŁ¬ ìĭ¸
ĠìĿĢíķĺ ê³Ħ
ĠíĶĦë¡ľìłĿ íĬ¸
Ġë¿ Ķ
ĠìĿ¸ê³µ ì§ĢëĬ¥
ĠìĬ¤íħĮ ìĿ´
ĠìĹĨìķł ê¸°
Ġì£¼ë³Ģ ìĿĦ
Ġì¹´ë©Ķ ëĿ¼
ĠìĿĢíĩ´ íķľ
ĠíĪ¬ìŀħ ëĲľ
Ġê³łêµ°ë¶ĦíĪ¬ íķľëĭ¤
Ġì§ĢëĤ´ ëįĺ
ĠìĪĺìļ© ìĨĮìĹĲ
ĠëĮĢë¶Ģ ë¶ĦìĿĺ
Ġì¶¤ ìĿĦ
Ġìĭłë¶Ħ ìĿĦ
Ġëª©ìĨĮ ë¦¬
Ġëª©ìĨĮ ë¦¬ë¥¼
ì¹Ļ íķľ
Ġìĭľíĭ° ìĿĺ
ĠëıĦìĤ¬ ë¦¬ëĬĶ
íı° ì§Ģ
Ġëª©ìłģ ìĿĢ
Ġê°ĳìŀĳ ìĬ¤ëŁ¬ìļ´
Ġê·¸ë£¨ ëĬĶ
ĠìĿ¸íĦ° ë·°
Ġë¡ł ê³¼
Ġë®¬ëŀĢ ìĿĢ
ĠìĬ¤íĥ ¤ë¡ł
ì¼Ħ ìĬĪíĥĢ
ĠìĤ¬ëĿ¼ì¡Į ëĭ¤
ĠìĬ¬íĶĶ ìĹĲ
ĠìĤ¬ì§Ħ ìĿĦ
Ġì¡°ìļ© íķľ
ĠìĦľì»¤ìĬ¤ ëĭ¨
ĠìĦłìĥĿ ëĭĺ
Ġìŀĺëª» ëĲľ
ĠI MF
ĠìĹłë§Ī ëī´
Ġë¬ĺ íķľ
Ġë°ĺëĮĢ ìĹĲëıĦ
ĠìķĦë§Ī ì¡´
ĠìķĦëĭ´ ìĬ¤
ë¬ĺ íķľ
Ġì£¼ìĸ´ ì§Ħëĭ¤
ĠíĹĪëĿ½ íķĺì§Ģ
Ġì£¼ìĭĿíļĮ ìĤ¬
ì¥¬ ìĹĺ
ĠíĹ¤ë§¤ ëįĺ
Ġê¸´ìŀ¥ ê°Ĳ
Ġê²ī ìľ¼ë¡ľ
ë§Įìŀ¥ ìŀĲ
ĠìĨĮìľł ìŀĲ
Ġê±°ì§ĵ ë§Ĳ
Ġì£¼ëª© ìĿĦ
Ġì´Īë¡Ŀ ìĥī
Ġíķľì°½ ìĿ¸
ëª¨ëĳĲ ê°Ģ
Ġë¡¤ ëŁ¬ì½Ķ
Ġì´ĪìŀĲìĹ° ìłģìĿ¸
Ġë©Ķìĭľ ì§Ģë¥¼
ìķĮëłī ìĬ¤
ĠDe ebo
Ġìķµ ë¬´ìĥĪ
Ġìłľëĭ¤ ìĿ´
Ġë°Ķíĥķ ìľ¼ë¡ľ
Ġë£¨ìĿ´ ìĬ¤ëĬĶ
Ġë²Īë²Ī íŀĪ
ĠìĿµìĬ¤ íİľëįĶë¸Ķ
Ġë¦¬íĶĮë¦¬ ì»¨
Ġì¥ Ķ
ĠíķĺìĪĺ êµ¬
ëģĪ íķľ
Ġê°Ĳì¶° ì§Ħ
ĠíĥĢê²Ł ìĿ´
Ġë²łìĬ¤íĬ¸ ìħĢëŁ¬
Ġêµ¶ì£¼ ë¦°
ëĬ¦ ê²Į
Ġìķī ìķĦ
ĠëĤĺëŃĩ ìŀİ
Ġë¬´ë¦ ħ
Ġì½Ķë¯¸ ëĶĶ
Ġìį¬ëįĶ ë³¼
Ġëĭ¤íģĲë©ĺ íĦ°ë¦¬
ëĩ ¨
ê°Ģê¹Į ìļ´
Ġë¶Īì²Ń ê°Ŀ
Ġëĭ¬ì½¤ íķľ
ĠíĬ¸ëŀľ ìĬ¤íı¬
Ġìĸ¸ìłł ê°Ģ
Ġë¡¤ëŁ¬ì½Ķ ìĬ¤íĦ°
1 4
E N
H AL
J o
a m
e s
h er
i f
o u
« Ĵ
½ ìĶ½
â Ļ
ì ¸°
Ġ E
Ġ G
Ĥ ìĿĢ
Ķ íķľ
Ķ ëįĺ
ĺ ëĺ
Ľ ê³ł
Ġì ª½
Ġë º
Ġë Ŀ½
Ġê ¶
ìĹ ½
ìĹ ł
ëĭ¤ ë¥¼
íķľ ëķĮ
ë¥ ĻìĿĦ
ë¡ľ ë¦¬
ë¡ľ ìĻĢ
ë¡ľ ë¹Ī
ë¡ľ ìĿ´ëĵľ
ê³ł ìĬ¤íĬ¸
ëĤ Ń
ìĭ ¹
ìķ Ĭ
ìķ ĺìĿĦ
ê°Ģ ìĹĲìĦľ
ê°Ģ ìļ´
ê°Ģ ëĿ½
ì§Ģ ìĿ¸
ì§Ģ ëįĺ
ì§Ģ íķĺëĬĶ
ë¦¬ ëĿ¼
ë¦¬ ì¦ĪìĿĺ
Ġê·¸ ë¦°ëĭ¤
Ġê·¸ ëŁ´
Ġê·¸ ìķ¼ë§Ĳë¡ľ
ê¸° ìŀĲ
ê¸° ëħĲ
ìĬ¤ íĮĮ
âĢ ľ
íķ´ ê°Ģ
ìĦľ ê°Ģ
ìĿ¸ ìĹĲ
ìĿ¸ íĺķ
ĠëĤ ¼
ĠìĤ¬ ìŀ¥
ĠìĤ¬ íĥĦ
ĠìĤ¬ ë¦½
ĠìĤ¬ ì¶ĺ
ĠìĤ¬ ìĬ¤ì¼Ģ
ĠìĿ´ ìŀĲ
ĠìĿ´ ëĵ¤ê³¼
ĠìĿ´ ìĨ¡
ìĸ´ ë¦´
ìķĦ ìĭľ
ìķĦ ëĤ´
ìķĦ ëħ¸
ìķĦ íħĮëĤĺ
ìķĦ ì¹¨ìĹĲ
ìŀĲ ëĵ¤
ìŀĲ ìĹĲê²Į
ìŀĲ ëĵ¤ê³¼
ìŀĲ ë¦¬ë¥¼
ìŀĲ ìĭłìĿĺ
ëŀ ©
ëŀ Ĳëĭ¤
ëĤĺ ê¸´
ëĤĺ ê°ĢëĬĶ
ëĤĺ ê°Ģëįĺ
ëĤĺ ìĦłëĭ¤
Ġëĭ µ
ĠìķĦ ìĦľ
ĠìķĦ ë¹Ħ
ĠìķĦ ìĦľëĬĶ
ĠìķĦ íı´
ê³¼ ê±°
ë© Ģ
ìĭľ ëĭ¤
ìĭľ íķľëĭ¤
ëıĦ ëĿ¼
ëıĦ ëĳĳ
Ġë§Ī ìĭł
Ġë§Ī ì¹ľ
Ġë§Ī íħĮ
Ġë§Ī ë¸Ķ
Ġíķĺ ìŀĲ
Ġíķĺ íĬ¸
Ġíķĺ ìĽĮëĵľ
Ġê°Ģ ì§Ģë§Į
Ġê°Ģ ì¹ĺ
Ġê°Ģ ëĤľ
Ġê°Ģ ìķ¼
Ġê°Ģ ìĦ¸
Ġê°Ģ ê³µ
Ġê°Ģ ëĶĶìĸ¸
Ġê°Ģ ê¹Ŀ
ìĤ¬ ëĿ¼
ìĤ¬ ëĬ¥
Ġìĭľ ê³µ
Ġìĭľ ì¦Į
Ġìĭľ ë¦¬ì¦ĪìĿĺ
ĠìŀĲ ê°Ģ
ĠìŀĲ ê¾¸
ĠìŀĲ ìĬ¤ë¯¼
Ġì§Ģ ìĸ´
Ġì§Ģ ì³Ĳ
ëĮĢ ë¯¸
Ġë¹ ¨ë¦¬
ìĭł ìľ¼ë¡ľ
ìĭł ê³¼
ëŁ¬ ìĭľìķĦ
ĠìĪĺ ëĭ¤
ĠìĪĺ ìŀ¥
ĠìĪĺ íķĻ
ĠìĪĺ ëĿ½
ĠìĪĺ ìŀĶ
ĠìĪĺ ìĭŃ
ĠìłĦ ìĪĺ
ĠìłĦ ì²´ë¥¼
ëĵľ ëĬĶëį°
ëĵľ ëłĪ
ëĵľ ìĽ¨ìĿ¸
íĬ¸ ìĹĲìĦľ
ëĲ Ĳëĭ¤
ìĥģ ìĿĺ
Ġíķ Į
êµ¬ ìĬ¤
ëĭĪ ìĹĲ
ëĭĪ ìĸ¸
Ġëª¨ ë²Ķ
Ġëª¨ íĥĪ
Ġì° ¸ìĿĦ
Ġë¬ µ
Ġìĸ´ ëłµ
ìŀ¥ êµ¬
ĠìĿ¸ ìĹ°ìĿĦ
ĠìĿ¸ ì¡°ìĿ¸ê°Ħ
íĦ° ê°Ģ
ĠëĮĢ ë¹Ħ
ĠëĮĢ íļĮ
ĠëĮĢ ìĥģìĿ´
ì§Ħ ìĿ´
ë§Ī ìĹĲ
Ġê²ĥ ìŀĦìĿĦ
íķĺê³ł ëıĦ
Ġíķľ ê°Ģì§Ģ
Ġëĭ¤ ë¥´
ìĪĺ ìĹĲ
ìĪĺ ìĻĢ
ì£¼ ëĬĶëį°
ì£¼ ë¯¼
ĠëĤĺ ìĻĢ
ĠëĤĺ ê°Ī
ĠìĤ´ ë©°
ìļ´ ìĿĺ
ĠìĿ¼ ë¡ľ
ĠìĿ¼ ê¸°
ĠìĿ¼ íķĺë©°
ĠìĿ¼ ìĽĲìĿ´
ĠìĿ¼ ì´ī
ĠìĿ¼ ìĸ´ëĤł
Ġíı °
ĠëıĦ ëĿ¼ìĹĲ
Ġë§Į ìķ½
Ġë§Į ëģ½
Ġë³´ ë¬¼
ĠìĬ¤ ë§Ī
ĠìĬ¤ ì½ľ
ĠìĬ¤ íĬľ
ĠìĬ¤ íİľ
ĠìĬ¤ íİĻ
Ġê¸° ìłģ
Ġê¸° ê´Ģ
Ġê¸° ìĬµ
Ġê¸° íļį
Ġê¸° ê³Ħë¥¼
Ġê¸° ìłģìĿĦ
ë©´ ìĿ´
ë²Ħ ë¦¬ëĬĶ
ë²Ħ ë¦Ń
ĠìĨĮ ë¦Ħ
ĠìĨĮ ë¦¬ê°Ģ
ìłĦ ìľ¼ë¡ľ
ĠìķĮ ë¦°ëĭ¤
ĠìĹĨ ìĿĮìĿĦ
ĠìĹĨ ëĭ¤ê³ł
Ġë¬´ ìĪł
ĠìĹ¬ ëĬĶ
ĠìĹ¬ ìľł
ĠìĹ¬ ìĿ¸ìĿĦ
ìĥĿ ìľ¼ë¡ľ
ìĽĲ ìĿĢ
ìłľ ëłĪ
ìłľ ëĭĪíį¼
ë¹Ħ ê¸ī
ëħĦ ë§ĮìĹĲ
Ġìłķ ì°°
ìłķ ìľ¼ë¡ľ
ìłķ ê±°
ìłķ ëĲľ
Ġë¶Ģ ë¥´ë©°
êµŃ ìĹĲ
ìļ° ìĬ¤ëĬĶ
ë¥´ ë¯¸
Ġìłľ ìŀĲ
Ġìłľ íĬ¸
Ġìłľ ê³µ
Ġìłľ ìĿ¸ê³¼
Ġê³ł ìŀ¥
Ġê³ł ëĵł
Ġê³ł ìĭ¬
Ġê³ł ìľĦ
Ġê³ł ë©Ķ
Ġê³ł ê°Ŀ
Ġë¹Ħ íĤ¤
Ġë¹Ħ ë£¨
ìĺ¤ ë©´ìĦľ
ìĺ¤ íĨł
ìĺ¤ ëŀľ
ĠëĤ¨ ì§Ģ
ĠëĤ¨ ìŀĳ
Ġìĺ¤ ì½Ķ
Ġìĺ¤ ëĶĺ
Ġê³µ ìĭĿ
Ġê³µ ëŀµ
ë¯¸ ëĤĺ
íĹ ¨ë¦¬
Ġê±° ê¸°ìĹĲ
Ġê±° ë¦¬ìĿĺ
íģ¬ ìĹĲ
ĠíĮĮ ê³ł
ĠíĮĮ ìķħ
Ġì°¾ ìľ¼ëŁ¬
Ġë°Ķ ë¥´
Ġë°Ķ ìľĦ
Ġë°Ķ ì³Ĳ
Ġìľł ëł¹ìĿĦ
ĠìĥĿ ìĤ°
íĤ¤ ëĵľ
ĠëıĻ ê±°
íĻĶ êµŃ
Ġë°ľ ìłĦ
Ġë°ľ ìŀĲêµŃ
Ġìĭł ë³ĳ
Ġêµ¬ ë§Ī
Ġêµ¬ ë¶Ħ
Ġêµ¬ ìĬ¤íĥĢ
Ġêµ¬ ìĤ¬ìĿ¼
íİ Ħ
Ġìļ° ëĳĲ
ìĦ± íķľ
ìĦ± ìĿĢ
ìĦ± ìłģìĿ¸
Ġì£¼ ëıĦ
Ġì£¼ ë¨¸ëĭĪ
Ġìĥģ ìĨį
Ġìĥģ ìĥģìĿĦ
Ġì¡° ëĵľ
Ġì¡° ìĪĺ
Ġì¡° ìī¬
ë¬´ ëĬĶ
ì¡± ìĿĦ
ì¶ ľêµ¬
ĠëĤł ì¹´
ë£¨ ìĭľ
Ġíķ´ ì²´
Ġíķ´ ê³¨
Ġë¶Ī ìĤ¬
Ġë¶Ī íİ¸
Ġë¶Ī ë©¸ìĿĺ
Ġê²° ì½Ķ
ì¦ Ĳ
ì¦ īë°ľ
Ġì£½ ì§Ģ
Ġì£½ ìĹ¬
ì²´ ìĻĢ
Ġë°Ľ ì§Ģë§Į
íĭ° ëĤĺ
íĭ° ìĬ¤íĬ¸
ìĦ¸ ëĬĶ
Ġì¹ľêµ¬ ëĬĶ
ĠìķĬ ìŀĲ
ĠìķĬ ì§Ģë§Į
Ġìĺģ ê´ĳ
Ġìµľ ì¢ħ
ìĹ° íŀĪ
Ġì§ĳ ìĤ¬
Ġì§ĳ ì¤ĳ
ìĨĮ ëĬĶ
ìĨĮ ëħĦ
ĠìĨį ìĿĦ
ĠìĨį íķľ
ĠìĨį íİ¸
ĠíĶ¼ ì¹´
ĠíĶ¼ ëĿ¼ë¯¸
ìĪ į
íĶĦ ëĿ¼ìĿ´ì¦Ī
ĠëıĮ ê³ł
ĠëıĮ ì§Ħ
ĠëıĮ ë³Ģ
Ġë¶Ħ ë¦¬
ĠëĬ ª
ĠëĬ ĻìĿĢ
ìĭ¬ ê³¼
Ġì°¾ìķĦ ìĺ¤ëĬĶëį°
Ġê²½ ìłľ
Ġê²½ ê¸°ë¥¼
ìĦł ìĹĲ
ìĦł íķľ
ìĭĿ ìĿ´
Ġëĵ¤ ìľ¼ë©°
ĠìĹ° ê¸°
ĠìĹ° ê·¹
ĠìĹĲ ìłľíĤ¤
ëıĻ ìľ¼ë¡ľ
ëıĻ ìĽĲ
Ġê³¼ ìłķìĿĦ
ĠíĹ Ľ
íİ¸ ìĹĲ
Ġë¡ľ ë¹Ī
ì°¨ ë¥¼
ĠíĿ ł
Ġëª» íķĺëĬĶëį°
Ġìĭ¤ ìĿĢ
Ġìĭ¤ ëł¤
Ġìĭ¤ ë§Ī
Ġìĭ¤ ë²Ħ
Ġìĭ¤ íĺĦ
ì¦Ī ë¥¼
Ġì¡´ ê³¼
íĨł ë¥¼
íĨł ëĭĪ
íĨł ë¦¬ìķĦ
Ġê°Ģì¡± ëĵ¤ìĿĺ
ì¡° ëĭĪ
Ġìķħ ëł¹ìĿĦ
ĠíĶĦ ë¦°
Ġëį° ìĿ¼
Ġëį° ë¹Ħ
ĠíĽĦ ìĹĲ
Ġíģ¬ ë¡±
ĠìĦ± ìĿĦ
ĠìĦ± ìłģ
ĠìĦ± ìĿ¸ìĿ´
ĠìķĦìĿ´ ë¦°
ĠìķĦìĿ´ ëĵ¤ìĹĲê²Į
ĠìķĦìĿ´ ëıĮ
ĠìķĦìĿ´ ëĶĶìĸ´
ĠìķĦìĿ´ ì½ĺ
ìĽĮ íķĺëĬĶ
Ġë§ŀ ëĬĶ
Ġë§ŀ ìĦłëĭ¤
ĠìķĪ ëĬĲ
ĠìķĪ ìłĦìĿĦ
ĠìķĪ ìł¤
ĠëĤ´ ì«ĵ
Ġëħ¸ ë¦°ëĭ¤
Ġëħ¸ ë¦¬ë©°
ĠìĤ´ìķĦ ëĤľ
Ġíĺ¸ ë¨¸
Ġìŀ¥ êµ°ìĿĺ
Ġìŀ¥ ìĨĮë¥¼
Ġìŀ¥ íĻĶìĭłìĿĢ
Ġê°Ĳ ëıĻ
Ġì§Ħ êµ¬
Ġì§Ħ íķĻ
Ġë§¤ ë£Į
Ġë§¤ íĺ¹
Ġë§¤ ë²Ħë¦Ń
Ġë°© ìĤ¬ëĬ¥
Ġë°ĺ íķľ
Ġë¹Ħë°Ģ ìĹĲ
Ġë¹Ħë°Ģ ìļĶìĽĲ
ìľł ëŁ½
íĮ ½
ì¶ľ íķĺëĬĶ
Ġì²ĺ íķ´
Ġì²ĺ íĺķ
ĠìĻ¸ ëª¨ë¥¼
ë¸Į ëŀĺëĵľ
Ġëĭ¨ ìĪľ
Ġëĭ¬ ë¦¬ëĬĶ
ê·¸ ê²ĥ
Ġëĵľ ëĿ¼ê³ł
Ġëĵľ ìĻĢìĿ´
ĠëıĮìķĦ ê°Ħëĭ¤
ëħ¸ ëĿ¼
ëħ¸ ìļ°
Ġìº Ħ
ĠìĺĪ ê²¬
ĠìĺĪ ìģľ
Ġì¶Ķ ì¢ħ
ê´Ģ ìľ¼ë¡ľ
ê´Ģ ìĹĲìĦľ
ĠìĦ¸ìĥģ ê³¼
Ġê¿ °
ĠëĿ¼ íĳ¼
ĠëĴ¤ ëĬ¦ê²Į
ĠìłĢ ìĬ¤íĭ°ìĬ¤
Ġìķŀ ìĿĦ
Ġìķŀ ìĹĲëĬĶ
Ġê´Ģ ìĭ¬ìĿ´
ìľĦ íĤ¤ëĵľ
ĠíĥĢ ë§Ī
Ġëªħ ìĿ´
Ġëªħ íĥĲìłķ
Ġíı¬ ëĬĶ
Ġíı¬ ëĩ¨
Ġë°ľê²¬ íķĺëĬĶëį°
Ġë°ľê²¬ ëĲĺê³ł
Ġ2 1
Ġ2 3
ĠíıŃ íĸī
ĠíıŃ íı¬
Ġì´Ī ê³ł
Ġì´Ī ëŀĺ
Ġì´Ī ëĮĢë¥¼
ĠíĨµ ì¹ĺ
ĠíĨµ ìłľë¥¼
Ġëĭ¹ íķĺëĬĶ
Ġëĭ¹ íķĺìŀĲ
Ġëĭ¹ ëĭ¹íŀĪ
Ġìłģ ìĹĲê²Į
Ġë²Į ìĿ¸
Ġë²Į ìĿ´ê²Į
ĠëĤ¨ìŀĲ ìĹĲê²Į
Ġì¹´ íİĺ
ĠëĪĦ ê°Ģ
ĠìĤ¬ìĿ´ ë³´ê·¸
ĠíĺĦ ëĮĢ
ĠíħĮ ìĬ¤íĬ¸ë¥¼
Ġì¹ĺ ë°Ģ
Ġìĺ¨ íĨµ
Ġìĺ¨ ëª¸
Ġë²Ħ ìĬ¤ê°Ģ
ë°© ìľ¼ë¡ľ
ĠìĪ¨ ìĿĦ
Ġìŀł ìĪĺ
Ġíĸ¥ íķĺê²Į
ì¹¨ ê³µ
Ġì½Ķ ëĦ¬
ìĦ¤ ìĿĦ
ìļĶ ìĽĲìĿ´
Ġì°¨ ì¸°
Ġë§ī ëĮĢíķľ
ĠêµĲ íļĮ
ëłĪìĿ´ ì²¼
Ġë³Ģ íĻĶê°Ģ
ĠíĨł ìĿ´
ĠíĨł ë§Ī
ĠìĹ´ ë¦¬ê³ł
ĠìĹ´ ìłķìĿĦ
ĠìĹ´ ëł¬íķľ
Ġëĺ ĺëĺ
Ġê°Ħ ëĭ¬
Ġê°Ħ ì§ģíķľ
Ġê°ľ ìŀ¥
Ġê°ľ ì¸ł
Ġê°ľ ìµľ
Ġëĵ¤ìĸ´ ìĦľ
Ġëĵ¤ìĸ´ ê°ĢëĬĶ
Ġë²Ķ íĸī
ì£ ł
Ġê´´ ë¡ľìĽĮ
ĠëģĿ ìŀ¥
ĠëģĿ ëĤł
ĠëģĿ ëĤĺê³ł
Ġìŀĥ ìĿĦ
ĠíĬ¹ ê³µ
Ġê¿Ī ìĿĺ
Ġê¿Ī ìĿĢ
Ġíĺķ ìĤ¬ëĬĶ
ĠìłĦìŁģ íĦ°
Ġì¡´ìŀ¬ ë¡ľ
ìŀħ ëĭĪëĭ¤
Ġìķł ìĵ°
Ġìķł ìĵ´ëĭ¤
ìłĲ ìĹĲ
ĠëĶ° ë¥´
ĠìĤ¬ëĿ¼ ì§ĢìŀĲ
Ġìĭľê°Ħ ê³¼
Ġë²ł ëĭĪ
ĠíķĺëĤĺ ëĬĶ
ĠíķĺëĤĺ ëĭĺ
Ġêµ° ëĮĢ
Ġêµ° ëĭ¨ìĿĦ
Ġíĺ¼ íĺĪ
ĠëĺĲ ëĭ¤ë¥¸
ĠìłĪ ë²½
ê°ľ ë¥¼
íħ Ĳ
Ġìĭ¬ ìĪł
Ġìĭ¬ íĮĲ
Ġì¶ľ íĺĦ
íģ´ ë¦¬
Ġìłķì²´ ê°Ģ
Ġìµľê³ł ê¸ī
Ġë¸Į ëŀĺ
Ġë°¤ ë§Īëĭ¤
Ġëĳĺ ë§ĮìĿĺ
ĠìĤ¶ ìĿ´
Ġê±¸ ìĸ´
Ġì°¸ ì§Ģ
ìĬ¤íĬ¸ ë¦¬
ĠìĿĢ ë°Ģ
ĠìĿĢ ë°Ģíķľ
ìĤ° ìĿ´
ĠíĤ¤ ìĬ¤
Ġìĭ¸ ìĿ¸
Ġìĭ¸ ìļ´ëĭ¤
Ġëª° ê³ł
Ġëª° ë¦°
ë³Ħ ìĿĦ
ĠëıĦìĭľ ë¡ľ
Ġê³µê²© ìĿ´
Ġìļ°ì£¼ ìĹĲìĦľ
Ġê³¼ê±° ê°Ģ
ĠìĦľë¡ľ ìĹĲ
ĠíĥĪì¶ľ íķł
ĠíĹ¤ ë¹Ħê¸ī
ĠíĹ¤ ë¥´ë¯¸
Ġìŀ¡ ìĿĢ
Ġíĥľ ìĸĳ
ĠìĿ´ìķ¼ ê¸°ê°Ģ
Ġë§ŀìĦľ ê²Į
Ġë§ŀìĦľ ê¸°ë¡ľ
Ġë£¨ ìĿ´ìĬ¤
ìĺĢ ëĭ¤ëĬĶ
Ġë³´ëĤ´ ë©°
Ġë³µìĪĺ ê°Ģ
Ġ4 7
ìĹĺ ìĿ´
ìļ¸ íķľ
ĠìłľìĿ´ íģ¬ëĬĶ
ĠëĤ©ì¹ĺ ëĲľëĭ¤
Ġëī´ìļķ ìĹĲìĦľ
Ġê²½ì°° ìĿ´
Ġëľ ¯
ĠìĤ° ìĹħ
Ġë§Īë²ķ ìĿĦ
Ġì»¤ íĶ¼
Ġíĭ Ģìĸ´
Ġë¹Į ëł¤
Ġíİĺ ìĿ´
Ġíİĺ ëĿ¼
Ġíİĺ ìĬ¤íĦ°
Ġìķ¼ ê°Ħ
Ġìķ¼ ìĪĺ
Ġìķ¼ ìĪĺë¥¼
Ġìķ¼ ì±Ħ
Ġì§ĢíĤ¤ ëł¤ëĬĶ
ĠíĻ© ìłľë¥¼
Ġê³Ħíļį ìĹĲ
ĠìĹ¬ìŀĲ ê°Ģ
ĠìºĲ ëĤĺ
Ġìļ´ëªħ ì²ĺëŁ¼
ĠìĪľê°Ħ ìĿĦ
ì¸ł íĤ¤
Ġë²Ķì£Ħ ìĿĺ
Ġíģ´ ëłĪìĿ´
ĠíıīíĻĶ ë¡Ń
ĠìĤ´íķ´ íķľëĭ¤
ĠìĤ´íķ´ íķĺê³ł
ĠìĤ´íķ´ ëĭ¹íķľ
ĠìĤ´íķ´ ëĭ¹íķĺëĬĶ
ĠìĤ´íķ´ ëĭ¹íķľëĭ¤
ĠíŀĪ ì»µ
ĠëĨĵ ìĿĦ
ĠëĨĵ ìĿĢ
ĠëĨĵ ìķĦ
Ġê²ĮìŀĦ ìĹĲ
Ġëª¨ìĬµ ìĿ´
íĶĮ ëłĪìĿ´
ĠìĦ±ê³µ ìĿĦ
Ġìĺ¬ ë¦¼
Ġë³ĳ ìĿĦ
Ġë³ĳ ìĽĲìĿĦ
ĠíĶĦë¡ľ íİĺ
Ġê°ĸ ê°Ģì§Ģ
Ġíİ¼ ì¹ľëĭ¤
ĠíħĮëŁ¬ ê°Ģ
ìĬ¹ ìŀ¥êµ¬
Ġê·Ģ íĻĺ
ĠìľĮ ìĿĢ
Ġëį°ìĿ´ ë¹Ĺ
Ġê°ģ ê°ģ
ĠìĥĿê°ģ íķľ
ĠìĥĿê°ģ íĸĪëįĺ
ĠëĿ¼ìĿ´ ëįĶ
ĠíļĮ ìĿĺ
ĠíļĮ ìŀ¥
ĠíļĮ ìĤ¬ìĿĺ
ĠíĪ¬ ëªħ
ĠëłĪìĿ´ ëĨĢ
ĠìķĦëĭĪ ìĹĪëĭ¤
íĥĪ ë¦¬
ìĬ¬ ëĿ¼
ëĨ Ģë¡ľ
ĠìĻķêµŃ ìĹĲ
ì§¸ ë¡ľ
ĠëıĻë£Į ë¥¼
ĠëıĻë£Į ìĿ¸
Ġë¹łìł¸ ëĵłëĭ¤
Ġë¨¸ ë¦¬
Ġë¨¸ íĶ¼
Ġë¸Ķ ëłĪìĿ´
ê°Ī ìĪĺë¡Ŀ
ĠìĭĿ êµ¬
ĠìĭĿ ë¯¼
ĠìĬ¹ ê°Ŀ
ĠìĬ¹ ë¶Ģë¥¼
ĠìĬ¹ ìĬ¹ìŀ¥êµ¬
Ġì¦Ĳ ê±°
Ġìĵ° ëłĪ
ĠìĦ¤ ëªħ
ĠíĸīìĦ± ìĹĲ
ĠìĻ¸ê³Ħ ìĿ¸ìĿĺ
ĠíĮĮê´´ íķĺëł¤ëĬĶ
Ġì±ħ ìŀĦìĿĦ
ĠìĿ´ë¦Ħ ìĿ´
ĠìĿ´ë¦Ħ ìĿĺ
ĠìĿ´ë¦Ħ ìĿĢ
Ġë°ľìĥĿ íķĺìŀĲ
ĠíķĻêµĲ ìĿĺ
ĠíķĻêµĲ ë¡ľ
íķĺëł¤ ëĭ¤
Ġë°± ìŀĳ
ĠëĲł ì§Ģ
Ġìķ¤ ëĶĶìĿĺ
Ġìķ¤ ëĶĶê°Ģ
ìĻķ ìĿĢ
Ġíķĺë£¨ ìķĦì¹¨ìĹĲ
Ġìĸ´ë¨¸ëĭĪ ê°Ģ
ìĿ´ëĿ¼ ë©°
ìĿ´ëĿ¼ ê³¤
Ġê¸°ëĭ¤ ë¦¬ëįĺ
Ġê³µì£¼ ëĬĶ
ì§ľ ë¦¬
ĠíĽĶ ì¹ĺ
Ġíį¼ ìĬ¤íĬ¸
Ġì§Ģì¼ľ ìķ¼
ĠìķĮê³ł ë³´ëĭĪ
Ġê²°ìĭ¬ íķľ
Ġê³ĦìĨį ëĲĺê³ł
Ġë§¡ ê³ł
Ġì¹¼ ëĤłìĿĦ
ĠìĬ¤íĥĢ ëİĢ
ĠëĵľëŁ¬ ëĤľëĭ¤
ĠëĵľëŁ¬ ëĤ¸
Ġë¿Ĳ ë§Į
Ġì§Ģíķĺ ì²ł
Ġì§Ģíķĺ ìĭ¤ìĹĲìĦľ
Ġë°ĸ ìĿĦ
ĠëĮĢê²° ìĹĲ
ĠëĮĢê²° ìĹĲìĦľ
Ġê¸¸ ìĹĲ
ĠëıĦë§Ŀ ì¹ľ
Ġê·¼ ë¬´íķĺëĬĶ
ĠìŀĲìľł ìĿĺ
ì¡Į ì§Ģë§Į
ëĳĶ ëĭ¤
Ġíİ¼ì³Ĳ ì§ĢëĬĶëį°
ìĻ¸ ë¡ľ
ĠìĽĶ ë²Ħê·¸
Ġë¶Ħëħ¸ ê°Ģ
ĠìķĮìķĦ ì°¨
ĠëıĻìĥĿ ìĿĺ
Ġê¿Īê¾¸ ì§Ģë§Į
Ġíľ´ ê°Ģë¥¼
Ġì·¨ íķ´
íĺĦ ìĭ¤
ĠíĴĪ ë°Ķ
Ġì°© ê°ģ
ĠëıĻë¬¼ ëĵ¤ìĿĢ
Ġêµ¬íķ´ ì¤Ģëĭ¤
ĠëıĪ ìĿ´
ĠìĽĮ ëĦĪ
ĠìĹĺë¦¬ ìĹĩ
Ġëĭ¥ ì¹ľëĭ¤
ĠìĿ¼íĸī ìĹĲê²Į
ĠìĿ´ê³³ ìĿĦ
ĠìĿ´ê³³ ìĿĢ
ĠíĶĦëłĪ ëĶĶìĿĺ
Ġëĭ¬ë¦¬ ëįĺ
Ġê¶Į ëł¥
ĠìĭľìłĪ ìĿĺ
ĠëĮĢìĭł íķ´
Ġëĭ¤ìĿ´ ìķĦëĤĺ
ê´ĳ ìĿ´
ĠëĨį ìŀ¥ìĿĦ
ĠìĦłíĥĿ ìĿĺ
ĠíĺĦìĭ¤ ìĿ´
íĮĢ ìĿĢ
íĥķ íķľ
Ġì£Ħ ë¥¼
Ġëį°ëł¤ ê°Ģ
Ġìķħë§Ī ê°Ģ
ĠëĬĲëĤ Į
Ġíģ¬ë¦¬ ë§ģ
ĠìķĮëłī ìĬ¤ë¥¼
Ġë³Ģíķ´ ê°Ħëĭ¤
Ġë³Ģíķ´ ê°ĢëĬĶ
Ġëľ¨ ê²ģê²Į
Ġíĳľ ë²Ķ
Ġë²Ĺìĸ´ëĤĺ ê¸°
Ġê·¸ëłĪìĿ´ ìĬ¤
ìĬ¤íĭ° ë¸Į
ĠìĪĺíĸī íķĺëįĺ
Ġìļ¸ íĥĢ
Ġë²¨ ìĿĢ
Ġë¶Ģíĥģ ìľ¼ë¡ľ
ë©ĶìĿ´ íĬ¸
ĠFBI ëĬĶ
ĠëŃ Ĳ
ĠíĢ ´
ĠìĿ¼ìĸ´ëĤĺ ëĬĶëį°
Ġê³łíĸ¥ ìĿ¸
Ġê±°ëĮĢ íķĺê³ł
Ġê°ľë°ľ íķľ
ĠìĤ¬íĪ¬ ê°Ģ
ĠìĿ¼ëĭ¹ ìĿĦ
Ġìĭ¤íĹĺ ìĿĦ
Ġëĭ¤ëĭĪ ëįĺ
Ġëĭ¤ëĭĪ ë©°
Ġë¶Īê°Ģ ëĬ¥
ĠíĺĦìĥģ ê¸ĪìĿĦ
Ġíķľë²Ī ëıĦ
Ġíĺ¼ìŀĲ ìĦľ
Ġíĺ¹ ìĿĢ
Ġíĺ¹ ìĭľ
Ġìĭ¤íĮ¨ ë¡ľ
Ġìķħëª½ ìĿĦ
Ġ9 9
Ġê³¨ ì¹«
ĠìĬ¤ì¹´ ìĿ¼ëŁ¬
Ġê°Ģìłķ ìĿĺ
ĠìĬ¤ìĬ¤ë¡ľ ë¥¼
Ġë¯¸ìħĺ ìĿĢ
ĠìĪł ìĿĦ
ĠìĤ¬ìĹħ ìĿĦ
ĠëĤĺëĪĦ ë©°
Ġì¶Ķê²© ìłĦìĿ´
ĠìłĢì§Ģ ë¥¸
Ġíľ©ìĭ¸ ìĹ¬
Ġíľ©ìĭ¸ ìĿ´ê²Į
Ġìĭľëĭ¬ ë¦¬ëĬĶ
Ġìĭľëĭ¬ ë¦¬ëįĺ
ĠìĹ¬ìĻķ ìĿĺ
Ġë¶ĪìķĪ íķľ
Ġë§¤ëł¥ ìĹĲ
Ġì¢ħì¡± ìĿĺ
Ġë¶Ģëª¨ëĭĺ ìĿ´
ìķķ ìĹĲ
Ġë°ĶëĢ Ĳ
Ġë°©ë¬¸ íķľ
Ġì°¨ì§Ģ íķľ
Ġì°¨ì§Ģ íķĺê¸°
Ġì°¨ì§Ģ íķĺëł¤ëĬĶ
ĠìĽĢì§ģ ìĿ´ëĬĶ
íĢ ´
ĠëĮĢíĨµ ëł¹ìĿĦ
Ġë©ķìĭľì½Ķ ìĿĺ
ĠíĶĦëŀĳ ì¼ĦìĬĪíĥĢ
Ġìĸ¼êµ´ ìĹĲ
ĠìĥĿì¡´ìŀĲ ëĵ¤ìĿ´
ĠìŀĬ ì§Ģ
ĠìŀĬ íĺĢ
ìĿ¸ë°© ìĿĺ
ìĿ¸ë°© ìĿĢ
ĠíķĺìĿ´ ìĹĲ
Ġë³´ìĬ¤ íĦ´
Ġë©Ī ë¸Ķ
ĠìĭŃ ìŀĲê°Ģ
ĠíıŃíĴį ìĿĦ
ĠíıŃíĴį ìļ°
ĠëĤĺìĿ´ íĬ¸
Ġê±°ëĵŃ ëĤľ
ìĪĻ íķľ
ĠìľĮë¦¬ìĹĦ ìĬ¤
Ġë¹Ľ ìĿĦ
Ġëıķ ëĬĶëĭ¤
ĠëĤ¨ë§¤ ëĬĶ
ĠíĿĺ ëłĢ
ĠìłĪì¹ľ íķľ
Ġì°¸ê°Ģ íķĺê²Į
ĠíĶĦë¡ľê·¸ ëŀĺ
Ġê±°ìłĪ íķľëĭ¤
Ġë©´ ìłĳìĿĦ
Ġì½ĺ ìĦľ
Ġìļ©ë³ĳ ìľ¼ë¡ľ
Ġê°Ģê¹ĮìĽĮ ì§Ħëĭ¤
Ġê°± ìĬ¤íĦ°
Ġê°Ģìł¸ ëĭ¤
ĠíĿĲ ë¥´ëĬĶ
Ġíĺ¸ìĪĺ ìĹĲìĦľ
Ġì¹´ë©Ķ ë¡łìĿĢ
ĠìĶ ½ìĶ½
ĠìĬ¤íĨ¤ ìĿĦ
Ġìķħëł¹ ìĿĺ
ĠìłĢíķŃ êµ°
ĠìłĦë¬¸ê°Ģ ìĿ¸
ĠìĨĶ ìł¸
ĠíĮĮê²¬ ëĲľ
Ġë¶ĦìľĦ ê¸°ìĹĲ
ĠíĿ¥ ë¯¸
ĠíĿ¥ ë¶Ħ
Ġë¬¼ëł¤ ë°ĽìĿĢ
Ġê°ĳìŀĳ ìĬ¤ëŁ°
ĠëĿ¼ìĿ´ìĸ¸ ìĿĢ
Ġìļķë§Ŀ ìĹĲ
ìµľ ê³łìĿĺ
ĠìĤ¬íĥľ ë¥¼
ĠìĿ´ê²ĥ ìĿĢ
Ġë§Īë¦¬ìķĦ ë¥¼
ĠìĿ¸íĦ° ëĦ·
Ġë¬´ìŀ¥ ëĭ¨
Ġê±°ë¯¸ ëĸ¼
ĠìĹĲë°Ģ ë¦¬ëĬĶ
Ġê°Ĳì§Ģ íķľ
ĠìĦłë¬¼ ë¡ľ
Ġë¹Ħíĸīê¸° ìĹĲìĦľ
Ġê°Ģë¡ľ ì§Ģ
Ġìĸ´ìļ¸ ë¦¬ì§Ģ
Ġëįķ ë¶ĦìĹĲ
ĠìĹĲìĬ¤ íħĶ
ĠíĽĦê³Ħ ìŀĲ
Ġìļ´ìłĦ ê¸°
Ġë§īìķĦ ìķ¼
ĠìĬ¤íĭ°ë¸Į ëĬĶ
ê¶ ¤
ê²Ģ ìĿĦ
Ġê°Ķ ëĭ¤ê°Ģ
Ġë°´ ëĵľ
ĠëĲĺìĤ´ ìķĦëĤĺ
Ġêµ¬ìĦ± ëĲľ
ĠìĦ±ê²© ìĿĺ
Ġì´ĪëĬ¥ ëł¥ìĿĦ
ĠëŀŃ ëįĺ
ĠëģĬìŀĦ ìĹĨìĿ´
ĠëĤ³ ëĬĶëĭ¤
Ġë§ĪìĪł ìĤ¬
Ġëįĺ ìł¸
Ġê¶ģê¸Ī ì¦ĿìĿĦ
Ġëĸłìĺ¤ ë¥´ëĬĶ
ĠìłĲëł¹ íķľ
ĠëĪĪìķŀ ìĹĲ
Ġìķ¤ëĵľ ë¥ĺ
ĠíĶĦëłĪëį° íĦ°
Ġíķľë³µíĮĲ ìĹĲ
Ġíķľë³µíĮĲ ìĹĲìĦľ
Â· Â·
ĠìłĦê¸° íĨ±
ĠìłĦê¹Įì§Ģ ëĬĶ
Ġìĸ´ëĶĺ ê°Ģ
ĠëĮĢìľĦ ëĬĶ
Ġíıīìĺ¨ íķľ
Ġì´ĪìĽĶ íķĺëĬĶ
ĠìĬ¹ë¬´ ìĽĲ
ĠíĿĶìłģ ëıĦ
Ġì³Ĳ ëĵ¤ìĸ´
Ġìŀī ê¸Ģ
ĠìĭľìłĢ ëĬĶ
Ġë°°íĽĦ ìĹĲ
ĠêµĲíĨµ ìĤ¬ê³łë¡ľ
ĠíĮħì»¤ë²¨ ìĿĢ
Ġëļ« ê³ł
Ġì§ĿìĤ¬ëŀĳ íķĺëĬĶ
Ġì´Īì½ľë¦¿ ìĿĦ
ë¿ ĶìĿ´
ĠëĿ Ħ
ĠìĨ¡ ëĳĲë¦¬
ìĥģíĥľ ìĹĲ
Ġëĭ¤ì§Ĳ íķľëĭ¤
Ġê³łê³ł íķĻìŀĲ
Ġìĺ¤íĨł ë´ĩ
ĠíĿ¡ ìĪĺ
ĠëĵľëĿ¼ìĿ´ ë²Ħ
ĠëĴ¤ë°Ķ ëĢ
Ġì°¨ë¡Ģ ì°¨ë¡Ģ
ëĥĪ ëįĺ
ĠíĶĮë¡ľ ë¦¬ëĭ¤
ĠìĹĺë¦¬ìŀĲë²ł ìĬ¤
ê¼ ½
Ġëª¨ê¸Ģ ë¦¬ëĬĶ
ĠìĬ¤ì½Ķ íĭĢ
ĠìĬ¤íĦ´ íĬ¸ë§¨
ĠìĬ¤ì¹¼ ëłĽ
Ġìĥģë¥ĺ ì¸µ
ĠìĹĲë¥´ íģĺ
ĠëĨĢìĿ´ ê³µ
Ġíĸīë°© ë¶Īëªħ
Ġì¢ģ íĺĢ
Ġì¶Ķêµ¬ íķĺëĬĶ
ĠëĦĺëĤĺ ëĵľëĬĶ
ĠëĵľëŁ¬ëĤĺ ëĬĶëį°
ĠëŃĶ ê°Ģ
Ġëĭ¤ìĿ´ìķĦëª¬ ëĵľë¥¼
Ġëĭ¤ìĬ¤ ë¦¬ëĬĶ
ĠìĬ¤íĬ¸ë¡ľ ëĵľ
Ġë¶ĢíĮ¨ íķľ
Ġëĵ¤íĤ¤ ê³ł
ĠìĹ°ê´Ģ ëĲĺìĸ´
Ġì¶Ķìĸµ ìĿĦ
ĠìĨĲìŀ¡ ê³ł
Ġìĸ¼ë£© ì§Ħ
ĠìĬ¬ë¡ľ ìľħ
Ġìº£ëĭĪ ìĬ¤ëĬĶ
ĠíķµíıŃíĥĦ ìĿĦ
ĠìķĦíĭĢ ëŀĢíĭ°
ĠìĬ¤íĮĮ ë¥´
ĠìĬ¤íı¬ ì¸ł
Ġë¬´ì°¸ íŀĪ
Ġì§ĳìĸ´ ìĤ¼
ĠëıĮìĿ´ íĤ¬
Ġë²łíĬ¸ ëĤ¨
ĠìĬĪíį¼ë°´ ëĵľ
ĠíģĲ ë¸Į
Ġë¸Ķë¡Ŀ ë²ĦìĬ¤íĦ°
ĠìĦ¬ëľ© íķľ
ĠìĹĳìĨĮìĭľ ì¦ĺ
ĠNA SA
Ġë§ĲëłĪíĶ¼ìĦ¼ íĬ¸ëĬĶ
Ġëĭ¬ë§Īìĭľ ìķĪìĿĦ
ëĤĺë¥´ ëıĦ
ĠìķĦê·¸ ëĿ¼
Ġìĸ´ë§Ī ìĸ´
ĠìĹ´ìĭ¬ íŀĪ
ĠíĹ¤ëĿ¼ íģ´ëłĪ
Ġë¿Ķ ë¿ĶìĿ´
Ġê°Ģê³µ íķł
ĠìĿ¼ì´ī ì¦īë°ľ
ĠëıĦëĿ¼ìĹĲ ëª½
ĠìĬ¤ì½ľ íĶ¼ìĺ¨
Ġêµ¬ìĬ¤íĥĢ ë¸Į
Ġëĺĺëĺ ĺ
ĠíĹ¤ë¥´ë¯¸ ìĺ¨
ĠìĨ¡ëĳĲë¦¬ ì§¸
) '
. "
1 3
1 6
2 6
3 0
G E
I O
I P
L EN
N S
a p
c t
e v
h n
i a
m an
v e
¨ ëĭ¨ìĿĺ
¬ ë¡¯
¯ ¤
¼ ëĭ¤
ë ī
ë Ĵ
ë Ľ°
ì ī
í Ĳģ
Ġ #
Ġ 0
Ġ [
Ġ |
Ġ ç
į ½
Ļ ì»¤
Ġì ¸
Ġì Łģ
ìĿ µ
ìĿ µìĿĦ
Ġí Ĳģ
ëĭ Ľ
ìĿ´ ìļ°
ìĿ´ ìķ¼
ìĿ´ íĶĦ
ìĿ´ ë¸Į
ìĿĺ ìĿĺ
ìĹĲ ë§Į
ìĹĲ ëĶĶ
ìĹĲ ë°Ķ
ëĭ¤ ìĻĢ
ëĭ¤ ëĭĮ
íķĺ ìĭľ
íķĺ ë¹Ħ
íķĺ ëĿ¼ê³ł
íķĺ ê²łëĭ¤ëĬĶ
ê° ±
ê° Ĵ
ë¡ľ ëĤĺ
ë¡ľ ìĹĲê²Į
ë¡ľ ëĶĶ
ë¡ľ ìľĪ
ê³ł ìĥĿ
ê² ¹
ìŀ ĪìĿĦ
Ġìŀ ¿
Ġìķ ĵê³ł
ëĤ ®
ê°Ģ ëĭ¤
ê°Ģ ë§ĪìĿ¸
ì§Ģ íķľ
ì§Ģ ìĺ¥
ë¦¬ ì§Ģë§Į
ë¦¬ ëĿ¼ëĬĶ
ë¦¬ íį¼
Ġë§ Ľ
Ġê·¸ ì¤ĳ
Ġê·¸ íĽĦ
Ġê·¸ ìĽ¬
ëį Ł
ëĵ¤ ë§Į
ìĬ¤ íĶ¼
ìĬ¤ íĥĦ
Ġê° ¤
ëł ģ
íķ´ ì§ĢëĬĶ
íķ´ ìĺ¨ëĭ¤
ĠìĹ ¿
ìĿ¸ íķľ
ìĿ¸ ëıĦ
ìľ ¤
ìľ µ
ìľ Ļ
ĠìĤ¬ ëªħ
ĠìĤ¬ ëł¹
ĠìĤ¬ ìĨĮíķľ
ĠìĿ´ ìłĦ
ĠìĿ´ ë¥¸ëĭ¤
ĠìĿ´ ë£¬
ĠìĿ´ íĭ°ë¥¼
ìĸ´ ì¹¸
ìĸ´ ë²¤ìł¸
ìķĦ ìĿ¸
ìķĦ íĤ¨
ëĿ¼ ëĶĶ
ëĿ¼ ì¦Ī
ëĿ¼ ìĿ¸ìĿĢ
ëĿ¼ ëį¸
ëŀ ´
ìĻ ľ
Ġëĭ Ń
ĠìľĦ ìĹĲ
ĠìľĦ ë¥¼
ĠìľĦ ìŀ¥íķľ
ĠìľĦ ëıĦìļ°
ĠìķĦ ìļ°
ĠìķĦ ëģ¼
ĠìķĦ ëĵĿ
ĠìķĦ ì¤Į
ĠìķĦ ëĵľë¦¬ìķĪ
ìĻĢ ëıĦ
ê³¼ ë¥¼
ë© ¸ìĿĦ
ë§Į ëĭ¤
ëħ ¹
ìĭľ ëĮĢ
ë° ¥
ë° ĺìĿĦ
ëıĦ ìĹĲ
Ġë§Ī ëĭ¤
Ġë§Ī ë§Ī
Ġë§Ī ë¦¬ëĬĶ
Ġë§Ī ì½Ķ
Ġë§Ī ëĨĢë¡ľ
Ġíķĺ ìĹĲ
Ġíķĺ ë¹Ħ
Ġíķĺ ìĽĮ
Ġíķĺ ëĭ¤ê°Ģ
Ġíķĺ ëĶĺ
Ġê°Ģ ë³
Ġê°Ģ ëł¤
Ġê°Ģ ìĪĺ
Ġê°Ģ ëıĻ
Ġê°Ģ ëĳĲ
Ġê°Ģ ì¶ķ
Ġê°Ģ ì£½
ìĤ¬ ìĹĲìĦľ
ìĤ¬ íĤ¤
Ġìĥ ¬ë¡¯
ëª ĩ
Ġìĭľ ëģ
Ġìĭľ ëĮĢìĹĲ
Ġìĭľ ìĦłìĿĦ
Ġìĭľ ë¦¬ì¦Ī
ĠìŀĲ ìĿĺ
ĠìŀĲ ëħĢ
ĠìŀĲ ë¹Ħ
ĠìŀĲ íĮĮ
ĠìŀĲ ì²ĺ
ĠìŀĲ ê¸Ī
ĠìŀĲ ëĭĪëĬĶ
ĠìŀĲ ì·¨ë¥¼
Ġì§Ģ ëĭĪ
Ġì§Ģ ëªħ
Ġì§Ģ ìĽĮ
Ġì§Ģ ëĤł
Ġì§Ģ ëĤ´ëĬĶ
Ġì§Ģ ëĥĪëįĺ
ëĮĢ ì²´
ëĮĢ íķĻ
ëŁ¬ ëĵľ
ëŁ¬ ìļ´
ĠìĪĺ ë©´
ĠìĪĺ ë¡Ŀ
ĠìĪĺ ìĺģ
ĠìĪĺ ìĦĿ
ĠìĪĺ ìĤ¬ë¥¼
ĠìĪĺ ë°ĸìĹĲ
ĠìłĦ ìłĦ
ĠìłĦ ëĤł
ĠìłĦ ëĭ¬
ĠìłĦ ê°ľ
ĠìłĦ ëħĲ
ĠìłĦ ëŀµ
ĠìłĦ íķĻìĿĦ
ëĵľ ìĹĲìĦľ
ëĵľ ë§¨
ëĵľ ë¨¼
ĠìĤ Ĳ
íĬ¸ ë¡¤
ĠëĲĺ ìĹĪëĭ¤ëĬĶ
Ġíķ ĳ
ëĭĪ ê¹Į
Ġëª¨ ìĿĺ
Ġëª¨ ê°Ģ
Ġëª¨ ë©´
Ġëª¨ ë¥´
Ġëª¨ ì²ĺëŁ¼
Ġëª¨ ìĿ¸ëĭ¤
ì² ©
Ġìĸ´ ë¦¬
Ġìĸ´ ìĪĺ
ëł¤ ë©´
ĠìĿ¸ ìĤ¬
ĠìĿ¸ ëĤ´
ĠìĿ¸ ê²©
ĠìĿ¸ ìĹ°
Ġêµ ³
íĻ ī
ì¹ĺ ëł¤
ĠëĮĢ ê°Ģ
ĠëĮĢ ìĤ¬
ĠëĮĢ ëŁ°
ĠëĮĢ íķ´ìĦľ
ĠëĮĢ ëŁī
ĠëĮĢ ìĥģìľ¼ë¡ľ
ë§Ī ìĿ¼
Ġê²ĥ ìĿ¸ëį°
ë¶Ģ ëª¨
Ġëĭ¤ ë¥¼
Ġëĭ¤ íĸī
Ġëĭ¤ ë¦¬ë¥¼
Ġëĭ¤ ê¸ī
Ġëĭ¤ ëŀĮ
ìĪĺ ìĤ¬
ìĪĺ ëĵ¤ìĿĦ
ì£¼ ì§Ģë§Į
ì£¼ ê²łëĭ¤ëĬĶ
ì£¼ ê²łëĭ¤ê³ł
ĠëĤĺ ëĤł
ĠëĤĺ ë©Ķ
ĠëĤĺ ê°ĢëĬĶ
ĠëĤĺ íĿ¬
ĠëĤĺ ìķĦê°Ģ
ĠëĤĺ ëī
ĠìĤ´ ìĥģ
ĠìĦ¸ ìļ´
ĠìĦ¸ ìĿ¼
ĠìĦ¸ íĥģ
ĠìĿ¼ ë¶Ģ
ĠìĿ¼ ëĵ¤ìĿĦ
ĠìĿ¼ ì°į
ĠìĿ¼ ìĸ´ëĤ¬
ĠìĿ¼ ìĳ
ĠìĿ¼ ì£¼ìĿ¼
ê³Ħ ìĹĲ
ê³Ħ ë¡ľ
ĠëıĦ ìĦľ
ĠëıĦ íĨł
ĠëıĦ ëģ¼
ĠëıĦ ìłĦìĿĦ
ĠëıĦ ìłĦìĿ´
ĠëıĦ ë¬´ì§Ģ
ĠëıĦ ëĮĢì²´
Ġë§Į ëĤ¬
íŀ ĺ
Ġë³´ ìĿ´
Ġë³´ ìŀĲ
Ġë³´ ëıĦ
Ġë³´ ëįĺ
Ġë³´ ìĿ´ë©°
Ġë³´ ìĿ´ì§Ģë§Į
Ġíĥ ĵ
ë£ °
ìŀĳ ìłĦ
ĠìĬ¤ íĮ
ĠìĬ¤ íķĦ
ĠìĬ¤ ìĽ¨
ĠìĬ¤ íĨ°
ĠìĬ¤ ì¿
ĠìĬ¤ íĭ±
Ġê¸° ì§Ģ
Ġê¸° ë°Ģ
Ġê¸° ë¶Ħ
Ġê¸° ìļ¸
Ġê¸° ìĪĻ
Ġê¸° ëĤĺê¸´
ë©´ ìĹĲ
ë²Ħ ê±°
ĠìĨĮ ìļ©
ĠìĨĮ ë¦¬ìĹĲ
ĠìĨĮ ê¿
ĠìĨĮ ìĪĺìĿĺ
ëĤ´ ìĸ´
ëĤ´ ëł¤
Ġëį ¸
ìłĦ ìĦ¤
ë¦° ëĤ´
Ġë¯¸ êµ¬
Ġë¯¸ ì¹´
Ġë¯¸ êµ°
Ġë¯¸ ìļ©
Ġë¯¸ ìĪł
Ġë¯¸ ìķĦëĬĶ
Ġë¯¸ ì¼Ī
ìĬ ·
Ġë¬´ ëĮĢ
Ġë¬´ íĮĮ
Ġë¬´ ë¦¬ë¥¼
Ġë¬´ ì£Ħ
Ġë¬´ ëĮĢë¡ľ
Ġë¬´ ë¦¬ìĹĲ
Ġë¬´ ìĦŃ
ëªħ ìĿĢ
ëªħ ìľ¼ë¡ľ
íĤ ¥
ĠìĹ¬ ìļ°
ĠìĹ¬ ëĬĲ
ĠìĹ¬ ìĦ¯
ĠìĹ¬ ê¸´ëĭ¤
ĠìĹ¬ ìĿ¸ê³¼
ĠìĹ¬ ìłĦìĤ¬
ĠìĹ¬ ëįŁ
ìĽĲ ëĵ¤
ìĽĲ ê³¼
ìĿ¼ ë¡ľ
ìĿ¼ ê³¼
ìłľ ìĿ¸
ë¹Ħ ì¹ĺ
ëı ĪìĿĦ
íŀĪ ë©°
ëħĦ ìľ¼ë¡ľ
Ġìłķ ë¦¬
Ġìłķ íĻĶ
Ġìłķ íĨµ
íĥĢ ìĿ¼ëŁ¬
Ġë¶Ģ ë¥¼
Ġë¶Ģ íĦ°
Ġë¶Ģ íĻĶ
Ġë¶Ģ ìĤ°
Ġë¶Ģ ìĿ¸ìĿĢ
ìļ° ê¸°
ìļ° ë¨¼
ìļ° ë³´ìĿ´
Ġìĭľìŀĳ ìľ¼ë¡ľ
Ġìĭľìŀĳ ìĿ¼
Ġìĭľìŀĳ ëĲĺ
Ġìłľ ìĭľ
Ġìłľ ëĭĪ
Ġìłľ ë¦¬ëĬĶ
Ġìłľ ë¬¼ìĿĦ
Ġìłľ ìĭľëĬĶ
Ġê³ł ì²ł
Ġê³ł ìĨįëıĦë¡ľ
Ġë¹Ħ ìĥģ
Ġë¹Ħ ëĤľ
Ġë¹Ħ ì¶Ķ
Ġë¹Ħ ìĺ¬
Ġë¹Ħ ìĬ·
ìĺ¤ ëıĦ
íķĺê²Į ëıĦ
ĠëĤ¨ ê¸°ê³ł
ĠëĤ¨ ëĭ¤ë¥¸
Ġìĺ¤ ëĿ¼
Ġìĺ¤ ë©´ìĦľ
Ġìĺ¤ íİĺ
Ġê³µ êµ°
Ġê³µ ê¸ī
Ġê³µ ìŀ¥ìĿĦ
Ġê³µ ìĹ°ìĿĦ
ë¯¸ ë¡ľ
ë¯¸ êµŃìĿĺ
ëłĪ ëįĶ
Ġê±° ì§Ģ
Ġê±° ë¦¬
Ġê±° ìĿ¸
Ġê±° ëĿ¼
Ġê±° ìķ¼
Ġê±° ëĬĲ
Ġê±° ì³Ĳ
Ġê±° ë¦¬ë¡ľ
Ġê±° ìĿ¸ëĵ¤ìĿĺ
ìķ¼ ëĬĶ
ëĶĶ ë¡ľ
ĠíĮĮ ìļ°
ĠíĮĮ ë¦¬ìĿĺ
Ġë°Ķ ëĿ¼ëĬĶ
Ġìľł ë¦¬
Ġìľł ìĤ¬
Ġìľł ì¹ĺ
Ġìľł ëª¨
ëĵł ì§Ģ
ĠìĥĿ ìĥĿ
ĠìĥĿ íĻĶ
ĠìĥĿ ê²¨
ĠìĥĿ ìķł
ĠìĥĿ ìĤ¬ë¥¼
ĠìĥĿ ê²¼
íĤ¤ ë¥¼
ĠëıĻ ì°½
ĠëıĻ ë§¹
ë³´ ê²Į
ë³´ ëĿ¼
ë³´ íĺ¸
íĻĶ ë¡ľ
íĻĶ ëĲľëĭ¤
Ġë°ľ íĥĢ
Ġë°ľ êµ´
Ġë°ľ ë¦¬ìķĪ
Ġìĭł ëĶĶëĬĶ
Ġìĭł ë¢°
Ġìĭł ë¶ĢìĿĺ
ê±° ë¥¼
ê±° ì§Ģ
ê±° ëŀĺ
ê±° ëĮĢíķľ
Ġêµ¬ íķĺê²Į
Ġì£ ł
Ġìļ° ëĤľ
ìĦ± ìľ¼ë¡ľ
ìĦ± íķĺëĬĶ
Ġì£¼ ìĿ¸ìĿĦ
Ġìĥģ ìĭ¤
Ġìĥģ ê³µ
Ġìĥģ ëĭ´
Ġìĥģ ëĮĢë¥¼
Ġìĥģ ëĮĢëĬĶ
Ġìĥģ ëĮĢê°Ģ
Ġì¡° íķľ
Ġì¡° ëªħ
Ġì¡° ì¹´
Ġì¡° ì°¨
Ġì¡° ê°ģ
Ġì¡° ì§Ĳ
ĠëĶ ķ
ĠëĶ Ľê³ł
ë¬´ ê¸°ë¥¼
ĠìĤ¬ëŀĮ ìĹĲê²Į
ë£¨ ì¹ĺ
Ġíķ´ êµ°
Ġíķ´ ë¦¬ë¥¼
ë¬¸ ìľ¼ë¡ľ
Ġë¶Ī ìĿĦ
Ġë¶Ī ë¦¬
Ġê²° íķ©
ìĭ¤ íĹĺ
ìĭ¤ ë²ł
Ġì£½ ìĹĪëĭ¤ëĬĶ
ì²´ ë¡ľ
Ġë°Ľ ê¸°
Ġë°Ľ ìŀĲ
ĠìĽ °
íĭ° ìķĦ
íĭ° ê±´
íĭ° ìĭľìķĦ
Ġì¤ĳ ê°ľ
ìĦ¸ ìĹĲ
ì½ ĺìĿĦ
ëŀĺ ë¹ĦìĬ¤
Ġì¹ľêµ¬ ëĵ¤ìĹĲê²Į
Ġë© ľ
ĠìķĬ ìķĺëįĺ
Ġìĺģ ë¬¸
Ġìĺģ ìĹħ
Ġìĺģ ë¦¬íķľ
Ġìĸ ¹
ìĹ¬ ì§Ħ
Ġê·¸ëŁ¬ ëĭ¤
Ġì§ĳ ìĿĢ
Ġì§ĳ ê²°
Ġì§ĳ ëĭ¨ìĿĺ
ĠíĶ¼ íĬ¸
ĠíĶ¼ ë¹Ħ
ĠíĶ¼ íķĺê¸°
íķł ë¡ľìľĪ
ê³µ ìĭĿ
ê³µ íı¬
ìĺ¨ ìĿĢ
íĶĦ ë¡ľ
íĶĦ ë¦´
íĶĦ ë¦¬ì¹´
íĶĦ ë¦¬ëĭ¤
íĶĦ íĮ©
ĠëıĮ ë³´ëĬĶ
ĠëıĮ ë´Ĳ
Ġë¶Ħ ì¶ľ
Ġë¶Ħ ìŁģ
Ġë¶Ħ ìĦĿ
Ġì´ ī
Ġì°¾ìķĦ ë³¼
Ġì°¾ìķĦ ëĤ´ê³ł
Ġì°¾ìķĦ ìĻĶëĭ¤
íĮĮ íĭ°
íĮĮ ê´´
Ġê²½ ìĺģ
ìĦł ìĹĲìĦľ
Ġëĵ¤ ë¦°
Ġëĵ¤ ìĹ¬
Ġëĵ¤ ëĸ
ĠìĹ° ì£¼
ĠìĹ° ìĬµìĿĦ
ĠìĹ° ë£Įë¥¼
ĠìĹĲ ë²Ħ
ĠìĹĲ ë¸Ķ
ëıĻ ë¬¼
Ġëĸł ëĤ¬
Ġë¹ł íĬ¸
ëĭ¹ íķ´
íİ¸ ìĹĲìĦľ
ëŀĢ ëĵľ
ëŀĢ ìł¤
Ġë¡ľ ìĬ¤
Ġë¡ľ ë¹Ħ
Ġë¡ľ ìł¸
Ġíİ ľ
ì°¨ ëĵľ
ĠíĿ Ļ
ëĭ¨ ìĹĲ
ëĭ¨ íķľ
ëĭ¨ ìľ¼ë¡ľ
ëĭ¨ ê³¼
ë¶ ķ
ë¶ ĪìĿĦ
Ġìĭ¤ ë§Ŀ
Ġìĭ¤ ëł¥ìĿĦ
ì¦Ī ë¡ľ
Ġì¡´ ìĿĺ
íĨł ë¯¸
Ġê°Ģì¡± ëĵ¤ìĿ´
ì¡° ìĿĺ
ì¡° íķ´
ì¡° ê°ģ
ì¡° ìī¬
ĠíĮ °
ĠíĮ ½
ĠíĮ Ŀ
ĠìĦľ ëŀĺ
ĠìĦľ ì²ĺ
ĠìĦľ ë°ĶìĿ´
ĠìĦ¸ê³Ħ ìłģìĿ¸
Ġìķħ ìĿĦ
Ġìķħ ìĸ´
íĺ¸ ê°Ģ
ĠëįĶ ì¹ĺ
ĠëįĶ ì¦Ĳë¦¬
ĠíĶĦ ëĿ¼ìĿ´ëĵľ
Ġëį° ëĭ¤
Ġëį° ëĵľ
Ġíģ¬ ê³ł
Ġíģ¬ ê¸°ìĿĺ
Ġíģ¬ ë¡ľìļ°
ĠìķĦìĿ´ ìĬ¤
ìĽĮ ë¥¼
Ġíĸī ìĦ¸ë¥¼
Ġë§ŀ ì¶Ķ
ĠìĻķ ìŀĲë¥¼
ĠìĻķ ìŀĲë¡ľ
ĠìĻķ ìŀĲìĿĺ
ĠìĻķ ëĶ°
ĠìķĪ ìľ¼ë¡ľ
ĠìķĪ ëĤĺëĬĶ
ĠëĤ´ ëĭĪ
ĠëĤ´ ìĭ¬
ĠëĤ´ ë¦¬ëĬĶ
ĠëĤ´ ëĨĵ
Ġëħ¸ íĮĮ
ìħ °
ìħ ĭ
ìħ īìĿĢ
ĠìĤ´ìķĦ ëĤĺëĬĶ
ĠìĿ¸ê°Ħ ìĿĢ
ĠìĿ¸ê°Ħ ëĵ¤
Ġíĺ¸ ìĨ¡
Ġë¦¬ ìĻĢ
Ġë¦¬ ëĦ·
Ġë§Ĳ ëĿ¼ê³ł
Ġìŀ¥ ëıĻ
Ġìŀ¥ ëĭĺ
Ġìŀ¥ ìķħíķľ
Ġìŀ¥ ìĨĮìĹĲ
Ġìŀ¥ ë©´ìĿ´
ëįĶ ìĬ¤
Ġëª© ìĹĲ
Ġëª© ê±¸
Ġëª© ìłģìĿĦ
Ġê°Ĳ ìłķìĹĲ
Ġê°Ĳ ìª½
ì¼ °
ì²ĺ ë¥¼
Ġë§¤ ì§ģ
Ġë§¤ ë²Ī
Ġë§¤ ì¶ĺ
Ġë°© íĥķíķľ
Ġë°ĺ ì§Ģ
Ġë°ĺ ëł¤
Ġë°ĺ ìª½
íı¬ ìĬ¤
íı¬ íĦ°
íı¬ ëŁ´
Ġë¹Ħë°Ģ ìĿĢ
ĠëłĪ ëĤĺ
ĠëłĪ ìłĦ
ĠëłĪ ëĦĪ
ĠëłĪ ìĭľíĶ¼
ĠìĦł ìĪĺë¥¼
ĠìĦł ìĪĺë¡ľ
íĮ ¡
Ġê³Ħ ê³¡
Ġì²ĺ íķĺê³ł
Ġì²ĺ ëĭ¨
ĠìĻ¸ ì¶ľ
ĠìĻ¸ ë¡Ńê²Į
ĠìĻ¸ ë¡ľìĽĢ
ë¸Į ë¡ľ
Ġëĭ¨ ìĿĺ
Ġëĭ¨ ê¸°
Ġëĭ¨ ì²´
Ġëĭ¨ ìĪ¨
íį¼ ìĿĺ
Ġëĭ¬ ìĿĺ
Ġëĭ¬ ëĿ¼ëĬĶ
ê·¸ ëĬĶ
ê·¸ ëŁ¬
ê·¸ ëłĮ
ìļ© ìľ¼ë¡ľ
Ġì§Ģêµ¬ ìĻĢ
Ġì§Ģêµ¬ ìĹĲìĦľ
Ġëĵľ ë¥ĺ
Ġëĵľ ë¦¼
ĠëıĮìķĦ ìĺ¬
ëħ¸ ëĬĶ
Ġë§ĮëĤĺ ëĬĶëį°
Ġë§ĮëĤĺ ë©´ìĦľ
íĪ¬ íķ©
ëĵ¤ê³¼ ëĬĶ
ëĵ¤ê³¼ ìĿĺ
Ġë°° ìļ°ê³ł
ĠìĺĪ ê±°
ĠìĺĪ ê°Ĳ
ìłĢ ê¸°
ìłĢ ìĶ¨
êµĲ ìĤ¬
ê´Ģ ìĿĺ
Ġíıī íĸī
Ġìķŀ ì§ĳ
Ġê´Ģ ê´ĳ
ìľĦ ê°Ģ
ìľĦ ì¹ĺ
ĠíĥĢ ìħĢ
ĠíĥĢ ìŀĶ
Ġëªħ ìĿĢ
Ġëªħ ë¶Ħ
Ġëªħ ìĦ±ìĿĦ
Ġíı¬ ìľĦ
Ġ2 6
Ġìŀ¬ ë¯¸
Ġìŀ¬ ê²°
Ġìŀ¬ ë²Į
ë°Ķ ëĿ¼
ë°Ķ ìĹĲìĦľ
ëĳ ¬
ĠìĹĦ ê²©íķľ
Ġì´Ī ì²Ń
ĠíĨµ ì§¸ë¡ľ
Ġìłģ ìĿĦ
Ġìłģ ë¶ĢíĦ°
Ġìłģ íŀĮ
ĠìľĦíĹĺ ìľ¼ë¡ľë¶ĢíĦ°
Ġë²Į ìĿ´ê¸°
Ġë²Į ìĿ´ëįĺ
ĠëĤ¨ìŀĲ ë¡ľë¶ĢíĦ°
ê°Ĳ ìľ¼ë¡ľ
ë§¨ ê³¼
Ġì¹´ ëłĲ
ĠìĤ¬ìĿ´ ë¡ľ
ĠìĤ¬ìĿ´ ë²Ħ
ĠíĺĦ ìŀ¥
ĠíĺĦ ìŀ¥ìĿĺ
ĠíħĮ ëłĪ
ĠíħĮ ìĺ¤ëıĦ
Ġëĵ± ìĿ´
Ġëĵ± ìĹĲ
Ġì¹ĺ ìľł
Ġìļ´ ëıĻ
Ġë²Ħ íĬ¼
Ġë²Ħ íĭĢëŁ¬
ì¤ĳ ìĿ´ëįĺ
ĠíĥĪ ì¶ľêµ¬
Ġì±Ħ êµ´
ê²° ìĿĦ
Ġìŀł ê²¨
ĠìĪľ ìĪĺ
ĠìĪľ ì¡°
Ġì½Ķ ëĭĪ
Ġì½Ķ ë¸Į
Ġì½Ķ ë¸ĮëĿ¼
Ġì½Ķ ìĬ¤íħĶ
Ġì½Ķ ëģ¼ë¦¬
Ġì½Ķ ëĤľìĿĢ
ê²¨ ìļ´
ë°ľ íķľ
ë°ľ ë¡ľ
ì§ĳ ìľ¼ë¡ľ
Ġì°¨ ìĽĲìĿ´
ĠìĨĲ ê¸¸
ĠìĨĲ ê°ĢëĿ½
ĠêµĲ ìŀ¥
ĠêµĲ ëĤ´
ĠêµĲ ìĪĺìĿĺ
ĠìĤ´ìĿ¸ ìĿ´
ĠìĤ´ìĿ¸ ìĿĢ
Ġë³Ģ íķĺê³ł
Ġë³Ģ íķĺê²Į
ĠíĨł ëĵľëĬĶ
ĠíĨł ë¯¸ëĬĶ
ĠìĹ´ ìĸ´
ĠìĹ´ ì¤ĳ
ĠìĹ´ ë¦°ëĭ¤
ĠìĽĲ ìŀĲ
ĠìĽĲ íķĺëįĺ
ĠìĽĲ ìĨĮë¥¼
Ġê°Ħ íĺ¸ìĤ¬
Ġëĵ¤ìĸ´ ìĺ¨ëĭ¤
Ġëĵ¤ìĸ´ ê°Ī
ë¯¼ ëĵ¤ìĿĦ
Ġë²Ķ ìĿ¸ìĿĺ
Ġë²Ķ ìĿ¸ìĿ´
ĠëģĿ ê¹Įì§Ģ
ĠëģĿ ëĤ´ê¸°
ĠíĬ¹ ìľłìĿĺ
ëĭ¬ ëĿ¼
ĠìłĦìŁģ ìĿĢ
ĠìłĦìŁģ íĦ°ë¡ľ
Ġê¹¨ ìĸ´
Ġëª¨ëĳĲ ìĹĲê²Į
Ġì¡´ìŀ¬ ìĿĺ
Ġìķł ìĿ¸
Ġìķł íĶĮëłī
ìłĲ ìĿ´
ìłĲ ìĹĲìĦľ
ĠëĶ° ë¥´ëĬĶ
Ġìĭľê°Ħ ëıĦ
ìĪł ë¡ľ
ĠíķĺëĤĺ ê°Ģ
Ġêµ° ëĮĢìĿĺ
ëĿ½ ìĿĦ
ì¢ Ģ
ëĦ¤ ëĬĶ
ëĦ¤ ë¥¼
Ġê±´ ëĭ¤
Ġì§ģ ìŀ¥
Ġì§ģ ìŀ¥ìĿĦ
íħĮ ëŁ¬
íħ įìĤ¬
Ġìĭ¬ íķľ
Ġìĭ¬ ìŀ¥ìĿĦ
Ġìĭ¬ ê°ģíķľ
Ġë³¸ ë¶Ģ
Ġë³¸ ëĵľëĬĶ
Ġë³¸ ëĬ¥ìĿĦ
ê²½ ìĹĲ
Ġìŀħ ìĿĦ
Ġìŀħ ëĮĢ
Ġìŀħ ìĪĺ
Ġìŀħ ì¦Ŀ
ĠìĿ´ìĥģ ìĿ´
Ġì¶ľ ìłĦìĿĦ
Ġì¶ľ ëª°
Ġì¶ľ ìĨĮíķľ
íģ´ ëłĪìĿ¸
ëĭ¤ê°Ģ ìĬ¤ì¹´
ì£Ħ ë¡ľ
Ġë¸Į ë¦¬
Ġë°¤ ìĿ´
Ġë°¤ ìĿĺ
ĠìľĦíĺĳ íķł
Ġëĳĺ ëıĦ
Ġëĳĺ ì§¸
ĠìķĦëĤ´ ëĬĶ
ĠíĬ¸ ë¡ľ
ĠíĬ¸ ìľĦ
ĠíĬ¸ ëŀŃíģ¬
ëĿ¼ê³ł ëĬĶ
ĠìĤ¶ ê³¼
Ġê±¸ ìĿĮ
ĠëĬ¥ ê°Ģ
Ġëŀ ©
ĠìĨĮëħĢ ëĬĶ
ĠìĨĮëħĢ ìĿĺ
ê´´ ë¬¼
ĠëĸłëĤĺ ëĬĶëį°
ĠëĸłëĤĺ ë©´ìĦľ
ĠìĿĢ íĸīìĿĦ
ĠìĿ´ìłľ ê»ı
ë²Ī ìĭľ
ìĤ° íķľ
ĠíĤ¤ ìĬ¤ë¥¼
ĠíĤ¤ ëĤĺìĿ´
ĠìĹŃ ìĤ¬ë¥¼
Ġë°ķ ìĤ´
Ġë°ķ ìĤ¬ìĿĺ
ĠëıĦìĭľ ìĹĲ
ĠëıĦìĭľ ìĹĲìĦľ
Ġë¯¸êµŃ ìĿĢ
Ġë¯¸êµŃ ê³¼
Ġìļ°ì£¼ ìłķê±°
ĠíĥĪì¶ľ íķ´
ĠíĥĪì¶ľ íķĺê³ł
Ġì²« ë²Īì§¸
ĠíĹ¤ ì³Ĳ
Ġì¼ Ī
ë³ĳ ìĿ´
ë³ĳ ìľ¼ë¡ľ
ëıĮ ê³ł
ĠìĥģíĻ© ìĿ´
ì§Ī ê¹Į
Ġìŀ¡ ëĬĶ
Ġìŀ¡ ìĿĦ
Ġíĥľ ìĽĮ
Ġíĥľ íıīìĸĳ
Ġì¡°ì§ģ ìĿ´
Ġì¡°ì§ģ ê³¼
ĠìĿ´ìķ¼ ê¸°ëĬĶ
Ġë§ŀìĦľ ëĬĶ
Ġë§ŀìĦľ ìķ¼
Ġë£¨ íģ¬
Ġë£¨ ì¹´
Ġë£¨ ìĿ´ìŀĲ
Ġê·¸ê³³ ìĿ´
Ġê·¸ê³³ ìĹĲëĬĶ
ë°ĺ ìľ¼ë¡ľ
ìĺĢ ê³ł
Ġë³´ëĤ´ ì§Ħ
ĠíĻĶ ëģĪíķľ
Ġë©Ķ ê°Ģë§ĪìĿ¸
Ġì´Ŀ ìĹĲ
Ġì´Ŀ ê°ģ
Ġì´Ŀ ëıĻìĽĲ
ĠìĹĺ ë¦¬ìĬ¤
ĠìĹĺ ëłĮ
Ġíĭ ´
Ġíĭ ĪìĿĦ
Ġë¹Į ë¦°
ĠíĮĢ ìĽĲëĵ¤ìĿĢ
Ġë¬¸ íĻĶ
Ġíİĺ ìĬ¤íĭ°
Ġíİĺ ìĿ´ìĬ¤
Ġíİĺ ë²Īìĭľ
ĠëĦĺ ë²Ħ
ĠëĦĺ ì³Ĳ
Ġíģ¬ë¦¬ìĬ¤ ëĬĶ
Ġìķ¼ ìĺģ
Ġìķ¼ ìĪĺìĿĺ
Ġìķ¼ ìļķìĿĦ
Ġìķ¼ ë§ĿìĿĦ
Ġë§¥ íģ´ëłĪìĿ¸
ĠíĮ¨ ë¦¬
ĠíĮ¨ ëŁ¬
Ġê¸°ìĸµ ê³¼
Ġê¸°ìĸµ íķĺì§Ģ
ĠíĿ¬ ê·Ģ
ë²ł ë¥´
ĠìĹ¬ìŀĲ ëĬĶ
ĠìĹ¬ìŀĲ ìĿĺ
ĠìĹ¬ìŀĲ ìĻĢ
ĠìĪľê°Ħ ìĿĺ
Ġë²Ķì£Ħ ìŀĲ
Ġíģ´ ëĿ¼ìĿ´
ìķĺ ëĭ¤ëĬĶ
Ġê³µíı¬ ê°Ģ
Ġì£½ìĿĮ ìĿ´
Ġì£½ìĿĮ ìĿĢ
ĠíıīíĻĶ ê°Ģ
ĠëĤĺíĥĢëĤĺ ê¸°
ĠëĤĺíĥĢëĤĺ ë©´ìĦľ
Ġëıħ íĬ¹
ĠìĤ´íķ´ ëĲľëĭ¤
Ġì²Ń íĺ¼
ĠëĨĵ ìĿ¸ëĭ¤
ĠëĨĵ ìĿ´ê²Į
Ġê²ĮìŀĦ ìĿĢ
Ġê²ĮìŀĦ ìľ¼ë¡ľ
Ġì²ľ ìĤ¬
ë¨¼ ëĵľ
Ġìĺ¬ ë¦¬ë²Ħ
Ġë³ĳ ìĹĲ
ĠìĥĿì¡´ íķľ
ë°ķ ìĿĦ
ĠíĶĦë¡ľ íħĮ
ëĭ´ íķľ
Ġë¯¸ëŀĺ ìĹĲìĦľ
ĠìĥĿíĻľ ìĿĢ
Ġìĸ» ìĿĦ
Ġìķ½ ë¬¼ìĿĦ
Ġê°ĸ ëĬĶëĭ¤
Ġíİ¼ ì¹ĺê²Į
Ġíİ¼ ì¹ĺëĬĶëį°
ĠíħĮëŁ¬ ì¡°ì§ģ
ĠìĺģíĻĶ ë¡ľ
Ġê·Ģ ê°Ģ
Ġê·Ģ ëĵ±
ĠìľĮ ìĬ¨
Ġë§ĪìĿ´ íģ¬ëĬĶ
Ġëį°ìĿ´ ìĹĲ
Ġëį°ìĿ´ ë¹ĦìĬ¤
ìĭľíĤ¤ ëĬĶëį°
ìĭľíĤ¤ ëł¤ê³ł
Ġê°ģ êµŃìĿĺ
Ġë°Ŀ íŀĪëł¤
ë¹Ī ê³¼
ë¹Ī ìĦ¼
Ġë§ĪìĿĮ ìĿĺ
ĠíĥĲ ëĭī
ĠìĥĿê°ģ ìĹĲ
ĠìĥĿê°ģ íķľëĭ¤
ĠëĨĢ ëŀĦ
Ġê°ķëł¥ íķĺê³ł
Ġê°ķëł¥ íķ´ì§Ħ
ĠíļĮ ê³Ħ
íİĺ ìĿ´
íİĺ ìĬ¤íĬ¸
ĠìļĶìĽĲ ìĿĺ
ĠìļĶìĽĲ ìľ¼ë¡ľ
íĮ¨ ë¥¼
ĠíĪ¬ ìĬ¬
ìĤ¬ìĿĺ íķľ
ĠëłĪìĿ´ ìĬ¤
ĠëłĪìĿ´ ì²¼
Ġê°Ī ëĿ¼
íĥĪ ë¦¬ìķĦ
ë³´ëĭ¤ ëıĦ
Ġê¸Ī ê¸°
Ġê¸Ī ë°ľ
Ġì¤Ħ ë¦¬ìķĦ
ìĽĶ íķľ
ĠëıĦì°© íķĺì§Ģë§Į
ĠìĻķêµŃ ìľ¼ë¡ľ
ĠìĻķêµŃ ìĹĲìĦľ
íĮĲ ìĿĦ
Ġê·¹ íķľ
Ġê·¹ ìłģìľ¼ë¡ľ
Ġê·¹ ìŀ¥ìĹĲìĦľ
Ġë¹łìł¸ ëĤĺê°Ģ
ĠëĦ¤ ìĿ´
Ġë¨¸ ë¦¬ìĹĲ
Ġë¨¸ ë¬´ëĬĶ
Ġë¸Ķ ëłĪìĿ´ëĵľ
ĠëĤ¨íİ¸ ìĿĢ
ĠëĶĶ ìħī
ĠëĶĶ ìŀĲìĿ´
Ġì¦Ĳ ê¸°ëĬĶ
ĠìĤ´ìķĦëĤ¨ ëĬĶëĭ¤
ĠëĤľ ë¬´íķĺëĬĶ
Ġëª¸ ìĿĢ
Ġëª¸ ê³¼
ĠíĮĮê´´ íķĺê¸°
ĠíĮĮê´´ ëĲľ
ĠíĮĮê´´ ëĲĺê³ł
Ġìķħëĭ¹ ìĿ´
ĠíĦ° ì»¤
ĠíĦ° ëĵĿ
Ġìłĳ ìĸ´
Ġìłĳ ìĨį
Ġë°ľìĥĿ íķľ
ĠíķĻêµĲ ìĹĲ
ĠC ra
ĠC HAL
Ġë°± ìĦ±
ìĥī ìĿĦ
ìĥī ìĿĺ
ìĥī ìĿ¸
ĠìĿĮëª¨ ìĻĢ
Ġë± ħ
Ġìķ¤ ëįĶ
Ġìķ¤ ëĶĶëĬĶ
Ġìķ¤ íĬ¸ë§¨
ìĬ¤íĥĢ ìĿ¸
Ġíķĺë£¨ ë¥¼
Ġíķĺë£¨ ëıĦ
ì¦Ŀ ìĿ´
ì¦Ŀ ìľ¼ë¡ľ
Ġìĸ´ë¨¸ëĭĪ ëĬĶ
ĠìĪ¨ê²¨ ëĳĶ
Ġë²Ĺ ìĸ´ëĤł
Ġê³µì£¼ ìĿĺ
Ġë°©ë²ķ ìĿ´
ĠíķĦ ìĤ¬ìĿĺ
ĠíķĦ ëĿ¼ëį¸
Ġë¶Ģëª¨ ìĿĺ
Ġê´ĳ ëĮĢ
ĠíĴĢ ê³ł
ĠíĽĶ ì¹ľ
ĠíĽĶ ì¹ĺê¸°
19 5
ĠìŀĳìłĦ ìĿĺ
Ġíĺ¼ëŀĢ ìĬ¤ëŁ¬ìĽĮ
Ġíį¼ ì§Ģ
Ġì§Ģì¼ľ ëĤ¼
Ġì£¼ìĿ¸ ìĿ´ìŀĲ
Ġê¸ī ìĬµ
Ġê¸ī ìĨįëıĦë¡ľ
Ġê³ĦìĨį ëĲĺëĬĶ
ì¤Ģ ëĭ¤ëĬĶ
ë²Į ëłĪ
Ġë§Īìķ½ ìĥģ
ĠìłĦíĪ¬ ê°Ģ
ĠìĿ¸ìĥĿ ìĿ´
ĠìĬ¤íĥĢ ë¡ľ
ĠìĬ¤íĥĢ ê°Ģ
ĠíĹĪ ìļ©
ĠìĿ´ìĸ´ ë°ĽìĿĢ
ĠëĵľëŁ¬ ëĤ´ì§Ģ
Ġì¤Ģë¹Ħ ìĹĲ
Ġëª¬ íħĮ
ìĻĶ ì§Ģë§Į
Ġëĭ¤ê°Ģ ìĺ¤ê³ł
ì» ·
ĠëĬĲëģ¼ ëĬĶ
ĠìķĦë¦Ħ ëĭ¤
Ġì°° ëĤĺ
ĠìĬ¤íĮĮìĿ´ ë¡ľ
ĠíĻľ ìļ©
ĠíĻľ ëıĻìĿĦ
ĠíĶ¼íĦ° íĮ¬
Ġì§Ī ëłĮ
ĠëĤĺìĦľ ê²Į
Ġë¹Ħíĸī ê¸°ìĹĲ
ì½ľ ë¦°
ĠëĭĪ ëĤĺ
ĠëıĦë§Ŀ ì¹ĺëĬĶ
ĠëıĦë§Ŀ ì¹ĺëįĺ
Ġëĵ±ìŀ¥ ìĹĲ
Ġëĵ±ìŀ¥ íķľ
ì´Ī ë¥¼
Ġëĸ¨ìĸ´ ì§ĢëĬĶ
Ġìķ¨ ë¦¬ëĬĶ
Ġê·¼ ë¬´
Ġê·¸ëĵ¤ ëıĦ
ĠíŀĪìĸ´ë¡ľ ë¡ľ
Ġë°Ģ ìĸ´
Ġë°Ģ ëŁ¬
ĠíĮĶ ë¨¸
Ġê°ĩ íŀĪê³ł
ìłľìĿ´ ë¯¸
Ġë±ĢíĮĮìĿ´ ìĸ´ë¡ľ
ĠíĻķ ë³´
Ġíľ´ ëĮĢ
Ġë°ĿíĺĢ ì§Ģë©´ìĦľ
Ġì·¨ ìĹħ
ìĹ´ ìĿĦ
ĠìłĢì£¼ ìĹĲ
ĠìĿ´ëģĮ ë¦°
ë¿Ĳ ë§Į
ì¿ł ëĬĶ
Ġìħ °
Ġìħ Ķ
ĠìĿ´ìļ© íķĺëł¤ëĬĶ
Ġìĥģìĥģ ìĿ´
Ġìĥģìĥģ ëıĦ
Ġêµ¬íķ´ ëĤ¼
íıī íĻĶë¡ľìļ´
ĠëģĬ ìĿ´ì§Ģ
Ġíİ¸ ì§Ģê°Ģ
Ġëª©ê²© íķĺê²Į
Ġê°Ģìļ´ëį° ìĹĲìĦľ
ĠëıĪ ìľ¼ë¡ľ
ĠëıĪ ê³¼
ëĭĪìķĦ ìĿĺ
ĠìĽĮ ëłĮ
Ġìĺģíĺ¼ ìĿĺ
ĠìłľìĿ´ìĬ¨ ìĿ´
ĠìłľìĿ´ìĬ¨ ìĿĢ
Ġëľ» ìĿĦ
Ġíģ¬ë¦¬ìĬ¤ë§Ī ìĬ¤ìĿĺ
Ġëª¬ìĬ¤íĦ° ëĵ¤ìĿĺ
Ġë±ĢíĮĮìĿ´ìĸ´ ìĻĢ
Ġë´ ¤
ĠìĿ¼íĸī ê³¼
Ġìłľê±° íķĺê¸°
Ġìłľê±° íķĺëł¤ëĬĶ
Ġë©Ģ ëłĪìĿ´
Ġê²½íĹĺ ìĿ´
Ġê²½íĹĺ íķľ
ĠìĤ´ìĿ¸ë§Ī ê°Ģ
Ġê²© ë¦¬
Ġê¾¸ ë¯¼ëĭ¤
Ġëķħ ìĹĲìĦľ
Ġê¶Į íĪ¬
ĠìĭľìłĪ ë¶ĢíĦ°
Ġëĭ¤ìĿ´ ìķł
Ġëĭ¤ìĿ´ ìķłëĤĺ
ĠíĺĦìĭ¤ ìĿĺ
ĠíĺĦìĭ¤ ìĿĢ
íĮĢ ìĿĺ
ĠìĿ´ë£¨ ìĸ´ì§Ħ
Ġì§ĢëĤĺ ëįĺ
Ġì§ĢëĤĺ ì¹ĺê²Į
Ġìľłëł¹ ëĵ¤ìĿĦ
Ġëį°ëł¤ ìĻĢ
Ġëį°ëł¤ ê°Ħëĭ¤
ë¡¤ ëĵľ
ĠìķĦëĭĮ ê°Ģ
Ġë²ķ ìĿĺ
Ġìķħë§Ī ìĿĺ
ê¿ Ķ
Ġê·¸ê²ĥ ìĿĦ
ĠìĹĲìĿ´ ë¦¬ìĸ¸
ĠìĹĲìĿ´ íĶĦë¦´
Ġíģ¬ë¦¬ ëĵľìĿĺ
Ġì¶ľìĭł ìĿ¸
ĠìķĮëłī ìĬ¤
ĠìķĮëłī ìĤ°
Ġìłķë³´ êµŃ
Ġìļ°ì£¼ìĦł ìĹĲ
Ġíĳľ ë¥ĺ
Ġê·¸ëłĪìĿ´ ìĬ¤ëĬĶ
Ġìļ¸ íĶĦíĮ©
íģ¬ë¦¬ìĬ¤ íĭ´
Ġì´ĪëĮĢ íķľëĭ¤
Ġë§ĪìĿ´íģ´ ìĿĺ
Ġë§ĪìĿ´íģ´ ìĿĢ
Ġê¼¬ ìĹ¬
Ġê¼¬ ìĿ´ê¸°
ĠìĿ¼ìĸ´ëĤĺ ëĬĶ
ĠìĥĿëªħ ì²´ë¥¼
Ġê¸´ ê¸ī
ĠíĸīëıĻ ìľ¼ë¡ľ
ĠìķĶìĤ´ ìŀĲ
Ġíħ Ĳ
Ġíħ Ķ
ĠìĹĶ ì¡°ëĬĶ
ĠìĿ´ìľł ëĬĶ
ĠìĿ¼ëĭ¹ ê³¼
ĠíĮĮíĬ¸ëĦĪ ê°Ģ
ĠíĮĮíĬ¸ëĦĪ ìĿ¸
Ġë¡Ŀ íĤ¤ëĬĶ
Ġìĭ¤íĹĺ ìĹĲ
ìķĦë²Ħì§Ģ ìĿĺ
Ġì°½ ìĭľ
Ġì°½ ë¦½
Ġìĸ´ëĶĶ ë¡ľ
Ġ19 4
Ġ19 6
Ġ19 7
Ġíķłë¨¸ëĭĪ ëĬĶ
ĠíĺĦìĥģ ìĿ´
ĠíĺĦìĥģ ê¸Ī
ëĨĵ ìĿĢ
ëį¤ ë³´
ëľ¨ ë¦°
Ġë¸ĶëŀĻ íİĦ
Ġ8 0
Ġìĭľì²´ ìĻĢ
Ġë¬´ìĭľ íķľ
Ġë¬´ìĹĩ ë³´ëĭ¤
Ġë¬´ìĹĩ ìĿ¼ê¹Į
Ġìķħëª½ ìĹĲ
ĠëĪĦêµ°ê°Ģ ìĹĲê²Į
Ġê³¨ ëĵł
ĠëĮĢíķĻ ìĹĲ
ĠìĿ¼ìĥģ ìĿĺ
Ġìłĳê·¼ íķľ
Ġìłĳê·¼ íķľëĭ¤
ĠëŁ°ëįĺ ìĹĲìĦľ
ĠëĤĺê°Ģ ê²Į
ĠìĦ¸ëł¥ ìĹĲ
ĠíĻĢ ë¦¬
Ġê´Ģë¦¬ íķĺëĬĶ
Ġê´Ģë¦¬ êµŃ
ĠíĤ¹ ìĬ¤ë§¨
Ġìķ¡ìħĺ ìĿ´
ĠS F
ĠS NS
Ġìį ¸
Ġê·¸ëłĩ ì§Ģë§Į
ĠìĹī ëį©
Ġìĭľê³¨ ë§ĪìĿĦ
ĠëĤĺëĪĦ ê²Į
Ġê³łìĸĳ ìĿ´ëĬĶ
Ġë°ĶìĿ´ íĤ¹
Ġêµ¬ì¶ľ íķ´
Ġíĺ¸íħĶ ìĹĲ
ĠìłĢì§Ģ ë¥´ê³ł
ĠìłĢíĥĿ ìľ¼ë¡ľ
Ġê·ľ ì¹Ļ
Ġìĭľëĭ¬ ë¦¬ê²Į
Ġì§Ģìĺ¥ ìĹĲìĦľ
Ġë¶ģ ê·¹
Ġë¶ĪìķĪ ìĹĲ
Ġëħ¸ëł¥ ìľ¼ë¡ľ
Ġëħ¸ëł¥ íķĺëĬĶ
Ġê·¸ë¦¬ìĬ¤ ëıĦëĬĶ
ëł¸ ëįĺ
Ġê²¬ ëĶĶ
Ġì§ĢìĹŃ ìĿĦ
Ġë¹ħ íĦ°
Ġë³Ģìĭł íķľ
Ġë³Ģìĭł íķ´
Ġì§ģìıĺ ëĬĶ
Ġì£¼ìĿ¸ê³µ ìĿĢ
Ġíľĺë§Ĳ ëł¤
Ġë©¸ë§Ŀ ìĿĺ
Ġë©¸ë§Ŀ íķł
Ġë³´ìķĪê´Ģ ìĿĺ
Ġì§Ĳ ìĿĢ
ĠìĬ¤íĭ° ë¸Ĳ
Ġì°¸ìĹ¬ íķĺê²Į
Ġìĸ¼êµ´ ìĿĦ
Ġë³ĳìĽĲ ìĹĲ
Ġë³ĳìĽĲ ìĹĲìĦľ
Ġìķ½ìĨį íķľ
Ġíķ©ë¥ĺ íķĺê²Į
ëļ ľ
ĠìŀĬ ìĿĦ
ĠìŀĬ ê³ł
ĠíķĺëĬĺ ìĿ´
ĠíķĺëĬĺ ë¡ľ
Ġëª¨ìĦ¸ ê°Ģ
Ġë©Ī ì¶Ķì§Ģ
ĠìļĶì²Ń ìĿĦ
Ġëĵľëŀĺê³¤ ëĵ¤ìĿĺ
Ġì°¸ìĦĿ ìĿĦ
ĠìĿĢíĸī ìĿĺ
ĠìĭŃ ëĮĢ
ĠëĤĺë£¨íĨł ìĿĺ
ĠìĦ¸ê³ĦëĮĢ ìłĦìĹĲ
ĠëĴ¤ì§ĳ ëĬĶ
ĠíıŃíĴį ìĿ´
ĠMI SS
ĠìĤ¬ë§ī ìĿĦ
ĠìĿ´ìĽĥ ì§ĳ
Ġë¬´ëĦĪ ì§Ģê³ł
Ġë¬´ëĦĪ ì§ĢëĬĶ
Ġê³łë¯¼ ìĹĲ
Ġê±°ëĵŃ ëĤĺ
Ġê±°ëĵŃ ëĤľëĭ¤
Ġë°ĶëŀĮ ìĿĦ
Ġê²½ê³ł ë¥¼
Ġìº£ ëĭĪìĬ¤
Ġëıķ ê¸°
Ġìĸ´ëł¤ ìĽĢ
ĠìĽ¬ ëĶĶìĿĺ
ĠìĽ¬ ì¦Īëį°ìĿ´
ĠíĻ©ìłľ ëĬĶ
ĠíĶĦë¡ľê·¸ ëŀ
Ġìĭ¶ìĸ´ íķľëĭ¤
ê°Ķ ëįĺ
ê²ģ ëĤĺë¨¼
Ġê·¸ë¦¼ ìŀĲê°Ģ
Ġê·¸ë¦¼ ìŀĲë¥¼
Ġì§ĵ ìĿĦ
Ġê³ģ ìľ¼ë¡ľ
ĠìĬ¤íĬ¸ ëłĪ
ĠìĬ¤íĬ¸ ëłĪìĿ¸
ĠíĮĮìĽĮ ë¥¼
Ġê³¼íķĻìŀĲ ëĵ¤ìĿĢ
Ġëª©íĳľ ë¡ľ
Ġê¹Ĭ ìĿ´
Ġìĭ¬ë°Ķ ìĿĺ
ĠìĿĢíķĺ ê³Ħë¥¼
Ġìĭ¸ìĽĢ ìĿ´
ĠíĶĦë¡ľìłĿ íĬ¸ìĹĲ
Ġì¦Ŀê±° ë¬¼ìĿĦ
Ġê°± ëĭ¨
ĠìĪĺíĺ¸ ìĭł
Ġë²½ ìĿĦ
ĠìĬ¤íĶ¼ ëĵľ
ĠìĬ¤íħĮ íĮĲ
Ġê³łíĨµ ìĿĦ
ĠíĮĮíĹ¤ ì¹ĺê¸°
Ġì£¼ë³Ģ ìĿĺ
ĠìķĪìłĦ íķľ
ĠëĤ´ìļ© ìĿĦ
ĠëĤ´ìļ© ìĿĺ
ì¼ĢìĿ´ ëĶĶ
ì£½ ìĿĢ
ĠìĿĢíĩ´ ë¥¼
ĠíĦ¸ ìĸ´
ĠìĨĲìĺ¤ê³µ ìĿĦ
ĠìĪĺìĪĺê»ĺëģ¼ ë¥¼
Ġê³łêµ°ë¶ĦíĪ¬ íķĺëĬĶ
íĬ¹ ìĪĺ
Ġë§Īë¥´ ì¿ł
Ġë§Īë¥´ ê·¸ë¦¬
Ġìĭľëĵľ ëĭĪ
ĠìłĦíĻĶ ê°Ģ
Ġëª¨ë¥¸ ëĭ¤ëĬĶ
Ġìłľìŀĳ ëĲľ
Ġê³łìļ© íķľ
Ġê³łìļ© íķ´
Ġê³łìļ© íķľëĭ¤
Ġê±°ë¶Ģ íķľ
Ġìķħëł¹ ìĿ´
ĠìłĢíķŃ êµ°ìĿĺ
ĠìłĢíķŃ êµ°ìĿĢ
Ġìŀłìŀħ íķ´
Ġìķ¼ìĥĿ ìĿĺ
Ġì²ŃìĨĮ ëħĦ
ĠíĢ¸ ì¹´
Ġë¡ĿíĤ¤ ìĹĲê²Į
ë· Ķ
Ġìī¬ ìĸ´ì¹¸
ĠìĤ¬ë¡ľìŀ¡ íŀĮ
ĠìķĦëĤĺ íĤ¨
ĠìĨĶ ë¡ľ
ĠìĬ¤íİĺ ìĿ¸
ĠìĨĮìĨį ìĿĺ
Ġê³µê°Ħ ìĿĦ
Ġë°©íķ´ ë¡ľ
Ġê´Ģëł¨ ìĿ´
Ġì²«ëĤł ë¶ĢíĦ°
Ġìŀ¡ìķĦ ë¨¹
Ġë¶Ļìŀ¡ íĺĢ
Ġë°ĶëĢĮ ê³ł
ĠíħĮëŁ¬ë¦¬ìĬ¤íĬ¸ ëĵ¤ìĿ´
ĠìĬ¤íģ¬ ë¦°
ĠìĬ¤íģ¬ ë£¨ì§Ģ
Ġê¸°ì°¨ ìĹĲ
ìĨĲ ìľ¼ë¡ľ
ëĶ° ëĿ¼
Ġíķ´ë³Ģ ìĹĲìĦľ
ĠìĹĲë°Ģ ë¦¬
Ġê°Ĳì§Ģ íķĺê³ł
ĠëĴ¤ë¡ľ íķĺê³ł
ĠëĳĲëł¤ìĽĢ ìĹĲ
ĠìĬ¤ì½§ ìĿĢ
Ġê°Ģë¡ľ ë§ī
ĠìĬ¤íĨł ë¦¬
ĠíĮĮëĿ¼ ìĺ¤ìĿĺ
Ġëħ¹ ìĥī
Ġíİł ë¦Ń
ĠíĽĦê³Ħ ìŀĲìĿ¸
Ġíĺ¸íģ¬ ë£©
Ġì¦ī ìĭľ
ĠìĤ¬ëĿ¼ì¡Į ëįĺ
ĠëĦĪë¬´ëĤĺ ëıĦ
Ġë¬´ì°¨ë³Ħ ìłģìĿ¸
ê¶ ĤìĿĢ
ĠìķĻ ìĭ¬ìĿĦ
Ġê°Ķ ëįĺ
Ġê³¤ ì¶©
Ġìĭľë¯¼ ëĵ¤ìĿĦ
Ġìĥģìĸ´ ìĿĺ
ĠìĦľì»¤ìĬ¤ ëĭ¨ìĿĺ
ĠìłĢìĬ¹ ìľ¼ë¡ľ
Ġë§ĪìĿ´ìĸ´ ìĬ¤
ĠíĥĲíĹĺ ê°Ģ
ĠìĭĿëŁī ìĿĦ
ĠìĮĵ ìķĦ
Ġì¿µíĳ¸ ë¥¼
Ġì¥Ĳ ê³ł
ĠëĲĺëıĮ ë¦´
ĠìĨĮëł¨ ìĿĺ
Ġìļ°ìĬ¹ ìĿĦ
ĠëĸłëıĮ ëįĺ
Ġì§ĦíĻĶ ëĲľ
Ġì§Ħìĭ¤ ìĿ´
ĠìĻ¸ëª¨ ìĹĲ
ĠìĻ¸ëª¨ ìĻĢ
Ġëĭ¬ëŁ¬ ë¥¼
Ġìŀ¬íļĮ íķĺê²Į
ĠìĹ´ì°¨ ìĹĲìĦľ
Ġëı¼ì§Ģ ì´Į
ĠV IP
ëĭ¤ëĭĪ ìĹĺ
ë¹ħ íĦ°
ĠëıĻìĽĲ íķ´
Ġë°ľëªħ ê°Ģ
Ġìļ°ìłķ ìĿĢ
Ġê²°ê³¼ ë¥¼
Ġíĸīíģ¬ ìĬ¤
ĠíĤ´ ë²Į
ĠìĹ´ìĩł ë¥¼
Ġë£° ìĿĦ
Ġì¢ħë§Ĳ ìĿĦ
Ġë¹ĪìĦ¼ íĬ¸ìĿĺ
ĠìłĬ ê³ł
ë§Įíģ¼ ìĿĢ
Ġëª¨ìľ¼ ê³ł
Ġìĸ´ëĶĺ ì§Ģ
ĠíķľëķĮ ëĬĶ
ĠìĨĮíĸī ìĦ±ìĹĲ
Ġìĥģê´Ģ ìĹĨìĿ´
ĠíĶ¼ìĹĲ ë¥´
Ġì½¤ ë¹Ħ
Ġë§Ĳìį½ ê¾¸ëŁ¬ê¸°
ĠëıĮìķĦìĻĶ ëĭ¤
ĠëĿ¼ìĬ¤ íĳ¸
ĠìĨĲëĭĺ ìĿ´
ĠìĹŃëĮĢ ê¸ī
Ġìłķìĭłë³ĳ ìĽĲìĹĲ
Ġì»¨ ë²Ħ
Ġê¾¸ë¯¸ ëĬĶëį°
Ġìĭ± ê¸Ģ
ĠìłĦìĹŃ ìĿĦ
Ġì¹¸ ëĭ¤
ì£¼ìĿ¸ ê³µ
Ġë³´ìĹ¬ ì¤Ģëĭ¤
íĭ¸ ëŁ¬
ĠìĹ´ìłķ ìłģìĿ¸
ĠìķłìĻĦ ê²¬
ĠëĪĪì¹ĺ ì±Ħ
ĠìħĢ ë¦°
ĠìıŁìķĦ ì§ĢëĬĶ
ĠìķĦëĤĺìĬ¤íĥĢìĥ¤ ëĬĶ
Ġìĺ¤ëĳĲë§ī ìĹĲ
ĠãĢ Į
Ġëª¨íĶ¼ ìĸ´
Ġìĸ´ë²¤ìł¸ ìĬ¤
ĠìĬ¤íĮ¨ ë¡ľìļ°
ĠìĿĺë¯¸ ìĭ¬
Ġëħ¸ë¥´ ë¹Ĺ
ĠëĴ¤ì«ĵ ìķĦ
ĠíĶĦë¦¬ìłĢ ìĿĺ
Ġë§ŀëĭ¥ëľ¨ ë¦°ëĭ¤
Ġíķĺë£»ë°¤ ìĿĦ
Ġë§· ìĿĢ
ëį´ ìł¤
ĠìĤ¬ìļ° ë¡łìĿĺ
ĠìŀĲì¡´ ìĭ¬ìĿĦ
Ġìłľìķķ íķĺê³ł
Ġë¡ľëłĮ ìĬ¤
Ġë°ĺíķŃ ìķĦ
ĠìŀĦìĭł íķľ
Ġìļ©ê°Ĳ íķľ
Ġë¸Įë£¨ ìĬ¤ëĬĶ
ĠíĬ¸ëŁŃ ìĿĦ
Ġì£Ħì±ħ ê°Ĳ
ëĲĲ ëĭ¤ëĬĶ
ĠìĦ¸ìļ° ëĬĶëį°
ĠìĦ¸ìĽĶ ìĿ´
ĠìĬ¤ë¯¸ ìĬ¤ëĬĶ
ĠìĨĮë¬¸ ìĿ´
Ġê±°ì¹¨ ìĹĨìĿ´
ĠìĹĲë¦¬ìĸ¼ ìĿĢ
Ġì±Ļ ê²¨
ĠíĶĦëĿ¼ ìŀĦ
Ġê¹ľ ì°į
Ġíı¬ìĻĢ ë¡ľëĬĶ
Ġíı¬ìĭĿ ìŀĲ
ĠìĤ´ìĿ¸ë²Ķ ìľ¼ë¡ľ
Ġë²łëĭĪìĬ¤ ìĹĲìĦľ
ĠìĦ¤ìĥģê°Ģ ìĥģìľ¼ë¡ľ
ĠíķĦìĤ¬ ìłģìľ¼ë¡ľ
ĠëĨįêµ¬ íĮĢ
Ġíħľ íı¬ëŁ´
Ġìĭ«ìĸ´ íķĺëĬĶ
Ġë®¤ì§Ģ ì»¬
Ġìĭ£ ê³ł
ĠìķĦìĿ¼ ëŀľëĵľ
Ġëª¨ìĿĢ ëĭ¤
Ġë¬´ëª¨ íķľ
Ġë°Ķíĭ° ì¹¸
Ġìĭłìŀħ ìĥĿ
ĠìĨįìĪĺë¬´ì±ħ ìľ¼ë¡ľ
ĠëĪĦëĵ¤ ìĬ¤ëĬĶ
Ġë©Ģíĭ° ë²Ħ
Ġíľ©ìĵ¸ ëł¤
ë® ¤
ìŀł ìĿĦ
Ġê°Ģë¸Įë¦¬ ìĹĺìĿ´
Ġìĸ´ì§Ģ ëŁ½
Ġíĥģ ìĽĶíķľ
Ġìłľëħ¸ ë¹ĦìķĦìĿĺ
ĠìĿĺê¸° íĪ¬íķ©
ĠìķħëŀĦ íķľ
Ġë²Ħíģ¬ ìĦ¬
Ġíģ´ëŀĺ ìĭĿ
Ġê¼´ ëłĪìĺ¤
ĠëĽ°ìĸ´ëĦĺ ëĬĶ
ĠìĹĶíĦ° íĶĦëĿ¼ìĿ´ì¦Ī
Ġì¿¨ ìĬ¤ë¹Į
Ġë§ĺëª¨ ìĬ¤
ĠìĿ¸íĦ°ë·° ë¥¼
ĠìĹłë§Īëī´ ìĹĺìĿĢ
Ġë¬´ë¦ħ ìĵ°ê³ł
Ġë¡¤ëŁ¬ì½ĶìĬ¤íĦ° ê°Ģ
âĻ ¡
Ġëº ı
Ġê¶ ¤
ìĬ¤íĮĮ íĤ¤
ĠìĿ´ìŀĲ ë²¨
Ġê°Ģê¹Ŀ ê²Į
ëĮĢë¯¸ ë¬¸ìĿĺ
ìłľëłĪ ë¯¸
Ġìĺ¤ëĶĺ ìĿĺ
Ġêµ¬ìĤ¬ìĿ¼ ìĥĿìľ¼ë¡ľ
ĠëĤłì¹´ ë¡ľìļ´
Ġìĺģê´ĳ ìĿĦ
ĠíĶ¼ì¹´ ì¸
Ġìĭ¤ë§Ī ë¦¬ë¥¼
ĠìķĦìĿ´ëĶĶìĸ´ ë¥¼
ĠëĿ¼íĳ¼ ìł¤
ĠìºĲëĤĺ ëĭ¤ë¡ľ
ĠëłĪìĿ´ëĨĢ ì¦Ī
Ġìĵ°ëłĪ ê¸°
ĠíĿĺëłĢ ëĭ¤
Ġê°Ģë¡ľì§Ģ ë¥´ëĬĶ
ĠìĬ¬ë¡ľìľħ ìĿĺ
ĠìķĦê·¸ëĿ¼ ë°Ķ
Ġìĸ´ë§Īìĸ´ ë§Īíķľ
IO N
LEN GE
Ġê°Ģë³ įê²Į
Ġëĭ¤ëŀĮ ì¥Ĳ
ĠëĤĺë©Ķ íģ¬
ĠìĿ¼ìĳ ¤
ĠìĨĮê¿ ī
Ġë¯¸ì¼Ī ëŀĢìł¤
Ġìĺ¤íİĺ ëĿ¼
Ġëĵ¤ëĸ ł
ĠìĦľë°ĶìĿ´ ë²Į
Ġëĭ¨ìĪ¨ ìĹĲ
ĠëıħíĬ¹ íķľ
ĠëĶĶìŀĲìĿ´ ëĦĪ
ĠCra ig
ĠCHAL LENGE
ĠíķĦëĿ¼ëį¸ íĶ¼ìķĦ
ĠMISS ION
) _
1 00
1 000
2 1
3 5
8 0
9 0
? âĢĿ
B A
D e
E P
L A
M r
T EP
_ âĢľ
a d
a y
a ll
c e
i d
i t
i ll
l ey
r is
¥ ìĬ¤
¨ ìĶ¬
· ìĿĦ
¼ ëŁ¬
Â ł
Ġ Z
Ħ ìĥĪ
Ī ëĭ¤
į ì²Ń
ĳ ¥
ĵ ìĿĢ
ĵ ¨ë¦¬
ĺ ìĸ´
ľ ìĸ´
ľ ìĶ¨
Ŀ ìĹĲ
ŀ ìĹ¬
Ń ìħĶ
Ġì ©
Ġì Ł
Ġì ¥¬
Ġì «Ĵ
Ġì ĳ¥
Ġë ķ
Ġí į½
Ġí ĵ¨ë¦¬
ìĿ´ ìĥģ
ìĿ´ ì¦ĪìĿĺ
ëĭ¤ ìĿĺ
íķĺ ëĦ¤
íķĺ ê¸¸
íķĺ ê³¤
íķĺ ëĶĺ
ì§ ±
ë¡ľ ìĸ´
ê³ł ë¡ľ
ê³ł ìĻĢ
ê³ł ìĹĲìĦľ
ê³ł ëıĦ
Ġìŀ ĬìĿĢ
Ġìķ Ĺ
ê°Ģ ìŀ¥
ê°Ģ ìĪĺ
ê°Ģ ëłĽ
ì§Ģ ëĤĺ
ì§Ģ ë©´
ì§Ģ ë§ī
ì§Ģ ì¤ĳ
ì§Ģ ëĮĢìĹĲ
ì§Ģ ë¶Ģë¥¼
ì§Ģ íĦ¸
ìł ĵ
ë¦¬ ëŁ¬
ë§ ¡
ë§ £
ë§ ŀ
Ġê·¸ ê±¸
ê²Į ìĿ¼
ëĵ¤ ê¸°
ëĵ¤ ë©°
ëĵ¤ ì²ĺëŁ¼
ê¸° ìĤ¬
ê¸° ë©°
ê¸° ìĸµ
ìĬ¤ íķľ
ìĬ¤ ìĬ¤íķľ
íķ´ ìĹĲ
íķ´ ë¥¼
íķ´ ëĤĺ
íķ´ ì§Ī
íķ´ ìĻĶëįĺ
ĠìĹ ®
ĠìĹ İ
ìĿ¸ ì§Ģë¥¼
ĠëĤ Ń
ĠìĤ¬ ëĤĺ
ĠìĤ¬ íĨł
ĠìĤ¬ ê¸°ë¥¼
ĠìĤ¬ ê°ģ
ĠìĤ¬ ìĦ¤
ĠìĤ¬ ëĤ´ëĬĶ
ĠìĤ¬ ê·Ħ
ĠìĤ¬ ëĤĺìĿ´
Ġìľ ¤
ĠìĿ´ ê¸°
ĠìĿ´ ì£¼
ĠìĿ´ ëĿ¼ëĬĶ
ĠìĿ´ ì¦Ī
ĠìĿ´ ìĦ±ìĿĦ
ĠìĿ´ ìķĪìĿĢ
ĠìĿ´ ìĬ¬ëĿ¼
ìĸ´ ëĬĶ
ìĸ´ ìĿĺ
ìĸ´ ìĬ¤
ìĸ´ íĬ¸
ĠëĲ Ĳ
Ġì§ §
ìķĦ ìķ¼
ìķĦ ê·Ģ
ìķĦ íĶĦë¦¬ì¹´
ëĿ¼ ëĭĪ
ëĿ¼ ëĿ¼ëĬĶ
ëĿ¼ ëıĦëĬĶ
ëĿ¼ ì¼Ħ
ìŀĲ ìłģìĿ¸
ìŀĲ ëĵ¤ìĹĲê²Į
ìŀĲ ë¦¬ê°Ģ
ìŀĲ ìĺĢëįĺ
ëŀ ¬
Ġê³ ¡
ìĥ Į
ëĤĺ ìĦľ
ëĤĺ ëĤĺ
