{"[PAD]":0,"!":1,"\"":2,"#":3,"$":4,"%":5,"&":6,"'":7,"(":8,")":9,"*":10,"+":11,",":12,"-":13,".":14,"/":15,"0":16,"1":17,"2":18,"3":19,"4":20,"5":21,"6":22,"7":23,"8":24,"9":25,":":26,";":27,"<":28,"=":29,">":30,"?":31,"@":32,"A":33,"B":34,"C":35,"D":36,"E":37,"F":38,"G":39,"H":40,"I":41,"J":42,"K":43,"L":44,"M":45,"N":46,"O":47,"P":48,"Q":49,"R":50,"S":51,"T":52,"U":53,"V":54,"W":55,"X":56,"Y":57,"Z":58,"[":59,"\\":60,"]":61,"^":62,"_":63,"`":64,"a":65,"b":66,"c":67,"d":68,"e":69,"f":70,"g":71,"h":72,"i":73,"j":74,"k":75,"l":76,"m":77,"n":78,"o":79,"p":80,"q":81,"r":82,"s":83,"t":84,"u":85,"v":86,"w":87,"x":88,"y":89,"z":90,"{":91,"|":92,"}":93,"~":94,"¡":95,"¢":96,"£":97,"¤":98,"¥":99,"¦":100,"§":101,"¨":102,"©":103,"ª":104,"«":105,"¬":106,"®":107,"¯":108,"°":109,"±":110,"²":111,"³":112,"´":113,"µ":114,"¶":115,"·":116,"¸":117,"¹":118,"º":119,"»":120,"¼":121,"½":122,"¾":123,"¿":124,"À":125,"Á":126,"Â":127,"Ã":128,"Ä":129,"Å":130,"Æ":131,"Ç":132,"È":133,"É":134,"Ê":135,"Ë":136,"Ì":137,"Í":138,"Î":139,"Ï":140,"Ð":141,"Ñ":142,"Ò":143,"Ó":144,"Ô":145,"Õ":146,"Ö":147,"×":148,"Ø":149,"Ù":150,"Ú":151,"Û":152,"Ü":153,"Ý":154,"Þ":155,"ß":156,"à":157,"á":158,"â":159,"ã":160,"ä":161,"å":162,"æ":163,"ç":164,"è":165,"é":166,"ê":167,"ë":168,"ì":169,"í":170,"î":171,"ï":172,"ð":173,"ñ":174,"ò":175,"ó":176,"ô":177,"õ":178,"ö":179,"÷":180,"ø":181,"ù":182,"ú":183,"û":184,"ü":185,"ý":186,"þ":187,"ÿ":188,"Ā":189,"ā":190,"Ă":191,"ă":192,"Ą":193,"ą":194,"Ć":195,"ć":196,"Ĉ":197,"ĉ":198,"Ċ":199,"ċ":200,"Č":201,"č":202,"Ď":203,"ď":204,"Đ":205,"đ":206,"Ē":207,"ē":208,"Ĕ":209,"ĕ":210,"Ė":211,"ė":212,"Ę":213,"ę":214,"Ě":215,"ě":216,"Ĝ":217,"ĝ":218,"Ğ":219,"ğ":220,"Ġ":221,"ġ":222,"Ģ":223,"ģ":224,"Ĥ":225,"ĥ":226,"Ħ":227,"ħ":228,"Ĩ":229,"ĩ":230,"Ī":231,"ī":232,"Ĭ":233,"ĭ":234,"Į":235,"į":236,"İ":237,"ı":238,"Ĳ":239,"ĳ":240,"Ĵ":241,"ĵ":242,"Ķ":243,"ķ":244,"ĸ":245,"Ĺ":246,"ĺ":247,"Ļ":248,"ļ":249,"Ľ":250,"ľ":251,"Ŀ":252,"ŀ":253,"Ł":254,"ł":255,"Ń":256,"Ġì":257,"Ġë":258,"ìĿ":259,"íķ":260,"Ġê":261,"ëĬ":262,"ëĬĶ":263,"Ġí":264,"ìĹ":265,"ëĭ":266,"ìĿĦ":267,"ê³":268,"ìĿ´":269,"ìĿĺ":270,"ìĹĲ":271,"ëĭ¤":272,"íķľ":273,"íķĺ":274,"ë¥":275,"ë¡":276,"ê°":277,"ì§":278,"ë¡ľ":279,"ëĵ":280,"ë¦":281,"ê³ł":282,"ê²":283,"ìŀ":284,"ĠìĿ":285,"ë¥¼":286,"ìĦ":287,"Ġìŀ":288,"Ġìķ":289,"ëĤ":290,"ìĭ":291,"ìķ":292,"Ĥ¬":293,"ê°Ģ":294,"ì§Ģ":295,"ìĿĢ":296,"¸°":297,"Ġê·":298,"Ĭ¤":299,"ìł":300,"ë¦¬":301,"Ġë§":302,"ë§":303,"Ġê·¸":304,"ëį":305,"ĸ´":306,"ê²Į":307,"ëĵ¤":308,"Ġìł":309,"ê¸°":310,"ìĬ¤":311,"âĢ":312,"Ġê°":313,"ëł":314,"íķ´":315,"ìĦľ":316,"ĠìĹ":317,"Ġë°":318,"ìĿ¸":319,"ìľ":320,"Ġìĭ":321,"ĠëĤ":322,"ĠìĤ¬":323,"Ġìľ":324,"ĠìĿ´":325,"Ŀ¼":326,"ìĸ´":327,"ĮĢ":328,"ıĦ":329,"ĠëĲ":330,"êµ":331,"Ġëª":332,"Ġì§":333,"ìķĦ":334,"Ġê²":335,"ìļ":336,"ëĿ¼":337,"ìŀĲ":338,"ëŀ":339,"Īĺ":340,"Ġê³":341,"ìľ¼":342,"ìĥ":343,"ëĤĺ":344,"ìĻ":345,"ì¹":346,"ĠìĦ":347,"Ġëĭ":348,"ëŁ":349,"čĊ":350,"ĠìľĦ":351,"ìľ¼ë¡ľ":352,"ĠìķĦ":353,"ìĻĢ":354,"ê³¼":355,"ë©":356,"ë²":357,"ìĹĲìĦľ":358,"ë§Į":359,"ëħ":360,"Ġìĺ":361,"ìĭľ":362,"ë°":363,"ëıĦ":364,"ìĺ":365,"Ġë§Ī":366,"Ġíķĺ":367,"ëį°":368,"¶Ģ":369,"ëįĺ":370,"íķľëĭ¤":371,"Ġê°Ģ":372,"ìĤ¬":373,"..":374,"ìĽ":375,"Ġë³":376,"Ġìĥ":377,"ĠìŀĪ":378,"ëª":379,"ë¬":380,"Ġìĭľ":381,"ĠìĨ":382,"ĠâĢ":383,"ĠìŀĲ":384,"£¼":385,"Ĭ¸":386,"âĢĻ":387,"Ġì§Ģ":388,"ëĮĢ":389,"Ġë¹":390,"ìĭł":391,"¯¸":392,"ĠâĢĺ":393,"íĥ":394,"ëŁ¬":395,"ĠìĪĺ":396,"ëĬĶëį°":397,"ľëĭ¤":398,"ë³":399,"Ġìļ":400,"íĺ":401,"ĠìłĦ":402,"ëĵľ":403,"ĠìĤ":404,"íĬ¸":405,"ĠëĲĺ":406,"ëĲ":407,"ìĥģ":408,"Ġëı":409,"Ġíķ":410,"êµ¬":411,"ëĭĪ":412,"Ġëª¨":413,"Ġì°":414,"Ġë²":415,"ì²":416,"Ġë¬":417,"ê°Ħ":418,"ìĹĲê²Į":419,"Ġì¹":420,"Ġìĸ´":421,"íĦ":422,"±°":423,"ìŀ¥":424,"ì§Ģë§Į":425,"ëł¤":426,"ì¡":427,"ĠìĿ¸":428,"Ġëĵ":429,"Ġêµ":430,"íĦ°":431,"íĻ":432,"ì°":433,"ë¹":434,"ì¹ĺ":435,"ĠëĮĢ":436,"ì§Ħ":437,"Ġíĺ":438,"ë§Ī":439,"Ġê²ĥ":440,"ë¶Ģ":441,"íķĺê³ł":442,"Ġíķľ":443,"ĮĮ":444,"Ġë¶":445,"Ġëĭ¤":446,"íķĺëĬĶ":447,"ĠìľĦíķ´":448,"íĶ":449,"ìĪĺ":450,"ģ¬":451,"ìłģ":452,"ì£¼":453,"Ġì¡":454,"íĸ":455,"ĠëĤĺ":456,"ĠìĤ´":457,"ĠìĻ":458,"ìļ´":459,"ĠìĦ¸":460,"ĠìĿ¼":461,"ê³Ħ":462,"Ġíı":463,"ĠëıĦ":464,"Ġë§Į":465,"íŀ":466,"Ġë³´":467,"Ġíĥ":468,"ë£":469,"ĠíĶ":470,"ìŀĳ":471,"ĠìĬ¤":472,"Ġì²":473,"ĠìĤ¬ëŀ":474,"Ġê¸°":475,"ĠìŀĲìĭł":476,"ë©´":477,"ë²Ħ":478,"ìĨ":479,"ĠìĨĮ":480,"ëĶ":481,"ëĤ´":482,"Ġëį":483,"ëħĢ":484,"ìłĦ":485,"ĠìķĮ":486,"ë¦°":487,"ë©°":488,"Ġë¯¸":489,"ĠìĹĨ":490,"ìĬ":491,"Ġë¬´":492,"...":493,"ĠëĲľëĭ¤":494,"ëªħ":495,"ê¸":496,"ĳĲ":497,"íĤ":498,"ĠìĹ¬":499,"ìĥĿ":500,"ìĽĲ":501,"ìĿ¼":502,"ìłľ":503,"ë¹Ħ":504,"ëı":505,"íŀĪ":506,"ëħĦ":507,"Ġìłķ":508,"íĥĢ":509,"ìłķ":510,"íĭ":511,"Ġë¶Ģ":512,"êµŃ":513,"¤ĳ":514,"ìļ°":515,"Ġì¶":516,"±´":517,"Ġìĭľìŀĳ":518,"ë¥´":519,"Ġìłľ":520,"ëł¥":521,"Ġê³ł":522,"Ġë¹Ħ":523,"ìĺ¤":524,"ìĿĮ":525,"íķĺê²Į":526,"ĠëĤ¨":527,"Ġìĺ¤":528,"ĠíĻ":529,"ê¹":530,"Ġê³µ":531,"ë¯¸":532,"ëłĪ":533,"ëĵ¤ìĿĢ":534,"íĹ":535,"Ġê±°":536,"ëĤľ":537,"ëĵ¤ìĿĦ":538,"ìĸ":539,"íģ¬":540,"íĨ":541,"ìķ¼":542,"ëĵ¤ìĿ´":543,"ëĶĶ":544,"ĠíĮĮ":545,"Ġì°¾":546,"ĠìĪ":547,"Ġë°Ķ":548,"Ġìľł":549,"Ġíĸ":550,"ëĵł":551,"ĠìĥĿ":552,"ê¹Į":553,"ê²©":554,"íĤ¤":555,"ê·":556,"ĠëıĻ":557,"ê»":558,"íĸī":559,"ë³´":560,"íĻĶ":561,"ëĦ":562,"Ġë°ľ":563,"ľêµ¬":564,"Ġìĭł":565,"ê±°":566,"Ġêµ¬":567,"ĠìŀĪëĬĶ":568,"ëĲĺ":569,"Ġì£":570,"íİ":571,"ëĬĲ":572,"Ġìļ°":573,"ĽĦ":574,"ìĦ±":575,"Ġì£¼":576,"Ġìĥģ":577,"ìĤ":578,"Ġíķ¨":579,"Ġì¡°":580,"Ġê´":581,"âĢ¦":582,"ê»ĺ":583,"ëĵ¤ìĿĺ":584,"ĠëĶ":585,"ë¬´":586,"íĹĺ":587,"ìķĪ":588,"ëª¨":589,"ì¡±":590,"Ġëĸ":591,"ë¬¼":592,"ĠìĤ¬ëŀĮ":593,"ì¶":594,"ĠëĤł":595,"ë£¨":596,"ìĹĪ":597,"ê±´":598,"Ġíķ´":599,"ë¬¸":600,"Ġë¶Ī":601,"ë¦¬ê³ł":602,"ëĿ¼ëĬĶ":603,"íı":604,"Ġê²°":605,"Ġíķ¨ê»ĺ":606,"ìĭ¤":607,"ì¦":608,"íķĺê¸°":609,"Ġì£½":610,"ì²´":611,"Ġê·¸ëħĢ":612,"Ġë°Ľ":613,"ĠíĨ":614,"ĠìĽ":615,"íĭ°":616,"ê´":617,"µľ":618,"Ġì¤ĳ":619,"ìĦ¸":620,"ì½":621,"ëŀĺ":622,"Ġì¹ľêµ¬":623,"ĠìĿĺ":624,"Ġëģ":625,"Ġë©":626,"Ġë¡":627,"ĠìķĬ":628,"ĠëĲľ":629,"Ġìĸ´ëĬĲ":630,"Ġìĺģ":631,"Ġìµľ":632,"Ġíķĺì§Ģë§Į":633,"¸Į":634,"Ġìĸ":635,"ìĹ°":636,"íķĻ":637,"ìĹ¬":638,"Ġê·¸ëŁ¬":639,"ë¨":640,"Ġì§ĳ":641,"íļ":642,"ìĨĮ":643,"Ġëħ":644,"ĠìĨį":645,"ĠíĶ¼":646,"íķł":647,"ìłģìĿ¸":648,"ìĪ":649,"ê³µ":650,"ìĺ¨":651,"íĶĦ":652,"ëĲľ":653,"ì¹´":654,"ĠëıĮ":655,"Ġë¶Ħ":656,"ë¥¸":657,"Ġì´":658,"ĠëĪ":659,"ĠëĬ":660,"ë°Ģ":661,"ìĭ¬":662,"ħĮ":663,"Ġì°¾ìķĦ":664,"íĮĮ":665,"Ġ1":666,"ĠëĳĲ":667,"Ġê²½":668,"ĠìĹĨëĬĶ":669,"ëĭ¤ëĬĶ":670,"ìĦł":671,"ìĭĿ":672,"ë©´ìĦľ":673,"Ġëĵ¤":674,"ĠìĹ°":675,"ĠìĹĲ":676,"ĠìĥĪ":677,"ëıĻ":678,"ì§ģ":679,"Ġê³¼":680,"Ġê¸":681,"ĠíĹ":682,"ë¦¬ìĬ¤":683,"Ġëĸł":684,"ĠìĬ":685,"Ġë¹ł":686,"Ī¬":687,"ëĭ¹":688,"íİ¸":689,"Ġì±":690,"íĶ¼":691,"ëĳĲ":692,"Ġíŀ":693,"ĠìŀĲìĭłìĿĺ":694,"ë¡ľìļ´":695,"Ġë¦":696,"Ġê·¸ìĿĺ":697,"ëŀĢ":698,"Ġë¡ľ":699,"į¼":700,"Ġíİ":701,"ĠëĲĺëĬĶëį°":702,"ì°¨":703,"ë¶ĢíĦ°":704,"ĠíĿ":705,"ĠëĲĺê³ł":706,"ëĭ¨":707,"Ġëª»":708,"ëĬĶëĭ¤":709,"ìŀ¬":710,"ìł¸":711,"ìĿ´ëĭ¤":712,"ìŀĦ":713,"ë¶":714,"ĠëĦ":715,"ĠëĨ":716,"ë§Ŀ":717,"Ġìĭ¤":718,"ì¦Ī":719,"Ġì¡´":720,"íĨł":721,"Ġê°Ģì¡±":722,"ì¡°":723,"ĠíĮ":724,"ĠìĦľ":725,"ĠìĦ¸ê³Ħ":726,"Ġìķħ":727,"ë¦¬ëĬĶ":728,"íĺ¸":729,"ĠëįĶ":730,"ĠìĤ¬ê±´":731,"ĠíĶĦ":732,"Ġëį°":733,"ĠíĽĦ":734,"íķĺëĬĶëį°":735,"Ġì½":736,"Ġíģ¬":737,"ê¹Įì§Ģ":738,"ĠìĦ±":739,"ĠìķĦìĿ´":740,"ìĽĮ":741,"»¤":742,"Ġíĸī":743,"ķĮ":744,"Ġë§ŀ":745,"ĠìĻķ":746,"ĠìķĪ":747,"Ġê°ķ":748,"ëģ":749,"ê²¬":750,"ĠëĤ´":751,"Ġëħ¸":752,"ìħ":753,"Ġëª¨ëĵł":754,"ĠìĤ´ìķĦ":755,"ĠìĿ¸ê°Ħ":756,"Ġíĺ¸":757,"ĠìĤ¬ëŀĳ":758,"Ġë¦¬":759,"ìĤ´":760,"Ġë§Ĳ":761,"Ġëł":762,"êµ°":763,"Ġìŀ¥":764,"ëįĶ":765,"ĠìŀĪëĭ¤":766,"Ġíķľëĭ¤":767,"Ġëª©":768,"Ġê¹":769,"Ġê°Ĳ":770,"Ġì§Ħ":771,"ĠìļĶ":772,"ì¼":773,"ëĤł":774,"Ġê·¸ë¦¬ê³ł":775,"ì²ĺ":776,"Ġë§¤":777,"ê¸°ë¥¼":778,"Ġë°©":779,"Ġë°ĺ":780,"íı¬":781,"Ġë¹Ħë°Ģ":782,"ĠëłĪ":783,"ĠìĦł":784,"ìľł":785,"ìĨį":786,"íĮ":787,"Łģ":788,"ìĸ¸":789,"Ġê³Ħ":790,"ì¶ľ":791,"Ġì²ĺ":792,"íļĮ":793,"Ġê·¸ëĬĶ":794,"ĠìĻ¸":795,"ë²Ħì§Ģ":796,"ë¸Į":797,"ìŁģ":798,"Ġ'":799,"ëŁ°":800,"ĪìĿĦ":801,"Ġëĭ¨":802,"íį¼":803,"ëł¹":804,"Ġëĭ¬":805,"ê·¸":806,"ģ´":807,"ë¥ĺ":808,"ë¦Ħ":809,"ìļ©":810,"Ġì¢":811,"Ġì§Ģêµ¬":812,"Ġëĵľ":813,"ĠëıĮìķĦ":814,"ë²ķ":815,"ëħ¸":816,"íĺ¼":817,"Ġê²ĥìĿĦ":818,"Ġë§ĮëĤĺ":819,"Ġìŀĳ":820,"íĪ¬":821,"ëĵ¤ê³¼":822,"ëĲľëĭ¤":823,"Ġìº":824,"Ġë°°":825,"ìĬ¨":826,"ë¨¸":827,"ĠëĴ":828,"ĠìĺĪ":829,"Ġì¶Ķ":830,"Ġê·¸ëŁ¬ëĤĺ":831,"ìłĢ":832,"êµĲ":833,"ê´Ģ":834,"Ġë§ĪìĿĦ":835,"ĠìĦ¸ìĥģ":836,"Ġê¿":837,"ĠëĿ¼":838,"Ġíıī":839,"ĠìķĮê²Į":840,"ĠëĴ¤":841,"íĸĪ":842,"ĠìłĢ":843,"Ġìķŀ":844,"Ġê´Ģ":845,"Ġíķł":846,"Ġëĭ¤ìĭľ":847,"ĠëķĮ":848,"ìĽĢ":849,"ìľĦ":850,"ĠíĥĢ":851,"Ġëªħ":852,"Ġíı¬":853,"Ġë°ľê²¬":854,"Ġ2":855,"Ġìŀ¬":856,"ĠìķĦë²Ħì§Ģ":857,"ë°Ķ":858,"ëĳ":859,"ĠìĹĦ":860,"ëĤľëĭ¤":861,"ì§Ħëĭ¤":862,"ĠíıŃ":863,"ìĿĮìĿĦ":864,"Ġì´Ī":865,"ë§ī":866,"ĠíĨµ":867,"ëĦĪ":868,"ì½Ķ":869,"ê³³":870,"Ġëĭ¹":871,"Ġìłģ":872,"ìĬ¤íĦ°":873,"ĠìľĦíĹĺ":874,"ī´":875,"ì³":876,"ĺìĿĦ":877,"Ġê²Į":878,"Ġë²Į":879,"ĠëĤ¨ìŀĲ":880,"ê°Ĳ":881,"ê°ģ":882,"ë§¨":883,"Ġì¹´":884,"ĠëĪĦ":885,"ĠìĤ¬ìĿ´":886,"ë³µ":887,"ĠíĺĦ":888,"ĠíħĮ":889,"Ġëĵ±":890,"Ġì¹ĺ":891,"Ġìļ´":892,"ĠëĤĺíĥĢ":893,"ĠìĥĪë¡ľìļ´":894,"Ġë¨":895,"ê¸Ī":896,"¯¼":897,"ìłĪ":898,"Ġìĺ¨":899,"Ġë²Ħ":900,"ì¤ĳ":901,"ëĬ¥":902,"ìĬ¤ëĬĶ":903,"Ĭ¹":904,"ë°©":905,"ĠíĥĪ":906,"ĠìĪ¨":907,"Ġì±Ħ":908,"ê²°":909,"Ġìŀł":910,"Ġíĸ¥":911,"íķĺì§Ģë§Į":912,"ìķħ":913,"ì¹¨":914,"Ġë¬¼":915,"íĻľ":916,"Ġíķľíİ¸":917,"ĠìĪľ":918,"Ġì½Ķ":919,"Ġì¤":920,"ĠíĤ":921,"ê²¨":922,"ìĦ¤":923,"ì³Ĳ":924,"ìļĶ":925,"ë°ľ":926,"«ĵ":927,"ì§ĳ":928,"Ġì°¨":929,"¸Ķ":930,"ë¦¬ë¥¼":931,"Ġë§ī":932,"ìļķ":933,"Ġê±":934,"ĠìĨĲ":935,"ĠêµĲ":936,"ĠìĤ´ìĿ¸":937,"ëłĪìĿ´":938,"ì»¤":939,"ê¸°ë¡ľ":940,"Ġë³µ":941,"Ġë³Ģ":942,"ĠíĨł":943,"íĽĦ":944,"ĠìĹ´":945,"ĠíķĺëĬĶ":946,"ĠëĶ¸":947,"ĠìĽĲ":948,"ì¸":949,"Ġëĺ":950,"ìĹħ":951,"Ġê°Ħ":952,"Ġê°ľ":953,"¨ìĿĦ":954,"ëªħìĿĺ":955,"Ġëĭ¤ë¥¸":956,"Ġëĵ¤ìĸ´":957,"ë¯¼":958,"Ġë²Ķ":959,"ì£":960,"íķĺëįĺ":961,"ìĬµ":962,"Ġê´´":963,"ĠëģĿ":964,"ë¡Ŀ":965,"Ġìŀĥ":966,"ëĮĢíķľ":967,"ĻìĿĢ":968,"ĠìłĲ":969,"ë²Ķ":970,"ì¡´":971,"ëł¥ìĿĦ":972,"ĠíĬ¹":973,"ëĭ¬":974,"Ġê¿Ī":975,"ê¾":976,"Ġëĳ":977,"ì§Ģê³ł":978,"Ġíĺķ":979,"ìĹĪëĭ¤":980,"Ġì«ĵ":981,"ëŀĳ":982,"ê¸´":983,"ê°Ħëĭ¤":984,"ë£Į":985,"ì´":986,"íĻ©":987,"Ġì¦":988,"Ġëī´":989,"ĠìłĦìŁģ":990,"íķĺë©°":991,"ì°©":992,"Ġê¹¨":993,"Ŀ½":994,"Ġëª¨ëĳĲ":995,"Ġì¡´ìŀ¬":996,"ìŀħ":997,"Ġìķł":998,"ìłĲ":999,"ê¸°ìĹĲ":1000,"Ġê³³":1001,"ì²Ń":1002,"ëł¤ëĬĶ":1003,"ĠëĶ°":1004,"ìĭ¤ìĿĦ":1005,"ĠíĴ":1006,"ì¹ľ":1007,"ĢìĿ´":1008,"ĠìĤ¬ëĿ¼":1009,"ìĺģ":1010,"Ġìĭľê°Ħ":1011,"Ġë²ł":1012,"ìĪł":1013,"Ġë£":1014,"ĠíķĺëĤĺ":1015,"Ġêµ°":1016,"Ġíĺ¼":1017,"ëĿ½":1018,"ì¢":1019,"ĠìŀĦ":1020,"ĠìľĦíķľ":1021,"Ġìļ©":1022,"ëĤ¨":1023,"ìķ½":1024,"ëĦ¤":1025,"Ġê±´":1026,"Ġì§ģ":1027,"ë©Ķ":1028,"íĺĢ":1029,"íĺķ":1030,"ì°°":1031,"ĠëĺĲ":1032,"íħĮ":1033,"ĠìłĪ":1034,"ĠíķĻ":1035,"ë¶Ħ":1036,"ê°ľ":1037,"íħ":1038,"íĴ":1039,"ëĵ¤ìĹĲê²Į":1040,"Ġìĭ¬":1041,"Ġë³¸":1042,"íĺĳ":1043,"Ġìĭľìŀĳíķľëĭ¤":1044,"Ġíľ":1045,"ê²½":1046,"Ġìŀħ":1047,"ĠìĿ´ìĥģ":1048,"Ġê²ĥìĿ´":1049,"Ġì¶ľ":1050,"íģ´":1051,"ëĭ¤ê°Ģ":1052,"Ġê·¸ë¥¼":1053,"ìĬ¤ë¥¼":1054,"ëģ¼":1055,"¸ìĿĦ":1056,"ì§ĢëĬĶ":1057,"Ġê°Ģìŀ¥":1058,"Ġìłķì²´":1059,"Ġìµľê³ł":1060,"ì£Ħ":1061,"ëĸ":1062,"Ġë¸Į":1063,"Ġë°¤":1064,"ĠìľĦíĺĳ":1065,"Ġëĳĺ":1066,"ìĿ´ìŀĲ":1067,"ìĬ¤ìĿĺ":1068,"ĠìķĦëĤ´":1069,"ĠíĬ¸":1070,"ëĿ¼ê³ł":1071,"ëŀľ":1072,"ĠìŀĪìĿĦ":1073,"ĠìĤ¶":1074,"Ġê±¸":1075,"Ġ3":1076,"ĠìĿĮ":1077,"ìĸ´ëĤĺ":1078,"íĥľ":1079,"ĠìĬĪ":1080,"Ġìļ°ìĹ°":1081,"ì¢ħ":1082,"ë¦´":1083,"ìħĺ":1084,"ë§¤":1085,"Ġì°¸":1086,"ĠëĬ¥":1087,"©ì¹ĺ":1088,"ìĶ":1089,"Ġëŀ":1090,"ĠíĽ":1091,"ìĬ¤íĬ¸":1092,"ĠëĲĺìĸ´":1093,"ĠìĨĮëħĢ":1094,"ê´´":1095,"íĮĮìĿ´":1096,"ĠëĸłëĤĺ":1097,"ì¤":1098,"ĠìĿĢ":1099,"ĠìĿ´ìłľ":1100,"ëŁ¼":1101,"ë²Ī":1102,"ìĤ°":1103,"ĠíĤ¤":1104,"ĠìĹŃ":1105,"Ġë°ķ":1106,"Ġìĭ¸":1107,"Ġëª°":1108,"ë³Ħ":1109,"ĠëĮĢíķľ":1110,"ĠëıĦìĭľ":1111,"Ġë¯¸êµŃ":1112,"Ġê³µê²©":1113,"íĨµ":1114,"Ġìļ°ì£¼":1115,"Ġê³¼ê±°":1116,"ĠìĦľë¡ľ":1117,"ë¡ł":1118,"ĠìĿ¸ë¥ĺ":1119,"ìĸµ":1120,"ëĲĺê³ł":1121,"ĠíĥĪì¶ľ":1122,"íķĺì§Ģ":1123,"ìķł":1124,"ĠìŀĲìĭłìĿ´":1125,"Ġì¶©":1126,"ëĤ¸":1127,"Ġê°ĻìĿĢ":1128,"ĠíĻĺ":1129,"ìĿ´ëĬĶ":1130,"ë°Ľ":1131,"Ġì²«":1132,"ë¦°ëĭ¤":1133,"Ġê±°ëĮĢíķľ":1134,"ĠíĹ¤":1135,"Ġì¼":1136,"ìĹĲëĬĶ":1137,"ëĿ¼ìĿ´":1138,"Ġë§Īì§Ģ":1139,"ë³ĳ":1140,"ëıĮ":1141,"ĠìĥģíĻ©":1142,"ë¨¸ëĭĪ":1143,"ì§Ī":1144,"ë¦Ń":1145,"Ġìŀ¡":1146,"ĠëĬĲ":1147,"00":1148,"Ġë¯":1149,"ëĭĮ":1150,"ìĦĿ":1151,"ì¹ĺëĬĶ":1152,"Ġíĥľ":1153,"Ġì¡°ì§ģ":1154,"íĸĪëįĺ":1155,"ĠìĿ´ìķ¼":1156,"ìĹĪëįĺ":1157,"Ġê²°êµŃ":1158,"Ġë§ŀìĦľ":1159,"Ġë£¨":1160,"Ġìļ°ìĹ°íŀĪ":1161,"ĠìĤ¬ê³ł":1162,"Ġê²°íĺ¼":1163,"Ġê·¸ëŁ¬ëįĺ":1164,"ĠëĪĪ":1165,"Ġê·¸ê³³":1166,"ë°ĺ":1167,"ìĺĢ":1168,"ĠìŀĪëįĺ":1169,"Ġë³´ëĤ´":1170,"Ġê·¸ëħĢìĿĺ":1171,"Ġë³µìĪĺ":1172,"Ġ4":1173,"ìĹĺ":1174,"ë§Ĳ":1175,"ìļ¸":1176,"ĠìĻĦ":1177,"ĠìłľìĿ´":1178,"ĠëĤ©ì¹ĺ":1179,"íļį":1180,"Ġëī´ìļķ":1181,"Ġë§Īì§Ģë§ī":1182,"¿Ĳ":1183,"íķĺìĹ¬":1184,"ë¦¼":1185,"ê°ĢëĬĶ":1186,"ĠìĿ¸íķ´":1187,"ĠíĻĶ":1188,"Ġê²½ì°°":1189,"ì¼ľ":1190,"ĠìĹĦë§Ī":1191,"ëĥ":1192,"ĬìĿĢ":1193,"Ġìĵ":1194,"Ġëľ":1195,"ĠìĤ¬ìĭ¤ìĿĦ":1196,"Ġë§Įëĵ¤":1197,"Ġë©Ķ":1198,"Ġì´Ŀ":1199,"Ġë¯¿":1200,"ĠìĹĺ":1201,"Ġê°Ģì§Ħ":1202,"ĠìĤ°":1203,"Ġë²Ī":1204,"ĠìĭľìŀĳëĲľëĭ¤":1205,"ĠìĿĺíķ´":1206,"íĳ":1207,"ëĵ±":1208,"ìŀĪ":1209,"ë°°":1210,"Ġë§Īë²ķ":1211,"ë´":1212,"ëłī":1213,"ìĸĳ":1214,"ĠìŀĦë¬´":1215,"Ġì»¤":1216,"Ġíĭ":1217,"íĥĦ":1218,"Ġìĸ¼":1219,"ĠëŁ":1220,"ĠìķĶ":1221,"ë¦¬ìĿĺ":1222,"ëł¨":1223,"ëĮĢë¡ľ":1224,"Ġë¹Į":1225,"ëĵľëĬĶ":1226,"ì²ľ":1227,"ĠíĮĢ":1228,"ìĹĨ":1229,"ëŁ½":1230,"ìĺĪ":1231,"Ġë¬¸":1232,"ĠìĤ´ê³ł":1233,"ê¸ī":1234,"Ġíİĺ":1235,"ĠëĦĺ":1236,"Ġíģ¬ë¦¬ìĬ¤":1237,"Ġìķ¼":1238,"Ġë§¥":1239,"Ġì§ĢíĤ¤":1240,"Ġíŀĺ":1241,"ì²ĺëŁ¼":1242,"Ġì¢ħ":1243,"Ġê·¸ëŁ°":1244,"ìĬ¤ë¡ľ":1245,"Ġë§Īì¹¨":1246,"Ġëª¨íĹĺ":1247,"ĠìĨĮëħĦ":1248,"ĠíĻ©":1249,"Ġëĸ¨":1250,"ĠíĮ¨":1251,"Ġê³Ħíļį":1252,"ëĪ":1253,"ĠíĦ":1254,"Ġíļ":1255,"ìĹŃ":1256,"ë¡Ń":1257,"ë¡ľë¶ĢíĦ°":1258,"Ġê·¸ëĵ¤ìĿĢ":1259,"Ġê¸°ìĸµ":1260,"Ġê·¸ëħĢëĬĶ":1261,"ĠíĿ¬":1262,"·¨":1263,"ì±":1264,"ë¦½":1265,"ë¦¬ìķĦ":1266,"ë²ł":1267,"ĠìĹ¬ìŀĲ":1268,"ìĺ¨ëĭ¤":1269,"Ġëª©ìĪ":1270,"ĠìºĲ":1271,"Ġìļ´ëªħ":1272,"ĠìĪľê°Ħ":1273,"ì¸ł":1274,"Ġë²Ķì£Ħ":1275,"ë¸Ķ":1276,"Ġíģ´":1277,"ìĿ´ëĿ¼ëĬĶ":1278,"ìķĺ":1279,"âĢĻ(":1280,"Ġìĸ´ëĸ":1281,"ë¥´ëĬĶ":1282,"Ġê³µíı¬":1283,"Ġì£½ìĿĮ":1284,"ìĦ¸ê³Ħ":1285,"ĠíıīíĻĶ":1286,"ĠëĤĺíĥĢëĤĺ":1287,"Ġìµľê³łìĿĺ":1288,"ìĸ´ì§Ħ":1289,"Ġëıħ":1290,"ĠìĤ´íķ´":1291,"ĠëıĦìĽĢ":1292,"Ġì²Ń":1293,"ìłĦìĿĦ":1294,"ĠíŀĪ":1295,"ĠëĨĵ":1296,"ĠëķĮë¬¸":1297,"Ġê²ĮìŀĦ":1298,"ĠìłĲìłĲ":1299,"¶Į":1300,"ë¦¬ê°Ģ":1301,"ìĤ¬ë¥¼":1302,"íĤ¨":1303,"Ġëª»íķľ":1304,"ìľ¼ë©°":1305,"íĥĿ":1306,"Ġëª¨ìĬµ":1307,"ìŀ¥ìĿĦ":1308,"íĶĮ":1309,"Ġì²ľ":1310,"ë¨¼":1311,"ĠìĦ±ê³µ":1312,"Ġì¤Ģ":1313,"¿ł":1314,"íķ©":1315,"ĠìŀŃ":1316,"ĠìĿ´ëģ":1317,"Ġìĺ¬":1318,"ìĺ¥":1319,"Ġíķĺê³ł":1320,"Ġë³ĳ":1321,"ĠìĹĨìĿ´":1322,"ĠìĥĿì¡´":1323,"ëĭĺ":1324,"ê°ķ":1325,"Ġê°ĳ":1326,"ë°ķ":1327,"Ġì¹¨":1328,"ĠìĨįìĹĲìĦľ":1329,"ĠíĶĦë¡ľ":1330,"İìĿĢ":1331,"ëĭ´":1332,"ìĬ¤ê°Ģ":1333,"ĠìķĦëĵ¤":1334,"Ġë§Īì£¼":1335,"Ġë¯¸ëŀĺ":1336,"ìłķìĿĦ":1337,"ĠìľłìĿ¼":1338,"ĠìĥĿíĻľ":1339,"Ġìĸ»":1340,"ë¶Ī":1341,"ê¾¸":1342,"Ġìķ½":1343,"Ġê·¸ê°Ģ":1344,"Ġê°ĸ":1345,"ìĿ¸ìĿĺ":1346,"ĠìłĦìĦ¤":1347,"ĠêµŃ":1348,"ĠìĭľìŀĳíķĺëĬĶëį°":1349,"Ġë°Ķë¡ľ":1350,"Ġíİ¼":1351,"ĠíħĮëŁ¬":1352,"íķĺë©´ìĦľ":1353,"ìĸ´ë¡ľ":1354,"ëª©":1355,"ìĥģìĿĦ":1356,"ìĬ¹":1357,"ëıħ":1358,"Ġêµ¬íķĺê¸°":1359,"ëĲĺìĸ´":1360,"ĠìĺģíĻĶ":1361,"ìŀ¡":1362,"Ġê·Ģ":1363,"ĠìľĮ":1364,"ìĸ´ëĤľ":1365,"Ġë§ĪìĿ´":1366,"ë¹ł":1367,"ĠíŀĺìĿĦ":1368,"Ġëį°ìĿ´":1369,"ìĭľíĤ¤":1370,"ĠíķĺëĬĶëį°":1371,"ëĮĢìĿĺ":1372,"ĠìĬĪíį¼":1373,"Ġê·¸ëĵ¤ìĿĺ":1374,"Ġê°ģ":1375,"ëłĮ":1376,"Ġë°Ŀ":1377,"Ġìĭ¶":1378,"ìľ¼ë¡ľë¶ĢíĦ°":1379,"Ġëĵ£":1380,"ë¹Ī":1381,"ìłģìľ¼ë¡ľ":1382,"íŀĮ":1383,"ĠìŀĲìĭłìĿĦ":1384,"Ġê³¼ìĹ°":1385,"Ġë§Īì¹¨ëĤ´":1386,"ë²½":1387,"Ġë§ĪìĿĮ":1388,"Ġìĸ´ë¦°":1389,"ĠíĥĲ":1390,"ë²Ħë¦°":1391,"ĠìĥĿê°ģ":1392,"ĠëĨĢ":1393,"Ġê°ķëł¥":1394,"ĠëĿ¼ìĿ´":1395,"ĠíļĮ":1396,"ìĬ¤ìĻĢ":1397,"ìŀĲê°Ģ":1398,"íĸīìĿĦ":1399,"íİĺ":1400,"ĠìļĶìĽĲ":1401,"íĮ¨":1402,"ĠìĦ¸ìĥģìĿĦ":1403,"ëľ":1404,"Ġíģ":1405,"ĠíĪ¬":1406,"ê²ł":1407,"ĠìŀĶ":1408,"ìĤ¬ìĿĺ":1409,"ĠëłĪìĿ´":1410,"ëĵĿ":1411,"ê²ĥ":1412,"Ġê°Ī":1413,"ĠìľĦê¸°ìĹĲ":1414,"ĠìķĦëĭĪ":1415,"âĢĻ.":1416,"íĥĪ":1417,"ì°į":1418,"ìĬ¬":1419,"ë³´ëĭ¤":1420,"ĠìĤ¬ëŀĮìĿĢ":1421,"Ġê·¸ëħĢë¥¼":1422,"Ġê¸Ī":1423,"Ġë§ĮëĤĺê²Į":1424,"Ġì¤Ħ":1425,"Ġëª©ìĪ¨ìĿĦ":1426,"ë¬¸ìĿĺ":1427,"Ġíĸīë³µ":1428,"ëĨ":1429,"ìŀĲë¥¼":1430,"ìĽĶ":1431,"Ġê²ĥìĿ´ëĭ¤":1432,"ĠëıĦì°©":1433,"Ġë§Įëĭ¤":1434,"ĠìķĬëĬĶ":1435,"ĠìĻķêµŃ":1436,"íĮĲ":1437,"ĠìķŀìĹĲ":1438,"ĠíĨµíķ´":1439,"ìĩ":1440,"ìĿ´ê³ł":1441,"ìĹĲëıĦ":1442,"ì§¸":1443,"Ġê·¹":1444,"ìĿ¸ìĿĦ":1445,"ĠìĿ´íĽĦ":1446,"ëĤĺëĬĶ":1447,"ĠëıĻë£Į":1448,"Ġë¹łìł¸":1449,"ĠëĦ¤":1450,"Ġë¨¸":1451,"ë´ĩ":1452,"Ġë¸Ķ":1453,"ê°Ī":1454,"ĠìĭĿ":1455,"ĠëĤ¨íİ¸":1456,"ê·¼":1457,"ĠëĶĶ":1458,"íħĶ":1459,"ëĭ¤ê³ł":1460,"ìĿ¸ëĭ¤":1461,"ĠìĦ¬":1462,"Ġíķ©":1463,"ëĭĪëĬĶ":1464,"ê¸¸":1465,"ĠìĬ¹":1466,"Ġì¦Ĳ":1467,"Ġìĵ°":1468,"ìĿ¸ìĿ´":1469,"ĠìĿ´ëĵ¤ìĿĢ":1470,"ĠìĦ¤":1471,"ê³¼ìĿĺ":1472,"ĠëıĻìķĪ":1473,"ìĭĿìĿĦ":1474,"ĠíĸīìĦ±":1475,"ĠìĤ´ìķĦëĤ¨":1476,"ĠìĻ¸ê³Ħ":1477,"ĠìĹĦì²Ń":1478,"ĠìŀĪìĿĦê¹Į":1479,"ĠëĬ¥ëł¥ìĿĦ":1480,"Ģë¡ľ":1481,"ì§Ģë¥¼":1482,"ĠëĤľ":1483,"ĠìĿ´ë¥¼":1484,"Ġëª¸":1485,"ìĤ¬ëĬĶ":1486,"íĺ¹":1487,"ĠíĮĮê´´":1488,"Ġì±ħ":1489,"Ġìķħëĭ¹":1490,"ĠìĤ¶ìĿĦ":1491,"ĠíĦ°":1492,"ĠëķĮë¬¸ìĹĲ":1493,"Ġíģ°":1494,"íķŃ":1495,"Ġíĳ":1496,"Ġìłĳ":1497,"ê¸°ëĬĶ":1498,"ĠìĿ´ë¦Ħ":1499,"ë²¤":1500,"ìĭľìķĦ":1501,"ë³¸":1502,"ĠëĲĺëĬĶ":1503,"Ġë°ľìĥĿ":1504,"íķĻêµĲ":1505,"ĠìĤ¬ê±´ìĿĦ":1506,"ĠëĶ°ëĿ¼":1507,"ëĥ¥":1508,"ë¦¬ìĹĲ":1509,"Ġê·¸ìĹĲê²Į":1510,"ìŀĲë¡ľ":1511,"ìŀĲê¸°":1512,"ĠìķĦë¹ł":1513,"íĸ¥":1514,"íĭ´":1515,"Ġë¹Ħë°ĢìĿĦ":1516,"ĠíķĻêµĲ":1517,"ĠC":1518,"Ľ°":1519,"íķĺëł¤":1520,"ìĿ¸ê°Ģ":1521,"ê¸Ģ":1522,"ë¬¼ìĿĦ":1523,"ĠìĹĦì²ŃëĤľ":1524,"íķ¨":1525,"ĠìłĬìĿĢ":1526,"ê¸°ê°Ģ":1527,"Ġë°±":1528,"ĠëĲł":1529,"Ġê²ª":1530,"ìĥī":1531,"Ġë°ĽìķĦ":1532,"ĠìĿĮëª¨":1533,"Ġë±":1534,"Ġìķ¤":1535,"ìĬ¤íĥĢ":1536,"íķ´ìķ¼":1537,"Ġê³§":1538,"ìĻķ":1539,"Ġíķĺë£¨":1540,"ĠìŀĪëĭ¤ëĬĶ":1541,"íĬ¸ëĬĶ":1542,"ĠìĻĢ":1543,"ìĺ¤ëĬĶ":1544,"ì¦Ŀ":1545,"ĠëĪĦêµ¬":1546,"ĠìľłìĿ¼íķľ":1547,"Ķì°į":1548,"ìĹĶ":1549,"íķĺëł¤ëĬĶ":1550,"ìĬ¤ëŁ¬":1551,"Ġìĸ´ë¨¸ëĭĪ":1552,"íĭĢ":1553,"ĠìłľìķĪ":1554,"ĠíĮĮíĭ°":1555,"ê·¹":1556,"ëĲĺëĬĶ":1557,"ĠëıĮìķĦê°Ģ":1558,"Ġë²Įìĸ´":1559,"ĠìĪ¨ê²¨":1560,"Ġê´´ë¬¼":1561,"Ġê°ĳìŀĲê¸°":1562,"íĬ":1563,"Ġ5":1564,"Ġ6":1565,"ìĿ´ëĿ¼":1566,"Ġê²Ģ":1567,"ë³Ģ":1568,"Ġë²Ĺ":1569,"íĦ´":1570,"Ġê¸°ëĭ¤":1571,"Ġê³µì£¼":1572,"ê²©ìĿĦ":1573,"Ġìĸ¸":1574,"ĠìĨįìĹĲ":1575,"Ġë°©ë²ķ":1576,"Ġê´Ģê³Ħ":1577,"ĠëĽ°":1578,"íķĦ":1579,"ì§ľ":1580,"ĠìĿ´ìĹĲ":1581,"íĥģ":1582,"ĠíķĦ":1583,"Ġë§ĮëĤľ":1584,"Ġë¶Ģëª¨":1585,"ĠìĪ²":1586,"Ġë°Ķëĭ¤":1587,"Ġê´ĳ":1588,"ĠëģĮ":1589,"ëĳł":1590,"ĠíĴĢ":1591,"ĠíĽĶ":1592,"Ġì¼ĢìĿ´":1593,"19":1594,"ê³¤":1595,"ë¦¬ê²Į":1596,"ë¦¬ìĻĢ":1597,"Ġëĭ´":1598,"Ġê°Ģê¹Į":1599,"ĠìŀĪìĹĪëĭ¤":1600,"ëĭĪëĭ¤":1601,"ĠíĥĦ":1602,"ĠëģĶì°į":1603,"ĠìŀĳìłĦ":1604,"Ġë¨¹":1605,"ê¾¼":1606,"Ġíĺ¼ëŀĢ":1607,"Ġíį¼":1608,"êµ´":1609,"Ġì§Ģì¼ľ":1610,"ëĮĢë¥¼":1611,"ĠìķĮê³ł":1612,"Ġìĭłë¹Ħ":1613,"Ġì£¼ìĿ¸":1614,"Ġê²°ìĭ¬":1615,"Ġê¸ī":1616,"Ġê³ĦìĨį":1617,"ĠìľĦíĹĺìĹĲ":1618,"ĠíĬ¹ë³Ħ":1619,"ì¤Ģ":1620,"íģ":1621,"íĿ":1622,"Ġë§¡":1623,"Ġê·¸ëĵ¤ìĿĦ":1624,"ìŀĲìĿ¸":1625,"ì¹ľêµ¬":1626,"ë²Į":1627,"Ġë§Īìķ½":1628,"ĠìłĦíĪ¬":1629,"Ġì¹¼":1630,"Ġìĸ´ëĳł":1631,"ĠìĿ¸ìĥĿ":1632,"ĠìĬ¤íĥĢ":1633,"ëĶĶëĬĶ":1634,"ì¶Ķ":1635,"ĠíĹĪ":1636,"ĠíĥĢê³ł":1637,"Ġê·¸ê³³ìĹĲìĦľ":1638,"¶ģ":1639,"ëķĮ":1640,"ĠM":1641,"ì§Ģê²Į":1642,"íķ´ìĦľ":1643,"ĠìĤ¬ëĬĶ":1644,"ĠìĿ´ìĸ´":1645,"ìŀĲìĿĺ":1646,"ìĽħ":1647,"ĠìĤ¼":1648,"ĠëĤĺìĦł":1649,"ëªħìĿĦ":1650,"Ġë°ĽëĬĶëĭ¤":1651,"Ġê°Ģì¡±ìĿĦ":1652,"ĠëĵľëŁ¬":1653,"íĴĪ":1654,"Ġì¤Ģë¹Ħ":1655,"ĩ´":1656,"Ġê¼":1657,"íķĺìŀĲ":1658,"Ġëª¬":1659,"ìĻĶ":1660,"ìĺ¬":1661,"ëĵľìĿĺ":1662,"ì°¾":1663,"Ġëĭ¤ê°Ģ":1664,"ĠìĹĨëĭ¤":1665,"Ġìłķìĭł":1666,"Ġìĸ´ëĬĲëĤł":1667,"íķĻìĥĿ":1668,"Ġì¶Ķìłģ":1669,"ĠëģĿìĹĲ":1670,"Ġíĭ°":1671,"ì»":1672,"Ġë¿Ĳ":1673,"Ġì§Ģíķĺ":1674,"ëĵľë¥¼":1675,"íĬ¸ë¥¼":1676,"ĠëĲĺì°¾":1677,"ìļ´ëį°":1678,"Ġìłķë¶Ģ":1679,"ĠìľĦíĹĺíķľ":1680,"Ġì¦Ŀ":1681,"ĠìĿ´ìĥģíķľ":1682,"ĠëĬĲëģ¼":1683,"ĠëŁ¬":1684,"Ġë§İìĿĢ":1685,"Ġë°ĸ":1686,"ìļ±":1687,"ĠìķĦë¦Ħ":1688,"Ġì§ĢëĭĮ":1689,"Ġì°°":1690,"ì°¸":1691,"ĠëĮĢê²°":1692,"ĠìĬ¤íĮĮìĿ´":1693,"ĠíĻľ":1694,"ĠìĿĺë¬¸ìĿĺ":1695,"ĠíĶ¼íĦ°":1696,"Ġ10":1697,"ĠëĸłëĤľëĭ¤":1698,"Ġë¡ľë´ĩ":1699,"ìŀĦìĿĦ":1700,"Ġì¢ĭ":1701,"ëĤ¸ëĭ¤":1702,"ëĪĦ":1703,"ĠëģĶì°įíķľ":1704,"Ġì§Ī":1705,"ĠëĤĺìĦľ":1706,"ëĶĺ":1707,"Ġë¹Ħíĸī":1708,"Ġë°Ľê³ł":1709,"ì½ľ":1710,"Ġê¸¸":1711,"ĠëĦĪ":1712,"ĠëįĶìļ±":1713,"Ġì²ĺìĿĮ":1714,"Ġì§Ģêµ¬ë¥¼":1715,"ë²Ķíķľ":1716,"ĠìłĪëĮĢ":1717,"ĠìŀĦë¬´ë¥¼":1718,"Ġìĸ´ëĸ¤":1719,"Ġê°ķëł¥íķľ":1720,"ê°Ģê³ł":1721,"ëŀĮ":1722,"ĠëĭĪ":1723,"ìĻĢìĿĺ":1724,"ìĪĺë¡Ŀ":1725,"ĠíıĲ":1726,"ĠëıĦë§Ŀ":1727,"ĠíĶĮ":1728,"Ġì¶ķ":1729,"ĠìķĬìĿĢ":1730,"Ġì§ĳìľ¼ë¡ľ":1731,"ĠìĤ¬ê±´ìĿ´":1732,"Ġëĵ±ìŀ¥":1733,"ì´Ī":1734,"ĠìĿ´ìķ¼ê¸°":1735,"Ġì§ĢíĤ¤ê¸°":1736,"Ġëĸ¨ìĸ´":1737,"ī¬":1738,"Ġìķ¨":1739,"ìĭ¸":1740,"Ġê·¼":1741,"Ġê·¸ëĵ¤":1742,"ĠìĤ¬ëĥ¥":1743,"ĠìĿ´ë¯¸":1744,"ì¹¸":1745,"ì¹ł":1746,"ĠìŀĲìľł":1747,"Ġê²ĥìĿĢ":1748,"Ġë³´íĺ¸":1749,"Ġì°¾ê¸°":1750,"ê·Ģ":1751,"ĠìĬµ":1752,"Ġë³µìĪĺë¥¼":1753,"ĠìĻĦë²½":1754,"ĠíŀĪìĸ´ë¡ľ":1755,"Ġë±Ģ":1756,"ìº":1757,"Ġê¾":1758,"ê¸°ê³ł":1759,"Ġë°Ģ":1760,"ìĥĪ":1761,"Ġíķĺê²Į":1762,"ëª¬":1763,"ì¡Į":1764,"ëıĪ":1765,"ĠìĺģìĽħ":1766,"Ġë¹łì§Ħëĭ¤":1767,"ĠíĮĲ":1768,"ĠíĮĶ":1769,"ĠìĤ¬ëŀĳìĹĲ":1770,"ĠìĤ¬ëŀĳíķĺëĬĶ":1771,"ëł¹ìĿĦ":1772,"ëĳĶ":1773,"Ġíĸ¥íķľëĭ¤":1774,"ìŀĪëĬĶ":1775,"ìĹĨìĿ´":1776,"Ġê·¸ëŁ°ëį°":1777,"Ġíİ¼ì³Ĳ":1778,"ìĵ":1779,"ķħ":1780,"Ġìĩ":1781,"ê³¨":1782,"Ġìŀĺ":1783,"ìķĮ":1784,"ë¦¬ì¹´":1785,"Ġê°ĩ":1786,"ìĦľëĬĶ":1787,"ìĻ¸":1788,"Ġë¹¼":1789,"Ġì¹ľ":1790,"Ġë¯¸ìĬ¤íĦ°":1791,"ìłľìĿ´":1792,"ĠìĽĶ":1793,"Ġë¶Ħëħ¸":1794,"ìĭ¬ìĿĦ":1795,"Ġë¹łì§Ħ":1796,"ì¼Ģ":1797,"ìĶ¨":1798,"Ġë±ĢíĮĮìĿ´":1799,"Ġ7":1800,"ëĭ«":1801,"ëĤ¬":1802,"ëŁī":1803,"ë°±":1804,"ë§ĪìłĢ":1805,"ĠìķĮìķĦ":1806,"ĠíĻķ":1807,"ĠëıĻìĥĿ":1808,"Ġë°ĽìĿĢ":1809,"Ġë°Ľê²Į":1810,"ĠìķĬê³ł":1811,"ĠìĺģêµŃ":1812,"Ġëĵ¤ìĸ´ê°Ģ":1813,"Ġê¿Īê¾¸":1814,"Ġíľ´":1815,"ìĶ©":1816,"ĠíĽĪ":1817,"íĳľ":1818,"Ġë°ĿíĺĢ":1819,"ĠíĬ¹ë³Ħíķľ":1820,"),":1821,"Ġì·¨":1822,"ìĹ´":1823,"ëĭī":1824,"ë¦¿":1825,"ìĭ±":1826,"ìĦľë¥¼":1827,"ĠìķĦë¬´":1828,"ë²¨":1829,"Ġë§ĪìĿĮìĿĦ":1830,"Ġê°ĢëĵĿ":1831,"ìĤ¬ê°Ģ":1832,"íĺĦ":1833,"ĠìłĦìĦ¸ê³Ħ":1834,"íĬ¸ìĿĺ":1835,"ëĵłëĭ¤":1836,"íĻĶë¥¼":1837,"Ġì£½ìĿĢ":1838,"ĠíĶ¼íķ´":1839,"ë¥¸ëĭ¤":1840,"ĠìłĢì£¼":1841,"Ġìŀłìĭľ":1842,"ĠìŀĥìĿĢ":1843,"ë¡Ńê²Į":1844,"ĠíĿ¬ë§Ŀ":1845,"ĠëıĦìĽĢìĿĦ":1846,"ĠìĿ´ëģĮ":1847,"ê¶Į":1848,"ë¿Ĳ":1849,"ì¿ł":1850,"ĻìĿ´":1851,"Ġìħ":1852,"ìĦ¼":1853,"ĠìĿ´ìļ©":1854,"Ġë³Ħ":1855,"ìŀ¥ìĿ´":1856,"Ġì²´":1857,"ìļ°ëĬĶ":1858,"íĨ¤":1859,"Ġìĥģìĥģ":1860,"Ġì§ĳìĹĲ":1861,"ĠìĬ¬":1862,"ĠëıĮìķĦìĺ¨":1863,"Ġê¿ĪìĿĦ":1864,"ĠíĬ¹ìĪĺ":1865,"ĠíĴĪ":1866,"Ġìłķì²´ë¥¼":1867,"ĠìĹŃìĭľ":1868,"Ġì¶©ê²©":1869,"ìĺĢëįĺ":1870,"Ġëª¨íĹĺìĿĦ":1871,"ìĬ¤ëŁ¬ìļ´":1872,"ìģ":1873,"Ġì§Ģê¸Ī":1874,"Ġì°©":1875,"ìŀ¥ìĹĲìĦľ":1876,"ë¥´ê³ł":1877,"ĠëıĻë¬¼":1878,"Ġêµ¬íķ´":1879,"ì¶ĺ":1880,"íıī":1881,"ĠëģĬ":1882,"Ġì§ĳìĿĦ":1883,"ĠëĸłëĤľ":1884,"Ġíİ¸":1885,"Ġëª©ê²©":1886,"ĠëªħìĿĺ":1887,"ì´Į":1888,"!!":1889,"ª½":1890,"ëĭ¤ìļ´":1891,"ê°Ģëįĺ":1892,"ĠëĤ¯":1893,"ëŀŃ":1894,"ë§ĮìĿ´":1895,"Ġê°Ģìļ´ëį°":1896,"ĠìŀĪìĹĪ":1897,"ëĮĢìĹĲ":1898,"ĠëıĪ":1899,"ëĭĪìķĦ":1900,"Ġíı´":1901,"ĠìĽĮ":1902,"Ġìĺģíĺ¼":1903,"íķĻìŀĲ":1904,"ĠìĤ¬ëŀĳìĿĦ":1905,"Ġ20":1906,"ê°ĲìĿĦ":1907,"ëĬ¥íķľ":1908,"ìķħíķľ":1909,"ĠìłľìĿ´ìĬ¨":1910,"Ġëľ»":1911,"ĠìĹĺë¦¬":1912,"Ġíģ¬ë¦¬ìĬ¤ë§Ī":1913,"ĠëıĦì°©íķľ":1914,"Ġëª¬ìĬ¤íĦ°":1915,"Ġë±ĢíĮĮìĿ´ìĸ´":1916,"ì·¨":1917,"íľ":1918,"ĠF":1919,"Ġì»":1920,"Ġë´":1921,"ìĦ¯":1922,"ìĿ¸ìĿĢ":1923,"ìľĪ":1924,"ĠìĤ¬ìĥģ":1925,"ëĿ¼ìĿĺ":1926,"ìĥ¤":1927,"Ġëĭ¥":1928,"ëıĦë¥¼":1929,"Ġê²ĥìĿ¸ê°Ģ":1930,"ìĪĺë¥¼":1931,"ĠìĿ¼íĸī":1932,"ìĨ¡":1933,"ĠìķĮëł¤":1934,"ìłľë¥¼":1935,"ìłķíķľ":1936,"Ġìłľê±°":1937,"Ġíķ´ê²°":1938,"Ġë©Ģ":1939,"Ġê²½íĹĺ":1940,"ĠìĤ´ìĿ¸ë§Ī":1941,"Ġìĭľê°ĦìĿĦ":1942,"íĴį":1943,"ĠìŀĶìĿ¸":1944,"¨ë¦¬":1945,"íĤ¬":1946,"ëĬĺ":1947,"ì§ĢìĿĺ":1948,"ë¦¬íķľ":1949,"ëłĩ":1950,"ĠìĿ´ê³³":1951,"Ġê²©":1952,"ëħĲ":1953,"ìĭľëĬĶ":1954,"ëıĦë¡ľ":1955,"ĠíķŃ":1956,"ì°½":1957,"ìĺ¤ê³ł":1958,"íģ¬ëĬĶ":1959,"ĠìĹ°êµ¬":1960,"ĠíĶĦëłĪ":1961,"Ġëĭ¬ë¦¬":1962,"ĠìĥĿíĻľìĿĦ":1963,"Ġê¾¸":1964,"¨ìĿ´":1965,"ıĺ":1966,"Ġëķħ":1967,"Ġê¶Į":1968,"ìĹĦ":1969,"âĢĿ":1970,"ìŀĲëĬĶ":1971,"ì¹ľëĭ¤":1972,"ĠìĺĽ":1973,"ìĭľê°Ħ":1974,"ĠìĭľìłĪ":1975,"Ġë¹Ī":1976,"íĬ¸ë¡ľ":1977,"ëł¤ê³ł":1978,"Ġëĵ¯":1979,"ĠëĮĢìĭł":1980,"Ġëĭ¤ìĿ´":1981,"Ġë³´ê³ł":1982,"ìĬĪ":1983,"ìĽĲìĿĦ":1984,"ê´ĳ":1985,"ĠìķĬëĬĶëĭ¤":1986,"ĠëĳĲëł¤":1987,"ĠëĨį":1988,"ĠìĦ¸ê³Ħë¥¼":1989,"ĠìĦłíĥĿ":1990,"ĠíĺĦìĭ¤":1991,"ĠìĨĲìĹĲ":1992,"Ġê¹¨ëĭ«":1993,"ĠëĬ¥ëł¥":1994,"ì±ħ":1995,"Ġëª¨ìĬµìĿĦ":1996,"Ġìĩ¼":1997,"íĮĢ":1998,"ìłĳ":1999,"ĠìĿ´ë£¨":2000,"ëŀĻ":2001,"ëª½":2002,"Ġì§ĢëĤĺ":2003,"íĥķ":2004,"ĠìłĦìĹĲ":2005,"ëĭĪìĬ¤":2006,"ì¹ĺê³ł":2007,"ĠìĿ¼ìĿ´":2008,"Ġê¸°íļĮ":2009,"ĠìĹ¬ìĦ±":2010,"ìłķìĹĲ":2011,"Ġìľłëł¹":2012,"Ġì£Ħ":2013,"Ġì£½ìĿĮìĿĦ":2014,"Ġì¹ľêµ¬ëĵ¤ìĿĢ":2015,"ĠíĿĶ":2016,"Ġëį°ëł¤":2017,"Ġë§ĲìĿĦ":2018,"ĠìļĶìłķ":2019,"ìķħìĿĺ":2020,"ê¸´ëĭ¤":2021,"Ġíľĺ":2022,"Ġë§Įëĵ¤ìĸ´":2023,"Ġê³ĦíļįìĿĦ":2024,"ĠëĤĺìĦłëĭ¤":2025,"ĠëĦĪë¬´":2026,"ĠL":2027,"Ġì¿ł":2028,"ëĭ¥":2029,"ê³¡":2030,"ìĿ´ì§Ģ":2031,"ë¡¤":2032,"ìł¤":2033,"ëį¸":2034,"ĠìľĦê¸°ë¥¼":2035,"ĠìķĦëĭĮ":2036,"ìĹĲìĦľëĬĶ":2037,"ĠìłĦë¬¸":2038,"Ġë²ķ":2039,"ĠìĹ¬íĸīìĿĦ":2040,"ìĽĲìĿ´":2041,"ë¥´ê²Į":2042,"ĠëĤ¨ìĿĢ":2043,"ĠìĤ¬ëŀĮëĵ¤ìĿĢ":2044,"ĠìĤ¬ëŀĮëĵ¤ìĿ´":2045,"Ġë©¸":2046,"Ġìķħë§Ī":2047,"Ġë§ŀìĿ´":2048,"ĠìĿ¸ê°ĦìĿĺ":2049,"ĠìĺĪìĥģ":2050,"Ġíıīë²Ķíķľ":2051,"ìĽĢìĿĦ":2052,"ì¤Ħ":2053,"ĠëĬĲëĤ":2054,"ĠìĿ´ìķ¼ê¸°ë¥¼":2055,"ìĩĦ":2056,"ĠìķĦë¦Ħëĭ¤ìļ´":2057,").":2058,"ê¿":2059,"ìª½":2060,"ĦëĬĶ":2061,"ìĹĩ":2062,"ìĿ´ë¥¼":2063,"Ġê·¸ê²ĥ":2064,"ê¸°ìĿĺ":2065,"ëĿ¼ìļ´":2066,"ë©¸":2067,"ĠìŀĪìĿĮìĿĦ":2068,"âĢĻ,":2069,"ĠìĪĺìĤ¬":2070,"ë³¼":2071,"ìŀ¥ìĹĲ":2072,"ĠìĿ¼ìľ¼":2073,"Ġë³´ìķĪ":2074,"ë£¡":2075,"ëĤ´ëĬĶ":2076,"Ġë¯¸ìħ":2077,"ìķ¼ë§Į":2078,"ë¬¸ìĿĦ":2079,"Ġë¶ĪëŁ¬":2080,"ĠìĹĲìĿ´":2081,"Ġíģ¬ë¦¬":2082,"Ġì§Ģêµ¬ìĹĲ":2083,"ĠìŀĳìĿĢ":2084,"Ġë¨¼":2085,"Ġíľ©":2086,"Ġì¶ľìĭł":2087,"Ġê³µê²©ìĿĦ":2088,"ĠìĤ´ìķĦëĤ¨ìĿĢ":2089,"Ġìĸ´ëĳłìĿĺ":2090,"ĠëĤ¯ìĦł":2091,"BI":2092,"ĠìĮ":2093,"Ġê¶ģ":2094,"íķĺëĭ¤":2095,"ë¡Ģ":2096,"ê°Ŀ":2097,"Ġìķ¡":2098,"ì§ĢëĬĶëį°":2099,"ëłĲ":2100,"Ġìľ¡":2101,"ìĸ´ëĤľëĭ¤":2102,"ìķĦëĤĺ":2103,"ëŀµ":2104,"Ġëĭī":2105,"ëıĦë¡Ŀ":2106,"ĠëıĪìĿĦ":2107,"ĠìĿ¸íĺķ":2108,"ë¹Į":2109,"ë§Īëĭ¤":2110,"ê³Ħë¥¼":2111,"ĠìķĮëłī":2112,"ë¹ĦìķĦ":2113,"Ġìłķë³´":2114,"Ġìµľê°ķ":2115,"ĠìµľìķħìĿĺ":2116,"ë¨¹":2117,"ĠëħĦ":2118,"Ġê°Ĳìĺ¥":2119,"Ġì§Ħì§ľ":2120,"ëĳ¥":2121,"Ġë§īê¸°":2122,"Ġë³Ģíķ´":2123,"ĠìĤ¬ëĿ¼ì§Ħ":2124,"Ġìļ©ìĿĺ":2125,"Ġìļ°ì£¼ìĦł":2126,"Ġëľ¨":2127,"Ġíĳľ":2128,"Ġë²Ĺìĸ´ëĤĺ":2129,"ë§ģ":2130,"Ġê·¸ë¦¬":2131,"Ġê·¸ëłĪìĿ´":2132,"ìĬ¤íĭ°":2133,"íķ´ì§Ħ":2134,"ĠìĤ¬ìĭ¤":2135,"ëĿ¼ë¥¼":2136,"Ġë§ĪëħĢ":2137,"Ġì§Ģë°°":2138,"ĠìĪĺíĸī":2139,"Ġìļ¸":2140,"íĬ¸ëĦĪ":2141,"Ġë²¨":2142,"ìĪĺë¡ľ":2143,"Ġë§ĮëĤľëĭ¤":2144,"Ġì²ł":2145,"ìłĦíŀĪ":2146,"Ġë¶Ģë¶Ģ":2147,"Ġë¶ĢíĻľ":2148,"Ġë¶Ģíĥģ":2149,"íĹĪ":2150,"íģ¬ë¦¬ìĬ¤":2151,"ì²´ë¥¼":2152,"Ġìĸĳ":2153,"Ġì½ľ":2154,"Ġë¦¬ëįĶ":2155,"Ġë§¤ìĿ¼":2156,"Ġì¢Ģ":2157,"Ġìºł":2158,"ĠìķĦë²Ħì§ĢìĿĺ":2159,"Ġì´ĪëĮĢ":2160,"ë©ĶìĿ´":2161,"ìĹĨëĬĶ":2162,"ìķĺëįĺ":2163,"Ġë§ĪìĿ´íģ´":2164,"Ġê¼¬":2165,"ĠìĬµê²©":2166,"ĠFBI":2167,"ĠD":2168,"ĠëŃ":2169,"ĠíĢ":2170,"ìĿ´ë©°":2171,"ë¡¯":2172,"ëĤ¼":2173,"ë¦¬ê¸°":2174,"Ġê·¸ë¦°":2175,"ìĿ¸ê³¼":2176,"ĠìĿ´ì§ĳ":2177,"ìĭľìĹĲ":2178,"Ġë³¼":2179,"ĠâĢľ":2180,"ĠìłĦìĤ¬":2181,"ĠëĮĢíķ´":2182,"ì£¼ëĬĶ":2183,"ĠìĿ¼ìĿĦ":2184,"ĠìĿ¼ìĸ´ëĤĺ":2185,"Ġë¬´ìĤ¬":2186,"ĠìĹ¬íĸī":2187,"Ġê³łíĸ¥":2188,"Ġê±°ëĮĢ":2189,"ĠìĥĿëªħ":2190,"ĠìĤ¬ëŀĮëĵ¤ìĿĦ":2191,"Ġê¸´":2192,"ëĭ¹íķľ":2193,"ëĭ¨ìĿĺ":2194,"Ġìĭ¤ì¢ħ":2195,"ĠíĶĦëŀŃ":2196,"ĠíĸīëıĻ":2197,"Ġë°ľê²¬íķľëĭ¤":2198,"Ġë°ľê²¬íķĺê³ł":2199,"Ġê°ľë°ľ":2200,"Ġíĺķìłľ":2201,"ĠëŀĮ":2202,"ĠëŁ°":2203,"ĠìķĶìĤ´":2204,"ì±Ħ":2205,"Ġíĸīë³µíķľ":2206,"ĠëĽ°ìĸ´":2207,"ê±":2208,"ķìĭľ":2209,"Ġíħ":2210,"ìķĹ":2211,"Ġë§Ŀ":2212,"ĠìĹĶ":2213,"ĠìĤ¬íĪ¬":2214,"ĠìĿ´ìľł":2215,"Ġëªĩ":2216,"ë§ĮìĿĦ":2217,"ë§ĮìĿĺ":2218,"Ġìļķ":2219,"íĬ¸ë§¨":2220,"ìŀ¥íķľ":2221,"ì¹ĺê²Į":2222,"ĠìĿ¼ëĭ¹":2223,"ĠíĻĢë¡ľ":2224,"ĠíĮĮíĬ¸ëĦĪ":2225,"ìĤ¼":2226,"Ġë¡Ŀ":2227,"ĠëĬĺ":2228,"ĠìĹĲëĵľ":2229,"Ġê¸¸ìĿĦ":2230,"Ġìĭ¤íĹĺ":2231,"ì¡°ì°¨":2232,"ĠíĺķìĤ¬":2233,"ê°ľìĿĺ":2234,"ĠëĳĺìĿĢ":2235,"ë¶ĪëªħìĿĺ":2236,"ĠìľĮë¦¬":2237,"ê²łëĭ¤ëĬĶ":2238,"ĠìĻĦë²½íķľ":2239,"ķìĭľì½Ķ":2240,"¢°":2241,"ë¢°":2242,"Ġë®":2243,"ë¦¬ë©°":2244,"ëĵ¤ìĸ´":2245,"ìĬ¤ìĹĲ":2246,"ìķĦë²Ħì§Ģ":2247,"ĠìĦ¹":2248,"ëıĦëĬĶ":2249,"Ġê°ĢëĬĶ":2250,"ìĤ¬ê±´":2251,"ìĤ¬ëŀĳ":2252,"ìĽĥ":2253,"Ġì°½":2254,"Ġìĸ´ëĶĶ":2255,"ìŀ¥ìĿĺ":2256,"ìŀ¥ìľ¼ë¡ľ":2257,"Ġëĭ¤ëĭĪ":2258,"Ġëĭ¤ìĦ¯":2259,"Ġê¸°ìĪł":2260,"ĠìĨĮìĭĿìĿĦ":2261,"ìłĦìĿ´":2262,"ìĽĲìľ¼ë¡ľ":2263,"íŀĪëĬĶ":2264,"ìļ°ê³ł":2265,"Ġìĺ¤ëŀľ":2266,"ëĶĶìĸ´":2267,"ëĲĺëĬĶëį°":2268,"ìĦ±ìĿĦ":2269,"Ġë¶Īê°Ģ":2270,"ĠìĺģìĽĲ":2271,"Ġ19":2272,"êµ°ê°Ģ":2273,"ì¼ĵ":2274,"Ġíķłë¨¸ëĭĪ":2275,"ĠíĺĦìĥģ":2276,"Ġì«ĵìķĦ":2277,"ĠìĿ´ëģĦëĬĶ":2278,"ëĨĵ":2279,"ĠìĪ¨ê²¨ì§Ħ":2280,"ëĢ":2281,"ìī¬":2282,"ĠT":2283,"ĻìĿĦ":2284,"ĠíĤ¬":2285,"ëį¤":2286,"ëł¬":2287,"ëĿ¼ê°Ģ":2288,"ìŀĲë¹Ħ":2289,"ë°ĸ":2290,"ê°ĦìĹĲ":2291,"Ġíķľë²Ī":2292,"ĠíĮĮìĿ´":2293,"íĤ¤ëĬĶ":2294,"Ġì¹ľêµ¬ëĵ¤ê³¼":2295,"Ġì§ĳìĹĲìĦľ":2296,"Ġíģ¬ë£¨":2297,"êµ°ìĿĺ":2298,"Ġíķłë¡ľ":2299,"ĠíıŃë°ľ":2300,"íĽĦìĿĺ":2301,"Ġê°Ħëĭ¤":2302,"Ġíĺ¼ìŀĲ":2303,"ëŀľëĵľ":2304,"Ġëĵ£ê²Į":2305,"ëľ¨":2306,"Ġë¸ĶëŀĻ":2307,"Ġë¹¼ìķĹ":2308,"ì©":2309,"íĩ´":2310,"Ġ8":2311,"ìĿ´ì§Ģë§Į":2312,"ĠìĿµ":2313,"ëłµ":2314,"ìĿ¸ê°Ħ":2315,"ĠìĿ´ìĤ¬":2316,"ëĿ¼ìĻĢ":2317,"ìĭľíĤ¨":2318,"Ġìĭľì²´":2319,"ëĮĢëĬĶ":2320,"ĠìłĦì§ģ":2321,"Ġíĺ¹":2322,"Ġë¶Ļ":2323,"ĠëıĦì¤ĳ":2324,"ë²ĦíĬ¸":2325,"ëĤ´ê¸°":2326,"Ġë¬´ê¸°":2327,"Ġë¬´ìĭľ":2328,"Ġë¬´ìĹĩ":2329,"Ġìĭľìŀĳíķĺê³ł":2330,"Ġê³łëĵ±":2331,"ĠíĸĪ":2332,"ê±°ìļ´":2333,"ëıĻìķĪ":2334,"ĠíĹĮ":2335,"Ġë¹łì§Ģê²Į":2336,"ĠëĨĴ":2337,"Ġìĭ¤íĮ¨":2338,"Ġìķħëª½":2339,"íĺ¸ë¥¼":2340,"Ġë§ĪìĿĦìĿĺ":2341,"ĠìĦ¸ìĥģìĹĲ":2342,"Ġë°ľê²¬íķľ":2343,"ĠíĨµìłľ":2344,"ĠëĪĦêµ°ê°Ģ":2345,"Ġì¹ĺë£Į":2346,"ìļĶíķľ":2347,"ĠíĻĺìĥģ":2348,"ëĿ¼ìĿ´ìĸ¸":2349,"Ġì£½ìĿĮìĿĺ":2350,"ĠëĬĲëĤĢ":2351,"Ġë¬´ìĤ¬íŀĪ":2352,"an":2353,"¤ë²Ħ":2354,"¥Ĳ":2355,"»ê²Į":2356,"ìıĺ":2357,"Ġ9":2358,"Ġëĥ":2359,"ìĿ´íķľ":2360,"ìĿ´ê²Į":2361,"ì§Ŀ":2362,"ë¦¬ìĸ¸":2363,"Ġê·¸ëĵ¤ìĿ´":2364,"ëĵ¤ë¡ľ":2365,"ĠëĤ¸":2366,"ĠìĤ¬ìķħíķľ":2367,"ĠìĿ´ëĵ¤ìĿĺ":2368,"Ġê³¨":2369,"ë§Įíķľ":2370,"Ġì§ĢëıĦ":2371,"ìĭłìĿĦ":2372,"íĥĲ":2373,"ĠëĮĢíķĻ":2374,"ë¶Ģë¥¼":2375,"ìļ´ëĭ¤":2376,"ĠìĿ¼ìĥģ":2377,"ĠìĬ¤ì¹´":2378,"ìĬ´":2379,"ĠìĹ¬ë¦Ħ":2380,"ìĿ¼ëŁ¬":2381,"ĠìĪĻ":2382,"Ġìľłëªħ":2383,"ê±°ëĤĺ":2384,"Ġìĥģì²ĺ":2385,"ë£¨íĨł":2386,"ìĨĮìĹĲ":2387,"ìŀĦìĬ¤":2388,"ĠëĦ£":2389,"ĠíĮ¬":2390,"ĠíĶĦë¦¬":2391,"ĠëĤĺíĥĢëĤľ":2392,"ì¸¡":2393,"Ġìŀĥê³ł":2394,"ĠìłĲì°¨":2395,"Ġìłķì²´ë¶ĪëªħìĿĺ":2396,"íĳ¸":2397,"Ġìĸ¼ë§Ī":2398,"ĠíĿ¬ìĥĿ":2399,"ĠëıĦìĽĢìľ¼ë¡ľ":2400,"ĠìłĦìĦ¤ìĿĺ":2401,"Ġìłĳê·¼":2402,"íĬ¼":2403,"ĠëŁ°ëįĺ":2404,"ĩĮ":2405,"ŃìĿ´":2406,"ëĭµ":2407,"ë¡ľëĬĶ":2408,"ë¦¬ë¡ľ":2409,"ë§İìĿĢ":2410,"ëĵ¤ìĹĲ":2411,"ìĦľíŀĪ":2412,"Ġê²¨":2413,"ìĭľë¥¼":2414,"Ġê°Ģìłķ":2415,"ĠìĥĮ":2416,"Ġë²¤":2417,"ĠëĤĺê°Ģ":2418,"ĠìĻĶ":2419,"ĠìĦ¸ëł¥":2420,"ĠìĬ¤ìĬ¤ë¡ľ":2421,"Ġë¯¸ìħĺ":2422,"Ġë¬´ìŀĲë¹Ħ":2423,"ĠíĻĢ":2424,"ëĶĶìĺ¤":2425,"ĠìĪł":2426,"Ġêµ¬íķł":2427,"íıŃ":2428,"ì½©":2429,"Ġë©¤ë²Ħ":2430,"ĠëĪĪìĿĦ":2431,"ĠíĿĳ":2432,"Ġëª»íķĺê³ł":2433,"ĠìĦľìĦľíŀĪ":2434,"Ġëħ¸ìĺĪ":2435,"êµ°ìĿĢ":2436,"Ġë¹Ħë°ĢìĿ´":2437,"ìŁģìĿ´":2438,"ĠìŀĳíĴĪ":2439,"ĠëĴ¤ë¥¼":2440,"Ġê´Ģë¦¬":2441,"ĠìķĦë²Ħì§Ģë¥¼":2442,"Ġê²Įëĭ¤ê°Ģ":2443,"ĠëĤĺíĥĢëĤľëĭ¤":2444,"ĠìĪ¨ìĸ´":2445,"Ġíĸ¥íķ´":2446,"ĠíĤ¹":2447,"ë°ĽìĿĢ":2448,"ĠìĤ¬ê³łë¡ľ":2449,"Ġìļ´ëªħìĿĦ":2450,"ĠíıīíĻĶë¡ľìļ´":2451,"Ġì²ŃëħĦ":2452,"Ġì¹¨ìŀħ":2453,"ĠëĨĢëĿ¼ìļ´":2454,"ĠíĥĦìĥĿ":2455,"ĠëŁ¬ìĭľìķĦ":2456,"Ġìķ¡ìħĺ":2457,"ê±¸":2458,"IA":2459,"ìį":2460,"ĠS":2461,"Ġìį":2462,"ê°Ģë¡ľ":2463,"ë¦¬ì§Ģ":2464,"Ġê·¸ëłĩ":2465,"ĠìĹī":2466,"ìĿ¸ì§Ģ":2467,"ĠìĤ¬ìĹħ":2468,"ëĿ¼ëıĦ":2469,"ĠìķĦëĵ¤ìĿĦ":2470,"Ġìĭľê³¨":2471,"ĠìĪĺìĥģ":2472,"íĻĺ":2473,"ì¹ĺë¥¼":2474,"Ġì¡¸":2475,"ĠëĤĺëĪĦ":2476,"ìłĦìĹĲ":2477,"ĠìĹ¬ìĿ¸":2478,"Ġê³łìĸĳ":2479,"ë¯¸ìĬ¤":2480,"íĹ¤":2481,"íģ¬ë¥¼":2482,"ëĶĶìĿĺ":2483,"Ġë°ĶìĿ´":2484,"ĠìĥĿìĿ¼":2485,"ë³´ëĬĶ":2486,"Ġêµ¬ì¶ľ":2487,"Ġì¹ľêµ¬ê°Ģ":2488,"ĠìµľíĽĦìĿĺ":2489,"Ġëª»íķĺëĬĶ":2490,"ĠìķĦìĿ´ëĵ¤ìĿĦ":2491,"Ġíĺ¸íħĶ":2492,"Ġì¶Ķê²©":2493,"ĠìłĢì§Ģ":2494,"ĠìłĢíĥĿ":2495,"ĠìķŀìĹĲìĦľ":2496,"Ġìŀĥìĸ´":2497,"ì´Ŀ":2498,"ĠìłĦìŁģìĿĦ":2499,"Ġì¡´ìŀ¬ë¥¼":2500,"ĠíķĻìĥĿ":2501,"ĠìĿ¸ë¥ĺìĿĺ":2502,"Ġë§Īë²ķìĤ¬":2503,"Ġìĸ´ëĸ»ê²Į":2504,"Ġëĵ£ê³ł":2505,"ĠìķĦëĭĪëĿ¼":2506,"ĠëĪĦêµ¬ëıĦ":2507,"ì¤Ģëĭ¤":2508,"íľĺ":2509,"Ġë¯¸ìħĺìĿĦ":2510,"Ġíľ©ìĭ¸":2511,"ìĿ´ê¸°":2512,"ìĿ´ìĬ¤":2513,"ìĿ´ë¹Ħ":2514,"íķĺë©´":2515,"ê°Ģì§Ģ":2516,"Ġê·ľ":2517,"ë¦¬ëįĺ":2518,"ë¦¬ìļ°":2519,"ë¦¬ìķĪ":2520,"Ġê·¸ëĤł":2521,"ĠìĹħ":2522,"ëŀĦ":2523,"ìĻĦ":2524,"ì¹¼":2525,"Ġë§ĪëĬĶëį°":2526,"Ġíķĺë©°":2527,"íķľëĭ¤ëĬĶ":2528,"Ġê°Ģì§Ģ":2529,"ìĤ¬ìĹĲ":2530,"Ġìĭľëĭ¬":2531,"Ġì§Ģìĺ¥":2532,"ĠìĪĺë§İìĿĢ":2533,"íĬ¸ê°Ģ":2534,"ĠëĲĺë©´ìĦľ":2535,"Ġëª¨ë¥´ëĬĶ":2536,"Ġë¶ģ":2537,"Ġëĭ¤ìĿĮ":2538,"ìĪĺìĿĺ":2539,"íĤ¹":2540,"ĠìĹ¬ìĻķ":2541,"Ġìĺ¤ëŀĺ":2542,"Ġë¶ĪìķĪ":2543,"íķĺê¸°ë¡ľ":2544,"ĠìĽĢ":2545,"Ġ12":2546,"ĠìĹ°ìĿ¸":2547,"ëĭ¨ìĿĦ":2548,"ĠìĤ¬ê±´ìĿĺ":2549,"ĠëĤ´ëł¤":2550,"Ġëħ¸ëł¥":2551,"Ġë§¤ëł¥":2552,"ë¸Įë¦¬":2553,"Ġì§Ģêµ¬ìĿĺ":2554,"ĠíıŃëł¥":2555,"Ġë¬¼ë¦¬":2556,"ĠìĨĲìĺ¤":2557,"ĠêµĲëıĦ":2558,"ĠëĺĲíķľ":2559,"Ġìĭ¸ìļ°":2560,"Ġì¡°ì§ģìĿĺ":2561,"Ġì¢ħì¡±":2562,"Ġì²ľìŀ¬":2563,"íĺ¹íķľ":2564,"Ġë¶Ģëª¨ëĭĺ":2565,"íģ¼":2566,"ĠìĿ´ìļ©íķ´":2567,"ĠLA":2568,"ĠìĺĪìĥģì¹ĺ":2569,"ĠíĤ¬ëŁ¬":2570,"(?":2571,"Ġ\"":2572,"ĠëĮ":2573,"íķĺëŁ¬":2574,"ì§Ĳ":2575,"ê²Ĳ":2576,"ìķķ":2577,"ê°Ģë¥¼":2578,"Ġê·¸ìĻĢ":2579,"Ġê·¸ë¦¬ìĬ¤":2580,"ëł¸":2581,"ìĸ´ê°Ģ":2582,"Ġê²¬":2583,"Ġíķĺëįĺ":2584,"Ġê°Ģì§Ģê³ł":2585,"Ġì§ĢìĹŃ":2586,"Ġë¹ħ":2587,"ëĵľìĻĢ":2588,"Ġíķµ":2589,"ĠëĮĢëĭĪ":2590,"ë¶ĢìĿĺ":2591,"íĶĪ":2592,"ìłģìĿĦ":2593,"ĠìŀĲìĭłê³¼":2594,"ëĤ´ê³ł":2595,"íģ¬ìĿĺ":2596,"Ġë°ĶëĢ":2597,"ĠìĤ¬ëŀĮìĿĦ":2598,"ĠìĤ¬ëŀĮìĿ´":2599,"Ġê·¸ëħĢê°Ģ":2600,"Ġê·¸ëħĢìĹĲê²Į":2601,"ĠìµľëĮĢìĿĺ":2602,"Ġì°¾ìķĦê°Ģ":2603,"Ġëĵ¤ê³ł":2604,"ĠìĹ°ìĩĦ":2605,"ëĳĲê³ł":2606,"ì¦ĪìĿĺ":2607,"Ġíĺ¸ê¸°":2608,"Ġê¹ĬìĿĢ":2609,"Ġì§Ħìłķíķľ":2610,"ĠìļĶêµ¬":2611,"Ġë°©ë¬¸":2612,"Ġë§ĪìĿĦìĹĲ":2613,"íĸĪëĭ¤":2614,"ĠìķĦë²Ħì§Ģê°Ģ":2615,"ìļĶìĽĲ":2616,"Ġì°¨ì§Ģ":2617,"Ġë³Ģìĭł":2618,"ĠëĶ¸ìĿĦ":2619,"ì¸µ":2620,"Ġì§ģìıĺ":2621,"ĠìĦľë¡ľìĿĺ":2622,"Ġì±ħìĿĦ":2623,"ĠìĿĮëª¨ë¥¼":2624,"Ġíĺ¼ëŀĢìĹĲ":2625,"Ġì£¼ìĿ¸ê³µ":2626,"Ġì¢ĭìķĦ":2627,"Ġì»´":2628,"Ġíľĺë§Ĳ":2629,"Ġë©¸ë§Ŀ":2630,"Ġë³´ìķĪê´Ģ":2631,"ĠìĤ¬íĪ¬ë¥¼":2632,"ĠìĽĢì§ģ":2633,"(?)":2634,"íĢ":2635,"ĵ¨":2636,"Ġê½":2637,"ĠìĿĳ":2638,"ìĦ¬":2639,"ìķĶ":2640,"ì§Ģê°Ģ":2641,"ì§Ģê¸°":2642,"ë¦¬ìĹĲìĦľ":2643,"ëł¨ìĿĦ":2644,"ĠìĤ¬ë§Ŀ":2645,"ĠìĤ¬íļĮ":2646,"ĠìĿ´ë²Ī":2647,"Ġì§Ĳ":2648,"ĠìľĦê¸°":2649,"ĠìķĦì§ģ":2650,"ìĭľíķľ":2651,"Ġê°Ģê²Į":2652,"ìĽ¨":2653,"ëĵľë¡ľ":2654,"ëĲł":2655,"ìĹĲê²ĮìĦľ":2656,"ĠëĮĢíĨµ":2657,"ĠíĺĪ":2658,"íĶĶ":2659,"ĠìĿ¼ë³¸":2660,"Ġë³´ëĤ¸ëĭ¤":2661,"ĠìĬ¤íĭ°":2662,"Ġë¹Ħë¡¯":2663,"íĨ°":2664,"ĠìľłëŁ½":2665,"ë¬¼ê´Ģ":2666,"ë£¨ìĬ¤":2667,"íı´":2668,"íıĲ":2669,"Ġì¹ľêµ¬ëĵ¤":2670,"Ġë©ķìĭľì½Ķ":2671,"ìĨĮë¥¼":2672,"ĠìĨįìľ¼ë¡ľ":2673,"ĠìĹĲë¦Ń":2674,"Ġì±Ķ":2675,"íĶ¼ìķĦ":2676,"íĶ¼ìĸ¸":2677,"Ġê°Ģì¡±ìĿĺ":2678,"ĠíĶĦëŀĳ":2679,"ĠíĺĦìŀ¬":2680,"ëĬ¥ìĿĦ":2681,"Ġíĸ¥íķľ":2682,"Ġë¬¼ë¡ł":2683,"Ġì«ĵê¸°":2684,"Ġê³³ìĹĲìĦľ":2685,"Ġê³³ê³³":2686,"Ġì°¸ìĹ¬":2687,"ĠìĿ¸ë¥ĺë¥¼":2688,"ĠìĥģíĻ©ìĹĲ":2689,"Ġìĸ¼êµ´":2690,"ĠëĦĺì¹ĺëĬĶ":2691,"Ġë³ĳìĽĲ":2692,"ĠìĥĿì¡´ìŀĲ":2693,"Ġë§Īì£¼íķĺê²Į":2694,"Ġìķ½ìĨį":2695,"Ġíķ©ë¥ĺ":2696,"ĠCIA":2697,"Ġê²ĢìĿĢ":2698,"Ġê°Ģê¹ĮìĬ¤ë¡ľ":2699,"ĠëĮĢê²°ìĿĦ":2700,"ĠíĽĪëł¨":2701,"Ġëĥī":2702,"ãĢ":2703,"ëļ":2704,"ëī´":2705,"Ġìī":2706,"ìĿ´ê°Ģ":2707,"ì§ķ":2708,"ĠìŀĬ":2709,"ì§Ģë¡ľ":2710,"ì§ĢìŀĲ":2711,"ëłĽ":2712,"ìĿ¸ë°©":2713,"ëŀ«":2714,"ëĤĺìĿĺ":2715,"ĠìķĦíĶĦ":2716,"ìĭľìĿĺ":2717,"ìĭľì¼ľ":2718,"ĠíķĺìĿ´":2719,"ĠíķĺëĬĺ":2720,"ìĤ¬ìĿ¸":2721,"ëĵľê°Ģ":2722,"íĬ¸ìĹĲ":2723,"Ġëª¨ìĦ¸":2724,"íĦ°ë¥¼":2725,"Ġíĺĳ":2726,"Ġë³´ìĬ¤":2727,"ĠìŀĲìĭłëĵ¤ìĿĺ":2728,"ĠìĹ¬ëŁ¬":2729,"ĠìłķìĿĺ":2730,"Ġê³µë£¡":2731,"ìĸ¼":2732,"ê»ı":2733,"ëĦ·":2734,"ëĦĲ":2735,"Ġìĥģíĥľ":2736,"ĠìĤ¬ëŀĮëĵ¤ìĿĺ":2737,"ì²´ê°Ģ":2738,"ëŀĺê³¤":2739,"ĠìĿĺë¢°":2740,"Ġë©Ī":2741,"Ġê°Ģì¡±ìĿĢ":2742,"ĠìķĪìĹĲ":2743,"ĠìĤ´ìķĦê°ĢëĬĶ":2744,"ĠìļĶì²Ń":2745,"Ġì²ĺíķľ":2746,"ĠëĵľëĶĶìĸ´":2747,"Ġëĵľëŀĺê³¤":2748,"Ġë§ĪìĿĦìĿĦ":2749,"ìľĦë¥¼":2750,"ĠìĤ¬ìĿ´ìĹĲìĦľ":2751,"Ġì¹ĺëªħ":2752,"ĠìľĦíĺĳíķĺëĬĶ":2753,"Ġì°¸ìĦĿ":2754,"ĠìĿĢíĸī":2755,"Ġë¬¸ìłľ":2756,"ëĪĪ":2757,"Ġê¸°ìĸµìĿĦ":2758,"ĠëıħìĿ¼":2759,"Ġë¯¸ëŀĺë¥¼":2760,"Ġìĭ¶ìĿĢ":2761,"Ġê°Īëĵ±":2762,"Ġë°©ë²ķìĿĦ":2763,"ĠíĽĶì³Ĳ":2764,"Ġê¿Īê¾¸ëĬĶ":2765,"ìģľ":2766,"Ġë´ī":2767,")âĢĻ":2768,"er":2769,"¾Į":2770,"íķ¨ìĿĦ":2771,"Ġíĩ´":2772,"ìĿ´ìĸ´":2773,"ìĿ´ìĹĪëįĺ":2774,"ë¡ľë¥¼":2775,"Ġìķķ":2776,"ì§ĢìĹĲ":2777,"ìĬ¤ì½Ķ":2778,"ìĬ¤ëŁ½":2779,"ìĿ¸ìľ¼ë¡ľ":2780,"ĠìĭŃ":2781,"ĠìĿ´ëŁ°":2782,"ìĸ´ìķ¼":2783,"Ġê²ģ":2784,"ëĿ¼ìĬ¤":2785,"ëį°ìĿ´":2786,"ĠìĭľëıĦ":2787,"ĠìŀĲê¸°":2788,"ëĮĢê°Ģ":2789,"íĺĪ":2790,"ĠëĲĺì§Ģë§Į":2791,"ĠëĤĺë£¨íĨł":2792,"ë£©":2793,"Ġê¸°ìļ´":2794,"ëĶ´":2795,"ê¸ĪìĿĦ":2796,"ìĽĲëĵ¤ìĿĢ":2797,"íŀĪê²Į":2798,"ìļ°ìĬ¤":2799,"ĠëıĻìĭľìĹĲ":2800,"Ġì¡°ì¢ħ":2801,"ĠìĤ¬ëŀĮìĿĺ":2802,"Ġíķ´ë¦¬":2803,"ìĭ¤ìĹĲ":2804,"ĠíĨ°":2805,"ìĭ¬ìĿ´":2806,"ìĭ¬ìľ¼ë¡ľ":2807,"Ġì°¾ìķĦìĺ¨":2808,"Ġì°¾ìķĦìĺ¨ëĭ¤":2809,"Ġê³¼ìłķ":2810,"ĠíĹ¬":2811,"ì¦ĪëĬĶ":2812,"ĠìĦ¸ê³ĦëĮĢ":2813,"Ġê°ķíķľ":2814,"Ġëħ¸ë¦¬ëĬĶ":2815,"ìħĢ":2816,"Ġìŀ¥ëĤľ":2817,"Ġëĭ¨ìĦľë¥¼":2818,"Ġìº¡":2819,"Ġë°°ìĭł":2820,"ĠëĴ¤ì§ĳ":2821,"ĠíıŃíĴį":2822,"ìłĪíķľ":2823,"Ġê´´ë¡Ń":2824,"ĠìķłëĭĪ":2825,"Ġê³¼ê±°ë¥¼":2826,"ĠìĦľë¡ľë¥¼":2827,"Ġì¼Ģ":2828,"ĠìĤ¬ê³łë¥¼":2829,"ĠíħĮëŁ¬ë¦¬ìĬ¤":2830,"ĠìĻķêµŃìĿĦ":2831,"íĬľ":2832,"Ġìĭłë¹Ħíķľ":2833,"Ġê²°ìĭ¬íķľëĭ¤":2834,"ĠMI":2835,"Ġìµľê°ķìĿĺ":2836,"Ġë¬´ìŀĲë¹Ħíķľ":2837,"?!":2838,"ëŃ":2839,"Ġ`":2840,"Ġì¿":2841,"Ġë¥":2842,"ìĹ¼":2843,"íķĺëĿ¼":2844,"ëĵŃ":2845,"ĠìĹĳ":2846,"ĠìĤ¬ë§ī":2847,"ĠìĿ´ëĵ¤":2848,"ĠìĿ´ìĽĥ":2849,"ëĤĺê°Ģ":2850,"ëŁ´":2851,"ëŁŃ":2852,"ĠìķĦì¹¨":2853,"Ġìĥĺ":2854,"ëª»":2855,"Ġì§Ģëª©":2856,"ĠëĲĺìŀĲ":2857,"ì²Ļ":2858,"ì²ł":2859,"Ġìĸ´ì©":2860,"ĠìľĦíķ´ìĦľ":2861,"ì£¼ë¥¼":2862,"ĠëĤĺìĿ´":2863,"Ġë¬´ëĦĪ":2864,"íŀĪìĸ´ë¡ľ":2865,"ëħĦìĿ´":2866,"ĠìłľìŀĦìĬ¤":2867,"Ġê³łë¯¼":2868,"ë¯¸ëĬĶ":2869,"ëłĪìĿ¸":2870,"Ġê±°ëĵŃ":2871,"ëĤľíķľ":2872,"íģ¬ê°Ģ":2873,"ëĶĶê°Ģ":2874,"ĠíĮĮì»¤":2875,"Ġë°ĶëŀĮ":2876,"ëĦ¬":2877,"ì¶ķ":2878,"Ġë¶Īêµ¬":2879,"Ġì£½ìĿ´ê³ł":2880,"Ġì¤ĳìĿ¸":2881,"ì½ĺ":2882,"Ġë©ĭ":2883,"ìĪĻ":2884,"ìĪľ":2885,"Ġ13":2886,"Ġê²½ê³ł":2887,"ìĭĿê°ĦìĹĲ":2888,"ëıĻìĿĦ":2889,"ëıĻì°¨":2890,"ë¶ģ":2891,"ì¡°ì§ģ":2892,"ĠìĻķìŀĲ":2893,"Ġì§Ħìĭ¤ìĿĦ":2894,"Ġì²ĺì°¸":2895,"Ġì§Ģêµ¬ë¡ľ":2896,"Ġìº£":2897,"Ġë°°ìļ°":2898,"Ġë°ľê²¬íķĺê²Į":2899,"ë°©ìĿĦ":2900,"ĠìĪľìĭĿê°ĦìĹĲ":2901,"ëĿ½íķľ":2902,"Ġìŀħê³ł":2903,"Ġë°ķë¬¼ê´Ģ":2904,"Ġê³¼ê±°ìĿĺ":2905,"ê²łëĭ¤ê³ł":2906,"Ġì¦Ĳê¸°":2907,"Ġë²Įìĸ´ì§ĢëĬĶ":2908,"ìĵ°":2909,"ĠìºłíĶĦ":2910,"ĠìľĮë¦¬ìĹĦ":2911,"Ġíķłë¡ľìľĪ":2912,"Ġì¡¸ìĹħ":2913,"20":2914,"ĠN":2915,"łë§Ī":2916,"ìĿĳ":2917,"ëĭĿ":2918,"ìĿ´ëįĺ":2919,"ìĿ´ëĿ¼ê³ł":2920,"ëĭ¤ë¥¸":2921,"ìłĿ":2922,"Ġë§ĺ":2923,"ê¸°ìķ¼":2924,"ìľ¡":2925,"Ġëª¸ìĿĦ":2926,"Ġì§ľ":2927,"Ġíķĺê¸°":2928,"ìĤ¬ê³ł":2929,"ĠìŀĪê³ł":2930,"Ġë¹Ļ":2931,"Ġë¹Ľ":2932,"ĠìĪĺëıĦ":2933,"Ġëıķ":2934,"Ġìĸ´ëł¤":2935,"ìŀ¥ìĿĢ":2936,"Ġíĥĳ":2937,"Ġì²Ļ":2938,"Ġê¸°ê³Ħ":2939,"Ġëį¤":2940,"ĠìĹ¬ìłķìĿĦ":2941,"íŀĪëł¤":2942,"ëħĦìĿĺ":2943,"Ġìłķê¸Ģ":2944,"êµŃìĿĺ":2945,"ĠëĤ¨ë§¤":2946,"Ġë°Ķê¿":2947,"Ġìĭłë¶Ģ":2948,"ĠìĭłìĦ¸":2949,"Ġêµ¬ì¡°":2950,"ëª¨ë¥¼":2951,"Ġë°ĽëĬĶ":2952,"ĠìĽ¬":2953,"ĠìĽĥ":2954,"ì½¤":2955,"íķĻìĿĦ":2956,"ĠìĹ°ëĿ½":2957,"ëıĻìĥĿ":2958,"ëĭ¹íķĺê³ł":2959,"ĠíĿĺ":2960,"ĠìĦ¸ê³Ħë¡ľ":2961,"ĠìĤ´ìķĦê°Ħëĭ¤":2962,"ĠìŀĪëĭ¤ê³ł":2963,"Ġì§Ħíĸī":2964,"ëĤłìĿĦ":2965,"Ġë§¤ëĭĪ":2966,"ĠíķłìķĦë²Ħì§Ģ":2967,"Ġëªħëł¹ìĿĦ":2968,"ĠëĤ¨ìŀĲì¹ľêµ¬":2969,"Ġìĭľê°ĦìĿ´":2970,"ĠìłĪì¹ľ":2971,"ê²½ìĿĦ":2972,"Ġ30":2973,"Ġì°¸ê°Ģ":2974,"Ġëª°ìķĦ":2975,"Ġì¶©ëıĮ":2976,"Ġíĥľìĸ´ëĤĺ":2977,"Ġë³´ëĤ´ê³ł":2978,"ĠíĻ©ìłľ":2979,"ĠìĦ±ê³µíķľ":2980,"ĠìŀŃìĬ¨":2981,"ĠíĶĦë¡ľê·¸":2982,"Ġìĸ»ê²Į":2983,"Ġìĭ¶ìĸ´":2984,"ĠìĻ¸ê³ĦìĿ¸":2985,"íķĦëĵľ":2986,"ĠëģĮëł¤":2987,"Ġê¸īê¸°ìķ¼":2988,"ĠìĬ¤íĮĮìĿ´ëįĶ":2989,"ĠìĤ¬ëĥ¥ê¾¼":2990,"ìºĲ":2991,"ĠìķĦë¬´ëıĦ":2992,"Ġì¶©ê²©ìłģìĿ¸":2993,"ĠìŀĶìĿ¸íķľ":2994,"ĠìĿ´ì§ĳíĬ¸":2995,"ĠìĹĲëĵľìĽĮ":2996,"ĠëĨĴìĿĢ":2997,"ĠëĮĦ":2998,"¨ëĭ¨":2999,"ĢìĦĿ":3000,"ê°Ķ":3001,"ê²ģ":3002,"ìŀĶ":3003,"ê°Ģê°Ģ":3004,"ë§¹":3005,"Ġê·¸ë¦¼":3006,"ìĬ¤ëŁ°":3007,"ĠìĤ¬ìļ©":3008,"ĠìĿ´ëª¨":3009,"Ġì§ĵ":3010,"Ġê³ģ":3011,"ĠìķĦíĮĮ":3012,"ë°¤":3013,"Ġë§Īë¦¬":3014,"ĠìĪĺìĪĺ":3015,"ĠìłĦë¶Ģ":3016,"ëĭĪë¥¼":3017,"Ġëª¨ë¥¼":3018,"Ġëª¨ìĿ¸":3019,"Ġì°¬":3020,"ĠìĿ¸ëĶĶ":3021,"ĠìĿ¸ë¬¼":3022,"ĠëĵĢ":3023,"ì°¬":3024,"ì¹ĺê¸°":3025,"ë¶ĢëĮĢ":3026,"ĠìĬ¤íĬ¸":3027,"Ġê¸°ìĿ´íķľ":3028,"ë²Ħë¦°ëĭ¤":3029,"Ġë¯¸ì§ĢìĿĺ":3030,"ë¹ĦëĬĶ":3031,"Ġìĭľìŀĳíķľ":3032,"ĠëĤ¨ìķĦ":3033,"ĠëĤ¨ê²¨":3034,"Ġìĺ¤ë¥¸ëĭ¤":3035,"Ġê±°ëŀĺ":3036,"Ġê±°ìłĪ":3037,"ĠíĮĮìĽĮ":3038,"Ġì°¾ëĬĶ":3039,"ìĦ±ìĿ´":3040,"ê»ĺëģ¼":3041,"ëª¨ìĿĺ":3042,"Ġë°Ľìľ¼ë©°":3043,"Ġë©´":3044,"ĠìķĬê²Į":3045,"ĠëħĢìĦĿ":3046,"ìĭĿìľ¼ë¡ľ":3047,"Ġê³¼íķĻìŀĲ":3048,"Ġëª»íķľëĭ¤":3049,"ĠìĦ¸ê³ĦìĿĺ":3050,"Ġìķħëªħ":3051,"Ġì½ĺ":3052,"Ġê°ķìķĦ":3053,"Ġëħ¸ëŀĺ":3054,"ìħĶ":3055,"Ġëª©íĳľ":3056,"Ġê¹Ĭ":3057,"íĮħ":3058,"ĠìĻ¸ëĶ´":3059,"ĠìŀĳìłĦìĿĦ":3060,"ëĳĳ":3061,"Ġëĭ¹íķĺê³ł":3062,"ĠëĤ¨ìŀĲìĿĺ":3063,"ĠëĤ¨ìŀĲê°Ģ":3064,"ĠìĤ¬ìĿ´ìĹĲ":3065,"ì¤ĳìĹĲ":3066,"Ġê±·":3067,"ĠêµĲìĪĺ":3068,"Ġëª¨ëĳĲê°Ģ":3069,"Ġì¡´ìŀ¬ê°Ģ":3070,"Ġêµ°ëĭ¨":3071,"Ġìļ©ë³ĳ":3072,"Ġì§ģìłĳ":3073,"Ġìĭ¬ë°Ķ":3074,"ĠëĳĺëŁ¬":3075,"ĠìĿĮìķħ":3076,"ĠëĸłëĤĺê²Į":3077,"ĠìĿĢíķĺ":3078,"Ġìĭ¸ìĽĢ":3079,"Ġëª°ëŀĺ":3080,"Ġíĥľìĸ´ëĤľ":3081,"Ġëĸ¨ìĸ´ì§Ħ":3082,"ĠíĶĦë¡ľìłĿ":3083,"Ġê¸Īì§Ģ":3084,"Ġìĵ°ëŁ¬":3085,"ĠíĮĮíĭ°ë¥¼":3086,"Ġê°Ģê¹ĮìĽĮ":3087,"Ġì¦Ŀê±°":3088,"ĠíĻľìķ½":3089,"ĠíıĲíĹĪ":3090,"Ġíģ¬ë¦¬ìĬ¤ë§ĪìĬ¤":3091,"ĠìĮį":3092,"Ġê¼¬ë§Ī":3093,"Ġì±ĶíĶ¼ìĸ¸":3094,"ar":3095,"ì¿":3096,"Ġ(":3097,"ĳëĮĢ":3098,"Ġë¿":3099,"ë¥Ļ":3100,"ê°ĸ":3101,"ê°ĻìĿ´":3102,"ìĭŃ":3103,"ê°Ģê²Į":3104,"ìĬ¤íĨł":3105,"âĢĺ":3106,"Ġê°±":3107,"ìĦľìĿĺ":3108,"ĠìĿ´ëĵ¤ìĿĦ":3109,"ìľ¼ëł¤":3110,"ëĤĺê³ł":3111,"ìĻĢëĬĶ":3112,"ëıĦìĭľ":3113,"ëį°ëłĲ":3114,"Ġê°Ģìł¸":3115,"ìĤ¬ìĻĢ":3116,"ĠìŀĲëıĻì°¨":3117,"ĠìĪĺíĺ¸":3118,"íĬ¸ë¦Ń":3119,"Ġëı¼":3120,"Ġë²½":3121,"ìĹĲê²ĮëĬĶ":3122,"ĠìĿ¸ê¸°":3123,"ĠìĿ¸ê³µ":3124,"ë§ĪìĿ´":3125,"ì£¼ìĿĺ":3126,"ĠìĿ¼ìĥģìĿĦ":3127,"Ġë³´ìĿ´ëĬĶ":3128,"ë£¬":3129,"ĠìĬ¤íĶ¼":3130,"ĠìĬ¤íħĮ":3131,"ëĶ©":3132,"ĠìĹĨìķł":3133,"Ġë¬´ìĦľ":3134,"Ġë¬´ëłµ":3135,"ìĽĲìĿĺ":3136,"íĥĢëĬĶ":3137,"Ġê³łëĮĢ":3138,"Ġê³łêµ°":3139,"Ġê³łíĨµ":3140,"Ġê³łëĭ´":3141,"ìĺ¤ëĬĶëį°":3142,"ĠíĮĮíĹ¤":3143,"ê·ľ":3144,"ëĲĺìŀĲ":3145,"Ġì£¼ë³Ģ":3146,"ìĹĪëĭ¤ëĬĶ":3147,"Ġíķ´ìłģ":3148,"Ġë¶Īë¦¬ëĬĶ":3149,"Ġê²°ìłķ":3150,"Ġì¹ľêµ¬ëĵ¤ìĿĺ":3151,"ìĹ¬ê³¡":3152,"ĠíĶ¼íķł":3153,"ĠìĹ°íķ©":3154,"ëĭ¹íķĺëĬĶ":3155,"ĠíĿĲ":3156,"Ġìĭ¤ìĪĺë¡ľ":3157,"ĠìĦ¸ê³ĦìĹĲ":3158,"ĠìĦ±ìŀ¥":3159,"ĠìķĪê³ł":3160,"ĠìķĪìłĦ":3161,"ĠëĤ´ìļ©":3162,"Ġíĺ¸ìĪĺ":3163,"Ġê°Ĳìĭľ":3164,"ì¼ĢìĿ´":3165,"ĠíıīìĥĿ":3166,"Ġëªħëł¹":3167,"ĠëªħìĺĪ":3168,"Ġëĭ¹íķľ":3169,"ë§¨ìĿĺ":3170,"Ġì¹´ë©Ķ":3171,"Ġìļ´ìĺģ":3172,"Ġìĺ¨ê°ĸ":3173,"ì»¤ìĬ¤":3174,"ì£½":3175,"Ġì«ĵê¸°ëĬĶ":3176,"Ġë²łìĿ´ë¹Ħ":3177,"ë¶ĦíĪ¬":3178,"íħľ":3179,"Ġë¸ĮëĿ¼ìĿ´ìĸ¸":3180,"ĠìķĦëĤ´ë¥¼":3181,"ĠìĿĢíĩ´":3182,"ìĤ°ìĿĦ":3183,"Ġê²°íĺ¼ìĿĦ":3184,"ìĹĺìĿĢ":3185,"ĠíĻĶëł¤":3186,"Ġìĵ´":3187,"Ġë§Īë²ķìĿĺ":3188,"Ġíİĺë¥´":3189,"ĠíĮ¨ë°Ģ":3190,"ĠíĦ¸":3191,"ĠìĹ¬ìŀĲì¹ľêµ¬":3192,"Ġíģ´ëŁ½":3193,"ìķĺëĭ¤":3194,"Ġê²ĮìŀĦìĿĦ":3195,"ĠêµŃìłľ":3196,"ĠíĪ¬ìŀħ":3197,"ĠìĿ´ë¦ĦìĿĦ":3198,"Ġìĸ¸ìłľ":3199,"Ġê´Ģê³Ħë¥¼":3200,"ĠëĤĺìĦľëĬĶëį°":3201,"ĠíĽĪëł¨ìĿĦ":3202,"Ġê°ĢëĵĿíķľ":3203,"ĠìłĦìĦ¸ê³Ħë¥¼":3204,"ĠìłĢì£¼ë¥¼":3205,"ëł¬íķľ":3206,"ĠìĨĲìĺ¤ê³µ":3207,"ĠêµĲëıĦìĨĮ":3208,"ĠëĮĢíĨµëł¹":3209,"Ġì¹ĺëªħìłģìĿ¸":3210,"Ġê³¼ìłķìĹĲìĦľ":3211,"Ġë¶Īêµ¬íķĺê³ł":3212,"ĠìĪĺìĪĺê»ĺëģ¼":3213,"Ġê³łêµ°ë¶ĦíĪ¬":3214,"on":3215,"ê¶ģ":3216,"íĬ¹":3217,"ĠA":3218,"ĠìĶ":3219,"ìĿ´ë¡ľ":3220,"ê°ĳ":3221,"ë¡ľìļ°":3222,"ìŀŃ":3223,"ì§Ģë©´ìĦľ":3224,"Ġë§¨":3225,"ë§¥":3226,"Ġìĭ«":3227,"ĠìĿ´ë¸Į":3228,"ìĸ´ìł¸":3229,"Ġë§Īë¥´":3230,"Ġíķĺì§Ģ":3231,"Ġê°ĢëĬĶëį°":3232,"Ġìĭľëĵľ":3233,"Ġì§ĢëĤ´":3234,"Ġë¹¨":3235,"ĠìĪĺìļ©":3236,"ĠìłĦíĻĶ":3237,"ìĥģìĿ´":3238,"Ġëª¨ë¥¸":3239,"Ġë¬»":3240,"ìĹĲê²ĮëıĦ":3241,"ĠìĿ¸ì§Ī":3242,"ë¹Ĺ":3243,"ĠëĮĢë¶Ģ":3244,"ìłģìĿ´":3245,"ĠìĿ¼íķĺëĬĶ":3246,"ĠìĿ¼ìĤ¼":3247,"ĠëıĦìłĦ":3248,"Ġë§Įëĵł":3249,"ĠìĬ¤íĨ¤":3250,"íŀĪê³ł":3251,"Ġì¶¤":3252,"Ġìłľìŀĳ":3253,"Ġê³łìļ©":3254,"ë¯¸ë¥¼":3255,"ëłĪìĬ¤":3256,"Ġê±°ë¶Ģ":3257,"ëĶĶìĻĢ":3258,"ĠìĥĿëªħìĿĦ":3259,"Ġìĭłë¶Ħ":3260,"íİľ":3261,"Ġìļ°ìĹ¬ê³¡":3262,"Ġì¹ľêµ¬ëĵ¤ìĿ´":3263,"Ġìĸµ":3264,"ìĪŃìĿ´":3265,"Ġ15":3266,"Ġê°Ģì¡±ìĿ´":3267,"Ġê°Ģì¡±ê³¼":3268,"Ġìķħëł¹":3269,"ĠìĤ´ìķĦê°Ģê³ł":3270,"Ġëª©ìĨĮ":3271,"Ġìºĺ":3272,"Ġë°°íĬ¸ë§¨":3273,"íĸĪëĭ¤ëĬĶ":3274,"ĠìłĢíķŃ":3275,"ĠíĥĢìĿ´":3276,"Ġíı¬ê¸°":3277,"Ġ24":3278,"Ġëĭ¹íķľëĭ¤":3279,"Ġë²ĮìĿ´ëĬĶ":3280,"Ġìŀłìŀħ":3281,"Ġì°¨ë¥¼":3282,"ĠíĴį":3283,"Ġê±¸ê³ł":3284,"Ġê±¸ë¦°":3285,"Ġë°ķìĤ¬ëĬĶ":3286,"ĠëıĦìĭľìĿĺ":3287,"ĠìĥģíĻ©ìĹĲìĦľ":3288,"Ġëī´ìļķìĿĺ":3289,"Ġë²Īì§¸":3290,"Ġìķ¼ìĥĿ":3291,"Ġì²ŃìĨĮ":3292,"ĠìĬĪíį¼íŀĪìĸ´ë¡ľ":3293,"ëľ»":3294,"ìĩł":3295,"Ġë°ľìĥĿíķľëĭ¤":3296,"ĠìłľìķĪìĿĦ":3297,"Ġê¸°ëĭ¤ë¦¬ê³ł":3298,"íģĺ":3299,"íĿ¬":3300,"Ġë§¡ê²Į":3301,"ĠìĿ¸ìĥĿìĿĦ":3302,"ĠëĲĺì°¾ê¸°":3303,"Ġë°ĸìľ¼ë¡ľ":3304,"Ġíİ¼ì³Ĳì§Ħëĭ¤":3305,"ĠìłĦë¬¸ê°Ģ":3306,"ĠíĢ¸":3307,"Ġë¡ĿíĤ¤":3308,"ìĭľíĤ¨ëĭ¤":3309,"Ġê³łëĵ±íķĻêµĲ":3310,"Ġìľłëªħíķľ":3311,"ë±":3312,"ë·":3313,"įìĤ¬":3314,"Ĳëĭ¤":3315,"Ġìı":3316,"Ġìī¬":3317,"Ġë¯¼":3318,"ìĿ´ëĤĺ":3319,"ìĿ´ëĵľ":3320,"ìĿ´ìĹĪëĭ¤":3321,"ì§ĵ":3322,"ë¡ľìŀ¡":3323,"ìķ¤":3324,"ì§Ģì§Ģ":3325,"ë¦¬ëĭ¤":3326,"Ġë§ģ":3327,"ìĬ¤íĤ¤":3328,"ìĬ¤ì¹´":3329,"ĠëĤĻ":3330,"ĠìĤ¬ë¡ľìŀ¡":3331,"ìķĦìĿĺ":3332,"ìŀĲìĻĢ":3333,"ëĤĺìĻĢ":3334,"ì¹Ļ":3335,"ĠìľĦì¹ĺ":3336,"ĠìķĦëĤĺ":3337,"ĠìķĦëĵ¤ìĿ´":3338,"ê³¼ëĬĶ":3339,"ĠìĺĨ":3340,"ìĤ¬ë¡ľ":3341,"Ġìĥ¤":3342,"ĠìŀĪëĬĶëį°":3343,"ĠìŀĪì§Ģë§Į":3344,"Ġìĭľíĭ°":3345,"ĠìĨĶ":3346,"Ġì§Ģìĥģ":3347,"Ġì§ĢëĤľ":3348,"ë³ĢìĿ´":3349,"ĠìłĦíĺĢ":3350,"ĠëĲĺê¸°":3351,"ëĭĪìĿĺ":3352,"ëĭĪìĸ´":3353,"Ġëª¨ìĹ¬":3354,"Ġì°į":3355,"Ġìĸ´ë¦´":3356,"íĦ°ëĬĶ":3357,"íĦ°ìĿĺ":3358,"ĠëĮĢíĺķ":3359,"Ġê²ĥëıĦ":3360,"ë¶Ģê°Ģ":3361,"ìĪĺíķľ":3362,"Ġì¡±":3363,"ĠìĻľ":3364,"ĠëıĦìĤ¬":3365,"Ġë³´ê²Į":3366,"ĠìĬ¤ì½":3367,"ĠìĬ¤íİĺ":3368,"ĠìĨĮìĨį":3369,"ĠìĨĮìĦ¤":3370,"ĠìĹĨëįĺ":3371,"ĠìĹ¬ê¸°":3372,"ĠìĹ¬ìłĦíŀĪ":3373,"ìĥĿíĻľ":3374,"ìłľë¡ľ":3375,"ë¹Ħë¥¼":3376,"ëħĦëĮĢ":3377,"ëħĦê°Ħ":3378,"Ġë¶Ģì¡±":3379,"ìĺ¤ìĿĺ":3380,"Ġìĺ¤ì§ģ":3381,"Ġê³µê°Ħ":3382,"ëłĪëĵľ":3383,"ĠíĮĮìĿ¼":3384,"ĠíĮĮê²¬":3385,"ëĦĺ":3386,"ë¬´ìĭľíķľ":3387,"ì¶©":3388,"íı°":3389,"Ġê²°ìĦ±":3390,"ìĭ¤ìĹĲìĦľ":3391,"Ġì£½ê³ł":3392,"ìĦ¸ê¸°":3393,"Ġì¹ľêµ¬ëĵ¤ìĿĦ":3394,"ĠìĿĺìĭ¬":3395,"Ġìĸ½":3396,"Ġì§ĳìķĪ":3397,"Ġë¶ĦìľĦ":3398,"ĠëĬĳëĮĢ":3399,"Ġì°¾ìķĦê°Ħëĭ¤":3400,"Ġê²½ìŁģ":3401,"ĠìĥĪë¡ľ":3402,"ì§ģíķľ":3403,"ë¦¬ìĬ¤ëĬĶ":3404,"ĠíĿ¥":3405,"ĠíĮħ":3406,"ĠìĤ¬ê±´ìĹĲ":3407,"ĠìķĦìĿ´ëĵ¤ìĿ´":3408,"ĠìķĦìĿ´ìĸ¸":3409,"Ġê°ķëıĦ":3410,"ĠìĿ¸ê°Ħëĵ¤ìĿĢ":3411,"Ġë¦¬íĶĮ":3412,"Ġíķľëĭ¤ëĬĶ":3413,"Ġëª©ìłģ":3414,"Ġë°©íķ´":3415,"ìľłìĿĺ":3416,"íļĮìĹĲ":3417,"íļĮë¥¼":3418,"Ġì¢Į":3419,"ĠëıĮìķĦê°Ī":3420,"ĠìķŀëĳĶ":3421,"ĠìķŀëĳĲê³ł":3422,"Ġê´Ģëł¨":3423,"ĠìľĦíĹĺì²ľ":3424,"ĠìĤ¬ìĿ´ë¨¼":3425,"Ġë²Ħë¦°":3426,"ĠìĪ¨ë§ī":3427,"Ġíĸ¥íķĺëĬĶ":3428,"Ġë¬¼ëł¤":3429,"ìļķìĿĦ":3430,"Ġê³³ìĿĢ":3431,"ĠìĤ¬ëĿ¼ì§Ģê³ł":3432,"ë©Ķë¦¬ì¹´":3433,"Ġê²ĥìĿ´ëĿ¼ëĬĶ":3434,"ĠìķĦëĤ´ìĻĢ":3435,"Ġëŀľ":3436,"ë²Īì§¸":3437,"ĠìĹŃìĤ¬":3438,"ĠëıĦìĭľë¥¼":3439,"ĠìĦľë¡ľìĹĲê²Į":3440,"ĠíĥĪì¶ľìĿĦ":3441,"Ġì²«ëĤł":3442,"Ġìŀ¡ìķĦ":3443,"ìĺĢëĭ¤":3444,"Ġë¯¿ê³ł":3445,"Ġë¹ĮëŁ°":3446,"ĠíĻ©ê¸Ī":3447,"Ġìĺ¬ëĿ¼":3448,"Ġê°ĳìŀĳ":3449,"ĠìłĦìĦ¤ìłģìĿ¸":3450,"ĠêµŃê°Ģ":3451,"ëıħíķľ":3452,"íŀĮëĭ¤":3453,"ĠëĿ¼ìĿ´ìĸ¸":3454,"Ġë°ľìĥĿíķĺê³ł":3455,"íķĺëł¤ê³ł":3456,"ì¦ĿìĿĦ":3457,"Ġìĭłë¹Ħë¡ľìļ´":3458,"ìĻĶëįĺ":3459,"Ġë¯¸ìĬ¤íĦ°ë¦¬íķľ":3460,"Ġëĵ¤ìĸ´ê°Ģê²Į":3461,"Ġëľ¨ê±°ìļ´":3462,"ĠëŃī":3463,"ĠìĿ´ìľłë¡ľ":3464,"Ġìļķë§Ŀ":3465,"Ġë¶Īê°ĢëĬ¥íķľ":3466,"ĠìĺģìĽĲíŀĪ":3467,"ĠTV":3468,"Ġë¶Ļìŀ¡":3469,"Ġë°ĶìĿ´ëŁ¬":3470,"Ġë°ĶëĢĮ":3471,"ĠíħĮëŁ¬ë¦¬ìĬ¤íĬ¸":3472,"Ġë©ĭì§Ħ":3473,"ĠìĮįëĳ¥":3474,"Ġìļ°ìĹ¬ê³¡ìłĪ":3475,"¤Ħ":3476,"¬ëŀĢ":3477,"±íķľ":3478,"ë¤Ħ":3479,"ìµľ":3480,"íĵ¨":3481,"īìĿĢ":3482,"Ĳë¦¬":3483,"Ġëļ":3484,"ìĿ´ëĬĶëį°":3485,"ìĿ´ëĵł":3486,"ìķ¡":3487,"ìķŀ":3488,"ì§ĢëıĦ":3489,"ë¦¬íı¬":3490,"Ġë§º":3491,"Ġë§İ":3492,"Ġê·¸ë£¨":3493,"ëįķ":3494,"ëĵ¤ìĹ¬":3495,"ê¸°ìĻĢ":3496,"ê¸°ë§Į":3497,"Ġê°ĵ":3498,"Ġê°Ļ":3499,"íķ´ì§Ħëĭ¤":3500,"ìĿ¸ëį°":3501,"ĠìĤ¬íĥľ":3502,"ĠìĿ´ê²ĥ":3503,"ìĸ´ëĬĲ":3504,"Ġì§Ŀ":3505,"ëŀ¨":3506,"ĠìĦĿ":3507,"ìĹĲìĦľìĿĺ":3508,"ë§ĮìĹĲ":3509,"ë§ĮìĿĢ":3510,"ëıĦìĿĺ":3511,"Ġë§Īë¦¬ìķĦ":3512,"Ġíķĺëĭ¤":3513,"ìĽ¬":3514,"ëª°":3515,"ĠìĭľëĮĢ":3516,"ĠìŀĲìĤ´":3517,"Ġì§Ģíľĺ":3518,"ìĭłìĿĺ":3519,"ëĵľë²¤":3520,"íĬ¸ìĻĢ":3521,"ìĥģìľ¼ë¡ľ":3522,"ì²¼":3523,"Ġìĸ´ëĵľë²¤":3524,"ĠìĿ¸íĦ°":3525,"ĠìĿ¸ìłķ":3526,"ë§ĪìĬ¤":3527,"ë¶ĢëĬĶ":3528,"ĠëıĦë¯¸":3529,"ĠìĬ¤íģ¬":3530,"Ġê¸°ì°¨":3531,"ë²Ħê·¸":3532,"ìĨĲ":3533,"ëĶ°":3534,"ĠìķĮëĿ¼":3535,"Ġë¬´ìŀ¥":3536,"Ġê³łìķĦ":3537,"ìĺ¤ëĶĶ":3538,"Ġìĺ¤íŀĪëł¤":3539,"Ġê±°ë¯¸":3540,"ĠìľłìłĦ":3541,"Ġìľłíĺ¹":3542,"ê·Ħ":3543,"Ġìĭłëį°ëłĲ":3544,"ëĲĺë©´ìĦľ":3545,"Ġì£¼ìĭĿ":3546,"Ġì¡°ìĤ¬":3547,"Ġì¡°ê¸Ī":3548,"âĢ¦.":3549,"ĠìĤ¬ëŀĮëĵ¤":3550,"ì¶°":3551,"ĠëĤłìķĦ":3552,"ê±´ìĿĦ":3553,"Ġíķ´ë³Ģ":3554,"Ġì£½ìĸ´":3555,"ìĦ¸ìĬ¤":3556,"Ġì¹ľêµ¬ë¥¼":3557,"ĠìĿĺìĤ¬":3558,"Ġë¡ł":3559,"Ġ18":3560,"ìĦłìĿĦ":3561,"ĠìĹ°ìķł":3562,"ĠìĹĲë°Ģ":3563,"ĠíĹĺ":3564,"ĠìĤ¬ê±´ìľ¼ë¡ľ":3565,"ĠìķĦìĿ´ê°Ģ":3566,"Ġë§ŀìķĦ":3567,"ĠìĿ¸ê°Ħê³¼":3568,"Ġê°Ĳì§Ģ":3569,"Ġë°ĺëŀĢ":3570,"ĠìĦłë¬¼":3571,"Ġëĭ¨ìĦľ":3572,"ĠìĺĪì¸¡":3573,"Ġì¶ĶëĿ½":3574,"ĠëĴ¤ë¡ľ":3575,"ĠíıŃíĮĮ":3576,"ĠíıŃíĥĦ":3577,"ĠëĤ¨ìŀĲë¥¼":3578,"Ġìĺ¨ëĭ¤":3579,"Ġì½ĶëĦĪ":3580,"ëłĪìĿ´ëĵľ":3581,"Ġëĵ¤ìĸ´ê°Ħ":3582,"ì´ī":3583,"ĠìłĦìŁģìĿ´":3584,"ĠëĶ°ëľ»":3585,"ìĪłìĿĦ":3586,"ĠìĬĪëłī":3587,"Ġë³´ëĤ´ëįĺ":3588,"ĠìĻĦìłĦíŀĪ":3589,"ĠìĹĦë§ĪìĻĢ":3590,"ëĥĲ":3591,"Ġë¯¿ì§Ģ":3592,"íĳ¼":3593,"Ġì»¤íĶĮ":3594,"ĠìľłìĿ¼íķĺê²Į":3595,"Ġê°ĸê²Į":3596,"Ġíĳ¸":3597,"íķ´ìķ¼ë§Į":3598,"ì»¨":3599,"ì»¬":3600,"ĠëĬĲëģ¼ê³ł":3601,"ĠíĶ¼íĦ°ëĬĶ":3602,"Ġë¹Ħíĸīê¸°":3603,"ëĤ¬ëĭ¤":3604,"Ġì²´íı¬":3605,"Ġëĭ¥íĦ°":3606,"ĠìĿ¼íĸīìĿĢ":3607,"ĠëĳĲëł¤ìĽĢ":3608,"Ġê·¸ê²ĥìĿĢ":3609,"ĠìĥĿëªħì²´":3610,"Ġë®¬ëŀĢ":3611,"ë°ĸìĹĲ":3612,"ĠëĬĲëĤĢëĭ¤":3613,"Ġìŀĥìĸ´ë²Ħë¦°":3614,"ëĪĪìĹĲ":3615,"Ġìº¡íĭ´":3616,"ĠìĬ¤ì½§":3617,"ĠìľĦíĹĺì²ľë§Įíķľ":3618,"ĠëĶ°ëľ»íķľ":3619,"¡ìĿĢ":3620,"¥¬":3621,"º¼":3622,"ëĩĮ":3623,"ì«ĵ":3624,"ì¥Ĳ":3625,"ì¾Į":3626,"ìĿ´ìĹĪ":3627,"ìĿ´ëŀĢ":3628,"íķĺë£¨":3629,"ìķĻ":3630,"ìłł":3631,"Ġê·¸ëĵ¤ìĹĲê²Į":3632,"ê²ĮìŀĦ":3633,"ìĬ¤íį¼":3634,"ìĬ¤íĨ¤":3635,"ìľĮ":3636,"ĠìĤ¬ê¸°":3637,"ĠìĿ´íĥĪ":3638,"ĠìĿ´ëķĮ":3639,"ìŀĲìĹ°":3640,"ìŀĲë¯¼":3641,"ìľ¼ëĤĺ":3642,"ëĤĺìĿ´":3643,"ĠìľĦìŀ¥":3644,"ë©ĺ":3645,"ë©ľ":3646,"Ġìĺ®":3647,"ìĭľìĻĢ":3648,"ìĭľì°©":3649,"ìĭľíĤ¬":3650,"Ġê°Ģë¡ľ":3651,"Ġê°Ģë©´":3652,"Ġê°Ģë¥´":3653,"ĠìŀĪìĹĪëįĺ":3654,"ĠìŀĲìĹ°":3655,"Ġìĸ´ìļ¸":3656,"Ġëĵł":3657,"ì¹ĺëįĺ":3658,"ĠëĮĢíķŃ":3659,"ĠìľĦíķ´ìĦľëĬĶ":3660,"ĠìĿ¼ìĿĢ":3661,"ĠëıĦë¡ľ":3662,"Ġë§ĮìĹĲ":3663,"Ġë§ĮëĤ¨":3664,"Ġë³´ëĤ¸":3665,"ĠìĬ¤íĥ":3666,"ĠìĬ¤íĨł":3667,"Ġê¸°ê´´":3668,"Ġê¸°ìģ":3669,"ë²Ħë¦¬ê³ł":3670,"Ġëįķ":3671,"Ġë¬´ì°¨":3672,"ĠìĹ¬ëıĻìĥĿ":3673,"ë¹Ħê°Ģ":3674,"ë¹ĦìĬ¤":3675,"Ġë¶Ģíķĺ":3676,"Ġë¶ĢëĮĢ":3677,"ĠìĭľìŀĳëĲĺëĬĶëį°":3678,"ĠìłľêµŃ":3679,"ĠíĻį":3680,"ìĸĢ":3681,"ĠíĮĮëĿ¼":3682,"Ġì°¾ê³ł":3683,"Ġìĭłê²½":3684,"Ġë¶Īìĭľì°©":3685,"Ġì£½ìĿ¸":3686,"ì²´ìĿĺ":3687,"ìĦ¸ìĿĺ":3688,"ìĦ¸ë¥¼":3689,"Ġëģ¼":3690,"ìĹ°ìĿĦ":3691,"ìĨĮë¡ľ":3692,"Ġëħ¹":3693,"ìĦłëĭ¤":3694,"ĠìĹĲìĬ¤":3695,"Ġë¡ľë²Ħ":3696,"Ġíİł":3697,"Ġëª»íĸĪëįĺ":3698,"Ġëį°ë¦¬ê³ł":3699,"ĠíĽĦê³Ħ":3700,"ĠìķĦìĿ´ë¥¼":3701,"ĠìķĦìĿ´ëĵ¤ìĿĢ":3702,"ìĽĮëĵľ":3703,"ĠìķĪìĹĲìĦľ":3704,"ĠìĿ¸ê°ĦìĿĦ":3705,"Ġíĺ¸íģ¬":3706,"êµ°ìĿĦ":3707,"ëįĶëĬĶ":3708,"ì¼Ħ":3709,"ìľłíķľ":3710,"Ġê³Ħê¸°ë¡ľ":3711,"Ġëĭ¬ëł¤":3712,"Ġì§Ģêµ¬ëĬĶ":3713,"ĠìĺĪìĪĺ":3714,"Ġë§ĪìĿĦìĹĲìĦľ":3715,"Ġê´Ģíķľ":3716,"Ġë²ĮìĿ¸ëĭ¤":3717,"Ġìļ´ìłĦ":3718,"ì¤ĳíķľ":3719,"Ġë§īìķĦ":3720,"ĠëĳĶ":3721,"Ġì¦ī":3722,"Ġê¹¨ìĸ´ëĤĺ":3723,"Ġê¹¨ìĸ´ëĤľ":3724,"Ġê³³ìĹĲ":3725,"ĠìĤ¬ëĿ¼ì¡Į":3726,"ĠíķĺëĤĺìĿĺ":3727,"ĠíĬ¸ëłĪìĿ´":3728,"Ġê±¸ëł¤":3729,"Ġë°ķìĤ¬":3730,"Ġìĭ¸ìĽĢìĿĦ":3731,"ĠíĥĪì¶ľíķľ":3732,"ë°ĽëĬĶ":3733,"ë°ĽëĬĶëĭ¤":3734,"Ġì¼Ħ":3735,"Ġì¡°ì§ģìĹĲ":3736,"ĠìĤ¬ê³łê°Ģ":3737,"Ġê²°íĺ¼ìĭĿ":3738,"Ġì´ĿìĿĦ":3739,"Ġì»¤ìł¸":3740,"ĠìķĶíĺ¸":3741,"ĠíĮĢìĿĦ":3742,"Ġê³µíı¬ìĹĲ":3743,"Ġê°ĸê³ł":3744,"Ġëį°ìĿ´ë¸Į":3745,"ëĨĢ":3746,"ĠìĤ´ìķĦëĤ¨ê¸°":3747,"Ġë°©ë²ķìľ¼ë¡ľ":3748,"íĿĳ":3749,"Ġì¢ĭìĿĢ":3750,"Ġì¶ķìłľ":3751,"ìĭ±íĦ´":3752,"ĠìĬ¬íĶĶ":3753,"Ġíģ¬ë¦¬ìĬ¤ë§ĪìĬ¤ë¥¼":3754,"ĠëĦĪë¬´ëĤĺ":3755,"Ġë¶Ģíĥģíķľëĭ¤":3756,"ë©ĶìĿ´ìħĺ":3757,"Ġë¬´ìĭľë¬´ìĭľíķľ":3758,"Ġê·¸ëłĩê²Į":3759,"Ġê³łìĸĳìĿ´":3760,"Ġê½ĥ":3761,"ĠìĬ¤íĭ°ë¸Į":3762,"Ġë¹Ħë¡¯íķľ":3763,"ĠìĪ¨ë§īíŀĪëĬĶ":3764,"Ġë¬´ì°¨ë³Ħ":3765,"©ë³´":3766,"µíĳ¸":3767,"½ê²Į":3768,"ê¶":3769,"ĠB":3770,"ĠK":3771,"ĠX":3772,"íķĢ":3773,"ìĹĲê²Ĳ":3774,"ëĭ¤ìĭľ":3775,"ê°ĻìĿĢ":3776,"ê²Ģ":3777,"ĠìķĻ":3778,"ìĭ¼":3779,"ë¦¬ëĤĺ":3780,"Ġê·¸ëķĮ":3781,"Ġìłł":3782,"Ġê°Ķ":3783,"íķ´ì§Ģê³ł":3784,"Ġë°´":3785,"ìĿ¸ëĵ¤ìĿĢ":3786,"ĠëĤ¡ìĿĢ":3787,"ĠìĤ¬ì§Ħ":3788,"ìĸ´ìĦľ":3789,"ìŀĲëĵ¤ìĿĦ":3790,"ìŀĲëĵ¤ìĿ´":3791,"Ġê³¤":3792,"Ġê³°":3793,"ìľ¼ëł¤ëĬĶ":3794,"ìĥĺ":3795,"ëĤĺë¨¼":3796,"ëŁ¿":3797,"ĠìķĦëŀĺ":3798,"Ġíķĺë©´":3799,"ìĽ¨ìĿ´":3800,"Ġìĭľë¯¼":3801,"ĠìĪĺëħĢ":3802,"ĠìĪĺê°Ĳ":3803,"ĠìĪĺë°±":3804,"ëĵľìĭľ":3805,"ĠëĲĺìĤ´":3806,"ìĥģìĹĲ":3807,"ìĥģíķľ":3808,"ì¹ĺìĿĺ":3809,"ĠëĮĢëł¹":3810,"Ġê²ĥìľ¼ë¡ľ":3811,"ìłģìĿ´ê³ł":3812,"ì£¼ê³ł":3813,"ĠëĤĺë¬´":3814,"ĠìĿ¼ìĥĿ":3815,"ĠìĿ¼ëĵ¤ìĿ´":3816,"Ġë§Įëĵłëĭ¤":3817,"Ġë§Įíģ¼":3818,"Ġë³´ìĿ´ì§Ģ":3819,"ĠìĬ¤ë¦´":3820,"ĠìŀĲìĭłëıĦ":3821,"ë²Ħë¦¬":3822,"ìłĦíĬ¸":3823,"ìłĦìŁģ":3824,"ë¦°ìĿĢ":3825,"ĠìĹĨëĭ¤ëĬĶ":3826,"ëªħìĿ´":3827,"ìĿ¼ë¦¬":3828,"ìĿ¼ê¹Į":3829,"ĠìĭľìŀĳëĲľ":3830,"ë¥´ìĿĺ":3831,"ëł¥íķľ":3832,"ëł¥ìľ¼ë¡ľ":3833,"ĠëĤ¨ê¸´":3834,"Ġìĺ¤ëĬĶ":3835,"ë¯¸êµŃ":3836,"Ġì°¾ìĿĢ":3837,"Ġë°ĶëĿ¼":3838,"ĠëıĻíĻĶ":3839,"ĠëıĻëĦ¤":3840,"ĠëıĻêµ´":3841,"Ġêµ¬ìĦ±":3842,"Ġìĥģìĸ´":3843,"Ġì¡°ìļ©":3844,"ìķĪìĿĢ":3845,"ĠëĤłìĿ´":3846,"Ġì£½ìĿ´":3847,"Ġì¤ĳìļĶíķľ":3848,"ì½¥":3849,"Ġì¹ľêµ¬ìĿ¸":3850,"Ġìµľì²":3851,"Ġì°¾ìķĦìĻĢ":3852,"Ġ100":3853,"ĠëĳĲëª©":3854,"ĠìĥĪë¡Ńê²Į":3855,"Ġê¸Ģ":3856,"íĶ¼ëĬĶ":3857,"ĠìĦľì»¤ìĬ¤":3858,"ĠìĦ±ê²©":3859,"ĠìĤ´ìķĦê°Ģëįĺ":3860,"Ġìŀ¥ìķħ":3861,"Ġê°Ĳëıħ":3862,"Ġë°ĺëĵľìĭľ":3863,"ĠìĦłìĪĺ":3864,"ĠìĦłìĥĿ":3865,"Ġì²ĺíķĺê²Į":3866,"Ġëĭ¨ì§Ŀ":3867,"Ġë§ĮëĤĺê³ł":3868,"Ġìŀĳê°Ģ":3869,"ĠìĺĪê¸°":3870,"Ġë§ĪìĿĦë¡ľ":3871,"ĠíıīìĨĮ":3872,"ĠìłĢìĬ¹":3873,"Ġíı¬íķ¨":3874,"ë°ĶìĿ´":3875,"Ġì´ĪëĬ¥":3876,"ĠìłģìĿ´":3877,"ĠìłģìĿĳ":3878,"ĠíĥĪì·¨":3879,"Ġíĸ¥íķĺëĬĶëį°":3880,"ĠìĨĲìĿĦ":3881,"ĠìĤ´ìĿ¸ìĿĦ":3882,"ĠìĽĲíķĺëĬĶ":3883,"Ġëĺĳ":3884,"ìĬµëĭĪëĭ¤":3885,"ĠìłĦìŁģìĹĲ":3886,"Ġê¹¨ëĭ¬":3887,"ĠìľĦíĺĳìĿĦ":3888,"Ġëŀĺ":3889,"ĠëŀŃ":3890,"ĠìĨĮëħĢê°Ģ":3891,"ĠìĿ¸ë¥ĺëĬĶ":3892,"ĠíĹ¤ìĸ´":3893,"ĠìĥģíĻ©ìĿĦ":3894,"ìĺĢì§Ģë§Į":3895,"Ġë³µìĪĺìĿĺ":3896,"ìŀĪëįĺ":3897,"Ġëª¨íĹĺìĿ´":3898,"ĠìĨĮëħĦìĿ´":3899,"Ġìļ´ëªħìĿ´":3900,"íķ©ëĭĪëĭ¤":3901,"ĠìŀŃìĿĢ":3902,"ĠìĥĿì¡´ìĿĦ":3903,"Ġë§ĪìĿ´ìĸ´":3904,"ĠíĥĲíĹĺ":3905,"ĠìĭĿëŁī":3906,"ĠíĸīìĦ±ìĿĺ":3907,"Ġëª¸ìĹĲ":3908,"ë²¤ìł¸":3909,"Ġê²ªê²Į":3910,"ìĬ¤íĥĢìĥ¤":3911,"ĠìĻĢì¤ĳìĹĲ":3912,"ĠìłľìķĪíķľëĭ¤":3913,"ĠíĮĮíĭ°ìĹĲ":3914,"ĠëĽ°ìĸ´ëĤľ":3915,"ĠëģĮìĸ´":3916,"Ġê³ĦìĨįíķ´ìĦľ":3917,"ĠìłĦíĪ¬ë¥¼":3918,"Ġë°ĸìĹĲ":3919,"ëĶĺìĿĢ":3920,"Ġìŀĺëª»":3921,"Ġê°ĩíĺĢ":3922,"ìłľìĿ´ìĬ¨":3923,"ĠìĿ´ëģĮê³ł":3924,"ĠëģĬìŀĦ":3925,"ĠìĽĮìĭ±íĦ´":3926,"Ġìĺģíĺ¼ìĿĦ":3927,"Ġëľ»íķĺì§Ģ":3928,"ĠíĿĶëĵ¤":3929,"ĠìĮĵ":3930,"Ġê°Ĳìĺ¥ìĹĲ":3931,"Ġìĭ¤ì¢ħëĲľ":3932,"Ġë®¤":3933,"ĠíĸĪëįĺ":3934,"Ġë²¤ìŀĲë¯¼":3935,"ĠíĿĳìĿ¸":3936,"ĠìĹ°ìĩĦìĤ´":3937,"ĠìķłëĭĪë©ĶìĿ´ìħĺ":3938,"Ġì¼Ģë¹Ī":3939,"Ġì¿µíĳ¸":3940,"Ġë¥´":3941,"ĠíĥĳìĬ¹":3942,"Ġê°ķìķĦì§Ģ":3943,"ĠíĻĶëł¤íķľ":3944,"ĠíĮĮìĿ¼ëŁ¿":3945,"Ġìĸ´ëĵľë²¤ì²ĺ":3946,"re":3947,"¬ìĺģ":3948,"íĽ":3949,"Ġ:":3950,"ĠI":3951,"ĲìĿĺ":3952,"Ġì¥Ĳ":3953,"ëĭ·":3954,"íķĺëĤĺ":3955,"ê°ĢëĬĶëį°":3956,"ë¦¬ìĺ¤":3957,"ĠìĹłë§Ī":3958,"ìĿ¸ìĿ¸":3959,"ĠëĤ³":3960,"ĠìĿ´ëĵ¤ìĿ´":3961,"ĠìĿ´íĺ¼":3962,"ĠìĿ´ê²¨":3963,"ìĸ´ëĤł":3964,"ìķĦëĬĶ":3965,"ìŀĲë²ł":3966,"ĠìķĦëĵ¤ìĿĺ":3967,"ĠìķĦë©Ķë¦¬ì¹´":3968,"ìĹĲìĦľëıĦ":3969,"Ġë§ĪìĪł":3970,"ìĤ¬ìĿ´":3971,"ìĽ°":3972,"ĠìŀĲë¦¬ë¥¼":3973,"ìĭłìĿĢ":3974,"ĠëĲĺëıĮ":3975,"ëĭĪíį¼":3976,"Ġëª¨ìķĦ":3977,"Ġë¬ĺ":3978,"Ġë¬¸ìĿĦ":3979,"ê°ĦìĿĺ":3980,"íĦ°ë¡ľ":3981,"íĻį":3982,"ë§Īíģ¬":3983,"Ġê²ĥì²ĺëŁ¼":3984,"ìłģíķľ":3985,"ĠëĤĺëĤłìĿĦ":3986,"ĠìĦ¸ìļ´ëĭ¤":3987,"ĠìĿ¼ìĸ´ëĤľ":3988,"ĠëıĦë°ķ":3989,"ĠëıĦëĳĳ":3990,"ĠìĨĮëł¨":3991,"Ġëįĺ":3992,"ìłĦìĿĺ":3993,"ĠìķĮìķĺëįĺ":3994,"Ġë¬´ê¸°ë¥¼":3995,"ĠìĹ¬ìłķ":3996,"ìĽĲìĿ¸":3997,"ìĿ¼ìĿĦ":3998,"ëħĦìĿĦ":3999,"Ġìłķë³µ":4000,"ĠìłķëıĦë¡ľ":4001,"íĥĢìĿĺ":4002,"ë¥´ëħ¸":4003,"Ġê³łë¦½":4004,"Ġìĺ¤ê²Į":4005,"Ġìĺ¤ëŀ«":4006,"ë¯¸ìĿĺ":4007,"íģ¬ìĻĢ":4008,"Ġìľłì§Ģ":4009,"ĠìľłìĿ¸":4010,"ĠìĥĿë¬¼":4011,"íĸīíķľëĭ¤":4012,"ë³´ìĿ´":4013,"Ġìļ°ìĬ¹":4014,"Ġì£¼ë¯¼":4015,"Ġì£¼ë¨¹":4016,"ĠìĽ¨":4017,"ĠëģĪ":4018,"Ġë©ĺ":4019,"Ġì´¬ìĺģ":4020,"ìĭ¬ìĹĲ":4021,"ĠëĸłëıĮ":4022,"ëŀĢìĭľ":4023,"ĠíĿ©":4024,"ĠíĿī":4025,"íĺ¸ìĤ¬":4026,"ĠìķĦìĿ´ìĿĺ":4027,"ĠìķĦìĿ´ëĵ¤":4028,"Ġëħ¸ë¦¬ê³ł":4029,"Ġëħ¸ì¶ľ":4030,"ĠìĿ¸ê°ĦìĿ´":4031,"Ġì§ĦíĻĶ":4032,"Ġì§Ħìĭ¤":4033,"Ġë°ĺëĮĢ":4034,"ĠëłĪìĺ¤":4035,"ìĸ¸ìĿĦ":4036,"Ġì²ĺíķľëĭ¤":4037,"ĠìĻ¸ëª¨":4038,"Ġëĭ¬ëŁ¬":4039,"ĠìĦ¸ìĥģìĿĺ":4040,"Ġìŀ¬íļĮ":4041,"ì³¤":4042,"ĠíĨłëĭĪ":4043,"ĠìĹ´ì°¨":4044,"Ġê°ľìĿĺ":4045,"Ġì«ĵê²¨":4046,"ĠìłĦìŁģìĿĺ":4047,"Ġê¹¨ìĸ´ëĤľëĭ¤":4048,"Ġê³³ìĿĦ":4049,"ĠìĤ¬ëĿ¼ìł¸":4050,"ĠìłĪë§Ŀ":4051,"ëĸ¨":4052,"ĠìķĦëĤ´ê°Ģ":4053,"ëŀľëĵľìĿĺ":4054,"ë¦´ëĿ¼":4055,"ĠíĤ¤ìĽĮ":4056,"Ġëª°ëł¤":4057,"Ġë¯¸êµŃìĿĺ":4058,"Ġìŀ¡íĺĢ":4059,"000":4060,"ĠëĪĪìĹĲ":4061,"Ġëī´ìļķìľ¼ë¡ľ":4062,"ĠìĹĦë§ĪìĿĺ":4063,"ĠíĭĪ":4064,"ĠëĦĺìĸ´":4065,"ĠíŀĺìĿ´":4066,"Ġë²Ķì£Ħë¥¼":4067,"Ġëıħë¦½":4068,"Ġì¹¨ê³µ":4069,"Ġë¯¸ëŀĺìĿĺ":4070,"Ġê°ģìŀĲìĿĺ":4071,"Ġë§ĪìĿĮìĿ´":4072,"Ġìĸ´ë¦°ìĿ´":4073,"ĠíĥĲìĤ¬":4074,"Ġëĭ´ìĿĢ":4075,"ì¶Ķê³ł":4076,"ĠìĤ¼ì´Į":4077,"Ġìłķë¶ĢìĿĺ":4078,"Ġëĸ¨ìĸ´ìł¸":4079,"Ġê·¼ì²ĺ":4080,"ìĻ¸íķľ":4081,"ìĹ´íķľ":4082,"ĠíĿ¬ë§ĿìĿĦ":4083,"íľ´":4084,"ìĬĪíį¼":4085,"ĠìĿ¼ìľ¼íĤ¤":4086,"Ġê¶ģê¸Ī":4087,"ĠìĤ¬ìĭ¤ìĿ´":4088,"Ġíģ¬ë£¨ì¦Ī":4089,"Ġìĥģì²ĺë¥¼":4090,"Ġì»´íĵ¨":4091,"ĠìķĦíĶĦë¦¬ì¹´":4092,"Ġìŀ¥ëĤľê°Ĳ":4093,"Ġìĸ´ì©Ķ":4094,"ĠíĿĺëŁ¬":4095,"Ġëı¼ì§Ģ":4096,"Ġë¬´ìĦľìļ´":4097,"ĠìĮįëĳ¥ìĿ´":4098,"Ġê¸°ê´´íķľ":4099,"ĠìĺĪê¸°ì¹ĺ":4100,"in":4101,"ll":4102,"¸Ĳ":4103,"½ê³ł":4104,"ëİ":4105,"ë¸Ĳ":4106,"ĠJ":4107,"ĠV":4108,"Ĳëįĺ":4109,"Ńê·Ħ":4110,"Ġì³":4111,"ĠëĩĮ":4112,"íķĳ":4113,"Ġêº¼":4114,"ê³±":4115,"ìĿ´íĬ¸":4116,"ëĭ¤ëĭĪ":4117,"íķľìĿĺ":4118,"ì§ĪìĿĦ":4119,"ëĤ¨ìĿĦ":4120,"ê°ĢìĿ´":4121,"ê°ĢìĹĲ":4122,"ê°Ģë©°":4123,"Ġë§¹":4124,"Ġê·¸ë§Į":4125,"Ġê·¸ëłī":4126,"ëĵ¤ê²Į":4127,"ìĬ¤ë§¨":4128,"ìĬ¤íħľ":4129,"íķ´ìł¸":4130,"Ġë°¥":4131,"ĠìĤ¬ì´Į":4132,"Ġìľħ":4133,"ĠìĿ´ëŁ¬":4134,"ĠìĿ´ìĤ¬ë¥¼":4135,"ĠìĿ´ë¤Ħ":4136,"ìĸ´ë¥¼":4137,"ìĸ´ë¦°":4138,"ìķĦìĿ´":4139,"ìķĦë¥¼":4140,"ëĿ¼ìĹĲ":4141,"ëĿ¼ëĵľ":4142,"ëĿ¼ìļ°":4143,"ìľ¼ëĭĪ":4144,"ìľ¼ë©´":4145,"ëĤĺë¥¼":4146,"ëĤĺê²Į":4147,"ĠìľĦë¡ľ":4148,"ĠìľĦëĮĢíķľ":4149,"ĠìľĦê¸°ê°Ģ":4150,"ĠìķĦê¸°":4151,"ĠìķĦë§Ī":4152,"ĠìķĦì£¼":4153,"ĠìķĦëĭ´":4154,"ìĭľì¹´":4155,"ëıĦìĸ´":4156,"Ġë§ĪìĬ¤":4157,"Ġë§Īìĭľ":4158,"Ġê°Ģë¬¸ìĿĺ":4159,"ĠìŀĪê²Į":4160,"ë¬ĺ":4161,"ìĭłìĿ´":4162,"ĠìłĦíĻĶë¥¼":4163,"ëĵľë¦¬":4164,"êµ¬ìĹŃ":4165,"Ġëª¨ìŀĲ":4166,"Ġìĸ´ëĳĲ":4167,"Ġêµ´":4168,"íĻķ":4169,"ë¹ħ":4170,"ë¹Ľ":4171,"ë§Īì¹¨":4172,"Ġíķľë³µ":4173,"ìĪĺê°Ģ":4174,"ĠëĤĺëĬĶ":4175,"ê³ĦìĿĺ":4176,"Ġì²©ë³´":4177,"Ġê¸°ëĮĢ":4178,"Ġê¸°ëħĲ":4179,"ĠìĨĮë¦¬":4180,"ĠìĨĮìĭĿ":4181,"Ġëį®":4182,"Ġë¬´ìĸ¸":4183,"Ġë¬´ëį¤":4184,"ìĽĲìĹĲ":4185,"íĥĢë¥¼":4186,"Ġë¹ĦëĶĶìĺ¤":4187,"ìĿĮìĿ´":4188,"ë¯¸ìķĦ":4189,"Ġë°Ķê¾¸":4190,"ĠìĥĿê¸´":4191,"ĠëıĻìĽĲ":4192,"ë³´ëĭĪ":4193,"íĻĶê°Ģ":4194,"Ġë°ľëªħ":4195,"Ġìĭłë¬¸":4196,"ëĲĺì§Ģ":4197,"Ġìļ°ìłķ":4198,"Ġì£¼ìĸ´":4199,"ĠìĥģëĮĢ":4200,"Ġëĸ¼":4201,"Ġë¶Īê¸¸":4202,"Ġê²°ê³¼":4203,"íķĺê¸°ë§Į":4204,"Ġì£½ìĿĦ":4205,"Ġì¤ĳìĹĲ":4206,"Ġë©°":4207,"ĠìķĬìķĦ":4208,"Ġìĸĺ":4209,"Ġì§ĳëĭ¨":4210,"ĠíĶ¼ìĺ¤":4211,"Ġ11":4212,"Ġëĵ¤ìĿĢ":4213,"Ġëĵ¤ëł¤":4214,"Ġê³¼íķĻ":4215,"Ġëĸłìĺ¤":4216,"Ġë¹łì§Ģê³ł":4217,"ëĭ¹íķľëĭ¤":4218,"Ġë¦°":4219,"Ġë¡ľë§¨":4220,"Ġë¡ľë²ĦíĬ¸":4221,"ĠíİŃê·Ħ":4222,"ĠìķħìĿĺ":4223,"Ġíĸīíģ¬":4224,"Ġë§Ĳíķľëĭ¤":4225,"Ġë§ĲëłĪ":4226,"Ġê°Ĳìłķ":4227,"Ġë°©ìĭĿìľ¼ë¡ľ":4228,"ê·¸ìĻĢ":4229,"ĠëıĮìķĦìĺ¨ëĭ¤":4230,"ĠìĺĪê³ł":4231,"ê´ĢìĿĦ":4232,"ĠìĦ¸ìĥģìĹĲìĦľ":4233,"Ġê´Ģìĭ¬":4234,"ê°ĲìĹĲ":4235,"Ġì¹´ìĿ¼":4236,"ĠíĤ´":4237,"Ġë§īëĤ´":4238,"Ġë§īê°ķ":4239,"Ġê±±":4240,"ì»¤ë²¨":4241,"ĠìĹ´ìĩł":4242,"ĠìĽĲìĪŃìĿ´":4243,"Ġìŀĥê²Į":4244,"ĠìłĲëł¹":4245,"Ġê¿ĪìĹĲ":4246,"Ġê¿Īê¾¼":4247,"ĠëĶ°ëıĮ":4248,"Ġë£°":4249,"Ġêµ°ìĤ¬":4250,"Ġì§ģê°Ĳ":4251,"ĠëĺĲëĭ¤ìĭľ":4252,"Ġì¶ľìĹ°":4253,"íģ´ëłĪ":4254,"ĠìķĦëĤ´ìĿĺ":4255,"ĠìĤ¶ìĿĺ":4256,"Ġëŀ¨":4257,"ĠìĿĢìĭł":4258,"ĠíĤ¤ìļ°":4259,"ë¡łìĿĢ":4260,"ĠíĻĺìĺģ":4261,"Ġì²«ìĤ¬ëŀĳ":4262,"Ġë£¨ìĭľ":4263,"ĠëĪĪìķŀ":4264,"Ġë¯¿ëĬĶ":4265,"íĥĦìĿĺ":4266,"Ġë§¥ìĬ¤ëĬĶ":4267,"Ġíŀĺìľ¼ë¡ľ":4268,"Ġì¢ħë§Ĳ":4269,"ĠíĮ¨ìħĺ":4270,"ĠìºĲë¦Ń":4271,"ĠíıīíĻĶë¥¼":4272,"Ġëª¨ìĬµìľ¼ë¡ľ":4273,"Ġìĸ»ê¸°":4274,"Ġìķ½íĺ¼":4275,"ìŀ¡ìĿĦ":4276,"ìĭľíĤ¤ê³ł":4277,"ìĭľíĤ¤ê¸°":4278,"ĠíļĮë³µ":4279,"ĠìĻķêµŃìĿĺ":4280,"ìĩ¼":4281,"Ġë¨¸ë¬¼":4282,"ĠìķĦë¹łìĿĺ":4283,"Ġë°ĽìķĦëĵ¤ìĿ´":4284,"Ġìķ¤ëĵľ":4285,"Ġíķĺë£¨íķĺë£¨":4286,"Ġìĸ´ë¨¸ëĭĪë¥¼":4287,"Ġì¼ĢìĿ´ì§Ģ":4288,"ĠìŀĳìłĦìĹĲ":4289,"ĠíĹĪëĿ½":4290,"Ġëĵ±ìŀ¥ìľ¼ë¡ľ":4291,"Ġìķ¨ë¹Ī":4292,"Ġë³´íĺ¸íķĺê¸°":4293,"ëıĪìĿĺ":4294,"ìĵ´":4295,"ĠíĻķìĿ¸":4296,"ê¶ĮìĿĦ":4297,"ĠíĬ¹ìĪĺë¶ĢëĮĢ":4298,"Ġëª©ê²©íķľ":4299,"ĠíķŃìĥģ":4300,"ĠíĶĦëłĪëį°":4301,"Ġë¹ĪìĦ¼":4302,"Ġê¹¨ëĭ«ê²Į":4303,"Ġì£ĦìĪĺ":4304,"ĠëŀĮë³´":4305,"ĠíħįìĤ¬":4306,"Ġê¸°ìĪłìĿĦ":4307,"ĠìĺģìĽĲíķľ":4308,"Ġì¹ĺë£Įë¥¼":4309,"ìį½":4310,"ĠìĪĺìĥģíķľ":4311,"ë¦¬ìļ°ëĵľ":4312,"Ġì§ģìıĺìĿĺ":4313,"ĠëĴ¤ì§ĳìĸ´":4314,"ĠíıĲíĹĪê°Ģ":4315,"ë§ĪìĿ´íģ´":4316,"ĠìķĦìĿ´ìĸ¸ë§¨":4317,"Ġì£¼ìĭĿíļĮ":4318,"Ġê¸°ìģ¨":4319,"Ġìĺ¤ëŀ«ëıĻìķĪ":4320,"Ġíķľë³µíĮĲ":4321,"'.":4322,"SA":4323,"ie":4324,"Â·":4325,"ë»":4326,"ì¥¬":4327,"íĪ":4328,"Ģìĸ´":4329,"ŁìķĦ":4330,"ìĿ´ë©´":4331,"ìĹĲìĿ´":4332,"ìĹĲê³ł":4333,"ëĭ¤ëŀĢ":4334,"ë¡ľìĬ¤":4335,"ë¡ľëĵľ":4336,"ë¡ľìĽĮ":4337,"ê³łìŀĲ":4338,"ìķĻìĿĦ":4339,"ê°ĢìĿĺ":4340,"ë¦¬ëĬĶëį°":4341,"ë¦¬ìĹĲê²Į":4342,"ë¦¬ë²Ħ":4343,"ë¦¬ìķĶ":4344,"Ġê·¸ëŀĺ":4345,"ëĵ¤ëıĦ":4346,"ĠìłĬ":4347,"ìĬ¤ìĹĲê²Į":4348,"Ġê°ĻìĿ´":4349,"ìĦľë¡ľ":4350,"ĠìĹ¼":4351,"Ġë°ĳ":4352,"ĠìĿ´ëĬĶ":4353,"ĠìĿ´ëĵ¤ìĹĲê²Į":4354,"ì¹ĻìĿĦ":4355,"ĠëĭĮ":4356,"ĠìķĦëĬĶ":4357,"ë§Įíģ¼":4358,"Ġë§ĪìĬ¤íĦ°":4359,"Ġë§Īëł¨":4360,"Ġê°Ģê³ł":4361,"Ġê°Ģëįĺ":4362,"Ġê°ĢëĬ¥íķľ":4363,"Ġê°ĢìĬ´":4364,"....":4365,"ìĽł":4366,"ĠìŀĲë§¤":4367,"ĠìłĦê¸°":4368,"ĠìłĦê¹Įì§Ģ":4369,"ĠíķĢ":4370,"Ġëª¨ìľ¼":4371,"Ġìĸ´ëĶĺ":4372,"ì°Į":4373,"ĠëĮĢìľĦ":4374,"ĠëĮĢë¦½":4375,"ĠëĮĢíķĻìĥĿ":4376,"ë¶Ģë¡ľ":4377,"ĠíķľëķĮ":4378,"ĠëĤĺìĺ¤ëĬĶ":4379,"ĠìĤ´ëįĺ":4380,"ĠìĿ¼ìĸ´ëĤľëĭ¤":4381,"ĠìĿ¼ê³±":4382,"ĠëıĦìĻĢ":4383,"Ġë³´ëĬĶ":4384,"ĠìĬ¤ë¯¸ìĬ¤":4385,"ë©´ìĿĦ":4386,"ĠìĨĮíĸī":4387,"ĠìĨĮë¦¬ë¥¼":4388,"ëĤ´ì§Ģ":4389,"ìłĦìĤ¬":4390,"ĠìĹĨê²Į":4391,"ĠìĹĨìĸ´":4392,"ìĽĲìĹĲìĦľ":4393,"ìĿ¼ìĿĺ":4394,"Ġë¶ĢìŀĲ":4395,"Ġìĭľìŀĳíķĺê²Į":4396,"ë¥´ê¸°":4397,"ë¥´ë©°":4398,"ĠìłľëĮĢë¡ľ":4399,"ëł¥ìĿ´":4400,"ëł¥ê³¼":4401,"Ġìĺ¤íķ´":4402,"Ġì°¾ëĬĶëĭ¤":4403,"ëĦ£":4404,"Ġë°ľëłĪ":4405,"Ġêµ¬íķĺê³ł":4406,"ëĲĺê¸°":4407,"Ġìļ°ìłķìĿĦ":4408,"ìĦ±ìĹĲ":4409,"ìĦ±ê³¼":4410,"Ġì£¼ìľĦ":4411,"Ġì£¼ìĸ´ì§Ħ":4412,"Ġìĥģê´Ģ":4413,"ĠìĥģëĮĢë¡ľ":4414,"ìĤŃ":4415,"Ġì¡°ê±´":4416,"âĢ¦!":4417,"ìķĪìĿĺ":4418,"ì¡±ìĿĺ":4419,"ë¬¼ìĿ´":4420,"ìĹĪê³ł":4421,"Ġë¶Īë²ķ":4422,"ì²´ìĹĲ":4423,"íĭ°ëĬĶ":4424,"Ġì¤ĳìĿ´ëĭ¤":4425,"Ġì¹ľêµ¬ìĿ´ìŀĲ":4426,"ĠìµľëĮĢ":4427,"Ġìµľì´Ī":4428,"ìĹ°ë³ĢìĿ´":4429,"Ġì§ĳì°©":4430,"ìĨĮíķľ":4431,"ìĨĮìĹĲìĦľ":4432,"ĠíĶ¼ìĹĲ":4433,"ĠëıĮëł¤":4434,"ë°Ģíķľ":4435,"Ġê²½ê³Ħ":4436,"ë§ĿìĿĦ":4437,"Ġì¡´ìĬ¨":4438,"Ġì½¤":4439,"Ġë§ŀëĭ¥":4440,"Ġê°ķê°Ħ":4441,"Ġíĺ¸ê·¸ìĻĢ":4442,"ĠìĤ¬ëŀĳìĿĺ":4443,"Ġë¦¬ì²ĺ":4444,"ìĤ´ìĿĺ":4445,"Ġë§Ĳìį½":4446,"Ġìŀ¥êµ°ìĿĢ":4447,"Ġê¹Į":4448,"ìĨįìĹĲ":4449,"íĮĶ":4450,"Ġëĭ¬ëĿ¼":4451,"ĠëıĮìķĦìĺ¤":4452,"ĠëıĮìķĦìĻĶ":4453,"ëħ¸ìĬ¤":4454,"ëħ¸íĤ¤":4455,"ĠëĿ¼ìĬ¤":4456,"Ġíıīìĺ¨":4457,"Ġê´Ģìĭ¬ìĿĦ":4458,"Ġë°ľê²¬ëĲľ":4459,"Ġ22":4460,"Ġìŀ¬ëĬ¥ìĿĦ":4461,"Ġì´ĪìĽĶ":4462,"ĠëĪĦëªħìĿĦ":4463,"Ġë²Ħë¦¬ê³ł":4464,"Ġë§īìĿĦ":4465,"ĠìĨĲëĭĺ":4466,"ĠíĨłë¯¸":4467,"ĠìĹ´ë¦¬ëĬĶ":4468,"ìĬµìĿĦ":4469,"Ġì«ĵëįĺ":4470,"Ġì¡´ìŀ¬íķĺëĬĶ":4471,"ĠìĤ¬ëĿ¼ì§ĢëĬĶ":4472,"Ġë£¸":4473,"ĠíķĺëĤĺìĶ©":4474,"Ġìļ©ê¸°ë¥¼":4475,"Ġì§ģë©´":4476,"íĺķìĿĦ":4477,"íħĮëŀĳ":4478,"íħĢ":4479,"Ġë³¸ëĬ¥":4480,"Ġê²ĥìĿ´ëĿ¼":4481,"ĠíĬ¸ë¦¬":4482,"ĠíĬ¸ë¡¤":4483,"ĠìĤ¶ìĹĲ":4484,"ĠëĸłëĤĺëĬĶ":4485,"ĠìĹŃëĮĢ":4486,"Ġìĭ¸ìĽĮ":4487,"Ġê³µê²©ìĹĲ":4488,"ĠíĻĺìĥĿ":4489,"ĠíĹ¤ë§¤":4490,"ĠìĹĦë§Īê°Ģ":4491,"Ġë§Įëĵ¤ê³ł":4492,"Ġë²ĪìĿĺ":4493,"ĠìķĶíĿĳ":4494,"Ġì§ĢíĤ¤ëĬĶ":4495,"Ġëª©ìĪ¨":4496,"Ġê³µíı¬ìĿĺ":4497,"íĤ¨ëĭ¤":4498,"Ġì²ľêµŃ":4499,"Ġë§Īì£¼ì¹ĺê²Į":4500,"ĠìŀĶíĺ¹íķľ":4501,"ĠëıĦì°©íķľëĭ¤":4502,"Ġíķ©ì³Ĳ":4503,"ĠìĬ¹ë¬´":4504,"íĸ¥ìľ¼ë¡ľ":4505,"Ġê²ªìĿĢ":4506,"Ġìĸ´ë¨¸ëĭĪìĿĺ":4507,"Ġë²Įìĸ´ì§Ģê³ł":4508,"ĠìĪ²ìľ¼ë¡ľ":4509,"Ġëĭ´ëĭ¹":4510,"Ġëĭ´ê¸´":4511,"ĠìĿ¸ìĥĿìĿĺ":4512,"Ġìłķìĭłë³ĳ":4513,"ĠìĬµê²©ìĿĦ":4514,"ìĵ¸":4515,"Ġê°ĩíŀĪê²Į":4516,"ĠìĿ´ëģĮëł¤":4517,"ĠíĴĪê³ł":4518,"Ġì§Ģê¸ĪìĿĢ":4519,"ĠìłľìĿ´ìĬ¨ìĿĺ":4520,"Ġëľ»ë°ĸ":4521,"Ġì»¨":4522,"Ġë©Ģë¦¬":4523,"Ġê¾¸ë¯¸":4524,"ĠìĺĽëĤł":4525,"Ġëĵ¯íķľ":4526,"Ġê¹¨ëĭ«ê³ł":4527,"ĠìĿ´ë£¨ê¸°":4528,"ĠíĿĶìłģ":4529,"Ġë¨¼ìłĢ":4530,"Ġì¶ľìĭłìĿĺ":4531,"Ġì¢Ģë¹Ħ":4532,"Ġê¸´ìŀ¥":4533,"ì¼ĵëª¬":4534,"ĠìĬ¤ì¹´ìĿ´":4535,"Ġì¢ĭìķĦíķĺëĬĶ":4536,"ĠìĹĲë¦ŃìĿĢ":4537,"Ġìī½ê²Į":4538,"Ġíĺĳë°ķ":4539,"Ġì§ľë¦¿":4540,"Ġë°Ķê¿Ķ":4541,"Ġë§¤ëĭĪìłĢ":4542,"ĠìĬ¤íĮĮìĿ´ëįĶë§¨":4543,"ĠëĳĺëŁ¬ìĭ¼":4544,"ê·ľëª¨":4545,"ĠìĹŃìĤ¬ìĥģ":4546,"ĠëıĦë¯¸ëĭī":4547,"Ġìµľì²¨ëĭ¨":4548,"Ġíı¬íķ¨íķľ":4549,"Ġì»´íĵ¨íĦ°":4550,"Ġì³Ĳ":4551,"Ġìĸ´ëĳĲìļ´":4552,"Ġë©°ì¹ł":4553,"',":4554,"10":4555,"18":4556,"¡ì¹´":4557,"ĠH":4558,"ĠP":4559,"ĠR":4560,"ķê´´":4561,"Ġìī´":4562,"ìĿ´ìĿĺ":4563,"ëĭ¤ë©°":4564,"íķĺëĿ¼ëĬĶ":4565,"ë¡¬":4566,"ë¡±":4567,"ëĵ¯":4568,"ê³łìĿĺ":4569,"Ġìŀī":4570,"ë¦¬ì¦Ī":4571,"Ġë§´":4572,"Ġê·¸ëĵ¤ê³¼":4573,"Ġê·¸ìłĢ":4574,"ê¸°ëıĦ":4575,"ëłĢ":4576,"ìĦľë¦°":4577,"ìĿ¸ëĵ¤ìĿĦ":4578,"Ġìĭ±":4579,"ĠìĿ´ëĤ´":4580,"ĠìĿ´ëıĻ":4581,"ĠìĿ´ëłĩ":4582,"Ġê²ī":4583,"ëĿ¼íģĺ":4584,"ĠìķĦìĪĺ":4585,"ĠìķĦìĬ¬":4586,"ë§Įìŀ¥":4587,"Ġìĺ·":4588,"ëıĦê°Ģ":4589,"Ġê°ĢëĤľíķľ":4590,"ĠìŀĪìĸ´":4591,"ĠìĭľìłĢ":4592,"ĠìŀĲìĽĲ":4593,"ĠìŀĲëŀĢ":4594,"Ġì§ĢìĨį":4595,"Ġì§ĢëĬ¥":4596,"Ġì§ĢíĤ¬":4597,"Ġë¹ļ":4598,"ìĭłíŀĪ":4599,"íĺľ":4600,"ĠìłĦìĹŃ":4601,"íĬ¸ë¦¬":4602,"ĠëĲĺìĹĪëĭ¤":4603,"Ġë²ħ":4604,"Ġë¬¶":4605,"Ġì¹¸":4606,"ìŀ¥ìĿ¸":4607,"ëł¤ì§Ħ":4608,"íĻĢ":4609,"ì¹ĺëĬĶëį°":4610,"ĠëĮĢê·ľëª¨":4611,"ë¶ĢìĹĲ":4612,"Ġë¶ķê´´":4613,"Ġëĭ¤ë£¬":4614,"ì£¼ìĿ¸":4615,"ĠëĤĺëĿ¼":4616,"ĠìĤ´ê¸°":4617,"Ġë³´ìĹ¬":4618,"ĠìĬ¤íĶĦ":4619,"Ġê¸°ìĤ¬":4620,"ĠìŀĲìĭłëĵ¤ìĿ´":4621,"ĠìŀĲìĭłë§ĮìĿĺ":4622,"ĠìĨĮìľł":4623,"ĠìĨĮê°ľ":4624,"ëĶª":4625,"ìłĦìĹĲìĦľ":4626,"ĠìĹ¬íķĻìĥĿ":4627,"ĠìĹ¬ìłķìĹĲ":4628,"ìłķìĺĪ":4629,"íĭ¸":4630,"Ġë¶ĢìĥģìĿĦ":4631,"Ġë¶ĢëĶª":4632,"ëł¥ìĿĺ":4633,"Ġê³łìĬ¤íĬ¸":4634,"Ġìĺ¤ëĳĲ":4635,"Ġê³µì¡´":4636,"Ġê±°ì§ĵ":4637,"íģ¬ë¡ľ":4638,"ëĶĶë¥¼":4639,"Ġë°Ķëĭ·":4640,"ë³´ê³ł":4641,"ë³´ëįĺ":4642,"Ġë°ľê°ģ":4643,"Ġë°ľíľĺ":4644,"Ġì£¼ëĬĶ":4645,"Ġì£¼ëª©":4646,"Ġìĥģì§ķ":4647,"ìķĪìĿĦ":4648,"ë¬¼ìĹĲ":4649,"ĠìĤ¬ëŀĮëĵ¤ìĹĲê²Į":4650,"Ġíķ´ìķ¼":4651,"Ġë¶ĪìĿĺ":4652,"ì¦ĺ":4653,"ĠìĽ¡ì¹´":4654,"ĠìķĬëįĺ":4655,"ĠìĨįìĿĺ":4656,"íĶĦê°Ģ":4657,"íĶĦëŀĢìĭľ":4658,"ì¹´ë¥¼":4659,"ĠëıĮìĹ°ë³ĢìĿ´":4660,"ìĭ¬íķľ":4661,"Ġì°¾ìķĦëĤ´":4662,"Ġëĵ¤ìĿ´":4663,"ĠìĹ°ë°©":4664,"ĠíĹĲ":4665,"Ġë¡ľëĵľ":4666,"ë¶ĵ":4667,"ì¦ĪìĻĢ":4668,"Ġì¡´ìĬ¤":4669,"Ġê°Ģì¡±ëĵ¤ìĿĢ":4670,"ĠìĦ¸ê³ĦìĹĲìĦľ":4671,"ĠìķĦìĿ´ëĬĶ":4672,"ĠìķĪëĤ´":4673,"ĠìķĪíĨł":4674,"Ġíĺ¸íĶĦ":4675,"Ġë¦¬ìĺ¨":4676,"Ġë¦¬íĭĢ":4677,"Ġë§Ĳì½¤":4678,"ëįĶë¸Ķ":4679,"Ġê°Ĳê¸Ī":4680,"Ġê°Ĳì¶ĺ":4681,"ĠìļĶìĥĪ":4682,"ĠëłĪëĵľ":4683,"ĠìĦłìŀ¥":4684,"Ġê³Ħëŀµ":4685,"íļĮìĹĲìĦľ":4686,"ĠìĻ¸ë¡ľìļ´":4687,"Ġë°°ìĹĲ":4688,"Ġë°°íĽĦ":4689,"Ġë°°ëĭ¬":4690,"ĠìĺĪìĪł":4691,"íĸĪì§Ģë§Į":4692,"Ġ200":4693,"Ġìŀ¬ìĤ°ìĿĦ":4694,"ĠìķĦë²Ħì§ĢëĬĶ":4695,"ĠíıŃì£¼":4696,"Ġì´Īë¡Ŀ":4697,"Ġì´Īì½ľ":4698,"Ġì¹´ë¥´":4699,"Ġëĵ±ìĿĦ":4700,"Ġì¹ĺìĹ´íķľ":4701,"ìłĪëªħìĿĺ":4702,"Ġë²Ħë¦°ëĭ¤":4703,"ê²°ìĹĲ":4704,"Ġìŀłìŀ¬":4705,"íĻľíķľ":4706,"ĠêµĲíĨµ":4707,"ĠìĹ´ìłķ":4708,"ĠëĶ¸ìĿĺ":4709,"ìĹħìĿĦ":4710,"Ġê°ĦìĭłíŀĪ":4711,"ë²Ķì£Ħ":4712,"ĠíĬ¹ê¸ī":4713,"ĠìķłìĻĦ":4714,"ìĺģíĻĶ":4715,"ìķ½ìĿĦ":4716,"ëĦ¤ìĿ´":4717,"ĠìłĪì²´":4718,"íĴĪìĿĦ":4719,"ĠìĿĮìĭĿ":4720,"ĠëĲĺìĸ´ë²Ħë¦°":4721,"Ġê³¼ê±°ìĻĢ":4722,"Ġë§ŀìĦľê¸°":4723,"ĠëĪĪì¹ĺ":4724,"Ġë§Įëĵ¤ê¸°":4725,"Ġë¯¿ìĿĦ":4726,"ë´Ĳ":4727,"Ġì»¤ëĭ¤ëŀĢ":4728,"ĠíŀĺìĹĲ":4729,"Ġíŀĺëĵł":4730,"ĠìĹ¬ìŀĲë¥¼":4731,"ĠëĨĵìĿ¸":4732,"ëĭĺìĿĺ":4733,"ìĭľíĤ¤ëĬĶ":4734,"ĠëĿ¼ìĿ´ë²Į":4735,"ĠíļĮìĤ¬":4736,"ëľ©":4737,"Ġê°ĪìĪĺë¡Ŀ":4738,"ĠëıĻë£Įëĵ¤ìĿĦ":4739,"ĠìĭĿëĭ¹":4740,"ĠëĤ¨íİ¸ìĿĺ":4741,"ĠëĶĶìĹĲê³ł":4742,"ĠìĦ¬ìĹĲ":4743,"Ġì±ħìŀĦ":4744,"Ġìĸ´ë¨¸ëĭĪìĻĢ":4745,"ĠìĪ¨ê²¨ìł¸":4746,"ĠëģĮê³ł":4747,"ĠíĴĢìĸ´":4748,"198":4749,"ĠìŀĳìłĦìĿ´":4750,"ĠìĤ¼ìķĦ":4751,"ĠëĬĲëģ¼ê²Į":4752,"ĠíĻľëıĻ":4753,"Ġì§ĪíĪ¬":4754,"ĠëĤĺìĦľê³ł":4755,"ĠëıĦë§Ŀì¹ĺ":4756,"ĠìĺģìĽħìĿ´":4757,"Ġíİ¼ì³Ĳì§ĢëĬĶ":4758,"ë¿ĲìĿ¸":4759,"ĠìħĢ":4760,"Ġìħĭ":4761,"Ġì°©íķľ":4762,"ĠìŀĪìĹĪê³ł":4763,"Ġíķ´ê²°íķĺê¸°":4764,"Ġê²½íĹĺìĿĦ":4765,"ĠíķŃíķ´":4766,"Ġëĭ¤ìĿ´ìķĦ":4767,"Ġê¹¨ëĭ«ëĬĶëĭ¤":4768,"ĠëĬ¥ëł¥ìĿ´":4769,"Ġê¸°íļĮë¥¼":4770,"ĠíĶĦëŀŃíģ¬":4771,"Ġëĭ¤ëĭĪìĹĺ":4772,"Ġê³łëĵ±íķĻìĥĿ":4773,"ìį¨":4774,"ĠìĹīëļ":4775,"Ġíľĺë§Ĳë¦¬ê²Į":4776,"ĠíĶĦëŀĳìĬ¤":4777,"ĠìķķëıĦ":4778,"Ġê¸°ìļ´ìĿĦ":4779,"ìĤ¬ê³łë¡ľ":4780,"ĠìĭłìĦ¸ê°Ģ":4781,"ĠíĶĦë¡ľê·¸ëŀ¨":4782,"ĠìķĦíĮĮíĬ¸":4783,"Ġëħ¸ëŀĺë¥¼":4784,"ì¿Ħ":4785,"ĠìĿ¸ì§Īë¡ľ":4786,"ĠìıŁìķĦ":4787,"ĠìķĦëĤĺìĬ¤íĥĢìĥ¤":4788,"ĠíĮħì»¤ë²¨":4789,"Ġëļ«":4790,"Ġì§ĿìĤ¬ëŀĳ":4791,"ì¾Įíķľ":4792,"ĠìĿ´ëŁ¬íķľ":4793,"Ġê¿Īê¾¼ëĭ¤":4794,"ĠìºĲë¦ŃíĦ°":4795,"ĠìķĦìĪĺëĿ¼":4796,"Ġìĺ¤ëĳĲë§ī":4797,"íĶĦëŀĢìĭľìĬ¤ì½Ķ":4798,"Ġì´Īì½ľë¦¿":4799,"AL":4800,"NA":4801,"at":4802,"en":4803,"or":4804,"µìĿĦ":4805,"»ë°¤":4806,"ê½":4807,"ë¿":4808,"ĠU":4809,"Ġ00":4810,"ĠãĢ":4811,"Ġìıĺ":4812,"ĠëĿ":4813,"ĠíĬ":4814,"ëĭĺìĿĦ":4815,"ìĹĲëĵľ":4816,"íķĺëĭ¤ëĬĶ":4817,"ë¡ľìĿĺ":4818,"ë¡ľê°Ģ":4819,"ë¡ľë²ĦíĬ¸":4820,"ê²Ł":4821,"ìŀİ":4822,"ì§ĢìĻĢ":4823,"Ġê·¸ë¡ľ":4824,"Ġê·¸ë¡ľë¶ĢíĦ°":4825,"ëį©":4826,"ëĵ¤ëŁ¬":4827,"ëĵ¤ë¡ľë¶ĢíĦ°":4828,"ìĬ¤íı¬":4829,"ìĿ¸ëĵ¤ìĿ´":4830,"ìĿ¸ëĵ¤ìĿĺ":4831,"ìľ½ê³ł":4832,"ĠìĤ¬ë¬´":4833,"ĠìĿ´íķ´":4834,"ĠìĿ´ìľ½ê³ł":4835,"ëĿ¼ë©´":4836,"ìŀĲëĵ¤ìĿĺ":4837,"ëĤĺê°Ħëĭ¤":4838,"ì¹µ":4839,"ì¹Ń":4840,"ĠìķĦê°Ģ":4841,"ìĻĢìĿ´":4842,"ëħģ":4843,"Ġìĺ¥":4844,"ìĭľê°Ģ":4845,"ë°´":4846,"ë°į":4847,"ìĺ¹":4848,"Ġë§Īì¹ĺê³ł":4849,"Ġë§ĪíĶ¼ìķĦ":4850,"Ġíķĺë£":4851,"ĠíķĺìĸĢ":4852,"Ġê°ĢìĿĦ":4853,"ìĤ¬ìĿ¼":4854,"ëª¸":4855,"ĠìĭľíĹĺ":4856,"ĠìĭľìĬ¤íħľ":4857,"ĠìĨ¡":4858,"ĠìłĦíķ´":4859,"ĠìłĦë©¸":4860,"ìĥģì¹ĺ":4861,"ìĥģíĥľ":4862,"ëĭĪê°Ģ":4863,"ëĭĪìĹĲê²Į":4864,"ëĭĪì½ľ":4865,"Ġëª¨íĶ¼":4866,"Ġìĸ´ë¥¸":4867,"Ġìĸ´ë²¤ìł¸":4868,"íĦ¸":4869,"ĠìĿ¸ëıĦ":4870,"Ġêµ¶":4871,"ì¹ĺë©´ìĦľ":4872,"ë§ĪìĿĦ":4873,"Ġíķľì°½":4874,"Ġíķľìłģíķľ":4875,"Ġëĭ¤íģ¬":4876,"Ġëĭ¤ì§Ĳ":4877,"ìłģìĿĺ":4878,"ì£¼ê¸°":4879,"ĠëĤĺìĺ¤":4880,"ĠìĤ´ê²Į":4881,"ĠìĦ¸ëł¥ìĿĦ":4882,"ĠëıĦì£¼":4883,"Ġë§ĮëĵľëĬĶ":4884,"íŀĲ":4885,"Ġë³´ë©°":4886,"ĠìĬ¤íĮ¨":4887,"Ġê¸°ìĹħ":4888,"ë²ĦìĬ¤":4889,"ë²Ħëĵľ":4890,"ĠìĨĮìĽĲìĿĦ":4891,"ĠìķĮë¦¬":4892,"ĠìĹĨìĹĪëįĺ":4893,"Ġë¬´ë¦¬":4894,"Ġë¬´ë¦¬ìĿĺ":4895,"íĤ´":4896,"ĠìĹ¬ìĭł":4897,"ë¹ĦìĻĢ":4898,"íŀĪê¸°":4899,"íĥĢê°Ģ":4900,"Ġë¶Ģìĥģ":4901,"ĠìĭľìŀĳëĲĺê³ł":4902,"Ġìĭľìŀĳíķĺë©´ìĦľ":4903,"ëł¥ìĹĲ":4904,"Ġê³łê³ł":4905,"Ġê³łë°±":4906,"ìĺ¤ë¥¼":4907,"Ġìĺ¤ë¡ľ":4908,"Ġìĺ¤íĨł":4909,"Ġê³µíķŃ":4910,"Ġê±°ì£¼":4911,"Ġì°¾ìĿĦ":4912,"ĠìľłëĮĢ":4913,"ë³´ë¥¼":4914,"Ġë°ľì¹µ":4915,"ê±°ë¦¬":4916,"Ġêµ¬íķľ":4917,"ëĲĺìĹĪëĭ¤":4918,"ìĦ±ìĿĺ":4919,"Ġíķ¨ìłķìĹĲ":4920,"ë¬´íķĺëĬĶ":4921,"ëª¨ëĳĲ":4922,"ë£¨ëĬĶ":4923,"ì¦Į":4924,"Ġê·¸ëħĢìĻĢ":4925,"ĠìĽ¨ìĿ´":4926,"íĭ°ë¥¼":4927,"Ġì¤ĳêµŃ":4928,"Ġì¤ĳìĭ¬ìľ¼ë¡ľ":4929,"ìĦ¸ìĿ´":4930,"ëŀĺëĵľ":4931,"ĠìĿĺë¯¸":4932,"ĠìĿĺë¬¸ìĿĦ":4933,"Ġë¡¤":4934,"ĠìµľìłķìĺĪ":4935,"ĠíĶ¼ëħ¸íĤ¤":4936,"íĶĦë¦¬":4937,"ĠëıĮìŀħ":4938,"ĠëĬ¦":4939,"Ġ17":4940,"ĠëĳĲê³ł":4941,"ĠìĹ°ê²°":4942,"ĠìĥĪëģ¼":4943,"ĠíĹ¨ë¦¬":4944,"Ġë¹łì§Ģ":4945,"Ġë¹łë¥´ê²Į":4946,"íĶ¼ìĺ¨":4947,"ĠíŀĲ":4948,"Ġë¡ľë§Ī":4949,"ĠíĿ¡":4950,"ĠëĨĪ":4951,"Ġìĭ¤ìłľë¡ľ":4952,"íĨłíĻĶ":4953,"íĨłíį¼":4954,"Ġê°Ģì¡±ìĹĲê²Į":4955,"ĠìĦ¸ê³Ħê°Ģ":4956,"íĺ¸ëĬĶ":4957,"íĺ¸ìĿĺ":4958,"ĠëįĶê·¸":4959,"Ġíģ¬ëłĪìĿ´":4960,"ĠìĦ±ìĹĲ":4961,"Ġë§ŀê²Į":4962,"ĠìĻķìĿ´":4963,"Ġëħ¸ë¥´":4964,"ìħī":4965,"êµ°ìĿ´":4966,"êµ°ê³¼":4967,"ëįĶëĭĪ":4968,"Ġë§¤íĬ¸ë¦Ń":4969,"Ġë°©ìĨ¡":4970,"Ġë°ĺë©´":4971,"ĠëłĪì§Ģ":4972,"ìĨįìĹĲìĦľ":4973,"íĮ¬":4974,"Ġì²ĺíĤ¤":4975,"ë¸ĮëĿ¼":4976,"Ġëĭ¬ë§Ī":4977,"Ġëĭ¬ëĿ¼ê³ł":4978,"ë¦ĦìĿĦ":4979,"ĠëĵľëĿ¼ìĿ´":4980,"Ġë°°ê²½":4981,"Ġì¶Ķê²©ìĿĦ":4982,"ĠìĦ¸ìĥģìĿĢ":4983,"ĠëĴ¤ë°Ķ":4984,"ĠëĴ¤ì«ĵ":4985,"ĠìłĢëħģ":4986,"ĠëķĮë¶ĢíĦ°":4987,"Ġíı¬ë¥´ëħ¸":4988,"Ġíı¬ì¼ĵëª¬":4989,"Ġë°ľê²¬ëĲľëĭ¤":4990,"Ġìŀ¬ëĤľ":4991,"ĠìķĦë²Ħì§ĢìĻĢ":4992,"Ġì´ĪìŀĲìĹ°":4993,"Ġì´ĪíĨłíĻĶ":4994,"Ġëĭ¹ìĭľ":4995,"Ġê²Įë¦´ëĿ¼":4996,"Ġë²Įìĸ´ì§Ħ":4997,"ĠëĤ¨ìŀĲëĬĶ":4998,"ê°ģìĿĦ":4999,"Ġìļ´ìĦĿ":5000,"Ġìļ´ë°ĺ":5001,"ĠìĪ¨ê¸´":5002,"ĠìŀłìĹĲìĦľ":5003,"Ġë¬¼ê³ł":5004,"Ġë¬¼ëŁ¬":5005,"ìļĶì»¤":5006,"Ġì°¨ë¡Ģ":5007,"ĠíĨłë¥´":5008,"ĠíĨłëģ¼":5009,"ĠëĶ¸ê³¼":5010,"Ġê´´íķľ":5011,"ĠëģĿëĤĺ":5012,"ĠëģĿëĤ´":5013,"ëĭ¬ëĿ¼ê³ł":5014,"Ġê¿Īê³¼":5015,"Ġì«ĵëĬĶ":5016,"Ġì«ĵê³ł":5017,"ëŀĳìĿ´":5018,"Ġëī´ìļĶì»¤":5019,"Ġëª¨ëĳĲìĿĺ":5020,"Ġëª¨ëĳĲë¥¼":5021,"ĠíĴĭ":5022,"ìĺģìĿĢ":5023,"Ġë²łíħĮëŀĳ":5024,"ĠíķĻìĤ´":5025,"ĠìŀħìĿĢ":5026,"ĠìĿ´ìĥģìĿĺ":5027,"Ġì¶ľë°ľ":5028,"Ġë¸Įë£¨ìĬ¤":5029,"ĠìĿĢëĳĶ":5030,"Ġë°ķìĤ¬ê°Ģ":5031,"Ġê³µê²©ìľ¼ë¡ľ":5032,"Ġìļ°ì£¼ìĿĺ":5033,"Ġê³¼ê±°ìĹĲ":5034,"ĠìĿ¸ë¥ĺê°Ģ":5035,"ĠíĥĪì¶ľíķľëĭ¤":5036,"Ġì²«ëĪĪìĹĲ":5037,"ĠíĹ¤ìĸ´ì§Ħ":5038,"Ġìŀ¡ê³ł":5039,"Ġìŀ¡ê¸°":5040,"ĠìłľìĿ´ì½¥":5041,"ĠëĤ©ì¹ĺíķ´":5042,"ĠëĤ©ì¹ĺëĲľ":5043,"Ġëī´ìļķìĹĲ":5044,"ë¦¼ìĿĦ":5045,"ĠìĹĦë§Īë¥¼":5046,"ëĥĪ":5047,"Ġëľ¬":5048,"Ġë©ĶìĿ´":5049,"Ġë©Ķìĭľ":5050,"ëĵ±íķĻêµĲ":5051,"ìĸĳìĿĦ":5052,"Ġíģ¬ë¦¬ìĬ¤íĥĪ":5053,"ĠìĨĮëħĦìĿĦ":5054,"ë²łìĿ´":5055,"ë¸Ķë£¨":5056,"ĠëĤĺíĥĢëĤĺê³ł":5057,"ĠíŀĪë¸Įë¦¬":5058,"Ġê²ĮìŀĦìĿĺ":5059,"ĠìĦ±ê³µíķľëĭ¤":5060,"Ġì¹¨ëŀµ":5061,"ĠíĥĲìļķ":5062,"ĠìĥĿê°ģíķĺëĬĶ":5063,"ĠëĿ¼ìĿ´ì¹¸":5064,"ĠëłĪìĿ´ìĭ±":5065,"Ġíĸīë³µìĿĦ":5066,"Ġíĸīë³µíķĺê²Į":5067,"Ġì¦Ĳê±°ìļ´":5068,"ĠìĦ¤ê³Ħ":5069,"ĠìĿ´ë¦Ħìľ¼ë¡ľ":5070,"ì¦ĿìĹĲ":5071,"ê·¹ìłģìĿ¸":5072,"Ġê³µì£¼ë¥¼":5073,"Ġë°©ë²ķìĿĢ":5074,"ĠíķĦìļĶ":5075,"ĠíķĦìļĶíķľ":5076,"Ġë°Ķëĭ¤ë¥¼":5077,"ĠíĥĢê³łëĤľ":5078,"Ġì¤Ģë¹ĦíķĺëĬĶëį°":5079,"ì»µ":5080,"Ġì°°ìĬ¤":5081,"Ġì²ĺìĿĮìľ¼ë¡ľ":5082,"Ġì²ĺìĿĮìĹĶ":5083,"ĠëĭĪìĬ¨":5084,"ĠíĶĮë¡ľ":5085,"Ġì¶ķêµ¬":5086,"Ġëĵ±ìŀ¥íķľëĭ¤":5087,"ì¹¸ëĭ¤":5088,"ĠìŀĲìľłë¥¼":5089,"ì¡Įëįĺ":5090,"ìķĮëłī":5091,"Ġì§Ģê¸Īê¹Įì§Ģ":5092,"Ġì§Ģê¸Īê»ı":5093,"ĠìŀĪìĹĪëĬĶëį°":5094,"ĠìĹĺë¦¬íĬ¸":5095,"ĠìĹĺë¦¬ìŀĲë²ł":5096,"ĠìķĮëł¤ì§Ħ":5097,"ĠìŀĶìĿ¸íķĺê²Į":5098,"ĠëĳĲëł¤ìĽĮ":5099,"Ġê¸°íļĮê°Ģ":5100,"ë©¸ìĿĺ":5101,"ĠìķĮëłīìĬ¤ëĬĶ":5102,"Ġìłķë³´ë¥¼":5103,"Ġìļ©ìĿĺìŀĲë¡ľ":5104,"Ġë¶Ģë¶ĢëĬĶ":5105,"ĠDe":5106,"ĠìĿ¼ìĸ´ëĤĺê³ł":5107,"ĠíĸīëıĻìĿĦ":5108,"ĠëŀĮë³´ëĬĶ":5109,"ĠëĽ°ìĸ´ëĵłëĭ¤":5110,"ĠíĮĮìĿ´íĦ°":5111,"íĥĲìłķ":5112,"ĠíĶĦë¦¬ìłĢ":5113,"Ġê²¨ìļ°":5114,"ĠìĥĮíĶĦëŀĢìĭľìĬ¤ì½Ķ":5115,"ĠíĤ¹ì½©":5116,"Ġê·ľì¹ĻìĿĦ":5117,"Ġëĭ¤ìĿĮëĤł":5118,"Ġìĺ¤ëŀĺëĲľ":5119,"Ġë§¤ëł¥ìłģìĿ¸":5120,"ĠíķµíıŃ":5121,"Ġíĺ¸ê¸°ìĭ¬":5122,"íĢ¸":5123,"ĠìĿĳì§ķ":5124,"Ġì«ĵê¸°ê²Į":5125,"Ġê³³ê³³ìĹĲìĦľ":5126,"ëī´ìļķ":5127,"ĠìĦ¸ê³ĦëĮĢìłĦ":5128,"ĠMIB":5129,"ëŃī":5130,"Ġì²ĺì°¸íķľ":5131,"Ġë¹Ļíķĺ":5132,"Ġê±·ìŀ¡ìĿĦ":5133,"Ġê¸Īì§ĢëĲľ":5134,"ĠìĬ¤íĶ¼ë¦¿":5135,"ĠëªħìĺĪë¥¼":5136,"Ġìļ´ìĺģíķĺëĬĶ":5137,"ĠAI":5138,"ĠìĿ¼ìĤ¼ëĬĶ":5139,"Ġìºĺë¦¬íı¬":5140,"ë·°":5141,"ĠìĺĨì§ĳ":5142,"Ġì¡°ê¸ĪìĶ©":5143,"ĠíĹĺëĤľíķľ":5144,"Ġë¡ľë²ĦíĬ¸ëĬĶ":5145,"ĠìĿ¼ìĥĿìĿ¼":5146,"Ġê¹¨ëĭ¬ìĿĢ":5147,"ĠìĹ°ìĩĦìĤ´ìĿ¸":5148,"íĽĪ":5149,"Ġë¶Īê¸¸íķľ":5150,"Ġê±±ìłķ":5151,"ĠìĿĢìĭłì²ĺ":5152,"Ġìµľì´ĪìĿĺ":5153,"Ġë§ŀëĭ¥ëľ¨":5154,"Ġëľ»ë°ĸìĿĺ":5155,"ĠìĿ´ëłĩê²Į":5156,"Ġíķĺë£»ë°¤":5157,"Ġìºĺë¦¬íı¬ëĭĪìķĦ":5158,"'(":5159,"12":5160,"bo":5161,"ig":5162,"ra":5163,"©ëĭĪëĭ¤":5164,"½ĳ":5165,"ê¼":5166,"ĠO":5167,"Ĳģ":5168,"Ķëĵ¤":5169,"Ŀê±°":5170,"Ġë½ĳ":5171,"ĠíĪ":5172,"ìĿĺë¥¼":5173,"íķĺìĿ´":5174,"íķĺëĭ¤ê°Ģ":5175,"ë¥ł":5176,"ë¡ľìĦľ":5177,"ê³łë¥¼":5178,"ê²¼":5179,"ĠìĿ½":5180,"ìĦŃ":5181,"Ġìķµ":5182,"ê°Ģì¡±":5183,"ì§Ģìĸ´":5184,"ì§ĢìĹĲìĦľ":5185,"ì§Ģë©°":5186,"ì§Ģëª¨":5187,"ë¦¬ìĸ¼":5188,"Ġë§·":5189,"ëį®":5190,"ëį´":5191,"Ġìłľëĭ¤":5192,"ê¸°ê²Į":5193,"ìĬ¤íħĮ":5194,"ìĬ¤ì¼Ģ":5195,"Ġê°ľêµ¬":5196,"ìľ¨":5197,"ĠëĤ®":5198,"ĠìĤ¬ìļ°":5199,"ĠìĤ¬ìĤ¬ê±´":5200,"ĠìĿ´ë¯¼":5201,"ĠìĿ´ë²¤":5202,"ìĸ´ëĤ¬":5203,"Ġì§ķ":5204,"ìķĦê°Ģ":5205,"ìķĦìĬ¬":5206,"ìľ¼ë©´ìĦľ":5207,"ĠìľĦê¸°ìĿĺ":5208,"ë©į":5209,"ë§Įìľ¼ë¡ľ":5210,"ëħ¼":5211,"Ġë§Īì¹ĺ":5212,"Ġë§ĪìĿ¼":5213,"Ġë§Īìķ¼":5214,"Ġë§Īì»¤":5215,"Ġíķĺë©´ìĦľ":5216,"Ġíķĺíį¼":5217,"ëį°ìĬ¤":5218,"Ġê°ĢìĦľ":5219,"Ġê°Ģë£¨":5220,"Ġê°Ģë¬¸":5221,"ìĤ¬ëŀĮ":5222,"ĠìŀĲë¦¬":5223,"ĠìŀĲì¡´":5224,"ĠìŀĲë¦¬ìĹĲ":5225,"ëĮĢìĻĢ":5226,"ëŁ¬ê¸°":5227,"ĠìĪĺì²ľ":5228,"ëĭĪìĻĢ":5229,"ëĭĪì¹´":5230,"Ġëª¨ê¸Ģ":5231,"ĠìĿ¸íķľ":5232,"Ġêµ¿":5233,"íĦ°ë¦¬":5234,"ĠëĮĢíĻĶë¥¼":5235,"ë§Īë¥¼":5236,"ë¶ĢìĻĢ":5237,"Ġíķľê°Ģ":5238,"Ġë¶īìĿĢ":5239,"ì£¼ì§Ģ":5240,"ì£¼ë©°":5241,"ĠëĤĺì¹ĺ":5242,"ĠëĤĺë¨¸":5243,"ĠëĤĺê°Ħëĭ¤":5244,"ĠìĤ´ëł¤":5245,"ĠëıĦì¿Ħ":5246,"Ġë³´ìĦĿ":5247,"ë£¹":5248,"ìŀĳìľ¼ë¡ľ":5249,"ĠìĬ¤ì½Ķ":5250,"ĠìĬ¤íĦ´":5251,"ĠìĬ¤ì¹¼":5252,"ĠìŀĲìĭłìĿĢ":5253,"ĠìŀĲìĭłëĵ¤ìĿĦ":5254,"ë²Ħë¦´":5255,"ĠìĨĮìĽĲ":5256,"ĠìĨĮíĥķ":5257,"ĠìĨĮì¤ĳíķľ":5258,"Ġëį©ì¹ĺ":5259,"ëħĢê°Ģ":5260,"ë¦°ìĿĺ":5261,"Ġë¯¸ìĭĿ":5262,"Ġë¯¸ì¹ľ":5263,"ĠìĹĨê³ł":5264,"Ġë¬´ìĬ¨":5265,"Ġë¬´ìłģìĿĺ":5266,"ìĥĿìĿĦ":5267,"ëħĦìĹĲ":5268,"Ġìłķìĥģ":5269,"Ġìłķì°©":5270,"íĭ±":5271,"Ġë¶Ģìľłíķľ":5272,"ĠìĭľìŀĳíķĺëĬĶ":5273,"Ġìłľìķķ":5274,"Ġê³łêµĲ":5275,"ĠíĻĪ":5276,"íĹ¬":5277,"Ġê±°ì¹ľ":5278,"Ġê±°ì¹ł":5279,"Ġê±°ìĦ¼":5280,"Ġì°¾ëįĺ":5281,"Ġë°Ķíĥķ":5282,"ê»´":5283,"ë³´ì§Ģ":5284,"Ġêµ¬ìĽĲ":5285,"Ġêµ¬íķĺëŁ¬":5286,"íİł":5287,"Ġì£¼ìŀ¥":5288,"Ġìĥģë¥ĺ":5289,"ëª¨ëĵł":5290,"ë¬¼ë¡ľ":5291,"ê±´ìĿĢ":5292,"Ġíķ´ìķĪ":5293,"Ġíķ´ëıħ":5294,"ìĭ¤íķľ":5295,"ĠìĿĺìĭĿ":5296,"ĠìĿĺìĭĿìĿĦ":5297,"Ġì§ĳíĸī":5298,"ĠíĶ¼ë¡ľ":5299,"ĠíĶ¼ë¥¼":5300,"ê³µìĿĦ":5301,"íĶĦëĬĶ":5302,"íĶĦë¥¼":5303,"íĶĦëłĪ":5304,"Ġì°¾ìķĦìĺ¤":5305,"ĠëĳĲëĩĮ":5306,"Ġê²½íĺ¸":5307,"ĠìĹĲë¥´":5308,"ĠìĹĲìĬ¤íĦ°":5309,"Ġê¸Ģë¡ľ":5310,"ëĭ¹íķĺê²Į":5311,"íĶ¼ìĦ¼":5312,"Ġë¦´":5313,"Ġë¡ľìłĢ":5314,"Ġë¡ľëłĮ":5315,"Ġëª»íķł":5316,"ĠëĨĢìĿ´":5317,"Ġìĭ¤ë¹ĦìķĦ":5318,"ì¦ĪëĭĪ":5319,"Ġì½°":5320,"Ġíģ¬ë¡ľ":5321,"Ġíĸīë°©":5322,"Ġë§ŀìĿĢ":5323,"Ġë§ŀëĬĶëĭ¤":5324,"ĠìĻķìľĦë¥¼":5325,"ĠëĤ´ë¦¬":5326,"ĠìĤ´ìķĦëĤ¨ìĿĦ":5327,"Ġíĺ¸ëŁ¬":5328,"Ġë¦¬ì¹ĺ":5329,"Ġë§Ĳíķ´":5330,"êµ°ìĹĲ":5331,"Ġíķľëĭ¤ê³ł":5332,"Ġê°ĲìłķìĿĦ":5333,"Ġê°ĲìĹ¼":5334,"Ġë°ĺíķŃ":5335,"Ġë°ĺê²©ìĿĦ":5336,"Ġë¹Ħë°Ģë¦¬ìĹĲ":5337,"ĠìĦłìĤ¬":5338,"ĠìĦłìĸ¸":5339,"ĠìĦłë°ľ":5340,"ìĨįëıĦë¡ľ":5341,"ë¸Įë£¨ìĬ¤":5342,"Ġì¢ģ":5343,"Ġë§ĮëĤĺê¸°":5344,"ìĬ¨ìĿĢ":5345,"ĠìĺĪìłķ":5346,"ĠìĺĪìĸ¸":5347,"Ġì¶Ķêµ¬":5348,"Ġì¶Ķë°©":5349,"ĠëĿ¼ëĶĶìĺ¤":5350,"ĠëĴ¤ìĹĲ":5351,"ĠëĴ¤ëį®":5352,"Ġìķŀìľ¼ë¡ľ":5353,"ĠëķĮë§Īì¹¨":5354,"ĠíĥĢìŀĦ":5355,"ĠëªħìĿĦ":5356,"Ġ25":5357,"Ġìŀ¬ì¹ĺ":5358,"ëĳĺ":5359,"Ġì´ĪìľłìĿĺ":5360,"ĠíĨµê³¼":5361,"Ġëĭ¹íķĺê²Į":5362,"ĠìłģëĮĢ":5363,"Ġë²ĮìĿ´ëĬĶëį°":5364,"Ġì¹´ë¦¬ìĬ¤":5365,"ĠëĪĦëĤĺ":5366,"ĠíĺĦìŀ¥ìĿĦ":5367,"Ġì¹ĺê³ł":5368,"ĠìŀłìĿĦ":5369,"Ġì½Ķì¹ĺ":5370,"ìļĶìĿ¼":5371,"ĠìĤ´ìĿ¸ìĤ¬ê±´":5372,"Ġë³µìłľ":5373,"ĠëĶ¸ìĿ´":5374,"Ġë²ĶìĿ¸ìĿĦ":5375,"ìłĲìĿĦ":5376,"Ġê³³ìľ¼ë¡ľ":5377,"Ġêµ°ëĮĢë¥¼":5378,"ĠìŀĦìĭł":5379,"Ġìļ©ê°Ĳ":5380,"Ġì§ģìłĦ":5381,"Ġì§ģìĽĲ":5382,"ĠìŀħíķĻ":5383,"Ġê²ĥìĿ´ëĿ¼ê³ł":5384,"Ġìłķì²´ëĬĶ":5385,"ëĸ¼":5386,"Ġë¸Įë¡ľ":5387,"Ġë¸Įë£¨":5388,"ĠíĬ¸ëŁŃ":5389,"ìĬ¤íĬ¸ë¥¼":5390,"Ġë¯¸êµŃìĿ¸":5391,"ë¡łìĿĺ":5392,"ìķłëĤĺ":5393,"Ġì¶©ê²©ìĿĦ":5394,"ĠíĻĺê²½":5395,"ëĿ¼ìĿ´ëĵľ":5396,"ë³ĳìĿĦ":5397,"ì§ĪìĪĺë¡Ŀ":5398,"Ġë£¨ìĿ´":5399,"ĠìĤ¬ê³łëŃī":5400,"Ġë³´ëĤ´ëĬĶ":5401,"ë§Ĳë¡ľ":5402,"ĠìĻĦìłĦ":5403,"ĠëĤ©ì¹ĺë²Ķ":5404,"Ġëī´ìļķìĿĦ":5405,"ĠíĻĶê°Ģ":5406,"Ġìĵ¸":5407,"Ġë©Ķë¦¬":5408,"Ġì´Ŀê²©":5409,"Ġë¯¿ìĸ´":5410,"Ġë¯¿ìĿĮ":5411,"Ġë²Īë²Ī":5412,"ë´ī":5413,"ĠìŀĦë¬´ëĬĶ":5414,"Ġìĸ¼ëĸ¨":5415,"ĠíĮĢìĿ´":5416,"ĠíĮĢìĿĢ":5417,"Ġë¬¸ìłľë¥¼":5418,"ĠëĦĺëĤĺ":5419,"Ġëª¨íĹĺìĹĲ":5420,"ĠíĻ©íıĲ":5421,"ĠìºĲë¦¬":5422,"ë¸ĶëıĦìĸ´":5423,"ĠíıīíĻĶìĿĺ":5424,"ĠíıīíĻĶë¡Ńê²Į":5425,"ĠëĨĵê³ł":5426,"Ġë³ĳìĤ¬":5427,"Ġì¹¨íĪ¬":5428,"ĠìķĦëĵ¤ìĿ¸":5429,"Ġê°ĸìĿĢ":5430,"Ġëį°ìĿ´ë¹Ħ":5431,"Ġê°ģê¸°":5432,"Ġë§ĪìĿĮìĶ¨":5433,"ìĬ¬ëŁ¬":5434,"Ġë¹łìł¸ëĤĺ":5435,"ĠëĤ¨íİ¸ìĿ´":5436,"ĠëĤ¨íİ¸ê³¼":5437,"ĠëĶĶì¦ĪëĭĪ":5438,"ĠìĦ¬ìĿĦ":5439,"ê¸¸ìĹĲ":5440,"ĠìĦ¤ëĵĿ":5441,"ĠíĸīìĦ±ìĿĦ":5442,"Ġëª¸ìĿ´":5443,"ĠíķĻêµĲë¥¼":5444,"ĠíķĻêµĲìĹĲìĦľ":5445,"ĠìĻĢì¹¸ëĭ¤":5446,"ĠëĪĦêµ¬ë³´ëĭ¤":5447,"ìĬ¤ëŁ¬ìĽĮ":5448,"ê·¹ìĿĺ":5449,"ĠëıĮìķĦê°Ģìĭł":5450,"Ġë²Įìĸ´ì§Ħëĭ¤":5451,"196":5452,"Ġì§Ģì¼ľë³´ëįĺ":5453,"Ġìĭłë¹ĦìĿĺ":5454,"íģĲ":5455,"ĠëĵľëŁ¬ëĤĺ":5456,"Ġê¼Ń":5457,"Ġíĭ°íĮĮ":5458,"ĠëĲĺì°¾ìķĦ":5459,"ĠìķĦë¦Ħëĭµ":5460,"ĠíıĲìĩĦ":5461,"Ġëĸ¨ìĸ´ì§Ħëĭ¤":5462,"Ġìķ¨ë¦¬ìĬ¤":5463,"ĠìŀĲìľłë¡ľìļ´":5464,"ĠíĮĲëĭ¨":5465,"Ġê°ĩíŀĮ":5466,"Ġë¯¸ìĬ¤íĦ°ë¦¬":5467,"ìĶ¨ìłľìĿ´":5468,"ĠíĻķìĭł":5469,"Ġì·¨ê¸ī":5470,"Ġíİ¸ì§ĳ":5471,"ì·¨ë¥¼":5472,"Ġë´Ĳ":5473,"ĠìĿ´ê³³ìĹĲ":5474,"Ġê²©íĪ¬":5475,"ĠíķŃê³µ":5476,"Ġëķħìľ¼ë¡ľ":5477,"ĠëĳĲëł¤ìĽĢìĿĦ":5478,"ĠëĬ¥ëł¥ìľ¼ë¡ľ":5479,"ìłĳìĿĦ":5480,"ëĭĪìĬ¤íĥĦ":5481,"Ġì£Ħì±ħ":5482,"Ġë¯¸ìħ¸":5483,"Ġë³Ģíķ´ë²Ħë¦°":5484,"Ġìļ©ìĿĺìŀĲ":5485,"ĠíĳľìłģìĿ´":5486,"Ġì§Ģë°°íķĺëĬĶ":5487,"Ġë¶ĢíĻľíķľ":5488,"Ġì¢Ģì²ĺëŁ¼":5489,"ĠëŃĶ":5490,"Ġë³¼ëĵľ":5491,"ĠìĿµìĬ¤":5492,"ĠíĹĮíĦ°":5493,"Ġê²¨ìļ¸":5494,"ĠìĻĶëĭ¤":5495,"ĠìĹīë§Ŀ":5496,"Ġìĸ´ëĸ»ê²Įëĵł":5497,"Ġë¶Ģëª¨ëĭĺìĿĺ":5498,"ëł¸ëĭ¤":5499,"Ġëª¨ìĦ¸ëĬĶ":5500,"ĠìłķìĿĺë¥¼":5501,"Ġë´īìĿ¸":5502,"ìĬ¤ëŁ½ê³ł":5503,"Ġìĸ´ëł¤ìļ´":5504,"Ġë°Ķê¿Ģ":5505,"ĠìĹ°ëĿ½ìĿĦ":5506,"ĠëĮĦìĬ¤":5507,"ĠëĤ¨ê²¨ì§Ħ":5508,"Ġë¿Į":5509,"Ġë¹¨ê°Ħ":5510,"Ġìĸ½íŀĮ":5511,"Ġë¦¬íĶĮë¦¬":5512,"Ġë§İìĿ´":5513,"ĠìķĮëĿ¼ëĶĺìĿĢ":5514,"ĠìľłìłĦìŀĲ":5515,"ĠìĿ´íĥĪë¦¬ìķĦ":5516,"ĠìĬ¤íĥł":5517,"ĠíĬ¸ëłĪìĿ´ëĦĪ":5518,"ĠìĬ¤ë¦´ëŁ¬":5519,"Ġíķĺë£¨íķĺë£¨ë¥¼":5520,"Ġê¸°ìģ¨ëıĦ":5521,"ĠìķĦìĬ¬ìķĦìĬ¬":5522,"ĠìĬ¤íĶĦë§ģ":5523,"Ġëĵ¤ìĿ´ëĭ¥":5524,"Ġì¹´ë¥´íħĶ":5525,"ĠìłĪì²´ìłĪëªħìĿĺ":5526,"Ġëĭ¤ìĿ´ìķĦëª¬":5527,"Ŀê±°ê²ĮìŀĦ":5528,"ĠìĤ¬ìĤ¬ê±´ê±´":5529,"ĠëĤĺë¨¸ì§Ģ":5530,"ĠìĤ¬ê³łëŃīì¹ĺ":5531,"Ġìĸ¼ëĸ¨ê²°ìĹĲ":5532,"SS":5533,"he":5534,"is":5535,"½ìĭľ":5536,"ĴìĿĢ":5537,"Ġì¥":5538,"Ġë»":5539,"ëĬĶì§Ģ":5540,"Ġíĵ¨":5541,"ëĭĲ":5542,"íķĺëıĦë¡Ŀ":5543,"ë¡ľë§Į":5544,"ë¦ĩ":5545,"ê³łëĬĶ":5546,"ìŀī":5547,"ëĤ©":5548,"ìķ¨":5549,"ê°ĢìĻĢ":5550,"ì§Ģêµ¬":5551,"ì§ĢëĬ¥":5552,"ìłĪìĿĦ":5553,"ë¦¬ìĸ´":5554,"ë¦¬ë©´ìĦľ":5555,"Ġê·¸ëłĪ":5556,"Ġê·¸ë£¹":5557,"ëĵ¤ê³ł":5558,"ê¸°ê¸°":5559,"ìĬ¤ìĹĲìĦľ":5560,"ìĬ¤ë¯¼":5561,"ìĬ¤íħĶ":5562,"ìĬ¤íĦ´":5563,"Ġê°ļ":5564,"ëłĺ":5565,"íķ´ëıĦ":5566,"ìĿ¸ë¥ĺ":5567,"ĠìĤ¬íĺķ":5568,"ĠìĿ´ë¡ľ":5569,"ĠìĿ´ë¥´":5570,"ĠìĿ´ë³Ħ":5571,"ìķĦìĻĢ":5572,"ëĿ¼ë©°":5573,"ìŀĲìĹĲ":5574,"ìŀĲëĵ¤ìĿĢ":5575,"ìŀĲë¦¬ìĹĲ":5576,"ìľ¼ëŁ¬":5577,"ĠìĦ¼":5578,"ĠìľĦíķĺìĹ¬":5579,"ĠìľĦì¹ĺë¥¼":5580,"ĠìķĦê¸°ë¥¼":5581,"ĠìķĦë°Ķ":5582,"ë©ķìĭľì½Ķ":5583,"ìĭľìĹĲê²Į":5584,"ìĭľíĶ¼":5585,"ĠíķĺìĪĺ":5586,"ĠíķĺìĹ¬":5587,"Ġíķĺë²Ħëĵľ":5588,"Ġê°Ģìĥģ":5589,"Ġê°Ģê¸°ë¡ľ":5590,"Ġê°Ģì§ľ":5591,"ìĤ¬íķľ":5592,"ĠìŀĪìĬµëĭĪëĭ¤":5593,"Ġìĭľíķ©":5594,"ĠìŀĲëĿ¼":5595,"ĠìŀĲëŀĳ":5596,"ĠìŀĲë¦¬ìĹĲìĦľ":5597,"Ġì§Ģíĺľ":5598,"ĠìłĦë©´":5599,"ĠìłĦêµŃ":5600,"ĠìłĦíĨµ":5601,"íĬ¸ë¦¬ìĬ¤":5602,"ĠëĲĺë©´":5603,"ëĲĲ":5604,"ìĥģê°Ģ":5605,"ìĥģìĿ¸":5606,"Ġëª¨ë¥´ê³ł":5607,"ĠìĿ¸ìĭĿ":5608,"ĠìĿ¸ê¸°ë¥¼":5609,"íĦ°ìĻĢ":5610,"ë¹Ļ":5611,"ì¹ĺë©°":5612,"ĠëĮĢë¡ľ":5613,"ĠëĮĢíĳľ":5614,"ĠëĮĢê°Ģë¡ľ":5615,"ì§ĦìĿĦ":5616,"ì§Ħíķľ":5617,"ë§ĪëĬĶ":5618,"ë§Īë¦¬":5619,"ë§ĪìŀĲ":5620,"íķĺê³łìŀĲ":5621,"Ġëĭ¤ìĬ¤":5622,"Ġëĭ¤ë¦Ħ":5623,"ìĪĺëĬĶ":5624,"ìĪĺíķľëĭ¤":5625,"ì£¼ê°Ģ":5626,"ĠëĤĺìĺ¨":5627,"ĠëĤĺëĭĪìķĦ":5628,"ĠìĦ¸ìļ°":5629,"ĠìĦ¸ìĽĶ":5630,"ĠëıĦìłģ":5631,"Ġë§Įíķľ":5632,"Ġë§Įë¥ĺ":5633,"Ġë³´ëĭĪ":5634,"Ġë³´ë¬¼ìĿĦ":5635,"ĠìĬ¤ë¯¸":5636,"ĠìĬ¤íĬ¸ë¡ľ":5637,"Ġê¸°ìĥģ":5638,"ìĨĶ":5639,"ĠìĨĮë¬¸":5640,"ĠìķĮìĿĦ":5641,"ĠìķĮì§Ģ":5642,"ë¦°ìĿ´":5643,"Ġë¯¸ëħĢ":5644,"Ġë¯¸ìĿ´ëĿ¼":5645,"ĠìĹĨì§Ģë§Į":5646,"Ġë¬´íķľ":5647,"Ġë¬´ë²ķ":5648,"Ġë¬´ê¸°ë¡ľ":5649,"Ġë¬´ìŀ¥íķľ":5650,"ë¹ĦìĿĺ":5651,"ëı¼":5652,"Ġìłķì¹ĺ":5653,"Ġìłķë¹Ħ":5654,"Ġë¶ĢìĿ¸":5655,"Ġë¶ĢìĹ¬":5656,"Ġë¶ĢíĮ¨":5657,"ìļ°ìĿĺ":5658,"ìļ°íĬ¸":5659,"ìļ°ì£¼":5660,"ĠëĤ¨ë¶Ģ":5661,"Ġìĺ¤ë¦¬":5662,"Ġìĺ¤ë¥´":5663,"Ġìĺ¤ë¸Į":5664,"Ġìĺ¤ë¹ł":5665,"Ġìĺ¤ë¥´ê²Į":5666,"ê¹¥":5667,"Ġê³µìŀ¥":5668,"Ġê³µìĹ°":5669,"ë¯¸ëĦ¤ìĿ´":5670,"Ġê±°ìĿĺ":5671,"Ġê±°ì¹¨":5672,"Ġê±°ë¦¬ë¥¼":5673,"ìķ¼ìĿĺ":5674,"ëĵ¤ìĿ´ëĭ¤":5675,"ëĶĶìĹĲê²Į":5676,"ëĶĶìĸ¸":5677,"ĠíĮĮëŀĢ":5678,"Ġë°Ķê¹¥":5679,"ê²©ìľ¼ë¡ľ":5680,"ë³´ì§Ģë§Į":5681,"íĻĶë¡ľìļ´":5682,"íĻĶìĭłìĿĢ":5683,"Ġë°ľìĿĦ":5684,"Ġìĭłì°¸":5685,"ëĲĺì§Ģë§Į":5686,"íİĻ":5687,"Ġìļ°ë¦¬":5688,"Ġì£¼ë§Ĳ":5689,"Ġì£¼ëĭĪìĸ´":5690,"Ġì¡°ëįĺ":5691,"âĢ¦âĢ¦":5692,"ë¬´ì±ħ":5693,"ĠìĤ¬ëŀĮëĵ¤ê³¼":5694,"ìĹĪìĿĮìĿĦ":5695,"Ġíķ´ìłĢ":5696,"Ġíķ´ì»¤":5697,"Ġíķ´íĤ¹":5698,"Ġë¶Īíĸī":5699,"Ġë¶ĪëªħìĿĺ":5700,"íķĺê¸°ìĹĲ":5701,"Ġì£½ê²Į":5702,"Ġë°Ľì§Ģ":5703,"íĭ°ê°Ģ":5704,"íĭ°ìĻĢ":5705,"Ġì¤ĳëıħ":5706,"Ġì¤ĳìĿ´ëįĺ":5707,"ĠìķĬìĿĦ":5708,"ĠìķĬìķĺ":5709,"ĠìķĬìķĺëĭ¤":5710,"ìĹ¬ìļ´":5711,"ìĹ¬íĸī":5712,"ìĹ¬íĸīìĿĦ":5713,"Ġëħ¼":5714,"ĠíĶ¼ìĿĺ":5715,"ĠíĶ¼ìĭł":5716,"ĠíĶ¼ëĤľ":5717,"ê³µìĿĺ":5718,"ê³µì£¼":5719,"íĶĦìĻĢ":5720,"Ġë¶ĦíĮĮ":5721,"Ġê²½ë¹Ħ":5722,"Ġëĵ¤íĤ¤":5723,"ĠìĹ°ê´Ģ":5724,"ĠìĹĲëĶĶ":5725,"ĠìĹĲë¦¬ì¹´":5726,"ĠìĹĲë¦¬ìĸ¼":5727,"Ġë¹łë¥¸":5728,"Ġë¹łì§ĢëĬĶëį°":5729,"Ġì±Ļ":5730,"ëĳĲë¦¬":5731,"Ġë¦Ń":5732,"ëŀĢíķľ":5733,"Ġë¡ľë¦¬":5734,"Ġë¡ľì¦Ī":5735,"ĠíİĦ":5736,"ì°¨ë¡Ģ":5737,"Ġëª»íķ´":5738,"íĨłëĬĶ":5739,"íĨłìĻĢ":5740,"íĨłë¡Ŀ":5741,"Ġê°Ģì¡±ëĵ¤ìĿĦ":5742,"ĠíĶĦëĿ¼":5743,"Ġì½©":5744,"ĠìĦ±ìĹĲìĦľ":5745,"ĠìķĦìĿ´ëĵ¤ìĿĺ":5746,"Ġíĸīë°©ìĿĦ":5747,"ĠìĻķìĿĺ":5748,"Ġê°ķëł¬íķľ":5749,"ëģĪ":5750,"ĠëĤ´ë¦°":5751,"ĠìĤ´ìķĦìĺ¨":5752,"ĠìĿ¸ê°Ħëĵ¤ìĿĦ":5753,"ĠìĤ¬ëŀĳìĿĢ":5754,"ĠìĤ¬ëŀĳìĬ¤ëŁ¬ìļ´":5755,"Ġë¦¬ê·¸":5756,"Ġë§ĲìĹĲ":5757,"Ġìŀ¥êµĲ":5758,"Ġìŀ¥ì°©":5759,"Ġìŀ¥ë¡Ģ":5760,"ëįĶìĿĺ":5761,"ĠìŀĪëĭ¤ë©´":5762,"Ġê¹ľ":5763,"Ġê°Ĳì¶°":5764,"ì¼Ī":5765,"Ġë°©íĸ¥ìľ¼ë¡ľ":5766,"Ġë°ĺë³µ":5767,"Ġë¹Ħë°ĢìĿĺ":5768,"Ġë¹Ħë°Ģê³¼":5769,"ĠëłĪìĿ´ëĬĶ":5770,"ĠëłĪìĬ¤íĨł":5771,"íĮ©":5772,"ì¶ľìĿĦ":5773,"Ġì²ĺìłĪíķľ":5774,"ĠìĻ¸ë©´":5775,"íį¼ì§Ģ":5776,"Ġëĭ¬ìķĦ":5777,"Ġëĭ¬ìķĦëĤĺ":5778,"ê·¸ë¦¬":5779,"ĠëıĮìķĦìĻĢ":5780,"ĠëıĮìķĦê°Ħ":5781,"ëħ¸ìĿĺ":5782,"Ġë§ĮëĤĺëŁ¬":5783,"ĠìĺĪìłĦ":5784,"Ġì¶Ķìĸµ":5785,"Ġë§ĪìĿĦìĿĢ":5786,"ĠëĿ¼ëĿ¼":5787,"ĠëĴ¤íĿ":5788,"íĸĪê³ł":5789,"Ġê´Ģì°°":5790,"Ġíķłë¦¬ìļ°ëĵľ":5791,"ìľĦíķ´":5792,"ĠíĥĢê²Ł":5793,"Ġíı¬ìĻĢ":5794,"Ġíı¬ìĭĿ":5795,"ĠìľĦíĹĺìĿĦ":5796,"ĠëĤ¨ìŀĲìĻĢ":5797,"ĠìĤ¬ìĿ´ê°Ģ":5798,"ĠíĺĦìŀ¥ìĹĲìĦľ":5799,"ĠíħĮíģ¬":5800,"ê¸ĪìĿ´":5801,"ĠíĥĪìĺ¥":5802,"Ġë§īê³ł":5803,"ĠìĨĲìŀ¡":5804,"ĠìĤ´ìĿ¸ë²Ķ":5805,"Ġë³µìĭ±":5806,"Ġë³Ģíĺ¸ìĤ¬":5807,"ĠíĨłë§ĪìĬ¤":5808,"ĠìĽĲìłķ":5809,"ìĹħìŀĲ":5810,"Ġê°ľì²Ļ":5811,"Ġëĵ¤ìĸ´ê°Ħëĭ¤":5812,"ë¯¼ëĭ¤":5813,"Ġë²ĶìĿ¸ìľ¼ë¡ľ":5814,"ëĭ¬ìķĦ":5815,"ĠìĤ¬ëĿ¼ì§Ħëĭ¤":5816,"Ġìĭľê°ĦìĿĢ":5817,"Ġë²łìĬ¤íĬ¸":5818,"Ġë²łëĭĪìĬ¤":5819,"Ġêµ°ìĿ¸":5820,"Ġíĺ¼ëıĪ":5821,"Ġê±´ëĦĪ":5822,"Ġê±´ìĦ¤":5823,"íħĮëĤĺ":5824,"ë¶ĦìĿĺ":5825,"ë¶Ħíķľ":5826,"ê°ľìĽĶ":5827,"ĠìľĦíĺĳìĹĲ":5828,"ĠìĨĮëħĢë¥¼":5829,"ĠëĸłëĤĺê³ł":5830,"ĠëĸłëĤĺê¸°ë¡ľ":5831,"ĠìĿ´ìłľëĬĶ":5832,"Ġëª°ë¦¬ê²Į":5833,"ĠëıĦìĭľëĬĶ":5834,"Ġë¯¸êµŃìľ¼ë¡ľ":5835,"Ġìļ°ì£¼ë¥¼":5836,"Ġê³¼ê±°ë¡ľ":5837,"ĠíĥĪì¶ľìĹĲ":5838,"ë°Ľê³ł":5839,"Ġê²°íĺ¼íķľ":5840,"Ġê·¸ê³³ìĿĢ":5841,"ë°ĺìĿĺ":5842,"ìĹĺë¦¬":5843,"ĠìĻĦìĦ±":5844,"ĠìłľìĿ´ë¯¸ëĬĶ":5845,"Ġê²½ì°°ìĿĢ":5846,"ĠìĹĦë§ĪëĬĶ":5847,"ìŀĪëĭ¤":5848,"ĠìŀĦë¬´ìĹĲ":5849,"Ġìĸ¼ìĿĮ":5850,"Ġìĸ¼ë£©":5851,"Ġë¹ĮëĶ©":5852,"ĠëĦĺìĸ´ê°Ģ":5853,"Ġë§¥ìĬ¤":5854,"ĠìĨĮëħĦìĿĢ":5855,"Ġê³Ħíļįíķľëĭ¤":5856,"Ġê¸°ìĸµìĿ´":5857,"ì±Ī":5858,"ë²łìĿ¼ë¦¬":5859,"ĠìºĲìĬ¤íį¼":5860,"Ġìļ´ëªħìĹĲ":5861,"Ġìļ´ëªħìĿĢ":5862,"Ġíģ´ëĿ¼":5863,"Ġê³µíı¬ë¥¼":5864,"Ġê³µíı¬ìĻĢ":5865,"Ġì£½ìĿĮìĹĲ":5866,"Ġì£½ìĿĮìľ¼ë¡ľ":5867,"Ġëıħìŀ¬":5868,"Ġëª¨ìĬµìĹĲ":5869,"ĠìĦ±ê³µíķĺì§Ģë§Į":5870,"Ġë§Īì£¼ì¹ľ":5871,"ĠìĥĿíĻľìĹĲ":5872,"ë¶Īëªħ":5873,"ê¾¸ëŁ¬ê¸°":5874,"ĠìłĦìĦ¤ìĿ´":5875,"ĠêµŃê²½":5876,"ĠíħĮëŁ¬ë¥¼":5877,"ĠìľĮë¦¬ìĬ¤":5878,"ìĭľíĤ¤ëł¤":5879,"ĠìĬĪíį¼ë§¨":5880,"Ġìĭ¶ìĹĪëįĺ":5881,"Ġëĵ£ëĬĶëĭ¤":5882,"Ġë§ĪìĿĮìĹĲ":5883,"ĠíĥĲìłķ":5884,"ĠëĿ¼ìĿ´íĬ¸":5885,"ĠëłĪìĿ´ìĿĺ":5886,"ĠìķĦëĭĪë©´":5887,"ëĨĴìĿĢ":5888,"Ġì¦Ĳê¸°ê³ł":5889,"Ġì¦Ĳê¸´ëĭ¤":5890,"Ġìĵ°ê³ł":5891,"ĠìĦ¤ìĥģê°Ģ":5892,"ĠëĤľìĥĿ":5893,"ĠëĤľìŁģìĿ´":5894,"íĺ¹íķĺê²Į":5895,"Ġìķħëĭ¹ìĿĦ":5896,"ĠíĦ°ëĦĪ":5897,"Ġíĳ¹":5898,"Ġìłĳì´ī":5899,"ĠCE":5900,"ĠìłĬìĿĢìĿ´":5901,"ĠìĿĮëª¨ê°Ģ":5902,"íĭĢëŁ¬":5903,"ĠëıĮìķĦê°Ģê¸°":5904,"Ġê´´ë¬¼ìĿ´":5905,"Ġ50":5906,"Ġê¸°ëĭ¤ë¦¬ëĬĶ":5907,"Ġìĸ¸ëĭĪ":5908,"ĠíķĦìĤ¬":5909,"Ġë¨¹ìĸ´":5910,"Ġë§¡ìĿĢ":5911,"Ġëĭ¤ê°Ģìĺ¨ëĭ¤":5912,"ĠìłķìĭłìĿĦ":5913,"Ġë¿ĲìĿ´ëĭ¤":5914,"Ġì°°ë¦¬ëĬĶ":5915,"ĠíıĲê¸°":5916,"Ġì¶ķíķĺ":5917,"Ġìķ¨ë¦¬ìĬ¤ëĬĶ":5918,"ëıĪëĭ¤":5919,"ĠìĽĶëĵľ":5920,"ì¼Ģë¹Ī":5921,"ĠëıĻìĥĿìĿĦ":5922,"Ġê¿Īê¾¸ëįĺ":5923,"íĳľë¥¼":5924,"ĠìķĦë¬´ëŁ°":5925,"ë¿ĲìĿ´ëĭ¤":5926,"ĠìĬ¬ë¡ľ":5927,"Ġì¶©ê²©ìĹĲ":5928,"Ġì°©ë¥Ļ":5929,"íıīë²Ķíķľ":5930,"Ġëª©ê²©íķľëĭ¤":5931,"Ġëª©ê²©íķĺê³ł":5932,"Ġ202":5933,"ĠëĨįêµ¬":5934,"ĠëĨįìŀ¥":5935,"ĠìĦłíĥĿìĿĦ":5936,"Ġê¸°íļĮë¡ľ":5937,"Ġë©¸ì¢ħ":5938,"ìª½ìľ¼ë¡ľ":5939,"ĠìĿ¼ìľ¼íĤ¨ëĭ¤":5940,"ĠìĹĲìĿ´ìłĦíĬ¸":5941,"ĠëĭīìĿĢ":5942,"Ġìļ°ì£¼ìĦłìĿ´":5943,"Ġì²łìłĢ":5944,"Ġë¶Ģë¶Ģê°Ģ":5945,"ĠìĬµê²©ìľ¼ë¡ľ":5946,"Ġê³łíĸ¥ìľ¼ë¡ľ":5947,"Ġíħľ":5948,"ĠìĦ¹ìĭľ":5949,"ĠëıĦì¤ĳìĹĲ":5950,"ĠíĹĮíĬ¸ëĬĶ":5951,"ĠíĻĺìĥģìĿĺ":5952,"ĠíĻĺìĥģìłģìĿ¸":5953,"ĠìĿ¼ìĥģìĹĲ":5954,"ĠìĿ¼ìĥģìľ¼ë¡ľ":5955,"ĠëĦ£ìĸ´":5956,"ĠíĮ¬ëįĶ":5957,"ĠëŁ°ëįĺìľ¼ë¡ľ":5958,"Ġë¯¸ìħĺìĿ´":5959,"Ġëħ¸ìĺĪë¡ľ":5960,"Ġìį¨":5961,"Ġìį¬":5962,"ĠìĥĿìĿ¼ìĿĦ":5963,"Ġíľ©ìĭ¸ìĿ¸ëĭ¤":5964,"Ġì§Ģìĺ¥ìĿĺ":5965,"ĠíıŃëł¥ê³¼":5966,"ĠìĿ´ë²ĪìĹĲëĬĶ":5967,"ĠìľĦê¸°ìĹĲìĦľ":5968,"ìĽ¨ìĿ¸":5969,"Ġë¹Ħë¡¯íķ´":5970,"Ġíķ©ë¥ĺíķľëĭ¤":5971,"ĠìķĦíĶĦê°Ģ":5972,"Ġê°Īëĵ±ìĿĦ":5973,"ìĬ¤ëŁ½ê²Į":5974,"Ġì¡°ì¢ħìĤ¬":5975,"ëŃĩ":5976,"ĠìĥĺìĿĢ":5977,"ĠíĮĮì»¤ëĬĶ":5978,"Ġë°ĶëŀĮìĹĲ":5979,"ì¶ķêµ¬":5980,"Ġì²ĺì°¸íķĺê²Į":5981,"Ġìº£ëĭĪ":5982,"ĠìĽĥìĿĮ":5983,"ê²ģê²Į":5984,"Ġê³ģìĿĦ":5985,"ĠìĿ¸ëĶĶìĸ¸":5986,"Ġíİĺë¥´ìĭľìķĦ":5987,"ĠíĮ¨ë°Ģë¦¬":5988,"Ġìĸ¸ìłľëĤĺ":5989,"ĠìĪĺìĪĺê»ĺëģ¼ìĿĺ":5990,"Ġìĭ«ìĸ´":5991,"Ġë¹¨ëł¤":5992,"íİľëįĶë¸Ķ":5993,"ë±ħ":5994,"ĠìľĦì¹ĺíķľ":5995,"ĠëıĦìĤ¬ë¦¬ê³ł":5996,"ĠëĬĳëĮĢìĿ¸ê°Ħ":5997,"Ġê´Ģëł¨ëĲľ":5998,"Ġë°ĶìĿ´ëŁ¬ìĬ¤":5999,"Ġìĭłëį°ëłĲëĿ¼":6000,"Ġíĳ¸ë¥¸":6001,"ĠìĤ¬ê¸°ê¾¼":6002,"ĠíĻįì½©":6003,"ĠëģĬìŀĦìĹĨëĬĶ":6004,"Ġë®¤ì§Ģ":6005,"ĠëģĪì§Ī":6006,"ĠìľħìĿĢ":6007,"Ġë§īê°ķíķľ":6008,"ìĵ´ëĭ¤":6009,"ĠëĭĮìŀĲ":6010,"ìĽłëįĺ":6011,"Ġì¡°ê±´ìľ¼ë¡ľ":6012,"ĠìķĦìĪĺëĿ¼ìŀ¥ìĿ´":6013,"ê½ĥ":6014,"Ġêµ¶ì£¼":6015,"Ġë°°ê²½ìľ¼ë¡ľ":6016,"ĠíĴĭë³¼":6017,"ĠíķµíıŃíĥĦ":6018,"ĠìĬ¤íĶ¼ë¦¿ìĿĢ":6019,"ĠìĿ¼ìĥĿìĿ¼ëĮĢìĿĺ":6020,"Ġì½°ì§Ģëª¨":6021,"ĠëłĪìĬ¤íĨłëŀĳ":6022,"!âĢĿ":6023,"17":6024,"50":6025,"??":6026,"MF":6027,"as":6028,"ch":6029,"µíĭ°":6030,"ëĺ":6031,"ëķħ":6032,"ìĳ":6033,"Ġ-":6034,"Ġ<":6035,"ĠW":6036,"īë°ľ":6037,"įê²Į":6038,"ĶìĿ´":6039,"łíķľ":6040,"Ġì¾Į":6041,"ëĬ¦":6042,"ëĬĺìĿĦ":6043,"ìĹłë§Ī":6044,"ë¡ľìĿ´":6045,"ë¡ľì¦Ī":6046,"ë¡ľìĽĢ":6047,"ë¡ľìļ°ëĬĶ":6048,"Ġìķī":6049,"ìķ¨ë¦¬":6050,"ê°ĢíķĦëĵľ":6051,"ì§ĢëĭĪìĸ´":6052,"ë¦¬ë©´":6053,"ë§ĺ":6054,"Ġê·¸ëĮĢë¡ľ":6055,"ëĵ¤ìĿ¸":6056,"ëĵ¤ë¦°":6057,"ëĵ¤ê¹Įì§Ģ":6058,"ëĵ¤ìĿ¸ëĭ¤":6059,"Ġìłĸ":6060,"ê¸°ìĦľ":6061,"ê¸°ìłģìĿ¸":6062,"ê¸°ê´Ģ":6063,"ìĬ¤íĭ´":6064,"ìĬ¤ë¹Į":6065,"íķ´ìĺ¨":6066,"íķ´ë²Ħë¦°":6067,"ìĦľìĹĲ":6068,"ĠìĹ½":6069,"ìĿ¸ìłģìĿ¸":6070,"Ġìĭ£":6071,"ĠìĤ¬ìŀĲ":6072,"ĠìĤ¬ëĤ´":6073,"ĠìĤ¬ìĤ´":6074,"ĠìĤ¬ê·Ģ":6075,"ĠìľĪ":6076,"ĠìĿ´ëĭ¨":6077,"ĠìĿ´ì¤ĳ":6078,"ìĸ´ëĨĵ":6079,"ĠëĲ©ëĭĪëĭ¤":6080,"Ġëª½":6081,"ìķĦëĭ´":6082,"Ġê²¸":6083,"ëĿ¼ê¸°":6084,"ëĿ¼ë¯¸":6085,"ìŀĲìĿ´":6086,"ìŀĲê³ł":6087,"ìŀĲë¦¬":6088,"ëĤĺëĿ¼":6089,"ìĻĪ":6090,"ĠìľĦìĹĲìĦľ":6091,"ĠìľĦíĥľ":6092,"ìľ¼ë¡ľìĦľ":6093,"ĠìķĦëĿ¼":6094,"ĠìķĦíĬ¸":6095,"ĠìķĦìĿ¼":6096,"ĠìķĦíĭĢ":6097,"ĠìķĦíĶĪ":6098,"ĠìķĦíĶĶ":6099,"ë²¼":6100,"ë²ħ":6101,"ìĭľíĥĲ":6102,"ëıĦìļ°":6103,"ìĺ·":6104,"Ġíķĺìļ°ìĬ¤":6105,"Ġìĥī":6106,"âĢĻ!":6107,"ëĮĢìĽĲ":6108,"ĠìĪĺì¡±":6109,"ĠìłĦìĭľ":6110,"ĠìłĦíķĻ":6111,"ĠëĲĺê¸°ë¡ľ":6112,"ĠëıĶ":6113,"êµ¬ìĿĺ":6114,"Ġëª¨ìĿĢ":6115,"Ġëª¨ëį¸":6116,"Ġì°¢":6117,"Ġì°Į":6118,"ìŀ¥ê³¼":6119,"ëł¤ëįĺ":6120,"ì¹ĺì§Ģ":6121,"ĠëĮĢìŀ¥":6122,"ĠëĮĢíĶ¼":6123,"ĠëĮĢìŀ¬":6124,"ĠëĮĢìłĢ":6125,"ì§Ħíķĺê³ł":6126,"ĠíĺĲìĿĺ":6127,"ë§ĪìĿĺ":6128,"ë§Īíķľ":6129,"ë§Īë¡ľ":6130,"ë§Īë²ķ":6131,"Ġê²ĥìĹĲ":6132,"Ġê²ĥê³¼":6133,"Ġê²ĥìĿ¼ê¹Į":6134,"ĠíķľêµŃ":6135,"Ġíķľê³Ħë¥¼":6136,"Ġëĭ¤íģĲ":6137,"ìĪĺë¬´ì±ħ":6138,"ì£¼ìĿ¼":6139,"ĠëĤĺìģľ":6140,"ĠëĤĺëŃĩ":6141,"ĠìĻĵ":6142,"ĠìĻĢìĿ´":6143,"ĠìĦ¸íĭ°":6144,"ĠìĿ¼ëªħ":6145,"ĠìĿ¼íĸīìĿĦ":6146,"ê³Ħê°Ģ":6147,"ĠëıĦìĭ¬":6148,"Ġë³´ìĤ´":6149,"Ġë³´ìĿ¸ëĭ¤":6150,"Ġë³´ëĤ¼":6151,"ĠíĶ½ìĭľ":6152,"ĠìĬ¤íĮĮ":6153,"ĠìĬ¤íı¬":6154,"ĠìĬ¤ìº":6155,"Ġê¸°ëıĦ":6156,"Ġê¸°ë¡Ŀ":6157,"ĠìŀĲìĭłëĵ¤":6158,"ë²ĦìĬ¤íĦ°":6159,"ĠìĨĮëıĻ":6160,"ëĶ¸":6161,"Ġë¯¸ì¹ĺ":6162,"Ġë¯¸ëª¨ìĿĺ":6163,"Ġë¯¸ìķĦìĿĺ":6164,"ĠìĹĨìĿĦ":6165,"ìĬĲ":6166,"Ġë¬´ë¦":6167,"Ġë¬´ëıĦ":6168,"Ġë¬´ëª¨":6169,"Ġë¬´ì°¸":6170,"ĠëĲľëĭ¤ëĬĶ":6171,"ĠìĹ¬ê¸°ìĹĲ":6172,"ìĥĿìĿĺ":6173,"ìĥĿëªħ":6174,"ìĽĲëĵ¤ìĿĦ":6175,"ìĿ¼ìĹĲ":6176,"ìĿ¼ë¦¬ìĸ¸":6177,"Ġìłķë©´":6178,"ĠìłķìĺĪ":6179,"ĠìłķíĻķ":6180,"íĥĢìĻĢ":6181,"ìłķìĿĺ":6182,"ìłķë¶Ģ":6183,"Ġë¶ĢëŁ¬":6184,"Ġë¶Ģëŀĳ":6185,"Ġë¶Ģë¥´ëĬĶ":6186,"ìļ°ë¥¼":6187,"ìļ°ìĬ¤ìĿĺ":6188,"ìļ°ëıĮ":6189,"ë¥´ë¥¼":6190,"ĠìłľëĭĪíį¼":6191,"Ġê³łë¬¸":6192,"ìĺ¤ê°Ģ":6193,"ĠëĤ¨ìĿĦ":6194,"ĠëĤ¨ê¸°":6195,"ĠëĤ¨ëħĢ":6196,"ĠëĤ¨íķĻìĥĿ":6197,"Ġìĺ¤ëĶĶ":6198,"Ġìĺ¤ë¥¸":6199,"ê¹Ģ":6200,"ê¹Ŀ":6201,"Ġê³µìľł":6202,"Ġê³µê°ľ":6203,"Ġê³µíĨµ":6204,"ë¯¸ìķĪ":6205,"Ġê±°ê¸°ìĦľ":6206,"íģ¬ìĹĲê²Į":6207,"íĨ±":6208,"ìķ¼ë§Ĳë¡ľ":6209,"ĠíĮĮë¦¬":6210,"ĠíĮĮë©¸":6211,"ĠìĪĢ":6212,"Ġë°Ķíĭ°":6213,"Ġë°Ķëĭ¥":6214,"Ġë°Ķìģľ":6215,"ĠìľłëĬ¥íķľ":6216,"Ġìľłëł¥íķľ":6217,"íĤ¤ìĬ¤":6218,"íĤ¤ìĻĢ":6219,"ĠëıĻíĸī":6220,"ĠëıĻê²½":6221,"ĠëıĻì°¸":6222,"ëĦ¨":6223,"Ġë°ľíĥģ":6224,"ĠìĭłìĿĺ":6225,"Ġìĭłê¸°":6226,"Ġìĭłìŀħ":6227,"ê±°ë¦¬ëĬĶ":6228,"Ġêµ¬íķľëĭ¤":6229,"Ġêµ¬íķĺëĬĶ":6230,"Ġêµ¬ìĹŃ":6231,"ëĲĺìĹĪëįĺ":6232,"ëĬĲëĬĶ":6233,"ëĬĲëĥĲ":6234,"Ġìļ°ëĶĶëĬĶ":6235,"Ġì£¼ê³ł":6236,"Ġì£¼ìĪł":6237,"Ġì£¼ìĿ¸ìĿ´":6238,"Ġì¡°ëĬĶ":6239,"Ġì¡°ëĤĺ":6240,"ĠëĶ±":6241,"ĠëĶ´":6242,"ë¬´ë¥¼":6243,"ë¬´ì§Ģ":6244,"ĠëĤłë¶ĢíĦ°":6245,"Ġíķ´ë¦¬ëĬĶ":6246,"Ġíķ´ë³ĳ":6247,"Ġíķ´ë¦¬ìĿĺ":6248,"Ġë¶Īìĸ´":6249,"Ġë¶Īíĥľ":6250,"Ġê²°íĪ¬":6251,"ìĭ¤ë¡ľ":6252,"ì¦Ĳë¦¬":6253,"Ġì£½ëĬĶ":6254,"Ġì£½ëĬĶëĭ¤":6255,"Ġì£½ìĿ´ëĬĶ":6256,"Ġë°Ľëįĺ":6257,"ìĦ¸ê°Ģ":6258,"ìĦ¸ìĥģìĿĦ":6259,"Ġì¹ľêµ¬ìĿĺ":6260,"ĠìĿĺì§Ģ":6261,"ĠìķĬëĬĶëį°":6262,"Ġì§ĳìĸ´":6263,"ìĨĮìĿĺ":6264,"ìĨĮë¦¬":6265,"ìĨĮìĭľ":6266,"ĠìĨįëıĦë¡ľ":6267,"ĠìĨįìĪĺë¬´ì±ħ":6268,"ìĪ¨":6269,"íĶĦëŀĳ":6270,"ì¹´ëĬĶ":6271,"ì¹´ìĿĺ":6272,"ĠëıĮìĿ´":6273,"Ġë¶Ħëªħ":6274,"Ġì°¾ìķĦìĺ¤ê³ł":6275,"íĮĮìĿĺ":6276,"Ġ14":6277,"ĠìĹĲë©Ķ":6278,"ëıĻìĤ°":6279,"ĠíĹ¨":6280,"ĠíĹĿê±°ê²ĮìŀĦ":6281,"Ġë¹łëľ¨":6282,"ëĭ¹íŀĪ":6283,"Ġì±Ī":6284,"íĶ¼íĦ°":6285,"ëŀĢìĿĺ":6286,"ëŀĢíĭ°":6287,"Ġëª»íķĺë©´":6288,"Ġìĭ¤ìłľ":6289,"Ġìĭ¤ì²´ë¥¼":6290,"ì¦Īëį°ìĿ´":6291,"Ġì¡´ìĬ¤ëĬĶ":6292,"Ġê°Ģì¡±ëĵ¤":6293,"Ġê°Ģì¡±ëĵ¤ê³¼":6294,"ì¡°ëĬĶ":6295,"ì¡°íķľ":6296,"ì¡°ì§Ģ":6297,"ĠìķħëıĻ":6298,"ĠìĤ¬ê±´ìĿĢ":6299,"Ġëį°ìĬ¤":6300,"ìĽĮì§Ħ":6301,"ĠìĻķê¶ģ":6302,"ĠìķĪìĿĺ":6303,"Ġê°ķìļĶ":6304,"ĠëĤ´ë¦¬ê³ł":6305,"ĠëĤ´ë¦°ëĭ¤":6306,"ĠìĿ¸ê°Ħìľ¼ë¡ľ":6307,"ĠìĿ¸ê°Ħëĵ¤ìĿĺ":6308,"Ġë¦¬ì¡°":6309,"ìĤ´ìĿ´":6310,"Ġë§ĲíķĺëĬĶ":6311,"ĠëłĮ":6312,"Ġìŀ¥ìĨĮë¡ľ":6313,"Ġê¹¬":6314,"Ġê¹ĥ":6315,"Ġë§¤íĬľ":6316,"Ġë°©ìĹĲìĦľ":6317,"Ġë°ĺíķľëĭ¤":6318,"ĠìĦłë°°":6319,"ìĨįìĿĺ":6320,"Ġê³ĦìĬ¹":6321,"Ġì²ĺë¦¬":6322,"íļĮìĿĺ":6323,"Ġëĭ¬ë¦°":6324,"ê·¸ëłĪìĿ´ëĵľ":6325,"ĠëĵľëĿ¼íģĺ":6326,"íĺ¼ìĿĦ":6327,"ĠìŀĳìĹħ":6328,"ĠìºĶ":6329,"ë¨¸ìĬ¤":6330,"Ġì¶Ķì§Ħ":6331,"Ġë§ĪìĿĦìĿ´":6332,"ĠëĿ¼ìļ°":6333,"Ġíıīë²Ķ":6334,"ĠìłĢê²©":6335,"ĠëķĮê¹Įì§Ģ":6336,"ĠíĥĢìĿ¼ëŁ¬":6337,"Ġìŀ¬ëĬ¥":6338,"Ġìŀ¬íĮĲ":6339,"Ġìŀ¬ìķĻìĿĦ":6340,"ë°Ķë¡ľ":6341,"ë°ĶëŀĮ":6342,"Ġëĭ¹íķ´":6343,"Ġëĭ¹íĻ©":6344,"ĠìłģìĹĲ":6345,"ĠìľĦíĹĺìĿ´":6346,"ĠëĪĦëĵ¤":6347,"Ġì¹ĺíĤ¨":6348,"ë°©ìĹĲ":6349,"ĠìĪ¨ê¸°ê³ł":6350,"Ġìŀłëĵł":6351,"Ġìŀłëĵ¤ìĸ´":6352,"ì¹¨ìĹĲ":6353,"ĠìĪľìĪĺíķľ":6354,"Ġì½Ķë¯¸":6355,"Ġì½Ķíį¼":6356,"ì§ĳìĹĲìĦľ":6357,"Ġì°¨ìĹĲ":6358,"Ġë³µìĦľ":6359,"Ġë³µê·Ģ":6360,"Ġë³Ģíķľ":6361,"ĠìĹ´ê´ĳ":6362,"ĠëĶ¸ìĿ¸":6363,"Ġê°ĦìĿĺ":6364,"Ġê°Ħíĺ¸":6365,"ë²ĶìĿĦ":6366,"ĠìłĦìŁģìľ¼ë¡ľ":6367,"Ġì¡´ìŀ¬ìĹĲ":6368,"Ġì¡´ìŀ¬íķľëĭ¤ëĬĶ":6369,"ìĺģìĿĦ":6370,"Ġìĭľê°ĦìĿĺ":6371,"Ġë²łì§Ģ":6372,"Ġë²łíĬ¸":6373,"Ġìļ©ìĤ¬":6374,"Ġìļ©ê¸°ìĻĢ":6375,"ëĦ¤ì¦Ī":6376,"Ġì§ģìĹħ":6377,"ê°ľê°Ģ":6378,"Ġìĭ¬ë¦¬":6379,"Ġìĭ¬íķ´":6380,"Ġìĭ¬ì§Ģìĸ´":6381,"Ġê²ĥìĿ´ìĹĪëĭ¤":6382,"íģ´ëŁ½":6383,"ëģ¼ë¦¬":6384,"Ġë¸ĮëĿ¼ìĿ´":6385,"Ġë°¤ìĿĦ":6386,"ĠìľĦíĺĳìĿ´":6387,"ĠìľĦíĺĳìłģìĿ¸":6388,"ĠëĳĺìĶ©":6389,"ĠìĤ¶ìĿĢ":6390,"Ġ300":6391,"Ġìļ°ìĹ°íķľ":6392,"ë§¤íĬľ":6393,"Ġì°¸ìłĦ":6394,"ìĶ½":6395,"ĠëŀĦ":6396,"ì¤Į":6397,"Ġìĭ¸ìļ°ëĬĶ":6398,"ĠëıĦìĭľê°Ģ":6399,"Ġì¶©ìĦ±":6400,"ë°Ľê²Į":6401,"ĠëĬĲê»´":6402,"Ġíĥľìĸ´ëĤľëĭ¤":6403,"Ġì¡°ì§ģìĿĦ":6404,"Ġê²°íĺ¼ìĭĿìĿĦ":6405,"ĠëĪĪìĿ´":6406,"Ġê·¸ê³³ìĿĦ":6407,"ë°ĺìĿĢ":6408,"Ġë³´ëĤ´ì§Ħëĭ¤":6409,"Ġë³µìĪĺìĹĲ":6410,"Ġë§Īì§Ģë§īìľ¼ë¡ľ":6411,"Ġê²½ì°°ê´Ģ":6412,"Ġë§Įëĵ¤ìĸ´ì§Ħ":6413,"Ġì´ĿìķĮ":6414,"ĠìĤ°ëĭ¤":6415,"ìĸĳíķľ":6416,"Ġë¹Įë¦¬":6417,"ì²ľìĻ¸íķľ":6418,"ĠíĮĢìĿĺ":6419,"Ġíģ¬ë¦¬ìĬ¤íĭ´":6420,"Ġë§¥íģ´ëłĪ":6421,"ĠìĨĮëħĦìĿĺ":6422,"ĠíĮ¨ë°°":6423,"Ġê³ĦíļįìĿĢ":6424,"ë¦¬ìķĦëĬĶ":6425,"ĠìºĲë¡¤":6426,"ĠìºĲìĦľë¦°":6427,"ì¸łëĬĶ":6428,"Ġë²Ķì£Ħì¡°ì§ģ":6429,"Ġíģ´ëłĪ":6430,"Ġì£½ìĿĮê³¼":6431,"ĠëĤĺíĥĢëĤĺëĬĶëį°":6432,"ĠëĨĵìĹ¬":6433,"ĠëķĮë¬¸ìĿ´ëĭ¤":6434,"Ġê²ĮìŀĦìĿ´":6435,"Ġì¤Ģëĭ¤":6436,"ĠìŀŃê³¼":6437,"Ġìĺ¬íķ´":6438,"ë°ķíķľ":6439,"ĠìĨįìĹĲìĦľëıĦ":6440,"ìĬ¤ê°Ģë¥´":6441,"Ġë§Īì£¼íķľëĭ¤":6442,"Ġë§Īì£¼ì¹ľëĭ¤":6443,"Ġìĸ»ìĿĢ":6444,"Ġìĸ»ëĬĶëĭ¤":6445,"Ġê°ĸì¶ĺ":6446,"íķĺë©´ìĦľëıĦ":6447,"ĠìĺģíĻĶë¥¼":6448,"ìŀ¡ìĿ´":6449,"Ġê·Ģìĭł":6450,"Ġê·ĢìĹ¬ìļ´":6451,"Ġëį°ìĿ´íĬ¸ë¥¼":6452,"ĠìĬĪíį¼ë°´":6453,"ëłĮìĿ´":6454,"Ġë§ĪìĿĮìľ¼ë¡ľ":6455,"ĠëĨĢëĿ¼":6456,"ĠëĨĢëŁ¬":6457,"ĠëĨĢëŀĢ":6458,"ëľ¨ë¦¬":6459,"ĠíģĲ":6460,"ìĬ¬ë§ģ":6461,"Ġê·¹ë³µ":6462,"ĠëıĻë£Įëĵ¤ê³¼":6463,"Ġë¸Ķë¡Ŀ":6464,"ĠìĭĿë¬¼":6465,"ĠëĤ¨íİ¸ìĿĦ":6466,"ĠìĦ¬ìľ¼ë¡ľ":6467,"ĠìĦ¬ëľ©":6468,"ĠìĬ¹ë¦¬":6469,"ĠìĦ¤ì¹ĺ":6470,"ĠíĸīìĦ±ìĹĲìĦľ":6471,"ĠíĦ°íĶĦ":6472,"ë³¸ëĭ¤":6473,"ĠìķĦë¹łë¥¼":6474,"íķ¨ìľ¼ë¡ľ":6475,"íķ¨ê³¼":6476,"Ġê²ªëĬĶëĭ¤":6477,"ìĥīíķľ":6478,"ĠìĿĮëª¨ìĹĲ":6479,"Ġìķ¤ëĶĶ":6480,"ĠíĮĮíĭ°ê°Ģ":6481,"ĠíĮĮíĭ°ìĹĲìĦľ":6482,"ê·¹ìĿĦ":6483,"Ġê´´ë¬¼ë¡ľ":6484,"Ġê²ĢìĤ¬":6485,"Ġë²Ĺìĸ´ëĤľ":6486,"Ġê´Ģê³ĦëĬĶ":6487,"Ġê´ĳê²½ìĿĦ":6488,"ĠíĴĢê¸°":6489,"ĠíĴĢëł¤":6490,"ĠíĽĶì¹ĺëĬĶ":6491,"Ġê²°ìĭ¬íķĺê³ł":6492,"Ġì¹¼ìĿĦ":6493,"ĠìĬ¤íĥĢíģ¬":6494,"ì¶Ķì§Ģ":6495,"Ġì¤Ģë¹Ħë¥¼":6496,"Ġì¤Ģë¹Ħíķľëĭ¤":6497,"ìĺ¬ë¦¬ìĸ¸":6498,"Ġëĭ¤ê°Ģìĺ¤ëĬĶ":6499,"Ġìłķìĭłê³¼":6500,"Ġì¶Ķìłģíķĺëįĺ":6501,"Ġíĭ°ëª¬":6502,"ĠëĲĺì°¾ê³ł":6503,"Ġì¦Ŀëªħ":6504,"ĠëĬĲëģ¼ë©°":6505,"ĠëŁ¬ë¸Į":6506,"Ġì°°ë¦¬":6507,"ĠëĮĢê²°ìĿ´":6508,"ĠíĶĮëłĪìĿ´":6509,"Ġì¶ķë³µ":6510,"Ġìķ¨ëŁ°":6511,"Ġë³´íĺ¸íķĺëĬĶ":6512,"ĠíĮĲíĥĢ":6513,"ĠíĮĶìķĦ":6514,"ĠíĮĶëł¤":6515,"Ġìĩł":6516,"Ġì¹ľíķľ":6517,"Ġë¶Ħëħ¸íķľ":6518,"ëŁīíķľ":6519,"ĠìĺģêµŃìĿĺ":6520,"Ġë°ĿíĺĢì§Ħëĭ¤":6521,"íıīìĸĳ":6522,"ĠìŀĪìĹĪìľ¼ëĭĪ":6523,"Ġíı´ìĿĢ":6524,"ĠìłľìĿ´ìĬ¨ìĿĦ":6525,"Ġë©Ģíĭ°":6526,"ĠìĿ´ê³³ìĹĲìĦľ":6527,"Ġê¶Įëł¥ìĿĦ":6528,"ĠíĺĦìĭ¤ë¡ľ":6529,"íĮĢìĿĦ":6530,"Ġìľłëł¹ìĿ´":6531,"ĠíĿĶìłģìĿĦ":6532,"ĠíľĺëĳĲ":6533,"Ġë²ķìĿĦ":6534,"Ġë§ŀìĿ´íķĺê²Į":6535,"Ġíľ©ìĵ¸":6536,"ĠìķĮëłīìĬ¤ìĿĺ":6537,"ë¹ĦìķĦìĿĺ":6538,"Ġê°Ĳìĺ¥ìĹĲìĦľ":6539,"Ġìļ©ìĿĺìŀĲë¥¼":6540,"Ġìļ°ì£¼ìĦłìĿĦ":6541,"Ġê·¸ë¦¬ëįĺ":6542,"Ġê·¸ë¦¬íĶ¼":6543,"Ġì½ľëŁ¼":6544,"Ġë¦¬ëįĶìĿ¸":6545,"ĠDNA":6546,"ĠìĿ´ì§ĳíĬ¸ìĿĺ":6547,"ĠìĿ¼ìĸ´ëĤĺê¸°":6548,"ĠíĶĦëŀŃíģ¬ìĿĺ":6549,"Ġë§Ŀê°Ģ":6550,"ĠìĹĶì§ĢëĭĪìĸ´":6551,"ĠìĿ¼ëĭ¹ìĿĢ":6552,"Ġìĸ´ëĶĶìĦľ":6553,"ì¼ĵìĿĦ":6554,"Ġíķłë¨¸ëĭĪê°Ģ":6555,"Ġíĺ¹ëıħíķľ":6556,"ĠíĸĪì§Ģë§Į":6557,"Ġìĭ¤íĮ¨íķĺê³ł":6558,"ĠìĬ¤ì¹´ìļ°íĬ¸":6559,"ĠìĪĻìłģ":6560,"ĠìĦ¸ëł¥ìĿĺ":6561,"Ġë©¤ë²Ħëĵ¤ìĿĢ":6562,"ì´ĿìĤ¬":6563,"ĠìĹħê·¸ëłĪìĿ´ëĵľ":6564,"ĠíıŃëł¥ìłģìĿ¸":6565,"ëł¸ëĭ¤ëĬĶ":6566,"Ġíĺ¸ê¸°ìĭ¬ìĿĦ":6567,"ĠìĿ¼ë³¸ìĿĺ":6568,"Ġê³³ê³³ìĹĲ":6569,"Ġëĥīíĺ¹íķľ":6570,"ĠìĿĺë¢°ë¥¼":6571,"ĠìļĶì²Ńíķľëĭ¤":6572,"ĠëĤĺë£¨íĨłëĬĶ":6573,"Ġê¸°ìļ´ìĿ´":6574,"ìħĢëŁ¬":6575,"ĠìĹĳìĬ¤":6576,"ĠìĹĳìĨĮìĭľ":6577,"ĠìķĦì¹¨ìĹĲ":6578,"ìĵ°ê³ł":6579,"ĠNA":6580,"Ġëį¤ë¸ĶëıĦìĸ´":6581,"Ġìĭłë¶ĢìĻĢ":6582,"Ġëª°ìķĦëĦ£":6583,"ĠìĹĲëĵľìĽĮëĵľëĬĶ":6584,"ê°Ķëĭ¤ê°Ģ":6585,"ĠìĿ¸ëĶĶìķĦëĤĺ":6586,"Ġëª©íĳľëĬĶ":6587,"Ġê¹Ĭìĸ´":6588,"Ġê³łëĭ´ìĭľë¥¼":6589,"ĠìĦ±ìŀ¥íķľëĭ¤":6590,"Ġë¸ĮëĿ¼ìĿ´ìĸ¸ìĿĢ":6591,"Ġíİĺë¥´ëĶĶ":6592,"ë±ĥ":6593,"Ġë¯¼ê°Ħ":6594,"ìĥĿíĻľìĿĦ":6595,"ì¶©ìļ°ëıĮ":6596,"Ġì¢ĮìłĪ":6597,"Ġì¢Įì¶©ìļ°ëıĮ":6598,"ĠëŃīì¹ľ":6599,"ĠìĤ¬íĥľê°Ģ":6600,"ĠìĿ´ê²ĥìĿ´":6601,"Ġë¶Īìĭľì°©íķľ":6602,"Ġì»¤ìł¸ë§Į":6603,"Ġì¡°ìļ©íŀĪ":6604,"Ġì£½ìĿ´ëł¤":6605,"Ġê³łë¦½ëĲľ":6606,"ĠíĿ©ìĸ´ìł¸":6607,"ëİĢ":6608,"Ġê·¸ëłīìĿĢ":6609,"Ġë§ĪìĬ¤íģ¬ë¥¼":6610,"Ġìĸĺê¸°ë¥¼":6611,"Ġë§ĲëłĪíĶ¼ìĦ¼":6612,"ĠíħįìĤ¬ìĬ¤":6613,"íĪ°":6614,"Ġê·¸ëŀĺìĦľ":6615,"Ġíĺ¸ê·¸ìĻĢíĬ¸":6616,"Ġë¦¬ì²ĺëĵľ":6617,"ĠìĬ¤ì¹´ìĿ´ëĦ·":6618,"Ġì§ľë¦¿íķľ":6619,"ĠìĹīëļ±íķľ":6620,"Ġ007":6621,"ìĹĲëĵľìĽĮëĵľ":6622,"ĠìķĦê°ĢìĶ¨":6623,"ëĭĪì½ľëĿ¼ìĬ¤":6624,"Ġë¹łì§Ģì§Ģë§Į":6625,"Ġëĭ¬ë§Īìĭľ":6626,"Ġë¬¼ê³łê¸°":6627,"Ġíķľê°Ģìļ´ëį°":6628,"Ġë¯¸ìĭĿì¶ķêµ¬":6629,"Ġë³¼ëĵľëª¨":6630,"Ġê¸°ìĥģì²ľìĻ¸íķľ":6631,"Ġìŀ¥ë¡ĢìĭĿ":6632,"ĠëĴ¤íĿĶëĵ¤":6633,"ĠCEO":6634,"Ġìį¬ëįĶ":6635,"ĠìķĦíĶĦê°ĢëĭĪìĬ¤íĥĦ":6636,"µíĭ°ë¨¸ìĬ¤":6637,"ìķ¨ë¦¬ìĬ¨":6638,"ìĭľíĥĲíĥĲ":6639,"ĠëĮĢìłĢíĥĿ":6640,"Ġëĭ¤íģĲë©ĺ":6641,"Ch":6642,"ac":6643,"al":6644,"ey":6645,"ebo":6646,"km":6647,"ol":6648,"te":6649,"¤ë¡ł":6650,"ë®":6651,"ë¯":6652,"ëĩ":6653,"ëĮ":6654,"ĭíķľ":6655,"ĵê³ł":6656,"ĶëŁ¬":6657,"ľëŁ°":6658,"ëĬĦ":6659,"ê³½":6660,"ìĿ´ìĹĲ":6661,"ìĿ´ë©´ìĦľ":6662,"ìĿĺíķľëĭ¤":6663,"ëĭ¤ìĿ´":6664,"ëĭ¤ë¡ľ":6665,"ëĭ¤ë©´":6666,"ëĭ¤ëĭĪëĬĶ":6667,"íķĺìĹĲ":6668,"íķĺëĭ¤ê³ł":6669,"ë¡Ģë¡ľ":6670,"ë¡ľìĹĲ":6671,"ë¡ľë¡ľ":6672,"ê³łìĹĲ":6673,"ê³łëĮĢ":6674,"ê³łëĵ±íķĻêµĲ":6675,"ìŀł":6676,"Ġìŀĩ":6677,"Ġìķ°":6678,"ìķī":6679,"ê°ĢìĿ¸":6680,"ê°Ģì§Ģë§Į":6681,"ê°Ģê¹Į":6682,"Ġê·ł":6683,"ë¦¬ìŀĲ":6684,"Ġê·¸ìĹĲ":6685,"Ġê·¸ëıĻìķĪ":6686,"Ġê·¸íĨłë¡Ŀ":6687,"ëį§":6688,"ëĵ¤ë¦¬":6689,"ê¸°ìĿ¸":6690,"ìĬ¤íģ¬":6691,"ëł¸ìĿĦ":6692,"íķ´ê°Ħëĭ¤":6693,"Ġë°ı":6694,"ìľħ":6695,"Ġìĭ¹":6696,"ìĸ´ë¦¬":6697,"ëĿ¼ìĹĲê²Į":6698,"ìŀĲêµŃ":6699,"ìŀĲìĿ´ìŀĲ":6700,"ëŀĲëįĺ":6701,"ìľ¼ëł¤ê³ł":6702,"ëĤĺë¥´":6703,"ì¹«":6704,"Ġëĭ«":6705,"Ġëĭ®":6706,"ĠëĭĲ":6707,"ĠìķĦë¥´":6708,"ĠìķĦê·¸":6709,"ĠìķĦëĵ¤ê³¼":6710,"ĠìķĦëį¸":6711,"ĠìķĦìĬ¤ê°Ģë¥´":6712,"Ġìĺµíĭ°ë¨¸ìĬ¤":6713,"ìĭľíĭ°":6714,"ë°§":6715,"ëıĦìĻĢ":6716,"ëıĦë¯¸":6717,"Ġë§Īë¹Ħ":6718,"Ġë§Īíģ¬":6719,"ĠíķĺëĬĺìĿĦ":6720,"Ġê°Ģê¸°":6721,"Ġê°ĢëĿ¼":6722,"Ġê°ĢëĬ¥":6723,"Ġê°Ģë¸Įë¦¬":6724,"Ġê°Ģë°©ìĿĦ":6725,"Ġìĥ¹":6726,"ĠìŀĪìľ¼ë©°":6727,"ĠìŀĪëıĦë¡Ŀ":6728,"ĠìĭľíĤ¤":6729,"Ġìĭľì¹´":6730,"Ġìĭľê°ģ":6731,"ĠìŀĲë¥¼":6732,"ĠìŀĲì²´":6733,"Ġì§ĢìĽĲ":6734,"Ġì§Ģìļ°":6735,"Ġì§Ģì¹ľ":6736,"Ġì§ĢëıĦë¥¼":6737,"Ġì§ĢëĬ¥ìĿĦ":6738,"ëĮĢìĹĲìĦľ":6739,"íĥĪìĿĦ":6740,"ëŁ¬ì½Ķ":6741,"ĠìĪĺê°Ģ":6742,"ĠìĪĺì§ĳ":6743,"ĠìĪĺë°°":6744,"ĠìĪĺìĨ¡":6745,"ë³¸ìĿĦ":6746,"ĠìłĦê³¼":6747,"ĠìłĦì²´ê°Ģ":6748,"ëĵľëĿ¼":6749,"ëĵľë¦¬ìķĪ":6750,"ĠìĤŃ":6751,"íĬ¸ìĹĲê²Į":6752,"íĬ¸ìĽĮ":6753,"ĠëĲĺì§Ģ":6754,"ìĥģìĭ¤":6755,"Ġíķ«":6756,"Ġíķ¸":6757,"êµ¬ë¥¼":6758,"Ġëª¨ë¥´ê²Į":6759,"Ġìĸ´ì§Ģ":6760,"Ġìĸ´ë§Ī":6761,"ĠìĿ¸ê·¼":6762,"ĠìĿ¸íĦ´":6763,"íĻĺìĿĦ":6764,"ì°®":6765,"ĠëĮĢê¸°":6766,"ĠëĮĢíĺ¼":6767,"ĠëĮĢëĭĪëĬĶ":6768,"ĠëĮĢíļĮìĹĲ":6769,"Ġíĺģ":6770,"ë§Īê°Ģ":6771,"ë§ĪìĿ¸":6772,"ë§ĪìĻĢ":6773,"ë¶ĢìĹĲìĦľ":6774,"ĠíķľëªħìĿĺ":6775,"ĠíķľëĪĪìĹĲ":6776,"Ġëĭ¤ëĭĪëĬĶ":6777,"Ġëĭ¤ìĸĳíķľ":6778,"íĶ½":6779,"ìĪĺëıĦ":6780,"ì£¼ê²Į":6781,"ì£¼ëįĺ":6782,"íĸĦ":6783,"ĠëĤĺê°Ħ":6784,"ĠëĤĺë¦Ħ":6785,"ĠëĤĺëĪ":6786,"ĠëĤĺìĺ¨ëĭ¤":6787,"ĠìĤ´ë¦¬ê¸°":6788,"ĠìĤ´ìľ¡":6789,"ĠìĿ¼ìĹĲ":6790,"ĠëıĦìļ°":6791,"ĠëıĦëĤľ":6792,"Ġë§Įì¡±":6793,"Ġë§ĮëĤł":6794,"íŀĺìĿĦ":6795,"Ġë³´ì§Ģ":6796,"Ġë³´ê´Ģ":6797,"Ġë³´ê¸Ī":6798,"Ġíĥģ":6799,"ĠíĥĿ":6800,"ë£¸":6801,"ìŀĳìłĦìĿĦ":6802,"ĠìĬ¤ì¼Ģ":6803,"Ġì²¨ëĭ¨":6804,"Ġê¸°ìŀĲ":6805,"ĠìŀĲìĭłìĹĲê²Į":6806,"ĠìĨĮíĶ¼":6807,"ĠìĨĮíĶ¼ëĬĶ":6808,"ëĶ±":6809,"ëĤ´ëĬĶëį°":6810,"ëĤ´ë©°":6811,"ëĤ´ìķ¼":6812,"Ġëį©":6813,"Ġëį´":6814,"ìłĦë¬¸":6815,"ĠìķĮíĶĦ":6816,"ĠìķĮë°Ķ":6817,"ĠìĹĨìĹĪëĭ¤":6818,"Ġë¬´ìĸ´":6819,"Ġë¬´ëł¤":6820,"Ġë¬´ë£Į":6821,"...!":6822,"ê¸¸ìĿĦ":6823,"ĠìĹ¬ê¸´":6824,"ìłľíĤ¤":6825,"ìłľìŀĦìĬ¤":6826,"ë¹Ħíĸī":6827,"Ġìłķë°ĺ":6828,"íĭĪ":6829,"íĭ±íķľ":6830,"Ġë¶ĢëĳĲ":6831,"Ġë¶ĢëıĻìĤ°":6832,"Ġìłľëħ¸":6833,"ĠìłľìĻ¸íķľ":6834,"Ġê³łìĪĺ":6835,"Ġê³łëĮĢìĿĺ":6836,"ìĺ¤ë¡ľ":6837,"ìĺ¤ê¸°":6838,"ìĺ¤ìŀĲ":6839,"ĠëĤ¨ê²Į":6840,"Ġìĺ¤ì§Ģ":6841,"Ġìĺ¤ê³µ":6842,"Ġìĺ¤ëĬĺ":6843,"ê¹ĥ":6844,"Ġê³µëıĻ":6845,"Ġê³µì¤ĳ":6846,"ë¯¸ê°Ģ":6847,"ë¯¸ìĻĢ":6848,"ë¯¸ìĬ¤íĦ°":6849,"ëłĪëĤĺ":6850,"ëłĪìĺ¤":6851,"Ġê±°ìķ¡":6852,"ëĤľìĿĢ":6853,"íĨ¨":6854,"íĨ¨ìĿ´":6855,"ëĶĶìķĦ":6856,"Ġì°¾ê²Į":6857,"ĠìĪ«":6858,"ĠìľłìĦ±":6859,"Ġìľłë¬¼":6860,"Ġìľłíĥľ":6861,"Ġìľłê´´":6862,"Ġìľłë¬¼ìĿĦ":6863,"Ġìľłì¾Įíķľ":6864,"ê²©íķľ":6865,"íĤ¤ìĿĺ":6866,"ë³´ë¡ľ":6867,"ë³´ë©°":6868,"ë³´ê·¸":6869,"ëĦĮ":6870,"Ġìĭłê³ł":6871,"ĠìĭłëĶĶ":6872,"Ġìĭłì²´":6873,"ĠìĭłëħĲ":6874,"Ġìĭłíĺ¸ë¥¼":6875,"Ġìĭłë°§":6876,"ê±°ë¦¬ë¥¼":6877,"Ġêµ¬ê²½":6878,"Ġêµ¬íķ´ìķ¼":6879,"Ġêµ¬ë©į":6880,"ëĲĺë©´":6881,"Ġìļ°ì¦Ī":6882,"Ġì£¼ìľł":6883,"Ġì£¼ìľĦë¥¼":6884,"Ġì¡°ì§Ģ":6885,"Ġì¡°ìŀĳ":6886,"Ġì¡°ìĹ¬":6887,"Ġì¡°ì»¤":6888,"ë¬´ìĥĪ":6889,"ìķĪìĿ´":6890,"ĠëĤłìĿĦ":6891,"ĠëĤłëł¤":6892,"ë£¨ì§Ģ":6893,"ìĹĪì§Ģë§Į":6894,"Ġíķ´ê³ł":6895,"Ġíķ´ìĦľ":6896,"Ġíķ´ëĵł":6897,"Ġë¶Īê³¼":6898,"Ġë¶Īì²Ń":6899,"Ġë¶Īê½ĥ":6900,"Ġë°ĽìĿĦ":6901,"Ġì¤ĳê°Ħ":6902,"Ġì¤ĳëĭ¨":6903,"ìĦ¸ìĥģ":6904,"ìĦ¸ìļĶ":6905,"Ġì¹ľêµ¬ìĻĢ":6906,"ĠìĿĺê¸°":6907,"ĠìĿĺëıĦ":6908,"ĠìĿĺë¯¸ë¥¼":6909,"ĠìķĬëĭ¤":6910,"ĠìķĬìľ¼ë©´":6911,"Ġìĸ´ëĬĲìĥĪ":6912,"Ġìĸ´ëĬĲëį§":6913,"Ġìĺģìŀħ":6914,"Ġìµľê·¼":6915,"íķĻìŀĲìĿ¸":6916,"Ġê·¸ëŁ¬ë©´ìĦľ":6917,"íķłì§Ģ":6918,"ìĪĢ":6919,"íĶĦìĿĺ":6920,"ì¹´ëĵľ":6921,"ĠëĬĶ":6922,"Ġì°¾ìķĦê°Ħ":6923,"íĮĮíĶ¼":6924,"Ġ16":6925,"Ġê²½ê¸°":6926,"Ġê²½ìķħ":6927,"ĠìĹ°ìĬµ":6928,"ĠìĹ°ìĿ´ìĸ´":6929,"ĠìĹĲëĭ¨":6930,"ĠìĹĲê·¸":6931,"ĠìĹĲëĦĪ":6932,"ĠìĹĲìĿ¼ë¦¬ìĸ¸":6933,"ĠìĥĪë²½":6934,"ì§ģìĿĦ":6935,"Ġê³¼ê°Ĳ":6936,"ĠëĸłëĤł":6937,"Ġëĸłìĺ¬":6938,"ëŀĢìĿĦ":6939,"ëĭ¨ìĿĢ":6940,"ìŀ¬ë¡ľ":6941,"Ġìĭ¤íĸī":6942,"Ġìĭ¤ìĪĺë¥¼":6943,"ì¦Īê°Ģ":6944,"Ġì¡´ìĿĢ":6945,"íĨłê°Ģ":6946,"íĨłë§ĪìĬ¤":6947,"ì¡°ë¥¼":6948,"ì¡°ë¦¬":6949,"ì¡°ìĿ¸ê°Ħ":6950,"ĠìĦľë¶Ģ":6951,"ĠìĦ¸ê³ĦëĬĶ":6952,"ĠìĦ¸ê³ĦìĻĢ":6953,"ĠìķħëŀĦ":6954,"ĠìĤ¬ê±´ê³¼":6955,"Ġíģ¬ë¦Ń":6956,"ĠìĦ±ìŀ¥íķľ":6957,"ĠìķĦìĿ´ëĵ¤ê³¼":6958,"Ġë§ŀê³ł":6959,"ĠìĻķìĿĢ":6960,"ĠìĻķë¹Ħ":6961,"ĠìĻķìľĦ":6962,"ĠìķĪëĿ½íķľ":6963,"ëģ½":6964,"ĠëĤ´ëĬĶ":6965,"ĠëĤ´ê°Ģ":6966,"ìħľ":6967,"ìħĺìĿĦ":6968,"ĠìĤ´ìķĦëĤĺ":6969,"Ġíĺ¸ê°ĲìĿĦ":6970,"Ġíĺ¸ëŀĳìĿ´":6971,"Ġíĺ¸ìĭľíĥĲíĥĲ":6972,"ĠìĤ¬ëŀĳìĿ´":6973,"ĠìĤ¬ëŀĳíķĺê²Į":6974,"Ġë¦¬ë¬´":6975,"Ġë¦¬ëħ¸":6976,"Ġë§ĲìĤ´":6977,"Ġìŀ¥êµ°":6978,"Ġìŀ¥ë²½":6979,"Ġìŀ¥ë©´ìĿĦ":6980,"ëįĶê°Ģ":6981,"Ġê°Ĳíĸī":6982,"Ġê°Ĳíĸīíķľëĭ¤":6983,"ĠìļĶë¦¬":6984,"Ġë§¤ìĿĺ":6985,"Ġë§¤ëł¥ìĿĦ":6986,"Ġë§¤ëĭ¬":6987,"Ġë°©ìĹĲ":6988,"Ġë°ĺê²©":6989,"Ġë°ĺì§Ģë¥¼":6990,"ĠìĦłë³´":6991,"Ġì²ĺì¹ĺ":6992,"Ġì²ĺíķĺìŀĲ":6993,"ĠìĻ¸íĨ¨ìĿ´":6994,"Ġëĭ¨ì§Ģ":6995,"Ġëĭ¨íİ¸":6996,"ëł¹ìĿ´":6997,"Ġëĭ¬ì½¤":6998,"ê·¸ëłĪìĿ´":6999,"ĠëĵľëłĪ":7000,"Ġìŀĳê³ł":7001,"íĪ¬ë¹ĦìķĦ":7002,"Ġë°°íļĮ":7003,"ë¨¸ë¦¬":7004,"ĠëĴ·":7005,"ê´ĢìĹĲ":7006,"ĠìĦ¸ìĥģìĿ´":7007,"ĠìĦ¸ìĥģìľ¼ë¡ľ":7008,"íĸĪëĭ¤ê³ł":7009,"Ġíķłë¦¬":7010,"ĠëķĮëł¤":7011,"ĠëªħìĶ©":7012,"Ġ28":7013,"Ġìŀ¬ìķĻ":7014,"ĠìķĦë²Ħì§ĢìĹĲ":7015,"ĠíĨµíķ©":7016,"ì½ĶëĬĶ":7017,"ĠìłģìĿĺ":7018,"ê°ģíķľ":7019,"Ġì¹´íĦ°":7020,"ĠìĤ¬ìĿ´ìĿĺ":7021,"ĠìĤ¬ìĿ´ìĸ´":7022,"ĠíĺĦìŀ¥ìĹĲ":7023,"ĠíħĮëĵľëĬĶ":7024,"ĠíħĮìĿ¼ëŁ¬":7025,"Ġëĵ±ìĿĺ":7026,"Ġì¹ĺëĭ«":7027,"ĠëĤĺíĥĢìĥ¤":7028,"ĠëĤĺíĥĢëĤ¬ëĭ¤":7029,"Ġìĺ¨ëĿ¼":7030,"Ġë²Ħíģ¬":7031,"Ġë²Ħëł¤ì§Ħ":7032,"Ġì±Ħë¡ľ":7033,"ĠìŀłìĿ´":7034,"Ġíĸ¥íķĺê³ł":7035,"Ġë¬¼ê±´":7036,"Ġë¬¼ê±´ìĿĦ":7037,"ê²¨ì§Ħ":7038,"ì§ĳìĿĦ":7039,"Ġì°¨ëŁī":7040,"Ġì°¨ë¡Ģë¡ľ":7041,"Ġë§īëĬĶ":7042,"ĠêµĲìĤ¬":7043,"ĠêµĲíĻ©":7044,"ĠêµĲìľ¡":7045,"Ġë³ĢíĻĶ":7046,"ĠíĨłë¥´ëĬĶ":7047,"ĠíĨłëĭĪëĬĶ":7048,"ĠìĹ´ê³ł":7049,"ĠìĹ´ìĭ¬":7050,"ĠìĹ´íĺĪ":7051,"ĠìĽĲìĿ¸ìĿĦ":7052,"Ġê´´ìĥĿëªħ":7053,"ĠìŀĥëĬĶëĭ¤":7054,"ëĭ¬ëŁ¬":7055,"ëĭ¬ëĿ¼ëĬĶ":7056,"Ġê¿ĪìĿ´":7057,"Ġì«ĵëĬĶëį°":7058,"Ġì«ĵëĬĶëĭ¤":7059,"ë£Įë¥¼":7060,"Ġëī´ìĺ¬ë¦¬ìĸ¸":7061,"ĠìłĦìŁģê³¼":7062,"ĠìłĦìŁģìĹĲìĦľ":7063,"Ġë²łìĿ´":7064,"ĠíķĺëĤĺë¿ĲìĿ¸":7065,"Ġêµ°ì¤ĳ":7066,"ì¢Į":7067,"Ġìļ©ë§¹":7068,"Ġê±´ëĦ¤":7069,"íĺķìłľ":7070,"ë¶ĦìĿĦ":7071,"ë¶ĦìĹĲ":7072,"íħĿ":7073,"íĴĢ":7074,"Ġìĭ¬ìĥģì¹ĺ":7075,"Ġë³¸ê²©":7076,"Ġìŀħìĸĳ":7077,"Ġì¶ľìłĦ":7078,"Ġì¶ľëıĻ":7079,"Ġë¸ĮëłĮ":7080,"Ġë¸ĮëĿ¼ìļ´":7081,"ĠìľĦíĺĳíķľëĭ¤":7082,"ĠëĳĺìĿ´":7083,"ĠëĳĺìĿĺ":7084,"ĠíĬ¸ëŀľ":7085,"ĠíĬ¸ëĿ¼ìļ°":7086,"ìĶ¬":7087,"ìĬ¤íĬ¸ë¡ľ":7088,"ĠíĤ¤ëĤĺ":7089,"ĠíĤ¤ìļ°ëĬĶ":7090,"ĠìĹŃíķł":7091,"Ġëª°ìĤ´":7092,"Ġê³µê²©íķĺê³ł":7093,"íĨµìĿĦ":7094,"Ġìļ°ì£¼ë¡ľ":7095,"ìķłë¥¼":7096,"ë°Ľì§Ģ":7097,"ĠíĹ¤ëĿ¼":7098,"ëĿ¼ìĿ´ëĤĺ":7099,"ëĿ¼ìĿ´ì¦Ī":7100,"ĠìĥģíĻ©ìĿĢ":7101,"Ġë¯¹":7102,"Ġë£¨íĶ¼":7103,"Ġë£¨ë¯¸ìĬ¤":7104,"Ġê·¸ê³³ìĹĲ":7105,"Ġë³´ëĤ´ê²Į":7106,"Ġ40":7107,"Ġ48":7108,"ĠìĻĦìĪĺ":7109,"ĠìłľìĿ´ë¯¸":7110,"ĠëĤ©ì¹ĺëĲĺê³ł":7111,"ĠëĤ©ì¹ĺëĲĺìĸ´":7112,"ĠíĻĶìŀ¥":7113,"Ġê²½ì°°ìĿĦ":7114,"Ġê²½ì°°ìĿĺ":7115,"Ġê²½ì°°ê³¼":7116,"Ġê²½ì°°ì²Ń":7117,"Ġë©ĶíĬ¸ë¡ľ":7118,"ìŀĪëĭ¤ëĬĶ":7119,"ë°°ìļ°":7120,"Ġë§Īë²ķíķĻêµĲ":7121,"ĠìŀĦë¬´ê°Ģ":7122,"ĠíĭĢ":7123,"ëł¨ìĿĺ":7124,"Ġë¬¸ëªħ":7125,"Ġë§¥íĢ¸":7126,"Ġì§ĢíĤ¤ê³ł":7127,"Ġíŀĺëĵ¤":7128,"Ġì¢ħêµĲ":7129,"Ġëĸ¨ê²Į":7130,"ĠíĮ¨íĬ¸ë¦Ń":7131,"Ġíļ¡":7132,"Ġìļ´ëªħìłģìĿ¸":7133,"Ġíģ´ëŀĺ":7134,"Ġíģ´ëĿ½":7135,"Ġìĸ´ëĸłíķľ":7136,"Ġê³µíı¬ë¡ľ":7137,"ìĦ¸ê³ĦìĿĺ":7138,"ĠëĤĺíĥĢëĤĺëĬĶ":7139,"ĠëĨĵëĬĶëĭ¤":7140,"íĶĮëłī":7141,"Ġìĸ»ê³ł":7142,"Ġìĸ»ìĸ´":7143,"Ġíİ¼ì¹ĺëĬĶ":7144,"ĠìĺģíĻĶëĬĶ":7145,"Ġê·Ģì¡±":7146,"Ġë§ĪìĿ´íģ¬":7147,"Ġë§ĪìĿ´ìķł":7148,"ìĭľíĤ¤ëł¤ëĬĶ":7149,"Ġê°ģìŀĲ":7150,"Ġìĭ¶ì§Ģë§Į":7151,"Ġë§ĪìĿĮë¨¹":7152,"ĠìĥĿê°ģìĿĦ":7153,"ĠëĿ¼ìĿ´íĶĦ":7154,"ê²łëĭ¤ë©°":7155,"Ġê°Īë§Ŀ":7156,"ĠìķĦëĭĪëĭ¤":7157,"Ġê·¹ìĹĲ":7158,"Ġê·¹ë¹Ħ":7159,"Ġê·¹íķľìĿĺ":7160,"ĠëĦ¤ìĺ¤":7161,"ĠëĦ¤íĬ¸ìĽĮ":7162,"Ġë¨¸ëĤĺë¨¼":7163,"ĠìĦ¬ìĹĲìĦľ":7164,"ĠíĸīìĦ±ìľ¼ë¡ľ":7165,"ĠíĦ°ë¯¸ëĦ¤ìĿ´":7166,"íķĻêµĲìĹĲ":7167,"ĠìķĦë¹łê°Ģ":7168,"íķĺëł¤ëįĺ":7169,"Ġë°±ìķħ":7170,"Ġë°±ìĦ¤":7171,"Ġê²ªê³ł":7172,"Ġë±ĥ":7173,"ĠìłľìķĪíķĺê³ł":7174,"Ġê´´ë¬¼ìĹĲê²Į":7175,"Ġ60":7176,"Ġê¸°ëĭ¤ë¦¬ë©°":7177,"Ġê³µì£¼ê°Ģ":7178,"Ġìĸ¸ëįķ":7179,"Ġìĸ¸ìłł":7180,"Ġê´Ģê³Ħë¡ľ":7181,"Ġê´Ģê³Ħê°Ģ":7182,"ĠíķĦë¦½":7183,"Ġë¶Ģëª¨ë¥¼":7184,"ĠìĪ²ìĹĲìĦľ":7185,"Ġë°Ķëĭ¤ë¡ľ":7186,"Ġê´ĳíĻľíķľ":7187,"197":7188,"Ġê°Ģê¹Įìļ´":7189,"Ġë¨¹ëĬĶ":7190,"Ġë¨¹ìĿĦ":7191,"Ġë¨¹ê³ł":7192,"Ġíĺ¼ëŀĢìĿĦ":7193,"Ġíį¼ë¶ĵ":7194,"Ġì£¼ìĿ¸ìĿ¸":7195,"Ġê²°ìĭ¬ìĿĦ":7196,"Ġê²°ìĭ¬íķĺëĬĶëį°":7197,"ĠìłĦíĪ¬ìĹĲ":7198,"ĠìĿ´ìĸ´ê°Ħëĭ¤":7199,"Ġê¼´":7200,"ìĻĶëĭ¤":7201,"Ġëĭ¤ê°Ģìĺ¬":7202,"Ġìłķìĭłìłģ":7203,"Ġì¶ĶìłģìĿĦ":7204,"Ġìłķë¶ĢëĬĶ":7205,"ĠëŁ¬ëĦĪ":7206,"Ġì°°ë¦¬ìĻĢ":7207,"ĠíĶ¼íĦ°ìĿĺ":7208,"ĠëĤĺìĦľì§Ģë§Į":7209,"ĠëĦĪë¨¸":7210,"ĠëıĦë§Ŀì³Ĳ":7211,"ĠíĶĮëĿ¼":7212,"Ġì¶ķìłľë¥¼":7213,"ĠìĿ´ìķ¼ê¸°íķľëĭ¤":7214,"Ġëĸ¨ìĸ´ì§Ģê³ł":7215,"Ġê·¼ê·¼":7216,"ĠìĻĦë²½íķĺê²Į":7217,"ĠíŀĪìĸ´ë¡ľê°Ģ":7218,"Ġë°Ģëł¤":7219,"Ġë°Ģë§¤":7220,"ëª¬ìĬ¤íĦ°":7221,"ì¡Įëĭ¤":7222,"ĠìĺģìĽħìľ¼ë¡ľ":7223,"Ġë¯¸ìĬ¤íĦ°ë¦¬ë¥¼":7224,"ìłľìĿ´íģ¬":7225,"Ġë¶Ħëħ¸ìĻĢ":7226,"ĠìķĮìķĦëĤ´ê¸°":7227,"Ġê¿Īê¾¸ë©°":7228,"Ġíľ´ê°Ģ":7229,"ìĹ´ì°¨":7230,"ë²¨ëĿ¼":7231,"ĠíĿ¬ë§ĿìĿ´":7232,"Ġë³Ħë¡ľ":7233,"Ġìĥģìĥģíķł":7234,"ĠíĴĪìĿĢ":7235,"!!!":7236,"ëŀŃíģ¬":7237,"Ġìĺģíĺ¼ìĿ´":7238,"Ġë±ĢíĮĮìĿ´ìĸ´ìĿĺ":7239,"Ġëĭ¥ì¹ľ":7240,"ĠíĶĦëłĪëĵľ":7241,"ĠëķħìĿĦ":7242,"ìĬĪíĥĢ":7243,"ĠìĿ´ë£¨ìĸ´":7244,"Ġì¿łíį¼":7245,"Ġë§ŀìĿ´íķľ":7246,"Ġë§ŀìĿ´íķľëĭ¤":7247,"Ġê·¸ê²ĥìĿ´":7248,"ĠìĪĺìĤ¬ìĹĲ":7249,"ĠìĪĺìĤ¬ê´Ģ":7250,"ĠìĿ¼ìľ¼ì¼ľ":7251,"ĠìĿ¸íĺķìĿĦ":7252,"ìĬ¤íĭ°ìĬ¤":7253,"Ġìºłíķĳ":7254,"Ġì´ĪëĮĢíĺķ":7255,"ĠìłĦìĤ¬ë¡ľ":7256,"ĠíĶĦëŀŃíģ¬ëĬĶ":7257,"Ġê°ľë°ľìĹĲ":7258,"ĠíĺķìłľëĬĶ":7259,"ĠëŀĮìĦ¸":7260,"ĠëĽ°ìĸ´ëĦĺ":7261,"ĠìĹĶíĦ°":7262,"ĠìĿ¼ëĭ¹ìĿĺ":7263,"ĠìĦ¹ìĬ¤":7264,"ëĨĵê³ł":7265,"Ġíģ¬ë£¨ìĹĺ":7266,"Ġë¹¼ìķĹìķĦ":7267,"Ġë¹¼ìķĹê¸´":7268,"ì©į":7269,"Ġìĭľì²´ë¡ľ":7270,"Ġíĺ¹ìĦ±":7271,"Ġë¬´ìĹĩìĿ´ëĵł":7272,"ĠíĨµìłľíķł":7273,"ĠëĪĦêµ°ê°ĢìĿĺ":7274,"ĠëĤ¸ëĭ¤":7275,"ĠëĤ¸ìĭľëĬĶ":7276,"Ġì§ĢëıĦìŀĲ":7277,"ĠíĮ¬íħĢ":7278,"ëĭµìĿĦ":7279,"ĠìĻĶëįĺ":7280,"ĠìĦ¸ëł¥ìĿ´":7281,"Ġì¹¨ìŀħíķľ":7282,"ĠìłĢì§Ģíķĺê¸°":7283,"ĠìłĢíĥĿìĹĲ":7284,"ĠìĹħê³Ħ":7285,"Ġë¶ģìª½":7286,"Ġë¬¼ë¦¬ì¹ĺê³ł":7287,"Ġì»´ë±ĥ":7288,"ĠìĤ¬ë§Ŀíķľ":7289,"ĠìķĦì§ģëıĦ":7290,"ĠìĥĿì¡´ìŀĲëĵ¤ìĿĢ":7291,"Ġìķ½ìĨįìĿĦ":7292,"ãĢį":7293,"ĠíķĺëĬĺìĹĲìĦľ":7294,"ĠìĥģíĥľìĹĲ":7295,"Ġë¬¸ìłľëĬĶ":7296,"Ġë¬¸ìłľê°Ģ":7297,"ĠìĦ¸ê³ĦëĮĢìłĦìĿ´":7298,"Ġë°°ìĭłìľ¼ë¡ľ":7299,"Ġì¿¨":7300,"Ġìĸ´ì©Į":7301,"Ġê²½ê³łíķľëĭ¤":7302,"ë¶ģìĿ´":7303,"Ġì¦Ĳê¸°ëįĺ":7304,"Ġì¦Ĳê¸°ë©°":7305,"Ġë§ĺëª¨":7306,"ĠëıķëĬĶ":7307,"ĠíĻ©ìłľìĿĺ":7308,"ĠìŀŃìĬ¨ìĿĢ":7309,"ĠìłĦë¶ĢìĿ¸":7310,"ĠëĤ¨ìķĦìŀĪëĬĶ":7311,"ĠìķħëªħëĨĴìĿĢ":7312,"Ġìĭ¬ë°ĶëĬĶ":7313,"ĠëĳĺëŁ¬ìĭ¸":7314,"ĠìĿĢíķĺê³Ħ":7315,"ĠíĶĦë¡ľìłĿíĬ¸":7316,"Ġë¿Ķ":7317,"ĠìĿ¸ê³µì§ĢëĬ¥":7318,"ĠìĬ¤íħĮìĿ´":7319,"ĠìĹĨìķłê¸°":7320,"Ġì£¼ë³ĢìĿĦ":7321,"Ġì¹´ë©ĶëĿ¼":7322,"ĠìĿĢíĩ´íķľ":7323,"ĠíĪ¬ìŀħëĲľ":7324,"Ġê³łêµ°ë¶ĦíĪ¬íķľëĭ¤":7325,"Ġì§ĢëĤ´ëįĺ":7326,"ĠìĪĺìļ©ìĨĮìĹĲ":7327,"ĠëĮĢë¶Ģë¶ĦìĿĺ":7328,"Ġì¶¤ìĿĦ":7329,"Ġìĭłë¶ĦìĿĦ":7330,"Ġëª©ìĨĮë¦¬":7331,"Ġëª©ìĨĮë¦¬ë¥¼":7332,"ì¹Ļíķľ":7333,"Ġìĭľíĭ°ìĿĺ":7334,"ĠëıĦìĤ¬ë¦¬ëĬĶ":7335,"íı°ì§Ģ":7336,"Ġëª©ìłģìĿĢ":7337,"Ġê°ĳìŀĳìĬ¤ëŁ¬ìļ´":7338,"Ġê·¸ë£¨ëĬĶ":7339,"ĠìĿ¸íĦ°ë·°":7340,"Ġë¡łê³¼":7341,"Ġë®¬ëŀĢìĿĢ":7342,"ĠìĬ¤íĥ¤ë¡ł":7343,"ì¼ĦìĬĪíĥĢ":7344,"ĠìĤ¬ëĿ¼ì¡Įëĭ¤":7345,"ĠìĬ¬íĶĶìĹĲ":7346,"ĠìĤ¬ì§ĦìĿĦ":7347,"Ġì¡°ìļ©íķľ":7348,"ĠìĦľì»¤ìĬ¤ëĭ¨":7349,"ĠìĦłìĥĿëĭĺ":7350,"Ġìŀĺëª»ëĲľ":7351,"ĠIMF":7352,"ĠìĹłë§Īëī´":7353,"Ġë¬ĺíķľ":7354,"Ġë°ĺëĮĢìĹĲëıĦ":7355,"ĠìķĦë§Īì¡´":7356,"ĠìķĦëĭ´ìĬ¤":7357,"ë¬ĺíķľ":7358,"Ġì£¼ìĸ´ì§Ħëĭ¤":7359,"ĠíĹĪëĿ½íķĺì§Ģ":7360,"Ġì£¼ìĭĿíļĮìĤ¬":7361,"ì¥¬ìĹĺ":7362,"ĠíĹ¤ë§¤ëįĺ":7363,"Ġê¸´ìŀ¥ê°Ĳ":7364,"Ġê²īìľ¼ë¡ľ":7365,"ë§Įìŀ¥ìŀĲ":7366,"ĠìĨĮìľłìŀĲ":7367,"Ġê±°ì§ĵë§Ĳ":7368,"Ġì£¼ëª©ìĿĦ":7369,"Ġì´Īë¡Ŀìĥī":7370,"Ġíķľì°½ìĿ¸":7371,"ëª¨ëĳĲê°Ģ":7372,"Ġë¡¤ëŁ¬ì½Ķ":7373,"Ġì´ĪìŀĲìĹ°ìłģìĿ¸":7374,"Ġë©Ķìĭľì§Ģë¥¼":7375,"ìķĮëłīìĬ¤":7376,"ĠDeebo":7377,"Ġìķµë¬´ìĥĪ":7378,"Ġìłľëĭ¤ìĿ´":7379,"Ġë°Ķíĥķìľ¼ë¡ľ":7380,"Ġë£¨ìĿ´ìĬ¤ëĬĶ":7381,"Ġë²Īë²ĪíŀĪ":7382,"ĠìĿµìĬ¤íİľëįĶë¸Ķ":7383,"Ġë¦¬íĶĮë¦¬ì»¨":7384,"Ġì¥Ķ":7385,"ĠíķĺìĪĺêµ¬":7386,"ëģĪíķľ":7387,"Ġê°Ĳì¶°ì§Ħ":7388,"ĠíĥĢê²ŁìĿ´":7389,"Ġë²łìĬ¤íĬ¸ìħĢëŁ¬":7390,"Ġêµ¶ì£¼ë¦°":7391,"ëĬ¦ê²Į":7392,"ĠìķīìķĦ":7393,"ĠëĤĺëŃĩìŀİ":7394,"Ġë¬´ë¦ħ":7395,"Ġì½Ķë¯¸ëĶĶ":7396,"Ġìį¬ëįĶë³¼":7397,"Ġëĭ¤íģĲë©ĺíĦ°ë¦¬":7398,"ëĩ¨":7399,"ê°Ģê¹Įìļ´":7400,"Ġë¶Īì²Ńê°Ŀ":7401,"Ġëĭ¬ì½¤íķľ":7402,"ĠíĬ¸ëŀľìĬ¤íı¬":7403,"Ġìĸ¸ìłłê°Ģ":7404,"Ġë¡¤ëŁ¬ì½ĶìĬ¤íĦ°":7405,"14":7406,"EN":7407,"HAL":7408,"Jo":7409,"am":7410,"es":7411,"her":7412,"if":7413,"ou":7414,"«Ĵ":7415,"½ìĶ½":7416,"âĻ":7417,"ì¸°":7418,"ĠE":7419,"ĠG":7420,"ĤìĿĢ":7421,"Ķíķľ":7422,"Ķëįĺ":7423,"ĺëĺ":7424,"Ľê³ł":7425,"Ġìª½":7426,"Ġëº":7427,"ĠëĿ½":7428,"Ġê¶":7429,"ìĹ½":7430,"ìĹł":7431,"ëĭ¤ë¥¼":7432,"íķľëķĮ":7433,"ë¥ĻìĿĦ":7434,"ë¡ľë¦¬":7435,"ë¡ľìĻĢ":7436,"ë¡ľë¹Ī":7437,"ë¡ľìĿ´ëĵľ":7438,"ê³łìĬ¤íĬ¸":7439,"ëĤŃ":7440,"ìĭ¹":7441,"ìķĬ":7442,"ìķĺìĿĦ":7443,"ê°ĢìĹĲìĦľ":7444,"ê°Ģìļ´":7445,"ê°ĢëĿ½":7446,"ì§ĢìĿ¸":7447,"ì§Ģëįĺ":7448,"ì§ĢíķĺëĬĶ":7449,"ë¦¬ëĿ¼":7450,"ë¦¬ì¦ĪìĿĺ":7451,"Ġê·¸ë¦°ëĭ¤":7452,"Ġê·¸ëŁ´":7453,"Ġê·¸ìķ¼ë§Ĳë¡ľ":7454,"ê¸°ìŀĲ":7455,"ê¸°ëħĲ":7456,"ìĬ¤íĮĮ":7457,"âĢľ":7458,"íķ´ê°Ģ":7459,"ìĦľê°Ģ":7460,"ìĿ¸ìĹĲ":7461,"ìĿ¸íĺķ":7462,"ĠëĤ¼":7463,"ĠìĤ¬ìŀ¥":7464,"ĠìĤ¬íĥĦ":7465,"ĠìĤ¬ë¦½":7466,"ĠìĤ¬ì¶ĺ":7467,"ĠìĤ¬ìĬ¤ì¼Ģ":7468,"ĠìĿ´ìŀĲ":7469,"ĠìĿ´ëĵ¤ê³¼":7470,"ĠìĿ´ìĨ¡":7471,"ìĸ´ë¦´":7472,"ìķĦìĭľ":7473,"ìķĦëĤ´":7474,"ìķĦëħ¸":7475,"ìķĦíħĮëĤĺ":7476,"ìķĦì¹¨ìĹĲ":7477,"ìŀĲëĵ¤":7478,"ìŀĲìĹĲê²Į":7479,"ìŀĲëĵ¤ê³¼":7480,"ìŀĲë¦¬ë¥¼":7481,"ìŀĲìĭłìĿĺ":7482,"ëŀ©":7483,"ëŀĲëĭ¤":7484,"ëĤĺê¸´":7485,"ëĤĺê°ĢëĬĶ":7486,"ëĤĺê°Ģëįĺ":7487,"ëĤĺìĦłëĭ¤":7488,"Ġëĭµ":7489,"ĠìķĦìĦľ":7490,"ĠìķĦë¹Ħ":7491,"ĠìķĦìĦľëĬĶ":7492,"ĠìķĦíı´":7493,"ê³¼ê±°":7494,"ë©Ģ":7495,"ìĭľëĭ¤":7496,"ìĭľíķľëĭ¤":7497,"ëıĦëĿ¼":7498,"ëıĦëĳĳ":7499,"Ġë§Īìĭł":7500,"Ġë§Īì¹ľ":7501,"Ġë§ĪíħĮ":7502,"Ġë§Īë¸Ķ":7503,"ĠíķĺìŀĲ":7504,"ĠíķĺíĬ¸":7505,"ĠíķĺìĽĮëĵľ":7506,"Ġê°Ģì§Ģë§Į":7507,"Ġê°Ģì¹ĺ":7508,"Ġê°ĢëĤľ":7509,"Ġê°Ģìķ¼":7510,"Ġê°ĢìĦ¸":7511,"Ġê°Ģê³µ":7512,"Ġê°ĢëĶĶìĸ¸":7513,"Ġê°Ģê¹Ŀ":7514,"ìĤ¬ëĿ¼":7515,"ìĤ¬ëĬ¥":7516,"Ġìĭľê³µ":7517,"Ġìĭľì¦Į":7518,"Ġìĭľë¦¬ì¦ĪìĿĺ":7519,"ĠìŀĲê°Ģ":7520,"ĠìŀĲê¾¸":7521,"ĠìŀĲìĬ¤ë¯¼":7522,"Ġì§Ģìĸ´":7523,"Ġì§Ģì³Ĳ":7524,"ëĮĢë¯¸":7525,"Ġë¹¨ë¦¬":7526,"ìĭłìľ¼ë¡ľ":7527,"ìĭłê³¼":7528,"ëŁ¬ìĭľìķĦ":7529,"ĠìĪĺëĭ¤":7530,"ĠìĪĺìŀ¥":7531,"ĠìĪĺíķĻ":7532,"ĠìĪĺëĿ½":7533,"ĠìĪĺìŀĶ":7534,"ĠìĪĺìĭŃ":7535,"ĠìłĦìĪĺ":7536,"ĠìłĦì²´ë¥¼":7537,"ëĵľëĬĶëį°":7538,"ëĵľëłĪ":7539,"ëĵľìĽ¨ìĿ¸":7540,"íĬ¸ìĹĲìĦľ":7541,"ëĲĲëĭ¤":7542,"ìĥģìĿĺ":7543,"ĠíķĮ":7544,"êµ¬ìĬ¤":7545,"ëĭĪìĹĲ":7546,"ëĭĪìĸ¸":7547,"Ġëª¨ë²Ķ":7548,"Ġëª¨íĥĪ":7549,"Ġì°¸ìĿĦ":7550,"Ġë¬µ":7551,"Ġìĸ´ëłµ":7552,"ìŀ¥êµ¬":7553,"ĠìĿ¸ìĹ°ìĿĦ":7554,"ĠìĿ¸ì¡°ìĿ¸ê°Ħ":7555,"íĦ°ê°Ģ":7556,"ĠëĮĢë¹Ħ":7557,"ĠëĮĢíļĮ":7558,"ĠëĮĢìĥģìĿ´":7559,"ì§ĦìĿ´":7560,"ë§ĪìĹĲ":7561,"Ġê²ĥìŀĦìĿĦ":7562,"íķĺê³łëıĦ":7563,"Ġíķľê°Ģì§Ģ":7564,"Ġëĭ¤ë¥´":7565,"ìĪĺìĹĲ":7566,"ìĪĺìĻĢ":7567,"ì£¼ëĬĶëį°":7568,"ì£¼ë¯¼":7569,"ĠëĤĺìĻĢ":7570,"ĠëĤĺê°Ī":7571,"ĠìĤ´ë©°":7572,"ìļ´ìĿĺ":7573,"ĠìĿ¼ë¡ľ":7574,"ĠìĿ¼ê¸°":7575,"ĠìĿ¼íķĺë©°":7576,"ĠìĿ¼ìĽĲìĿ´":7577,"ĠìĿ¼ì´ī":7578,"ĠìĿ¼ìĸ´ëĤł":7579,"Ġíı°":7580,"ĠëıĦëĿ¼ìĹĲ":7581,"Ġë§Įìķ½":7582,"Ġë§Įëģ½":7583,"Ġë³´ë¬¼":7584,"ĠìĬ¤ë§Ī":7585,"ĠìĬ¤ì½ľ":7586,"ĠìĬ¤íĬľ":7587,"ĠìĬ¤íİľ":7588,"ĠìĬ¤íİĻ":7589,"Ġê¸°ìłģ":7590,"Ġê¸°ê´Ģ":7591,"Ġê¸°ìĬµ":7592,"Ġê¸°íļį":7593,"Ġê¸°ê³Ħë¥¼":7594,"Ġê¸°ìłģìĿĦ":7595,"ë©´ìĿ´":7596,"ë²Ħë¦¬ëĬĶ":7597,"ë²Ħë¦Ń":7598,"ĠìĨĮë¦Ħ":7599,"ĠìĨĮë¦¬ê°Ģ":7600,"ìłĦìľ¼ë¡ľ":7601,"ĠìķĮë¦°ëĭ¤":7602,"ĠìĹĨìĿĮìĿĦ":7603,"ĠìĹĨëĭ¤ê³ł":7604,"Ġë¬´ìĪł":7605,"ĠìĹ¬ëĬĶ":7606,"ĠìĹ¬ìľł":7607,"ĠìĹ¬ìĿ¸ìĿĦ":7608,"ìĥĿìľ¼ë¡ľ":7609,"ìĽĲìĿĢ":7610,"ìłľëłĪ":7611,"ìłľëĭĪíį¼":7612,"ë¹Ħê¸ī":7613,"ëħĦë§ĮìĹĲ":7614,"Ġìłķì°°":7615,"ìłķìľ¼ë¡ľ":7616,"ìłķê±°":7617,"ìłķëĲľ":7618,"Ġë¶Ģë¥´ë©°":7619,"êµŃìĹĲ":7620,"ìļ°ìĬ¤ëĬĶ":7621,"ë¥´ë¯¸":7622,"ĠìłľìŀĲ":7623,"ĠìłľíĬ¸":7624,"Ġìłľê³µ":7625,"ĠìłľìĿ¸ê³¼":7626,"Ġê³łìŀ¥":7627,"Ġê³łëĵł":7628,"Ġê³łìĭ¬":7629,"Ġê³łìľĦ":7630,"Ġê³łë©Ķ":7631,"Ġê³łê°Ŀ":7632,"Ġë¹ĦíĤ¤":7633,"Ġë¹Ħë£¨":7634,"ìĺ¤ë©´ìĦľ":7635,"ìĺ¤íĨł":7636,"ìĺ¤ëŀľ":7637,"ĠëĤ¨ì§Ģ":7638,"ĠëĤ¨ìŀĳ":7639,"Ġìĺ¤ì½Ķ":7640,"Ġìĺ¤ëĶĺ":7641,"Ġê³µìĭĿ":7642,"Ġê³µëŀµ":7643,"ë¯¸ëĤĺ":7644,"íĹ¨ë¦¬":7645,"Ġê±°ê¸°ìĹĲ":7646,"Ġê±°ë¦¬ìĿĺ":7647,"íģ¬ìĹĲ":7648,"ĠíĮĮê³ł":7649,"ĠíĮĮìķħ":7650,"Ġì°¾ìľ¼ëŁ¬":7651,"Ġë°Ķë¥´":7652,"Ġë°ĶìľĦ":7653,"Ġë°Ķì³Ĳ":7654,"Ġìľłëł¹ìĿĦ":7655,"ĠìĥĿìĤ°":7656,"íĤ¤ëĵľ":7657,"ĠëıĻê±°":7658,"íĻĶêµŃ":7659,"Ġë°ľìłĦ":7660,"Ġë°ľìŀĲêµŃ":7661,"Ġìĭłë³ĳ":7662,"Ġêµ¬ë§Ī":7663,"Ġêµ¬ë¶Ħ":7664,"Ġêµ¬ìĬ¤íĥĢ":7665,"Ġêµ¬ìĤ¬ìĿ¼":7666,"íİĦ":7667,"Ġìļ°ëĳĲ":7668,"ìĦ±íķľ":7669,"ìĦ±ìĿĢ":7670,"ìĦ±ìłģìĿ¸":7671,"Ġì£¼ëıĦ":7672,"Ġì£¼ë¨¸ëĭĪ":7673,"ĠìĥģìĨį":7674,"ĠìĥģìĥģìĿĦ":7675,"Ġì¡°ëĵľ":7676,"Ġì¡°ìĪĺ":7677,"Ġì¡°ìī¬":7678,"ë¬´ëĬĶ":7679,"ì¡±ìĿĦ":7680,"ì¶ľêµ¬":7681,"ĠëĤłì¹´":7682,"ë£¨ìĭľ":7683,"Ġíķ´ì²´":7684,"Ġíķ´ê³¨":7685,"Ġë¶ĪìĤ¬":7686,"Ġë¶Īíİ¸":7687,"Ġë¶Īë©¸ìĿĺ":7688,"Ġê²°ì½Ķ":7689,"ì¦Ĳ":7690,"ì¦īë°ľ":7691,"Ġì£½ì§Ģ":7692,"Ġì£½ìĹ¬":7693,"ì²´ìĻĢ":7694,"Ġë°Ľì§Ģë§Į":7695,"íĭ°ëĤĺ":7696,"íĭ°ìĬ¤íĬ¸":7697,"ìĦ¸ëĬĶ":7698,"Ġì¹ľêµ¬ëĬĶ":7699,"ĠìķĬìŀĲ":7700,"ĠìķĬì§Ģë§Į":7701,"Ġìĺģê´ĳ":7702,"Ġìµľì¢ħ":7703,"ìĹ°íŀĪ":7704,"Ġì§ĳìĤ¬":7705,"Ġì§ĳì¤ĳ":7706,"ìĨĮëĬĶ":7707,"ìĨĮëħĦ":7708,"ĠìĨįìĿĦ":7709,"ĠìĨįíķľ":7710,"ĠìĨįíİ¸":7711,"ĠíĶ¼ì¹´":7712,"ĠíĶ¼ëĿ¼ë¯¸":7713,"ìĪį":7714,"íĶĦëĿ¼ìĿ´ì¦Ī":7715,"ĠëıĮê³ł":7716,"ĠëıĮì§Ħ":7717,"ĠëıĮë³Ģ":7718,"Ġë¶Ħë¦¬":7719,"ĠëĬª":7720,"ĠëĬĻìĿĢ":7721,"ìĭ¬ê³¼":7722,"Ġì°¾ìķĦìĺ¤ëĬĶëį°":7723,"Ġê²½ìłľ":7724,"Ġê²½ê¸°ë¥¼":7725,"ìĦłìĹĲ":7726,"ìĦłíķľ":7727,"ìĭĿìĿ´":7728,"Ġëĵ¤ìľ¼ë©°":7729,"ĠìĹ°ê¸°":7730,"ĠìĹ°ê·¹":7731,"ĠìĹĲìłľíĤ¤":7732,"ëıĻìľ¼ë¡ľ":7733,"ëıĻìĽĲ":7734,"Ġê³¼ìłķìĿĦ":7735,"ĠíĹĽ":7736,"íİ¸ìĹĲ":7737,"Ġë¡ľë¹Ī":7738,"ì°¨ë¥¼":7739,"ĠíĿł":7740,"Ġëª»íķĺëĬĶëį°":7741,"Ġìĭ¤ìĿĢ":7742,"Ġìĭ¤ëł¤":7743,"Ġìĭ¤ë§Ī":7744,"Ġìĭ¤ë²Ħ":7745,"Ġìĭ¤íĺĦ":7746,"ì¦Īë¥¼":7747,"Ġì¡´ê³¼":7748,"íĨłë¥¼":7749,"íĨłëĭĪ":7750,"íĨłë¦¬ìķĦ":7751,"Ġê°Ģì¡±ëĵ¤ìĿĺ":7752,"ì¡°ëĭĪ":7753,"Ġìķħëł¹ìĿĦ":7754,"ĠíĶĦë¦°":7755,"Ġëį°ìĿ¼":7756,"Ġëį°ë¹Ħ":7757,"ĠíĽĦìĹĲ":7758,"Ġíģ¬ë¡±":7759,"ĠìĦ±ìĿĦ":7760,"ĠìĦ±ìłģ":7761,"ĠìĦ±ìĿ¸ìĿ´":7762,"ĠìķĦìĿ´ë¦°":7763,"ĠìķĦìĿ´ëĵ¤ìĹĲê²Į":7764,"ĠìķĦìĿ´ëıĮ":7765,"ĠìķĦìĿ´ëĶĶìĸ´":7766,"ĠìķĦìĿ´ì½ĺ":7767,"ìĽĮíķĺëĬĶ":7768,"Ġë§ŀëĬĶ":7769,"Ġë§ŀìĦłëĭ¤":7770,"ĠìķĪëĬĲ":7771,"ĠìķĪìłĦìĿĦ":7772,"ĠìķĪìł¤":7773,"ĠëĤ´ì«ĵ":7774,"Ġëħ¸ë¦°ëĭ¤":7775,"Ġëħ¸ë¦¬ë©°":7776,"ĠìĤ´ìķĦëĤľ":7777,"Ġíĺ¸ë¨¸":7778,"Ġìŀ¥êµ°ìĿĺ":7779,"Ġìŀ¥ìĨĮë¥¼":7780,"Ġìŀ¥íĻĶìĭłìĿĢ":7781,"Ġê°ĲëıĻ":7782,"Ġì§Ħêµ¬":7783,"Ġì§ĦíķĻ":7784,"Ġë§¤ë£Į":7785,"Ġë§¤íĺ¹":7786,"Ġë§¤ë²Ħë¦Ń":7787,"Ġë°©ìĤ¬ëĬ¥":7788,"Ġë°ĺíķľ":7789,"Ġë¹Ħë°ĢìĹĲ":7790,"Ġë¹Ħë°ĢìļĶìĽĲ":7791,"ìľłëŁ½":7792,"íĮ½":7793,"ì¶ľíķĺëĬĶ":7794,"Ġì²ĺíķ´":7795,"Ġì²ĺíĺķ":7796,"ĠìĻ¸ëª¨ë¥¼":7797,"ë¸Įëŀĺëĵľ":7798,"Ġëĭ¨ìĪľ":7799,"Ġëĭ¬ë¦¬ëĬĶ":7800,"ê·¸ê²ĥ":7801,"ĠëĵľëĿ¼ê³ł":7802,"ĠëĵľìĻĢìĿ´":7803,"ĠëıĮìķĦê°Ħëĭ¤":7804,"ëħ¸ëĿ¼":7805,"ëħ¸ìļ°":7806,"ĠìºĦ":7807,"ĠìĺĪê²¬":7808,"ĠìĺĪìģľ":7809,"Ġì¶Ķì¢ħ":7810,"ê´Ģìľ¼ë¡ľ":7811,"ê´ĢìĹĲìĦľ":7812,"ĠìĦ¸ìĥģê³¼":7813,"Ġê¿°":7814,"ĠëĿ¼íĳ¼":7815,"ĠëĴ¤ëĬ¦ê²Į":7816,"ĠìłĢìĬ¤íĭ°ìĬ¤":7817,"ĠìķŀìĿĦ":7818,"ĠìķŀìĹĲëĬĶ":7819,"Ġê´Ģìĭ¬ìĿ´":7820,"ìľĦíĤ¤ëĵľ":7821,"ĠíĥĢë§Ī":7822,"ĠëªħìĿ´":7823,"ĠëªħíĥĲìłķ":7824,"Ġíı¬ëĬĶ":7825,"Ġíı¬ëĩ¨":7826,"Ġë°ľê²¬íķĺëĬĶëį°":7827,"Ġë°ľê²¬ëĲĺê³ł":7828,"Ġ21":7829,"Ġ23":7830,"ĠíıŃíĸī":7831,"ĠíıŃíı¬":7832,"Ġì´Īê³ł":7833,"Ġì´Īëŀĺ":7834,"Ġì´ĪëĮĢë¥¼":7835,"ĠíĨµì¹ĺ":7836,"ĠíĨµìłľë¥¼":7837,"Ġëĭ¹íķĺëĬĶ":7838,"Ġëĭ¹íķĺìŀĲ":7839,"Ġëĭ¹ëĭ¹íŀĪ":7840,"ĠìłģìĹĲê²Į":7841,"Ġë²ĮìĿ¸":7842,"Ġë²ĮìĿ´ê²Į":7843,"ĠëĤ¨ìŀĲìĹĲê²Į":7844,"Ġì¹´íİĺ":7845,"ĠëĪĦê°Ģ":7846,"ĠìĤ¬ìĿ´ë³´ê·¸":7847,"ĠíĺĦëĮĢ":7848,"ĠíħĮìĬ¤íĬ¸ë¥¼":7849,"Ġì¹ĺë°Ģ":7850,"Ġìĺ¨íĨµ":7851,"Ġìĺ¨ëª¸":7852,"Ġë²ĦìĬ¤ê°Ģ":7853,"ë°©ìľ¼ë¡ľ":7854,"ĠìĪ¨ìĿĦ":7855,"ĠìŀłìĪĺ":7856,"Ġíĸ¥íķĺê²Į":7857,"ì¹¨ê³µ":7858,"Ġì½ĶëĦ¬":7859,"ìĦ¤ìĿĦ":7860,"ìļĶìĽĲìĿ´":7861,"Ġì°¨ì¸°":7862,"Ġë§īëĮĢíķľ":7863,"ĠêµĲíļĮ":7864,"ëłĪìĿ´ì²¼":7865,"Ġë³ĢíĻĶê°Ģ":7866,"ĠíĨłìĿ´":7867,"ĠíĨłë§Ī":7868,"ĠìĹ´ë¦¬ê³ł":7869,"ĠìĹ´ìłķìĿĦ":7870,"ĠìĹ´ëł¬íķľ":7871,"Ġëĺĺëĺ":7872,"Ġê°Ħëĭ¬":7873,"Ġê°Ħì§ģíķľ":7874,"Ġê°ľìŀ¥":7875,"Ġê°ľì¸ł":7876,"Ġê°ľìµľ":7877,"Ġëĵ¤ìĸ´ìĦľ":7878,"Ġëĵ¤ìĸ´ê°ĢëĬĶ":7879,"Ġë²Ķíĸī":7880,"ì£ł":7881,"Ġê´´ë¡ľìĽĮ":7882,"ĠëģĿìŀ¥":7883,"ĠëģĿëĤł":7884,"ĠëģĿëĤĺê³ł":7885,"ĠìŀĥìĿĦ":7886,"ĠíĬ¹ê³µ":7887,"Ġê¿ĪìĿĺ":7888,"Ġê¿ĪìĿĢ":7889,"ĠíĺķìĤ¬ëĬĶ":7890,"ĠìłĦìŁģíĦ°":7891,"Ġì¡´ìŀ¬ë¡ľ":7892,"ìŀħëĭĪëĭ¤":7893,"Ġìķłìĵ°":7894,"Ġìķłìĵ´ëĭ¤":7895,"ìłĲìĹĲ":7896,"ĠëĶ°ë¥´":7897,"ĠìĤ¬ëĿ¼ì§ĢìŀĲ":7898,"Ġìĭľê°Ħê³¼":7899,"Ġë²łëĭĪ":7900,"ĠíķĺëĤĺëĬĶ":7901,"ĠíķĺëĤĺëĭĺ":7902,"Ġêµ°ëĮĢ":7903,"Ġêµ°ëĭ¨ìĿĦ":7904,"Ġíĺ¼íĺĪ":7905,"ĠëĺĲëĭ¤ë¥¸":7906,"ĠìłĪë²½":7907,"ê°ľë¥¼":7908,"íħĲ":7909,"Ġìĭ¬ìĪł":7910,"Ġìĭ¬íĮĲ":7911,"Ġì¶ľíĺĦ":7912,"íģ´ë¦¬":7913,"Ġìłķì²´ê°Ģ":7914,"Ġìµľê³łê¸ī":7915,"Ġë¸Įëŀĺ":7916,"Ġë°¤ë§Īëĭ¤":7917,"Ġëĳĺë§ĮìĿĺ":7918,"ĠìĤ¶ìĿ´":7919,"Ġê±¸ìĸ´":7920,"Ġì°¸ì§Ģ":7921,"ìĬ¤íĬ¸ë¦¬":7922,"ĠìĿĢë°Ģ":7923,"ĠìĿĢë°Ģíķľ":7924,"ìĤ°ìĿ´":7925,"ĠíĤ¤ìĬ¤":7926,"Ġìĭ¸ìĿ¸":7927,"Ġìĭ¸ìļ´ëĭ¤":7928,"Ġëª°ê³ł":7929,"Ġëª°ë¦°":7930,"ë³ĦìĿĦ":7931,"ĠëıĦìĭľë¡ľ":7932,"Ġê³µê²©ìĿ´":7933,"Ġìļ°ì£¼ìĹĲìĦľ":7934,"Ġê³¼ê±°ê°Ģ":7935,"ĠìĦľë¡ľìĹĲ":7936,"ĠíĥĪì¶ľíķł":7937,"ĠíĹ¤ë¹Ħê¸ī":7938,"ĠíĹ¤ë¥´ë¯¸":7939,"Ġìŀ¡ìĿĢ":7940,"Ġíĥľìĸĳ":7941,"ĠìĿ´ìķ¼ê¸°ê°Ģ":7942,"Ġë§ŀìĦľê²Į":7943,"Ġë§ŀìĦľê¸°ë¡ľ":7944,"Ġë£¨ìĿ´ìĬ¤":7945,"ìĺĢëĭ¤ëĬĶ":7946,"Ġë³´ëĤ´ë©°":7947,"Ġë³µìĪĺê°Ģ":7948,"Ġ47":7949,"ìĹĺìĿ´":7950,"ìļ¸íķľ":7951,"ĠìłľìĿ´íģ¬ëĬĶ":7952,"ĠëĤ©ì¹ĺëĲľëĭ¤":7953,"Ġëī´ìļķìĹĲìĦľ":7954,"Ġê²½ì°°ìĿ´":7955,"Ġëľ¯":7956,"ĠìĤ°ìĹħ":7957,"Ġë§Īë²ķìĿĦ":7958,"Ġì»¤íĶ¼":7959,"ĠíĭĢìĸ´":7960,"Ġë¹Įëł¤":7961,"ĠíİĺìĿ´":7962,"ĠíİĺëĿ¼":7963,"ĠíİĺìĬ¤íĦ°":7964,"Ġìķ¼ê°Ħ":7965,"Ġìķ¼ìĪĺ":7966,"Ġìķ¼ìĪĺë¥¼":7967,"Ġìķ¼ì±Ħ":7968,"Ġì§ĢíĤ¤ëł¤ëĬĶ":7969,"ĠíĻ©ìłľë¥¼":7970,"Ġê³ĦíļįìĹĲ":7971,"ĠìĹ¬ìŀĲê°Ģ":7972,"ĠìºĲëĤĺ":7973,"Ġìļ´ëªħì²ĺëŁ¼":7974,"ĠìĪľê°ĦìĿĦ":7975,"ì¸łíĤ¤":7976,"Ġë²Ķì£ĦìĿĺ":7977,"Ġíģ´ëłĪìĿ´":7978,"ĠíıīíĻĶë¡Ń":7979,"ĠìĤ´íķ´íķľëĭ¤":7980,"ĠìĤ´íķ´íķĺê³ł":7981,"ĠìĤ´íķ´ëĭ¹íķľ":7982,"ĠìĤ´íķ´ëĭ¹íķĺëĬĶ":7983,"ĠìĤ´íķ´ëĭ¹íķľëĭ¤":7984,"ĠíŀĪì»µ":7985,"ĠëĨĵìĿĦ":7986,"ĠëĨĵìĿĢ":7987,"ĠëĨĵìķĦ":7988,"Ġê²ĮìŀĦìĹĲ":7989,"Ġëª¨ìĬµìĿ´":7990,"íĶĮëłĪìĿ´":7991,"ĠìĦ±ê³µìĿĦ":7992,"Ġìĺ¬ë¦¼":7993,"Ġë³ĳìĿĦ":7994,"Ġë³ĳìĽĲìĿĦ":7995,"ĠíĶĦë¡ľíİĺ":7996,"Ġê°ĸê°Ģì§Ģ":7997,"Ġíİ¼ì¹ľëĭ¤":7998,"ĠíħĮëŁ¬ê°Ģ":7999,"ìĬ¹ìŀ¥êµ¬":8000,"Ġê·ĢíĻĺ":8001,"ĠìľĮìĿĢ":8002,"Ġëį°ìĿ´ë¹Ĺ":8003,"Ġê°ģê°ģ":8004,"ĠìĥĿê°ģíķľ":8005,"ĠìĥĿê°ģíĸĪëįĺ":8006,"ĠëĿ¼ìĿ´ëįĶ":8007,"ĠíļĮìĿĺ":8008,"ĠíļĮìŀ¥":8009,"ĠíļĮìĤ¬ìĿĺ":8010,"ĠíĪ¬ëªħ":8011,"ĠëłĪìĿ´ëĨĢ":8012,"ĠìķĦëĭĪìĹĪëĭ¤":8013,"íĥĪë¦¬":8014,"ìĬ¬ëĿ¼":8015,"ëĨĢë¡ľ":8016,"ĠìĻķêµŃìĹĲ":8017,"ì§¸ë¡ľ":8018,"ĠëıĻë£Įë¥¼":8019,"ĠëıĻë£ĮìĿ¸":8020,"Ġë¹łìł¸ëĵłëĭ¤":8021,"Ġë¨¸ë¦¬":8022,"Ġë¨¸íĶ¼":8023,"Ġë¸ĶëłĪìĿ´":8024,"ê°ĪìĪĺë¡Ŀ":8025,"ĠìĭĿêµ¬":8026,"ĠìĭĿë¯¼":8027,"ĠìĬ¹ê°Ŀ":8028,"ĠìĬ¹ë¶Ģë¥¼":8029,"ĠìĬ¹ìĬ¹ìŀ¥êµ¬":8030,"Ġì¦Ĳê±°":8031,"Ġìĵ°ëłĪ":8032,"ĠìĦ¤ëªħ":8033,"ĠíĸīìĦ±ìĹĲ":8034,"ĠìĻ¸ê³ĦìĿ¸ìĿĺ":8035,"ĠíĮĮê´´íķĺëł¤ëĬĶ":8036,"Ġì±ħìŀĦìĿĦ":8037,"ĠìĿ´ë¦ĦìĿ´":8038,"ĠìĿ´ë¦ĦìĿĺ":8039,"ĠìĿ´ë¦ĦìĿĢ":8040,"Ġë°ľìĥĿíķĺìŀĲ":8041,"ĠíķĻêµĲìĿĺ":8042,"ĠíķĻêµĲë¡ľ":8043,"íķĺëł¤ëĭ¤":8044,"Ġë°±ìŀĳ":8045,"ĠëĲłì§Ģ":8046,"Ġìķ¤ëĶĶìĿĺ":8047,"Ġìķ¤ëĶĶê°Ģ":8048,"ìĻķìĿĢ":8049,"Ġíķĺë£¨ìķĦì¹¨ìĹĲ":8050,"Ġìĸ´ë¨¸ëĭĪê°Ģ":8051,"ìĿ´ëĿ¼ë©°":8052,"ìĿ´ëĿ¼ê³¤":8053,"Ġê¸°ëĭ¤ë¦¬ëįĺ":8054,"Ġê³µì£¼ëĬĶ":8055,"ì§ľë¦¬":8056,"ĠíĽĶì¹ĺ":8057,"Ġíį¼ìĬ¤íĬ¸":8058,"Ġì§Ģì¼ľìķ¼":8059,"ĠìķĮê³łë³´ëĭĪ":8060,"Ġê²°ìĭ¬íķľ":8061,"Ġê³ĦìĨįëĲĺê³ł":8062,"Ġë§¡ê³ł":8063,"Ġì¹¼ëĤłìĿĦ":8064,"ĠìĬ¤íĥĢëİĢ":8065,"ĠëĵľëŁ¬ëĤľëĭ¤":8066,"ĠëĵľëŁ¬ëĤ¸":8067,"Ġë¿Ĳë§Į":8068,"Ġì§Ģíķĺì²ł":8069,"Ġì§Ģíķĺìĭ¤ìĹĲìĦľ":8070,"Ġë°ĸìĿĦ":8071,"ĠëĮĢê²°ìĹĲ":8072,"ĠëĮĢê²°ìĹĲìĦľ":8073,"Ġê¸¸ìĹĲ":8074,"ĠëıĦë§Ŀì¹ľ":8075,"Ġê·¼ë¬´íķĺëĬĶ":8076,"ĠìŀĲìľłìĿĺ":8077,"ì¡Įì§Ģë§Į":8078,"ëĳĶëĭ¤":8079,"Ġíİ¼ì³Ĳì§ĢëĬĶëį°":8080,"ìĻ¸ë¡ľ":8081,"ĠìĽĶë²Ħê·¸":8082,"Ġë¶Ħëħ¸ê°Ģ":8083,"ĠìķĮìķĦì°¨":8084,"ĠëıĻìĥĿìĿĺ":8085,"Ġê¿Īê¾¸ì§Ģë§Į":8086,"Ġíľ´ê°Ģë¥¼":8087,"Ġì·¨íķ´":8088,"íĺĦìĭ¤":8089,"ĠíĴĪë°Ķ":8090,"Ġì°©ê°ģ":8091,"ĠëıĻë¬¼ëĵ¤ìĿĢ":8092,"Ġêµ¬íķ´ì¤Ģëĭ¤":8093,"ĠëıĪìĿ´":8094,"ĠìĽĮëĦĪ":8095,"ĠìĹĺë¦¬ìĹĩ":8096,"Ġëĭ¥ì¹ľëĭ¤":8097,"ĠìĿ¼íĸīìĹĲê²Į":8098,"ĠìĿ´ê³³ìĿĦ":8099,"ĠìĿ´ê³³ìĿĢ":8100,"ĠíĶĦëłĪëĶĶìĿĺ":8101,"Ġëĭ¬ë¦¬ëįĺ":8102,"Ġê¶Įëł¥":8103,"ĠìĭľìłĪìĿĺ":8104,"ĠëĮĢìĭłíķ´":8105,"Ġëĭ¤ìĿ´ìķĦëĤĺ":8106,"ê´ĳìĿ´":8107,"ĠëĨįìŀ¥ìĿĦ":8108,"ĠìĦłíĥĿìĿĺ":8109,"ĠíĺĦìĭ¤ìĿ´":8110,"íĮĢìĿĢ":8111,"íĥķíķľ":8112,"Ġì£Ħë¥¼":8113,"Ġëį°ëł¤ê°Ģ":8114,"Ġìķħë§Īê°Ģ":8115,"ĠëĬĲëĤĮ":8116,"Ġíģ¬ë¦¬ë§ģ":8117,"ĠìķĮëłīìĬ¤ë¥¼":8118,"Ġë³Ģíķ´ê°Ħëĭ¤":8119,"Ġë³Ģíķ´ê°ĢëĬĶ":8120,"Ġëľ¨ê²ģê²Į":8121,"Ġíĳľë²Ķ":8122,"Ġë²Ĺìĸ´ëĤĺê¸°":8123,"Ġê·¸ëłĪìĿ´ìĬ¤":8124,"ìĬ¤íĭ°ë¸Į":8125,"ĠìĪĺíĸīíķĺëįĺ":8126,"Ġìļ¸íĥĢ":8127,"Ġë²¨ìĿĢ":8128,"Ġë¶Ģíĥģìľ¼ë¡ľ":8129,"ë©ĶìĿ´íĬ¸":8130,"ĠFBIëĬĶ":8131,"ĠëŃĲ":8132,"ĠíĢ´":8133,"ĠìĿ¼ìĸ´ëĤĺëĬĶëį°":8134,"Ġê³łíĸ¥ìĿ¸":8135,"Ġê±°ëĮĢíķĺê³ł":8136,"Ġê°ľë°ľíķľ":8137,"ĠìĤ¬íĪ¬ê°Ģ":8138,"ĠìĿ¼ëĭ¹ìĿĦ":8139,"Ġìĭ¤íĹĺìĿĦ":8140,"Ġëĭ¤ëĭĪëįĺ":8141,"Ġëĭ¤ëĭĪë©°":8142,"Ġë¶Īê°ĢëĬ¥":8143,"ĠíĺĦìĥģê¸ĪìĿĦ":8144,"Ġíķľë²ĪëıĦ":8145,"Ġíĺ¼ìŀĲìĦľ":8146,"Ġíĺ¹ìĿĢ":8147,"Ġíĺ¹ìĭľ":8148,"Ġìĭ¤íĮ¨ë¡ľ":8149,"Ġìķħëª½ìĿĦ":8150,"Ġ99":8151,"Ġê³¨ì¹«":8152,"ĠìĬ¤ì¹´ìĿ¼ëŁ¬":8153,"Ġê°ĢìłķìĿĺ":8154,"ĠìĬ¤ìĬ¤ë¡ľë¥¼":8155,"Ġë¯¸ìħĺìĿĢ":8156,"ĠìĪłìĿĦ":8157,"ĠìĤ¬ìĹħìĿĦ":8158,"ĠëĤĺëĪĦë©°":8159,"Ġì¶Ķê²©ìłĦìĿ´":8160,"ĠìłĢì§Ģë¥¸":8161,"Ġíľ©ìĭ¸ìĹ¬":8162,"Ġíľ©ìĭ¸ìĿ´ê²Į":8163,"Ġìĭľëĭ¬ë¦¬ëĬĶ":8164,"Ġìĭľëĭ¬ë¦¬ëįĺ":8165,"ĠìĹ¬ìĻķìĿĺ":8166,"Ġë¶ĪìķĪíķľ":8167,"Ġë§¤ëł¥ìĹĲ":8168,"Ġì¢ħì¡±ìĿĺ":8169,"Ġë¶Ģëª¨ëĭĺìĿ´":8170,"ìķķìĹĲ":8171,"Ġë°ĶëĢĲ":8172,"Ġë°©ë¬¸íķľ":8173,"Ġì°¨ì§Ģíķľ":8174,"Ġì°¨ì§Ģíķĺê¸°":8175,"Ġì°¨ì§Ģíķĺëł¤ëĬĶ":8176,"ĠìĽĢì§ģìĿ´ëĬĶ":8177,"íĢ´":8178,"ĠëĮĢíĨµëł¹ìĿĦ":8179,"Ġë©ķìĭľì½ĶìĿĺ":8180,"ĠíĶĦëŀĳì¼ĦìĬĪíĥĢ":8181,"Ġìĸ¼êµ´ìĹĲ":8182,"ĠìĥĿì¡´ìŀĲëĵ¤ìĿ´":8183,"ĠìŀĬì§Ģ":8184,"ĠìŀĬíĺĢ":8185,"ìĿ¸ë°©ìĿĺ":8186,"ìĿ¸ë°©ìĿĢ":8187,"ĠíķĺìĿ´ìĹĲ":8188,"Ġë³´ìĬ¤íĦ´":8189,"Ġë©Īë¸Ķ":8190,"ĠìĭŃìŀĲê°Ģ":8191,"ĠíıŃíĴįìĿĦ":8192,"ĠíıŃíĴįìļ°":8193,"ĠëĤĺìĿ´íĬ¸":8194,"Ġê±°ëĵŃëĤľ":8195,"ìĪĻíķľ":8196,"ĠìľĮë¦¬ìĹĦìĬ¤":8197,"Ġë¹ĽìĿĦ":8198,"ĠëıķëĬĶëĭ¤":8199,"ĠëĤ¨ë§¤ëĬĶ":8200,"ĠíĿĺëłĢ":8201,"ĠìłĪì¹ľíķľ":8202,"Ġì°¸ê°Ģíķĺê²Į":8203,"ĠíĶĦë¡ľê·¸ëŀĺ":8204,"Ġê±°ìłĪíķľëĭ¤":8205,"Ġë©´ìłĳìĿĦ":8206,"Ġì½ĺìĦľ":8207,"Ġìļ©ë³ĳìľ¼ë¡ľ":8208,"Ġê°Ģê¹ĮìĽĮì§Ħëĭ¤":8209,"Ġê°±ìĬ¤íĦ°":8210,"Ġê°Ģìł¸ëĭ¤":8211,"ĠíĿĲë¥´ëĬĶ":8212,"Ġíĺ¸ìĪĺìĹĲìĦľ":8213,"Ġì¹´ë©Ķë¡łìĿĢ":8214,"ĠìĶ½ìĶ½":8215,"ĠìĬ¤íĨ¤ìĿĦ":8216,"Ġìķħëł¹ìĿĺ":8217,"ĠìłĢíķŃêµ°":8218,"ĠìłĦë¬¸ê°ĢìĿ¸":8219,"ĠìĨĶìł¸":8220,"ĠíĮĮê²¬ëĲľ":8221,"Ġë¶ĦìľĦê¸°ìĹĲ":8222,"ĠíĿ¥ë¯¸":8223,"ĠíĿ¥ë¶Ħ":8224,"Ġë¬¼ëł¤ë°ĽìĿĢ":8225,"Ġê°ĳìŀĳìĬ¤ëŁ°":8226,"ĠëĿ¼ìĿ´ìĸ¸ìĿĢ":8227,"Ġìļķë§ĿìĹĲ":8228,"ìµľê³łìĿĺ":8229,"ĠìĤ¬íĥľë¥¼":8230,"ĠìĿ´ê²ĥìĿĢ":8231,"Ġë§Īë¦¬ìķĦë¥¼":8232,"ĠìĿ¸íĦ°ëĦ·":8233,"Ġë¬´ìŀ¥ëĭ¨":8234,"Ġê±°ë¯¸ëĸ¼":8235,"ĠìĹĲë°Ģë¦¬ëĬĶ":8236,"Ġê°Ĳì§Ģíķľ":8237,"ĠìĦłë¬¼ë¡ľ":8238,"Ġë¹Ħíĸīê¸°ìĹĲìĦľ":8239,"Ġê°Ģë¡ľì§Ģ":8240,"Ġìĸ´ìļ¸ë¦¬ì§Ģ":8241,"Ġëįķë¶ĦìĹĲ":8242,"ĠìĹĲìĬ¤íħĶ":8243,"ĠíĽĦê³ĦìŀĲ":8244,"Ġìļ´ìłĦê¸°":8245,"Ġë§īìķĦìķ¼":8246,"ĠìĬ¤íĭ°ë¸ĮëĬĶ":8247,"ê¶¤":8248,"ê²ĢìĿĦ":8249,"Ġê°Ķëĭ¤ê°Ģ":8250,"Ġë°´ëĵľ":8251,"ĠëĲĺìĤ´ìķĦëĤĺ":8252,"Ġêµ¬ìĦ±ëĲľ":8253,"ĠìĦ±ê²©ìĿĺ":8254,"Ġì´ĪëĬ¥ëł¥ìĿĦ":8255,"ĠëŀŃëįĺ":8256,"ĠëģĬìŀĦìĹĨìĿ´":8257,"ĠëĤ³ëĬĶëĭ¤":8258,"Ġë§ĪìĪłìĤ¬":8259,"Ġëįĺìł¸":8260,"Ġê¶ģê¸Īì¦ĿìĿĦ":8261,"Ġëĸłìĺ¤ë¥´ëĬĶ":8262,"ĠìłĲëł¹íķľ":8263,"ĠëĪĪìķŀìĹĲ":8264,"Ġìķ¤ëĵľë¥ĺ":8265,"ĠíĶĦëłĪëį°íĦ°":8266,"Ġíķľë³µíĮĲìĹĲ":8267,"Ġíķľë³µíĮĲìĹĲìĦľ":8268,"Â·Â·":8269,"ĠìłĦê¸°íĨ±":8270,"ĠìłĦê¹Įì§ĢëĬĶ":8271,"Ġìĸ´ëĶĺê°Ģ":8272,"ĠëĮĢìľĦëĬĶ":8273,"Ġíıīìĺ¨íķľ":8274,"Ġì´ĪìĽĶíķĺëĬĶ":8275,"ĠìĬ¹ë¬´ìĽĲ":8276,"ĠíĿĶìłģëıĦ":8277,"Ġì³Ĳëĵ¤ìĸ´":8278,"Ġìŀīê¸Ģ":8279,"ĠìĭľìłĢëĬĶ":8280,"Ġë°°íĽĦìĹĲ":8281,"ĠêµĲíĨµìĤ¬ê³łë¡ľ":8282,"ĠíĮħì»¤ë²¨ìĿĢ":8283,"Ġëļ«ê³ł":8284,"Ġì§ĿìĤ¬ëŀĳíķĺëĬĶ":8285,"Ġì´Īì½ľë¦¿ìĿĦ":8286,"ë¿ĶìĿ´":8287,"ĠëĿĦ":8288,"ĠìĨ¡ëĳĲë¦¬":8289,"ìĥģíĥľìĹĲ":8290,"Ġëĭ¤ì§Ĳíķľëĭ¤":8291,"Ġê³łê³łíķĻìŀĲ":8292,"Ġìĺ¤íĨłë´ĩ":8293,"ĠíĿ¡ìĪĺ":8294,"ĠëĵľëĿ¼ìĿ´ë²Ħ":8295,"ĠëĴ¤ë°ĶëĢ":8296,"Ġì°¨ë¡Ģì°¨ë¡Ģ":8297,"ëĥĪëįĺ":8298,"ĠíĶĮë¡ľë¦¬ëĭ¤":8299,"ĠìĹĺë¦¬ìŀĲë²łìĬ¤":8300,"ê¼½":8301,"Ġëª¨ê¸Ģë¦¬ëĬĶ":8302,"ĠìĬ¤ì½ĶíĭĢ":8303,"ĠìĬ¤íĦ´íĬ¸ë§¨":8304,"ĠìĬ¤ì¹¼ëłĽ":8305,"Ġìĥģë¥ĺì¸µ":8306,"ĠìĹĲë¥´íģĺ":8307,"ĠëĨĢìĿ´ê³µ":8308,"Ġíĸīë°©ë¶Īëªħ":8309,"Ġì¢ģíĺĢ":8310,"Ġì¶Ķêµ¬íķĺëĬĶ":8311,"ĠëĦĺëĤĺëĵľëĬĶ":8312,"ĠëĵľëŁ¬ëĤĺëĬĶëį°":8313,"ĠëŃĶê°Ģ":8314,"Ġëĭ¤ìĿ´ìķĦëª¬ëĵľë¥¼":8315,"Ġëĭ¤ìĬ¤ë¦¬ëĬĶ":8316,"ĠìĬ¤íĬ¸ë¡ľëĵľ":8317,"Ġë¶ĢíĮ¨íķľ":8318,"Ġëĵ¤íĤ¤ê³ł":8319,"ĠìĹ°ê´ĢëĲĺìĸ´":8320,"Ġì¶ĶìĸµìĿĦ":8321,"ĠìĨĲìŀ¡ê³ł":8322,"Ġìĸ¼ë£©ì§Ħ":8323,"ĠìĬ¬ë¡ľìľħ":8324,"Ġìº£ëĭĪìĬ¤ëĬĶ":8325,"ĠíķµíıŃíĥĦìĿĦ":8326,"ĠìķĦíĭĢëŀĢíĭ°":8327,"ĠìĬ¤íĮĮë¥´":8328,"ĠìĬ¤íı¬ì¸ł":8329,"Ġë¬´ì°¸íŀĪ":8330,"Ġì§ĳìĸ´ìĤ¼":8331,"ĠëıĮìĿ´íĤ¬":8332,"Ġë²łíĬ¸ëĤ¨":8333,"ĠìĬĪíį¼ë°´ëĵľ":8334,"ĠíģĲë¸Į":8335,"Ġë¸Ķë¡Ŀë²ĦìĬ¤íĦ°":8336,"ĠìĦ¬ëľ©íķľ":8337,"ĠìĹĳìĨĮìĭľì¦ĺ":8338,"ĠNASA":8339,"Ġë§ĲëłĪíĶ¼ìĦ¼íĬ¸ëĬĶ":8340,"Ġëĭ¬ë§ĪìĭľìķĪìĿĦ":8341,"ëĤĺë¥´ëıĦ":8342,"ĠìķĦê·¸ëĿ¼":8343,"Ġìĸ´ë§Īìĸ´":8344,"ĠìĹ´ìĭ¬íŀĪ":8345,"ĠíĹ¤ëĿ¼íģ´ëłĪ":8346,"Ġë¿Ķë¿ĶìĿ´":8347,"Ġê°Ģê³µíķł":8348,"ĠìĿ¼ì´īì¦īë°ľ":8349,"ĠëıĦëĿ¼ìĹĲëª½":8350,"ĠìĬ¤ì½ľíĶ¼ìĺ¨":8351,"Ġêµ¬ìĬ¤íĥĢë¸Į":8352,"Ġëĺĺëĺĺ":8353,"ĠíĹ¤ë¥´ë¯¸ìĺ¨":8354,"ĠìĨ¡ëĳĲë¦¬ì§¸":8355,")'":8356,".\"":8357,"13":8358,"16":8359,"26":8360,"30":8361,"GE":8362,"IO":8363,"IP":8364,"LEN":8365,"NS":8366,"ap":8367,"ct":8368,"ev":8369,"hn":8370,"ia":8371,"man":8372,"ve":8373,"¨ëĭ¨ìĿĺ":8374,"¬ë¡¯":8375,"¯¤":8376,"¼ëĭ¤":8377,"ëī":8378,"ëĴ":8379,"ëĽ°":8380,"ìī":8381,"íĲģ":8382,"Ġ#":8383,"Ġ0":8384,"Ġ[":8385,"Ġ|":8386,"Ġç":8387,"į½":8388,"Ļì»¤":8389,"Ġì¸":8390,"ĠìŁģ":8391,"ìĿµ":8392,"ìĿµìĿĦ":8393,"ĠíĲģ":8394,"ëĭĽ":8395,"ìĿ´ìļ°":8396,"ìĿ´ìķ¼":8397,"ìĿ´íĶĦ":8398,"ìĿ´ë¸Į":8399,"ìĿĺìĿĺ":8400,"ìĹĲë§Į":8401,"ìĹĲëĶĶ":8402,"ìĹĲë°Ķ":8403,"ëĭ¤ìĻĢ":8404,"ëĭ¤ëĭĮ":8405,"íķĺìĭľ":8406,"íķĺë¹Ħ":8407,"íķĺëĿ¼ê³ł":8408,"íķĺê²łëĭ¤ëĬĶ":8409,"ê°±":8410,"ê°Ĵ":8411,"ë¡ľëĤĺ":8412,"ë¡ľìĹĲê²Į":8413,"ë¡ľëĶĶ":8414,"ë¡ľìľĪ":8415,"ê³łìĥĿ":8416,"ê²¹":8417,"ìŀĪìĿĦ":8418,"Ġìŀ¿":8419,"Ġìķĵê³ł":8420,"ëĤ®":8421,"ê°Ģëĭ¤":8422,"ê°Ģë§ĪìĿ¸":8423,"ì§Ģíķľ":8424,"ì§Ģìĺ¥":8425,"ë¦¬ì§Ģë§Į":8426,"ë¦¬ëĿ¼ëĬĶ":8427,"ë¦¬íį¼":8428,"Ġë§Ľ":8429,"Ġê·¸ì¤ĳ":8430,"Ġê·¸íĽĦ":8431,"Ġê·¸ìĽ¬":8432,"ëįŁ":8433,"ëĵ¤ë§Į":8434,"ìĬ¤íĶ¼":8435,"ìĬ¤íĥĦ":8436,"Ġê°¤":8437,"ëłģ":8438,"íķ´ì§ĢëĬĶ":8439,"íķ´ìĺ¨ëĭ¤":8440,"ĠìĹ¿":8441,"ìĿ¸íķľ":8442,"ìĿ¸ëıĦ":8443,"ìľ¤":8444,"ìľµ":8445,"ìľĻ":8446,"ĠìĤ¬ëªħ":8447,"ĠìĤ¬ëł¹":8448,"ĠìĤ¬ìĨĮíķľ":8449,"ĠìĿ´ìłĦ":8450,"ĠìĿ´ë¥¸ëĭ¤":8451,"ĠìĿ´ë£¬":8452,"ĠìĿ´íĭ°ë¥¼":8453,"ìĸ´ì¹¸":8454,"ìĸ´ë²¤ìł¸":8455,"ìķĦìĿ¸":8456,"ìķĦíĤ¨":8457,"ëĿ¼ëĶĶ":8458,"ëĿ¼ì¦Ī":8459,"ëĿ¼ìĿ¸ìĿĢ":8460,"ëĿ¼ëį¸":8461,"ëŀ´":8462,"ìĻľ":8463,"ĠëĭŃ":8464,"ĠìľĦìĹĲ":8465,"ĠìľĦë¥¼":8466,"ĠìľĦìŀ¥íķľ":8467,"ĠìľĦëıĦìļ°":8468,"ĠìķĦìļ°":8469,"ĠìķĦëģ¼":8470,"ĠìķĦëĵĿ":8471,"ĠìķĦì¤Į":8472,"ĠìķĦëĵľë¦¬ìķĪ":8473,"ìĻĢëıĦ":8474,"ê³¼ë¥¼":8475,"ë©¸ìĿĦ":8476,"ë§Įëĭ¤":8477,"ëħ¹":8478,"ìĭľëĮĢ":8479,"ë°¥":8480,"ë°ĺìĿĦ":8481,"ëıĦìĹĲ":8482,"Ġë§Īëĭ¤":8483,"Ġë§Īë§Ī":8484,"Ġë§Īë¦¬ëĬĶ":8485,"Ġë§Īì½Ķ":8486,"Ġë§ĪëĨĢë¡ľ":8487,"ĠíķĺìĹĲ":8488,"Ġíķĺë¹Ħ":8489,"ĠíķĺìĽĮ":8490,"Ġíķĺëĭ¤ê°Ģ":8491,"ĠíķĺëĶĺ":8492,"Ġê°Ģë³":8493,"Ġê°Ģëł¤":8494,"Ġê°ĢìĪĺ":8495,"Ġê°ĢëıĻ":8496,"Ġê°ĢëĳĲ":8497,"Ġê°Ģì¶ķ":8498,"Ġê°Ģì£½":8499,"ìĤ¬ìĹĲìĦľ":8500,"ìĤ¬íĤ¤":8501,"Ġìĥ¬ë¡¯":8502,"ëªĩ":8503,"Ġìĭľëģ":8504,"ĠìĭľëĮĢìĹĲ":8505,"ĠìĭľìĦłìĿĦ":8506,"Ġìĭľë¦¬ì¦Ī":8507,"ĠìŀĲìĿĺ":8508,"ĠìŀĲëħĢ":8509,"ĠìŀĲë¹Ħ":8510,"ĠìŀĲíĮĮ":8511,"ĠìŀĲì²ĺ":8512,"ĠìŀĲê¸Ī":8513,"ĠìŀĲëĭĪëĬĶ":8514,"ĠìŀĲì·¨ë¥¼":8515,"Ġì§ĢëĭĪ":8516,"Ġì§Ģëªħ":8517,"Ġì§ĢìĽĮ":8518,"Ġì§ĢëĤł":8519,"Ġì§ĢëĤ´ëĬĶ":8520,"Ġì§ĢëĥĪëįĺ":8521,"ëĮĢì²´":8522,"ëĮĢíķĻ":8523,"ëŁ¬ëĵľ":8524,"ëŁ¬ìļ´":8525,"ĠìĪĺë©´":8526,"ĠìĪĺë¡Ŀ":8527,"ĠìĪĺìĺģ":8528,"ĠìĪĺìĦĿ":8529,"ĠìĪĺìĤ¬ë¥¼":8530,"ĠìĪĺë°ĸìĹĲ":8531,"ĠìłĦìłĦ":8532,"ĠìłĦëĤł":8533,"ĠìłĦëĭ¬":8534,"ĠìłĦê°ľ":8535,"ĠìłĦëħĲ":8536,"ĠìłĦëŀµ":8537,"ĠìłĦíķĻìĿĦ":8538,"ëĵľìĹĲìĦľ":8539,"ëĵľë§¨":8540,"ëĵľë¨¼":8541,"ĠìĤĲ":8542,"íĬ¸ë¡¤":8543,"ĠëĲĺìĹĪëĭ¤ëĬĶ":8544,"Ġíķĳ":8545,"ëĭĪê¹Į":8546,"Ġëª¨ìĿĺ":8547,"Ġëª¨ê°Ģ":8548,"Ġëª¨ë©´":8549,"Ġëª¨ë¥´":8550,"Ġëª¨ì²ĺëŁ¼":8551,"Ġëª¨ìĿ¸ëĭ¤":8552,"ì²©":8553,"Ġìĸ´ë¦¬":8554,"Ġìĸ´ìĪĺ":8555,"ëł¤ë©´":8556,"ĠìĿ¸ìĤ¬":8557,"ĠìĿ¸ëĤ´":8558,"ĠìĿ¸ê²©":8559,"ĠìĿ¸ìĹ°":8560,"Ġêµ³":8561,"íĻī":8562,"ì¹ĺëł¤":8563,"ĠëĮĢê°Ģ":8564,"ĠëĮĢìĤ¬":8565,"ĠëĮĢëŁ°":8566,"ĠëĮĢíķ´ìĦľ":8567,"ĠëĮĢëŁī":8568,"ĠëĮĢìĥģìľ¼ë¡ľ":8569,"ë§ĪìĿ¼":8570,"Ġê²ĥìĿ¸ëį°":8571,"ë¶Ģëª¨":8572,"Ġëĭ¤ë¥¼":8573,"Ġëĭ¤íĸī":8574,"Ġëĭ¤ë¦¬ë¥¼":8575,"Ġëĭ¤ê¸ī":8576,"Ġëĭ¤ëŀĮ":8577,"ìĪĺìĤ¬":8578,"ìĪĺëĵ¤ìĿĦ":8579,"ì£¼ì§Ģë§Į":8580,"ì£¼ê²łëĭ¤ëĬĶ":8581,"ì£¼ê²łëĭ¤ê³ł":8582,"ĠëĤĺëĤł":8583,"ĠëĤĺë©Ķ":8584,"ĠëĤĺê°ĢëĬĶ":8585,"ĠëĤĺíĿ¬":8586,"ĠëĤĺìķĦê°Ģ":8587,"ĠëĤĺëī":8588,"ĠìĤ´ìĥģ":8589,"ĠìĦ¸ìļ´":8590,"ĠìĦ¸ìĿ¼":8591,"ĠìĦ¸íĥģ":8592,"ĠìĿ¼ë¶Ģ":8593,"ĠìĿ¼ëĵ¤ìĿĦ":8594,"ĠìĿ¼ì°į":8595,"ĠìĿ¼ìĸ´ëĤ¬":8596,"ĠìĿ¼ìĳ":8597,"ĠìĿ¼ì£¼ìĿ¼":8598,"ê³ĦìĹĲ":8599,"ê³Ħë¡ľ":8600,"ĠëıĦìĦľ":8601,"ĠëıĦíĨł":8602,"ĠëıĦëģ¼":8603,"ĠëıĦìłĦìĿĦ":8604,"ĠëıĦìłĦìĿ´":8605,"ĠëıĦë¬´ì§Ģ":8606,"ĠëıĦëĮĢì²´":8607,"Ġë§ĮëĤ¬":8608,"íŀĺ":8609,"Ġë³´ìĿ´":8610,"Ġë³´ìŀĲ":8611,"Ġë³´ëıĦ":8612,"Ġë³´ëįĺ":8613,"Ġë³´ìĿ´ë©°":8614,"Ġë³´ìĿ´ì§Ģë§Į":8615,"Ġíĥĵ":8616,"ë£°":8617,"ìŀĳìłĦ":8618,"ĠìĬ¤íĮ":8619,"ĠìĬ¤íķĦ":8620,"ĠìĬ¤ìĽ¨":8621,"ĠìĬ¤íĨ°":8622,"ĠìĬ¤ì¿":8623,"ĠìĬ¤íĭ±":8624,"Ġê¸°ì§Ģ":8625,"Ġê¸°ë°Ģ":8626,"Ġê¸°ë¶Ħ":8627,"Ġê¸°ìļ¸":8628,"Ġê¸°ìĪĻ":8629,"Ġê¸°ëĤĺê¸´":8630,"ë©´ìĹĲ":8631,"ë²Ħê±°":8632,"ĠìĨĮìļ©":8633,"ĠìĨĮë¦¬ìĹĲ":8634,"ĠìĨĮê¿":8635,"ĠìĨĮìĪĺìĿĺ":8636,"ëĤ´ìĸ´":8637,"ëĤ´ëł¤":8638,"Ġëį¸":8639,"ìłĦìĦ¤":8640,"ë¦°ëĤ´":8641,"Ġë¯¸êµ¬":8642,"Ġë¯¸ì¹´":8643,"Ġë¯¸êµ°":8644,"Ġë¯¸ìļ©":8645,"Ġë¯¸ìĪł":8646,"Ġë¯¸ìķĦëĬĶ":8647,"Ġë¯¸ì¼Ī":8648,"ìĬ·":8649,"Ġë¬´ëĮĢ":8650,"Ġë¬´íĮĮ":8651,"Ġë¬´ë¦¬ë¥¼":8652,"Ġë¬´ì£Ħ":8653,"Ġë¬´ëĮĢë¡ľ":8654,"Ġë¬´ë¦¬ìĹĲ":8655,"Ġë¬´ìĦŃ":8656,"ëªħìĿĢ":8657,"ëªħìľ¼ë¡ľ":8658,"íĤ¥":8659,"ĠìĹ¬ìļ°":8660,"ĠìĹ¬ëĬĲ":8661,"ĠìĹ¬ìĦ¯":8662,"ĠìĹ¬ê¸´ëĭ¤":8663,"ĠìĹ¬ìĿ¸ê³¼":8664,"ĠìĹ¬ìłĦìĤ¬":8665,"ĠìĹ¬ëįŁ":8666,"ìĽĲëĵ¤":8667,"ìĽĲê³¼":8668,"ìĿ¼ë¡ľ":8669,"ìĿ¼ê³¼":8670,"ìłľìĿ¸":8671,"ë¹Ħì¹ĺ":8672,"ëıĪìĿĦ":8673,"íŀĪë©°":8674,"ëħĦìľ¼ë¡ľ":8675,"Ġìłķë¦¬":8676,"ĠìłķíĻĶ":8677,"ĠìłķíĨµ":8678,"íĥĢìĿ¼ëŁ¬":8679,"Ġë¶Ģë¥¼":8680,"Ġë¶ĢíĦ°":8681,"Ġë¶ĢíĻĶ":8682,"Ġë¶ĢìĤ°":8683,"Ġë¶ĢìĿ¸ìĿĢ":8684,"ìļ°ê¸°":8685,"ìļ°ë¨¼":8686,"ìļ°ë³´ìĿ´":8687,"Ġìĭľìŀĳìľ¼ë¡ľ":8688,"ĠìĭľìŀĳìĿ¼":8689,"ĠìĭľìŀĳëĲĺ":8690,"Ġìłľìĭľ":8691,"ĠìłľëĭĪ":8692,"Ġìłľë¦¬ëĬĶ":8693,"Ġìłľë¬¼ìĿĦ":8694,"ĠìłľìĭľëĬĶ":8695,"Ġê³łì²ł":8696,"Ġê³łìĨįëıĦë¡ľ":8697,"Ġë¹Ħìĥģ":8698,"Ġë¹ĦëĤľ":8699,"Ġë¹Ħì¶Ķ":8700,"Ġë¹Ħìĺ¬":8701,"Ġë¹ĦìĬ·":8702,"ìĺ¤ëıĦ":8703,"íķĺê²ĮëıĦ":8704,"ĠëĤ¨ê¸°ê³ł":8705,"ĠëĤ¨ëĭ¤ë¥¸":8706,"Ġìĺ¤ëĿ¼":8707,"Ġìĺ¤ë©´ìĦľ":8708,"Ġìĺ¤íİĺ":8709,"Ġê³µêµ°":8710,"Ġê³µê¸ī":8711,"Ġê³µìŀ¥ìĿĦ":8712,"Ġê³µìĹ°ìĿĦ":8713,"ë¯¸ë¡ľ":8714,"ë¯¸êµŃìĿĺ":8715,"ëłĪëįĶ":8716,"Ġê±°ì§Ģ":8717,"Ġê±°ë¦¬":8718,"Ġê±°ìĿ¸":8719,"Ġê±°ëĿ¼":8720,"Ġê±°ìķ¼":8721,"Ġê±°ëĬĲ":8722,"Ġê±°ì³Ĳ":8723,"Ġê±°ë¦¬ë¡ľ":8724,"Ġê±°ìĿ¸ëĵ¤ìĿĺ":8725,"ìķ¼ëĬĶ":8726,"ëĶĶë¡ľ":8727,"ĠíĮĮìļ°":8728,"ĠíĮĮë¦¬ìĿĺ":8729,"Ġë°ĶëĿ¼ëĬĶ":8730,"Ġìľłë¦¬":8731,"ĠìľłìĤ¬":8732,"Ġìľłì¹ĺ":8733,"Ġìľłëª¨":8734,"ëĵłì§Ģ":8735,"ĠìĥĿìĥĿ":8736,"ĠìĥĿíĻĶ":8737,"ĠìĥĿê²¨":8738,"ĠìĥĿìķł":8739,"ĠìĥĿìĤ¬ë¥¼":8740,"ĠìĥĿê²¼":8741,"íĤ¤ë¥¼":8742,"ĠëıĻì°½":8743,"ĠëıĻë§¹":8744,"ë³´ê²Į":8745,"ë³´ëĿ¼":8746,"ë³´íĺ¸":8747,"íĻĶë¡ľ":8748,"íĻĶëĲľëĭ¤":8749,"Ġë°ľíĥĢ":8750,"Ġë°ľêµ´":8751,"Ġë°ľë¦¬ìķĪ":8752,"ĠìĭłëĶĶëĬĶ":8753,"Ġìĭłë¢°":8754,"Ġìĭłë¶ĢìĿĺ":8755,"ê±°ë¥¼":8756,"ê±°ì§Ģ":8757,"ê±°ëŀĺ":8758,"ê±°ëĮĢíķľ":8759,"Ġêµ¬íķĺê²Į":8760,"Ġì£ł":8761,"Ġìļ°ëĤľ":8762,"ìĦ±ìľ¼ë¡ľ":8763,"ìĦ±íķĺëĬĶ":8764,"Ġì£¼ìĿ¸ìĿĦ":8765,"Ġìĥģìĭ¤":8766,"Ġìĥģê³µ":8767,"Ġìĥģëĭ´":8768,"ĠìĥģëĮĢë¥¼":8769,"ĠìĥģëĮĢëĬĶ":8770,"ĠìĥģëĮĢê°Ģ":8771,"Ġì¡°íķľ":8772,"Ġì¡°ëªħ":8773,"Ġì¡°ì¹´":8774,"Ġì¡°ì°¨":8775,"Ġì¡°ê°ģ":8776,"Ġì¡°ì§Ĳ":8777,"ĠëĶķ":8778,"ĠëĶĽê³ł":8779,"ë¬´ê¸°ë¥¼":8780,"ĠìĤ¬ëŀĮìĹĲê²Į":8781,"ë£¨ì¹ĺ":8782,"Ġíķ´êµ°":8783,"Ġíķ´ë¦¬ë¥¼":8784,"ë¬¸ìľ¼ë¡ľ":8785,"Ġë¶ĪìĿĦ":8786,"Ġë¶Īë¦¬":8787,"Ġê²°íķ©":8788,"ìĭ¤íĹĺ":8789,"ìĭ¤ë²ł":8790,"Ġì£½ìĹĪëĭ¤ëĬĶ":8791,"ì²´ë¡ľ":8792,"Ġë°Ľê¸°":8793,"Ġë°ĽìŀĲ":8794,"ĠìĽ°":8795,"íĭ°ìķĦ":8796,"íĭ°ê±´":8797,"íĭ°ìĭľìķĦ":8798,"Ġì¤ĳê°ľ":8799,"ìĦ¸ìĹĲ":8800,"ì½ĺìĿĦ":8801,"ëŀĺë¹ĦìĬ¤":8802,"Ġì¹ľêµ¬ëĵ¤ìĹĲê²Į":8803,"Ġë©ľ":8804,"ĠìķĬìķĺëįĺ":8805,"Ġìĺģë¬¸":8806,"ĠìĺģìĹħ":8807,"Ġìĺģë¦¬íķľ":8808,"Ġìĸ¹":8809,"ìĹ¬ì§Ħ":8810,"Ġê·¸ëŁ¬ëĭ¤":8811,"Ġì§ĳìĿĢ":8812,"Ġì§ĳê²°":8813,"Ġì§ĳëĭ¨ìĿĺ":8814,"ĠíĶ¼íĬ¸":8815,"ĠíĶ¼ë¹Ħ":8816,"ĠíĶ¼íķĺê¸°":8817,"íķłë¡ľìľĪ":8818,"ê³µìĭĿ":8819,"ê³µíı¬":8820,"ìĺ¨ìĿĢ":8821,"íĶĦë¡ľ":8822,"íĶĦë¦´":8823,"íĶĦë¦¬ì¹´":8824,"íĶĦë¦¬ëĭ¤":8825,"íĶĦíĮ©":8826,"ĠëıĮë³´ëĬĶ":8827,"ĠëıĮë´Ĳ":8828,"Ġë¶Ħì¶ľ":8829,"Ġë¶ĦìŁģ":8830,"Ġë¶ĦìĦĿ":8831,"Ġì´ī":8832,"Ġì°¾ìķĦë³¼":8833,"Ġì°¾ìķĦëĤ´ê³ł":8834,"Ġì°¾ìķĦìĻĶëĭ¤":8835,"íĮĮíĭ°":8836,"íĮĮê´´":8837,"Ġê²½ìĺģ":8838,"ìĦłìĹĲìĦľ":8839,"Ġëĵ¤ë¦°":8840,"Ġëĵ¤ìĹ¬":8841,"Ġëĵ¤ëĸ":8842,"ĠìĹ°ì£¼":8843,"ĠìĹ°ìĬµìĿĦ":8844,"ĠìĹ°ë£Įë¥¼":8845,"ĠìĹĲë²Ħ":8846,"ĠìĹĲë¸Ķ":8847,"ëıĻë¬¼":8848,"ĠëĸłëĤ¬":8849,"Ġë¹łíĬ¸":8850,"ëĭ¹íķ´":8851,"íİ¸ìĹĲìĦľ":8852,"ëŀĢëĵľ":8853,"ëŀĢìł¤":8854,"Ġë¡ľìĬ¤":8855,"Ġë¡ľë¹Ħ":8856,"Ġë¡ľìł¸":8857,"Ġíİľ":8858,"ì°¨ëĵľ":8859,"ĠíĿĻ":8860,"ëĭ¨ìĹĲ":8861,"ëĭ¨íķľ":8862,"ëĭ¨ìľ¼ë¡ľ":8863,"ëĭ¨ê³¼":8864,"ë¶ķ":8865,"ë¶ĪìĿĦ":8866,"Ġìĭ¤ë§Ŀ":8867,"Ġìĭ¤ëł¥ìĿĦ":8868,"ì¦Īë¡ľ":8869,"Ġì¡´ìĿĺ":8870,"íĨłë¯¸":8871,"Ġê°Ģì¡±ëĵ¤ìĿ´":8872,"ì¡°ìĿĺ":8873,"ì¡°íķ´":8874,"ì¡°ê°ģ":8875,"ì¡°ìī¬":8876,"ĠíĮ°":8877,"ĠíĮ½":8878,"ĠíĮĿ":8879,"ĠìĦľëŀĺ":8880,"ĠìĦľì²ĺ":8881,"ĠìĦľë°ĶìĿ´":8882,"ĠìĦ¸ê³ĦìłģìĿ¸":8883,"ĠìķħìĿĦ":8884,"Ġìķħìĸ´":8885,"íĺ¸ê°Ģ":8886,"ĠëįĶì¹ĺ":8887,"ĠëįĶì¦Ĳë¦¬":8888,"ĠíĶĦëĿ¼ìĿ´ëĵľ":8889,"Ġëį°ëĭ¤":8890,"Ġëį°ëĵľ":8891,"Ġíģ¬ê³ł":8892,"Ġíģ¬ê¸°ìĿĺ":8893,"Ġíģ¬ë¡ľìļ°":8894,"ĠìķĦìĿ´ìĬ¤":8895,"ìĽĮë¥¼":8896,"ĠíĸīìĦ¸ë¥¼":8897,"Ġë§ŀì¶Ķ":8898,"ĠìĻķìŀĲë¥¼":8899,"ĠìĻķìŀĲë¡ľ":8900,"ĠìĻķìŀĲìĿĺ":8901,"ĠìĻķëĶ°":8902,"ĠìķĪìľ¼ë¡ľ":8903,"ĠìķĪëĤĺëĬĶ":8904,"ĠëĤ´ëĭĪ":8905,"ĠëĤ´ìĭ¬":8906,"ĠëĤ´ë¦¬ëĬĶ":8907,"ĠëĤ´ëĨĵ":8908,"Ġëħ¸íĮĮ":8909,"ìħ°":8910,"ìħĭ":8911,"ìħīìĿĢ":8912,"ĠìĤ´ìķĦëĤĺëĬĶ":8913,"ĠìĿ¸ê°ĦìĿĢ":8914,"ĠìĿ¸ê°Ħëĵ¤":8915,"Ġíĺ¸ìĨ¡":8916,"Ġë¦¬ìĻĢ":8917,"Ġë¦¬ëĦ·":8918,"Ġë§ĲëĿ¼ê³ł":8919,"Ġìŀ¥ëıĻ":8920,"Ġìŀ¥ëĭĺ":8921,"Ġìŀ¥ìķħíķľ":8922,"Ġìŀ¥ìĨĮìĹĲ":8923,"Ġìŀ¥ë©´ìĿ´":8924,"ëįĶìĬ¤":8925,"Ġëª©ìĹĲ":8926,"Ġëª©ê±¸":8927,"Ġëª©ìłģìĿĦ":8928,"Ġê°ĲìłķìĹĲ":8929,"Ġê°Ĳìª½":8930,"ì¼°":8931,"ì²ĺë¥¼":8932,"Ġë§¤ì§ģ":8933,"Ġë§¤ë²Ī":8934,"Ġë§¤ì¶ĺ":8935,"Ġë°©íĥķíķľ":8936,"Ġë°ĺì§Ģ":8937,"Ġë°ĺëł¤":8938,"Ġë°ĺìª½":8939,"íı¬ìĬ¤":8940,"íı¬íĦ°":8941,"íı¬ëŁ´":8942,"Ġë¹Ħë°ĢìĿĢ":8943,"ĠëłĪëĤĺ":8944,"ĠëłĪìłĦ":8945,"ĠëłĪëĦĪ":8946,"ĠëłĪìĭľíĶ¼":8947,"ĠìĦłìĪĺë¥¼":8948,"ĠìĦłìĪĺë¡ľ":8949,"íĮ¡":8950,"Ġê³Ħê³¡":8951,"Ġì²ĺíķĺê³ł":8952,"Ġì²ĺëĭ¨":8953,"ĠìĻ¸ì¶ľ":8954,"ĠìĻ¸ë¡Ńê²Į":8955,"ĠìĻ¸ë¡ľìĽĢ":8956,"ë¸Įë¡ľ":8957,"Ġëĭ¨ìĿĺ":8958,"Ġëĭ¨ê¸°":8959,"Ġëĭ¨ì²´":8960,"Ġëĭ¨ìĪ¨":8961,"íį¼ìĿĺ":8962,"Ġëĭ¬ìĿĺ":8963,"Ġëĭ¬ëĿ¼ëĬĶ":8964,"ê·¸ëĬĶ":8965,"ê·¸ëŁ¬":8966,"ê·¸ëłĮ":8967,"ìļ©ìľ¼ë¡ľ":8968,"Ġì§Ģêµ¬ìĻĢ":8969,"Ġì§Ģêµ¬ìĹĲìĦľ":8970,"Ġëĵľë¥ĺ":8971,"Ġëĵľë¦¼":8972,"ĠëıĮìķĦìĺ¬":8973,"ëħ¸ëĬĶ":8974,"Ġë§ĮëĤĺëĬĶëį°":8975,"Ġë§ĮëĤĺë©´ìĦľ":8976,"íĪ¬íķ©":8977,"ëĵ¤ê³¼ëĬĶ":8978,"ëĵ¤ê³¼ìĿĺ":8979,"Ġë°°ìļ°ê³ł":8980,"ĠìĺĪê±°":8981,"ĠìĺĪê°Ĳ":8982,"ìłĢê¸°":8983,"ìłĢìĶ¨":8984,"êµĲìĤ¬":8985,"ê´ĢìĿĺ":8986,"Ġíıīíĸī":8987,"Ġìķŀì§ĳ":8988,"Ġê´Ģê´ĳ":8989,"ìľĦê°Ģ":8990,"ìľĦì¹ĺ":8991,"ĠíĥĢìħĢ":8992,"ĠíĥĢìŀĶ":8993,"ĠëªħìĿĢ":8994,"Ġëªħë¶Ħ":8995,"ĠëªħìĦ±ìĿĦ":8996,"Ġíı¬ìľĦ":8997,"Ġ26":8998,"Ġìŀ¬ë¯¸":8999,"Ġìŀ¬ê²°":9000,"Ġìŀ¬ë²Į":9001,"ë°ĶëĿ¼":9002,"ë°ĶìĹĲìĦľ":9003,"ëĳ¬":9004,"ĠìĹĦê²©íķľ":9005,"Ġì´Īì²Ń":9006,"ĠíĨµì§¸ë¡ľ":9007,"ĠìłģìĿĦ":9008,"Ġìłģë¶ĢíĦ°":9009,"ĠìłģíŀĮ":9010,"ĠìľĦíĹĺìľ¼ë¡ľë¶ĢíĦ°":9011,"Ġë²ĮìĿ´ê¸°":9012,"Ġë²ĮìĿ´ëįĺ":9013,"ĠëĤ¨ìŀĲë¡ľë¶ĢíĦ°":9014,"ê°Ĳìľ¼ë¡ľ":9015,"ë§¨ê³¼":9016,"Ġì¹´ëłĲ":9017,"ĠìĤ¬ìĿ´ë¡ľ":9018,"ĠìĤ¬ìĿ´ë²Ħ":9019,"ĠíĺĦìŀ¥":9020,"ĠíĺĦìŀ¥ìĿĺ":9021,"ĠíħĮëłĪ":9022,"ĠíħĮìĺ¤ëıĦ":9023,"Ġëĵ±ìĿ´":9024,"Ġëĵ±ìĹĲ":9025,"Ġì¹ĺìľł":9026,"Ġìļ´ëıĻ":9027,"Ġë²ĦíĬ¼":9028,"Ġë²ĦíĭĢëŁ¬":9029,"ì¤ĳìĿ´ëįĺ":9030,"ĠíĥĪì¶ľêµ¬":9031,"Ġì±Ħêµ´":9032,"ê²°ìĿĦ":9033,"Ġìŀłê²¨":9034,"ĠìĪľìĪĺ":9035,"ĠìĪľì¡°":9036,"Ġì½ĶëĭĪ":9037,"Ġì½Ķë¸Į":9038,"Ġì½Ķë¸ĮëĿ¼":9039,"Ġì½ĶìĬ¤íħĶ":9040,"Ġì½Ķëģ¼ë¦¬":9041,"Ġì½ĶëĤľìĿĢ":9042,"ê²¨ìļ´":9043,"ë°ľíķľ":9044,"ë°ľë¡ľ":9045,"ì§ĳìľ¼ë¡ľ":9046,"Ġì°¨ìĽĲìĿ´":9047,"ĠìĨĲê¸¸":9048,"ĠìĨĲê°ĢëĿ½":9049,"ĠêµĲìŀ¥":9050,"ĠêµĲëĤ´":9051,"ĠêµĲìĪĺìĿĺ":9052,"ĠìĤ´ìĿ¸ìĿ´":9053,"ĠìĤ´ìĿ¸ìĿĢ":9054,"Ġë³Ģíķĺê³ł":9055,"Ġë³Ģíķĺê²Į":9056,"ĠíĨłëĵľëĬĶ":9057,"ĠíĨłë¯¸ëĬĶ":9058,"ĠìĹ´ìĸ´":9059,"ĠìĹ´ì¤ĳ":9060,"ĠìĹ´ë¦°ëĭ¤":9061,"ĠìĽĲìŀĲ":9062,"ĠìĽĲíķĺëįĺ":9063,"ĠìĽĲìĨĮë¥¼":9064,"Ġê°Ħíĺ¸ìĤ¬":9065,"Ġëĵ¤ìĸ´ìĺ¨ëĭ¤":9066,"Ġëĵ¤ìĸ´ê°Ī":9067,"ë¯¼ëĵ¤ìĿĦ":9068,"Ġë²ĶìĿ¸ìĿĺ":9069,"Ġë²ĶìĿ¸ìĿ´":9070,"ĠëģĿê¹Įì§Ģ":9071,"ĠëģĿëĤ´ê¸°":9072,"ĠíĬ¹ìľłìĿĺ":9073,"ëĭ¬ëĿ¼":9074,"ĠìłĦìŁģìĿĢ":9075,"ĠìłĦìŁģíĦ°ë¡ľ":9076,"Ġê¹¨ìĸ´":9077,"Ġëª¨ëĳĲìĹĲê²Į":9078,"Ġì¡´ìŀ¬ìĿĺ":9079,"ĠìķłìĿ¸":9080,"ĠìķłíĶĮëłī":9081,"ìłĲìĿ´":9082,"ìłĲìĹĲìĦľ":9083,"ĠëĶ°ë¥´ëĬĶ":9084,"Ġìĭľê°ĦëıĦ":9085,"ìĪłë¡ľ":9086,"ĠíķĺëĤĺê°Ģ":9087,"Ġêµ°ëĮĢìĿĺ":9088,"ëĿ½ìĿĦ":9089,"ì¢Ģ":9090,"ëĦ¤ëĬĶ":9091,"ëĦ¤ë¥¼":9092,"Ġê±´ëĭ¤":9093,"Ġì§ģìŀ¥":9094,"Ġì§ģìŀ¥ìĿĦ":9095,"íħĮëŁ¬":9096,"íħįìĤ¬":9097,"Ġìĭ¬íķľ":9098,"Ġìĭ¬ìŀ¥ìĿĦ":9099,"Ġìĭ¬ê°ģíķľ":9100,"Ġë³¸ë¶Ģ":9101,"Ġë³¸ëĵľëĬĶ":9102,"Ġë³¸ëĬ¥ìĿĦ":9103,"ê²½ìĹĲ":9104,"ĠìŀħìĿĦ":9105,"ĠìŀħëĮĢ":9106,"ĠìŀħìĪĺ":9107,"Ġìŀħì¦Ŀ":9108,"ĠìĿ´ìĥģìĿ´":9109,"Ġì¶ľìłĦìĿĦ":9110,"Ġì¶ľëª°":9111,"Ġì¶ľìĨĮíķľ":9112,"íģ´ëłĪìĿ¸":9113,"ëĭ¤ê°ĢìĬ¤ì¹´":9114,"ì£Ħë¡ľ":9115,"Ġë¸Įë¦¬":9116,"Ġë°¤ìĿ´":9117,"Ġë°¤ìĿĺ":9118,"ĠìľĦíĺĳíķł":9119,"ĠëĳĺëıĦ":9120,"Ġëĳĺì§¸":9121,"ĠìķĦëĤ´ëĬĶ":9122,"ĠíĬ¸ë¡ľ":9123,"ĠíĬ¸ìľĦ":9124,"ĠíĬ¸ëŀŃíģ¬":9125,"ëĿ¼ê³łëĬĶ":9126,"ĠìĤ¶ê³¼":9127,"Ġê±¸ìĿĮ":9128,"ĠëĬ¥ê°Ģ":9129,"Ġëŀ©":9130,"ĠìĨĮëħĢëĬĶ":9131,"ĠìĨĮëħĢìĿĺ":9132,"ê´´ë¬¼":9133,"ĠëĸłëĤĺëĬĶëį°":9134,"ĠëĸłëĤĺë©´ìĦľ":9135,"ĠìĿĢíĸīìĿĦ":9136,"ĠìĿ´ìłľê»ı":9137,"ë²Īìĭľ":9138,"ìĤ°íķľ":9139,"ĠíĤ¤ìĬ¤ë¥¼":9140,"ĠíĤ¤ëĤĺìĿ´":9141,"ĠìĹŃìĤ¬ë¥¼":9142,"Ġë°ķìĤ´":9143,"Ġë°ķìĤ¬ìĿĺ":9144,"ĠëıĦìĭľìĹĲ":9145,"ĠëıĦìĭľìĹĲìĦľ":9146,"Ġë¯¸êµŃìĿĢ":9147,"Ġë¯¸êµŃê³¼":9148,"Ġìļ°ì£¼ìłķê±°":9149,"ĠíĥĪì¶ľíķ´":9150,"ĠíĥĪì¶ľíķĺê³ł":9151,"Ġì²«ë²Īì§¸":9152,"ĠíĹ¤ì³Ĳ":9153,"Ġì¼Ī":9154,"ë³ĳìĿ´":9155,"ë³ĳìľ¼ë¡ľ":9156,"ëıĮê³ł":9157,"ĠìĥģíĻ©ìĿ´":9158,"ì§Īê¹Į":9159,"Ġìŀ¡ëĬĶ":9160,"Ġìŀ¡ìĿĦ":9161,"ĠíĥľìĽĮ":9162,"Ġíĥľíıīìĸĳ":9163,"Ġì¡°ì§ģìĿ´":9164,"Ġì¡°ì§ģê³¼":9165,"ĠìĿ´ìķ¼ê¸°ëĬĶ":9166,"Ġë§ŀìĦľëĬĶ":9167,"Ġë§ŀìĦľìķ¼":9168,"Ġë£¨íģ¬":9169,"Ġë£¨ì¹´":9170,"Ġë£¨ìĿ´ìŀĲ":9171,"Ġê·¸ê³³ìĿ´":9172,"Ġê·¸ê³³ìĹĲëĬĶ":9173,"ë°ĺìľ¼ë¡ľ":9174,"ìĺĢê³ł":9175,"Ġë³´ëĤ´ì§Ħ":9176,"ĠíĻĶëģĪíķľ":9177,"Ġë©Ķê°Ģë§ĪìĿ¸":9178,"Ġì´ĿìĹĲ":9179,"Ġì´Ŀê°ģ":9180,"Ġì´ĿëıĻìĽĲ":9181,"ĠìĹĺë¦¬ìĬ¤":9182,"ĠìĹĺëłĮ":9183,"Ġíĭ´":9184,"ĠíĭĪìĿĦ":9185,"Ġë¹Įë¦°":9186,"ĠíĮĢìĽĲëĵ¤ìĿĢ":9187,"Ġë¬¸íĻĶ":9188,"ĠíİĺìĬ¤íĭ°":9189,"ĠíİĺìĿ´ìĬ¤":9190,"Ġíİĺë²Īìĭľ":9191,"ĠëĦĺë²Ħ":9192,"ĠëĦĺì³Ĳ":9193,"Ġíģ¬ë¦¬ìĬ¤ëĬĶ":9194,"Ġìķ¼ìĺģ":9195,"Ġìķ¼ìĪĺìĿĺ":9196,"Ġìķ¼ìļķìĿĦ":9197,"Ġìķ¼ë§ĿìĿĦ":9198,"Ġë§¥íģ´ëłĪìĿ¸":9199,"ĠíĮ¨ë¦¬":9200,"ĠíĮ¨ëŁ¬":9201,"Ġê¸°ìĸµê³¼":9202,"Ġê¸°ìĸµíķĺì§Ģ":9203,"ĠíĿ¬ê·Ģ":9204,"ë²łë¥´":9205,"ĠìĹ¬ìŀĲëĬĶ":9206,"ĠìĹ¬ìŀĲìĿĺ":9207,"ĠìĹ¬ìŀĲìĻĢ":9208,"ĠìĪľê°ĦìĿĺ":9209,"Ġë²Ķì£ĦìŀĲ":9210,"Ġíģ´ëĿ¼ìĿ´":9211,"ìķĺëĭ¤ëĬĶ":9212,"Ġê³µíı¬ê°Ģ":9213,"Ġì£½ìĿĮìĿ´":9214,"Ġì£½ìĿĮìĿĢ":9215,"ĠíıīíĻĶê°Ģ":9216,"ĠëĤĺíĥĢëĤĺê¸°":9217,"ĠëĤĺíĥĢëĤĺë©´ìĦľ":9218,"ĠëıħíĬ¹":9219,"ĠìĤ´íķ´ëĲľëĭ¤":9220,"Ġì²Ńíĺ¼":9221,"ĠëĨĵìĿ¸ëĭ¤":9222,"ĠëĨĵìĿ´ê²Į":9223,"Ġê²ĮìŀĦìĿĢ":9224,"Ġê²ĮìŀĦìľ¼ë¡ľ":9225,"Ġì²ľìĤ¬":9226,"ë¨¼ëĵľ":9227,"Ġìĺ¬ë¦¬ë²Ħ":9228,"Ġë³ĳìĹĲ":9229,"ĠìĥĿì¡´íķľ":9230,"ë°ķìĿĦ":9231,"ĠíĶĦë¡ľíħĮ":9232,"ëĭ´íķľ":9233,"Ġë¯¸ëŀĺìĹĲìĦľ":9234,"ĠìĥĿíĻľìĿĢ":9235,"Ġìĸ»ìĿĦ":9236,"Ġìķ½ë¬¼ìĿĦ":9237,"Ġê°ĸëĬĶëĭ¤":9238,"Ġíİ¼ì¹ĺê²Į":9239,"Ġíİ¼ì¹ĺëĬĶëį°":9240,"ĠíħĮëŁ¬ì¡°ì§ģ":9241,"ĠìĺģíĻĶë¡ľ":9242,"Ġê·Ģê°Ģ":9243,"Ġê·Ģëĵ±":9244,"ĠìľĮìĬ¨":9245,"Ġë§ĪìĿ´íģ¬ëĬĶ":9246,"Ġëį°ìĿ´ìĹĲ":9247,"Ġëį°ìĿ´ë¹ĦìĬ¤":9248,"ìĭľíĤ¤ëĬĶëį°":9249,"ìĭľíĤ¤ëł¤ê³ł":9250,"Ġê°ģêµŃìĿĺ":9251,"Ġë°ĿíŀĪëł¤":9252,"ë¹Īê³¼":9253,"ë¹ĪìĦ¼":9254,"Ġë§ĪìĿĮìĿĺ":9255,"ĠíĥĲëĭī":9256,"ĠìĥĿê°ģìĹĲ":9257,"ĠìĥĿê°ģíķľëĭ¤":9258,"ĠëĨĢëŀĦ":9259,"Ġê°ķëł¥íķĺê³ł":9260,"Ġê°ķëł¥íķ´ì§Ħ":9261,"ĠíļĮê³Ħ":9262,"íİĺìĿ´":9263,"íİĺìĬ¤íĬ¸":9264,"ĠìļĶìĽĲìĿĺ":9265,"ĠìļĶìĽĲìľ¼ë¡ľ":9266,"íĮ¨ë¥¼":9267,"ĠíĪ¬ìĬ¬":9268,"ìĤ¬ìĿĺíķľ":9269,"ĠëłĪìĿ´ìĬ¤":9270,"ĠëłĪìĿ´ì²¼":9271,"Ġê°ĪëĿ¼":9272,"íĥĪë¦¬ìķĦ":9273,"ë³´ëĭ¤ëıĦ":9274,"Ġê¸Īê¸°":9275,"Ġê¸Īë°ľ":9276,"Ġì¤Ħë¦¬ìķĦ":9277,"ìĽĶíķľ":9278,"ĠëıĦì°©íķĺì§Ģë§Į":9279,"ĠìĻķêµŃìľ¼ë¡ľ":9280,"ĠìĻķêµŃìĹĲìĦľ":9281,"íĮĲìĿĦ":9282,"Ġê·¹íķľ":9283,"Ġê·¹ìłģìľ¼ë¡ľ":9284,"Ġê·¹ìŀ¥ìĹĲìĦľ":9285,"Ġë¹łìł¸ëĤĺê°Ģ":9286,"ĠëĦ¤ìĿ´":9287,"Ġë¨¸ë¦¬ìĹĲ":9288,"Ġë¨¸ë¬´ëĬĶ":9289,"Ġë¸ĶëłĪìĿ´ëĵľ":9290,"ĠëĤ¨íİ¸ìĿĢ":9291,"ĠëĶĶìħī":9292,"ĠëĶĶìŀĲìĿ´":9293,"Ġì¦Ĳê¸°ëĬĶ":9294,"ĠìĤ´ìķĦëĤ¨ëĬĶëĭ¤":9295,"ĠëĤľë¬´íķĺëĬĶ":9296,"Ġëª¸ìĿĢ":9297,"Ġëª¸ê³¼":9298,"ĠíĮĮê´´íķĺê¸°":9299,"ĠíĮĮê´´ëĲľ":9300,"ĠíĮĮê´´ëĲĺê³ł":9301,"Ġìķħëĭ¹ìĿ´":9302,"ĠíĦ°ì»¤":9303,"ĠíĦ°ëĵĿ":9304,"Ġìłĳìĸ´":9305,"ĠìłĳìĨį":9306,"Ġë°ľìĥĿíķľ":9307,"ĠíķĻêµĲìĹĲ":9308,"ĠCra":9309,"ĠCHAL":9310,"Ġë°±ìĦ±":9311,"ìĥīìĿĦ":9312,"ìĥīìĿĺ":9313,"ìĥīìĿ¸":9314,"ĠìĿĮëª¨ìĻĢ":9315,"Ġë±ħ":9316,"Ġìķ¤ëįĶ":9317,"Ġìķ¤ëĶĶëĬĶ":9318,"Ġìķ¤íĬ¸ë§¨":9319,"ìĬ¤íĥĢìĿ¸":9320,"Ġíķĺë£¨ë¥¼":9321,"Ġíķĺë£¨ëıĦ":9322,"ì¦ĿìĿ´":9323,"ì¦Ŀìľ¼ë¡ľ":9324,"Ġìĸ´ë¨¸ëĭĪëĬĶ":9325,"ĠìĪ¨ê²¨ëĳĶ":9326,"Ġë²Ĺìĸ´ëĤł":9327,"Ġê³µì£¼ìĿĺ":9328,"Ġë°©ë²ķìĿ´":9329,"ĠíķĦìĤ¬ìĿĺ":9330,"ĠíķĦëĿ¼ëį¸":9331,"Ġë¶Ģëª¨ìĿĺ":9332,"Ġê´ĳëĮĢ":9333,"ĠíĴĢê³ł":9334,"ĠíĽĶì¹ľ":9335,"ĠíĽĶì¹ĺê¸°":9336,"195":9337,"ĠìŀĳìłĦìĿĺ":9338,"Ġíĺ¼ëŀĢìĬ¤ëŁ¬ìĽĮ":9339,"Ġíį¼ì§Ģ":9340,"Ġì§Ģì¼ľëĤ¼":9341,"Ġì£¼ìĿ¸ìĿ´ìŀĲ":9342,"Ġê¸īìĬµ":9343,"Ġê¸īìĨįëıĦë¡ľ":9344,"Ġê³ĦìĨįëĲĺëĬĶ":9345,"ì¤Ģëĭ¤ëĬĶ":9346,"ë²ĮëłĪ":9347,"Ġë§Īìķ½ìĥģ":9348,"ĠìłĦíĪ¬ê°Ģ":9349,"ĠìĿ¸ìĥĿìĿ´":9350,"ĠìĬ¤íĥĢë¡ľ":9351,"ĠìĬ¤íĥĢê°Ģ":9352,"ĠíĹĪìļ©":9353,"ĠìĿ´ìĸ´ë°ĽìĿĢ":9354,"ĠëĵľëŁ¬ëĤ´ì§Ģ":9355,"Ġì¤Ģë¹ĦìĹĲ":9356,"Ġëª¬íħĮ":9357,"ìĻĶì§Ģë§Į":9358,"Ġëĭ¤ê°Ģìĺ¤ê³ł":9359,"ì»·":9360,"ĠëĬĲëģ¼ëĬĶ":9361,"ĠìķĦë¦Ħëĭ¤":9362,"Ġì°°ëĤĺ":9363,"ĠìĬ¤íĮĮìĿ´ë¡ľ":9364,"ĠíĻľìļ©":9365,"ĠíĻľëıĻìĿĦ":9366,"ĠíĶ¼íĦ°íĮ¬":9367,"Ġì§ĪëłĮ":9368,"ĠëĤĺìĦľê²Į":9369,"Ġë¹Ħíĸīê¸°ìĹĲ":9370,"ì½ľë¦°":9371,"ĠëĭĪëĤĺ":9372,"ĠëıĦë§Ŀì¹ĺëĬĶ":9373,"ĠëıĦë§Ŀì¹ĺëįĺ":9374,"Ġëĵ±ìŀ¥ìĹĲ":9375,"Ġëĵ±ìŀ¥íķľ":9376,"ì´Īë¥¼":9377,"Ġëĸ¨ìĸ´ì§ĢëĬĶ":9378,"Ġìķ¨ë¦¬ëĬĶ":9379,"Ġê·¼ë¬´":9380,"Ġê·¸ëĵ¤ëıĦ":9381,"ĠíŀĪìĸ´ë¡ľë¡ľ":9382,"Ġë°Ģìĸ´":9383,"Ġë°ĢëŁ¬":9384,"ĠíĮĶë¨¸":9385,"Ġê°ĩíŀĪê³ł":9386,"ìłľìĿ´ë¯¸":9387,"Ġë±ĢíĮĮìĿ´ìĸ´ë¡ľ":9388,"ĠíĻķë³´":9389,"Ġíľ´ëĮĢ":9390,"Ġë°ĿíĺĢì§Ģë©´ìĦľ":9391,"Ġì·¨ìĹħ":9392,"ìĹ´ìĿĦ":9393,"ĠìłĢì£¼ìĹĲ":9394,"ĠìĿ´ëģĮë¦°":9395,"ë¿Ĳë§Į":9396,"ì¿łëĬĶ":9397,"Ġìħ°":9398,"ĠìħĶ":9399,"ĠìĿ´ìļ©íķĺëł¤ëĬĶ":9400,"ĠìĥģìĥģìĿ´":9401,"ĠìĥģìĥģëıĦ":9402,"Ġêµ¬íķ´ëĤ¼":9403,"íıīíĻĶë¡ľìļ´":9404,"ĠëģĬìĿ´ì§Ģ":9405,"Ġíİ¸ì§Ģê°Ģ":9406,"Ġëª©ê²©íķĺê²Į":9407,"Ġê°Ģìļ´ëį°ìĹĲìĦľ":9408,"ĠëıĪìľ¼ë¡ľ":9409,"ĠëıĪê³¼":9410,"ëĭĪìķĦìĿĺ":9411,"ĠìĽĮëłĮ":9412,"Ġìĺģíĺ¼ìĿĺ":9413,"ĠìłľìĿ´ìĬ¨ìĿ´":9414,"ĠìłľìĿ´ìĬ¨ìĿĢ":9415,"Ġëľ»ìĿĦ":9416,"Ġíģ¬ë¦¬ìĬ¤ë§ĪìĬ¤ìĿĺ":9417,"Ġëª¬ìĬ¤íĦ°ëĵ¤ìĿĺ":9418,"Ġë±ĢíĮĮìĿ´ìĸ´ìĻĢ":9419,"Ġë´¤":9420,"ĠìĿ¼íĸīê³¼":9421,"Ġìłľê±°íķĺê¸°":9422,"Ġìłľê±°íķĺëł¤ëĬĶ":9423,"Ġë©ĢëłĪìĿ´":9424,"Ġê²½íĹĺìĿ´":9425,"Ġê²½íĹĺíķľ":9426,"ĠìĤ´ìĿ¸ë§Īê°Ģ":9427,"Ġê²©ë¦¬":9428,"Ġê¾¸ë¯¼ëĭ¤":9429,"ĠëķħìĹĲìĦľ":9430,"Ġê¶ĮíĪ¬":9431,"ĠìĭľìłĪë¶ĢíĦ°":9432,"Ġëĭ¤ìĿ´ìķł":9433,"Ġëĭ¤ìĿ´ìķłëĤĺ":9434,"ĠíĺĦìĭ¤ìĿĺ":9435,"ĠíĺĦìĭ¤ìĿĢ":9436,"íĮĢìĿĺ":9437,"ĠìĿ´ë£¨ìĸ´ì§Ħ":9438,"Ġì§ĢëĤĺëįĺ":9439,"Ġì§ĢëĤĺì¹ĺê²Į":9440,"Ġìľłëł¹ëĵ¤ìĿĦ":9441,"Ġëį°ëł¤ìĻĢ":9442,"Ġëį°ëł¤ê°Ħëĭ¤":9443,"ë¡¤ëĵľ":9444,"ĠìķĦëĭĮê°Ģ":9445,"Ġë²ķìĿĺ":9446,"Ġìķħë§ĪìĿĺ":9447,"ê¿Ķ":9448,"Ġê·¸ê²ĥìĿĦ":9449,"ĠìĹĲìĿ´ë¦¬ìĸ¸":9450,"ĠìĹĲìĿ´íĶĦë¦´":9451,"Ġíģ¬ë¦¬ëĵľìĿĺ":9452,"Ġì¶ľìĭłìĿ¸":9453,"ĠìķĮëłīìĬ¤":9454,"ĠìķĮëłīìĤ°":9455,"Ġìłķë³´êµŃ":9456,"Ġìļ°ì£¼ìĦłìĹĲ":9457,"Ġíĳľë¥ĺ":9458,"Ġê·¸ëłĪìĿ´ìĬ¤ëĬĶ":9459,"Ġìļ¸íĶĦíĮ©":9460,"íģ¬ë¦¬ìĬ¤íĭ´":9461,"Ġì´ĪëĮĢíķľëĭ¤":9462,"Ġë§ĪìĿ´íģ´ìĿĺ":9463,"Ġë§ĪìĿ´íģ´ìĿĢ":9464,"Ġê¼¬ìĹ¬":9465,"Ġê¼¬ìĿ´ê¸°":9466,"ĠìĿ¼ìĸ´ëĤĺëĬĶ":9467,"ĠìĥĿëªħì²´ë¥¼":9468,"Ġê¸´ê¸ī":9469,"ĠíĸīëıĻìľ¼ë¡ľ":9470,"ĠìķĶìĤ´ìŀĲ":9471,"ĠíħĲ":9472,"ĠíħĶ":9473,"ĠìĹĶì¡°ëĬĶ":9474,"ĠìĿ´ìľłëĬĶ":9475,"ĠìĿ¼ëĭ¹ê³¼":9476,"ĠíĮĮíĬ¸ëĦĪê°Ģ":9477,"ĠíĮĮíĬ¸ëĦĪìĿ¸":9478,"Ġë¡ĿíĤ¤ëĬĶ":9479,"Ġìĭ¤íĹĺìĹĲ":9480,"ìķĦë²Ħì§ĢìĿĺ":9481,"Ġì°½ìĭľ":9482,"Ġì°½ë¦½":9483,"Ġìĸ´ëĶĶë¡ľ":9484,"Ġ194":9485,"Ġ196":9486,"Ġ197":9487,"Ġíķłë¨¸ëĭĪëĬĶ":9488,"ĠíĺĦìĥģìĿ´":9489,"ĠíĺĦìĥģê¸Ī":9490,"ëĨĵìĿĢ":9491,"ëį¤ë³´":9492,"ëľ¨ë¦°":9493,"Ġë¸ĶëŀĻíİĦ":9494,"Ġ80":9495,"Ġìĭľì²´ìĻĢ":9496,"Ġë¬´ìĭľíķľ":9497,"Ġë¬´ìĹĩë³´ëĭ¤":9498,"Ġë¬´ìĹĩìĿ¼ê¹Į":9499,"Ġìķħëª½ìĹĲ":9500,"ĠëĪĦêµ°ê°ĢìĹĲê²Į":9501,"Ġê³¨ëĵł":9502,"ĠëĮĢíķĻìĹĲ":9503,"ĠìĿ¼ìĥģìĿĺ":9504,"Ġìłĳê·¼íķľ":9505,"Ġìłĳê·¼íķľëĭ¤":9506,"ĠëŁ°ëįĺìĹĲìĦľ":9507,"ĠëĤĺê°Ģê²Į":9508,"ĠìĦ¸ëł¥ìĹĲ":9509,"ĠíĻĢë¦¬":9510,"Ġê´Ģë¦¬íķĺëĬĶ":9511,"Ġê´Ģë¦¬êµŃ":9512,"ĠíĤ¹ìĬ¤ë§¨":9513,"Ġìķ¡ìħĺìĿ´":9514,"ĠSF":9515,"ĠSNS":9516,"Ġìį¸":9517,"Ġê·¸ëłĩì§Ģë§Į":9518,"ĠìĹīëį©":9519,"Ġìĭľê³¨ë§ĪìĿĦ":9520,"ĠëĤĺëĪĦê²Į":9521,"Ġê³łìĸĳìĿ´ëĬĶ":9522,"Ġë°ĶìĿ´íĤ¹":9523,"Ġêµ¬ì¶ľíķ´":9524,"Ġíĺ¸íħĶìĹĲ":9525,"ĠìłĢì§Ģë¥´ê³ł":9526,"ĠìłĢíĥĿìľ¼ë¡ľ":9527,"Ġê·ľì¹Ļ":9528,"Ġìĭľëĭ¬ë¦¬ê²Į":9529,"Ġì§Ģìĺ¥ìĹĲìĦľ":9530,"Ġë¶ģê·¹":9531,"Ġë¶ĪìķĪìĹĲ":9532,"Ġëħ¸ëł¥ìľ¼ë¡ľ":9533,"Ġëħ¸ëł¥íķĺëĬĶ":9534,"Ġê·¸ë¦¬ìĬ¤ëıĦëĬĶ":9535,"ëł¸ëįĺ":9536,"Ġê²¬ëĶĶ":9537,"Ġì§ĢìĹŃìĿĦ":9538,"Ġë¹ħíĦ°":9539,"Ġë³Ģìĭłíķľ":9540,"Ġë³Ģìĭłíķ´":9541,"Ġì§ģìıĺëĬĶ":9542,"Ġì£¼ìĿ¸ê³µìĿĢ":9543,"Ġíľĺë§Ĳëł¤":9544,"Ġë©¸ë§ĿìĿĺ":9545,"Ġë©¸ë§Ŀíķł":9546,"Ġë³´ìķĪê´ĢìĿĺ":9547,"Ġì§ĲìĿĢ":9548,"ĠìĬ¤íĭ°ë¸Ĳ":9549,"Ġì°¸ìĹ¬íķĺê²Į":9550,"Ġìĸ¼êµ´ìĿĦ":9551,"Ġë³ĳìĽĲìĹĲ":9552,"Ġë³ĳìĽĲìĹĲìĦľ":9553,"Ġìķ½ìĨįíķľ":9554,"Ġíķ©ë¥ĺíķĺê²Į":9555,"ëļľ":9556,"ĠìŀĬìĿĦ":9557,"ĠìŀĬê³ł":9558,"ĠíķĺëĬĺìĿ´":9559,"ĠíķĺëĬĺë¡ľ":9560,"Ġëª¨ìĦ¸ê°Ģ":9561,"Ġë©Īì¶Ķì§Ģ":9562,"ĠìļĶì²ŃìĿĦ":9563,"Ġëĵľëŀĺê³¤ëĵ¤ìĿĺ":9564,"Ġì°¸ìĦĿìĿĦ":9565,"ĠìĿĢíĸīìĿĺ":9566,"ĠìĭŃëĮĢ":9567,"ĠëĤĺë£¨íĨłìĿĺ":9568,"ĠìĦ¸ê³ĦëĮĢìłĦìĹĲ":9569,"ĠëĴ¤ì§ĳëĬĶ":9570,"ĠíıŃíĴįìĿ´":9571,"ĠMISS":9572,"ĠìĤ¬ë§īìĿĦ":9573,"ĠìĿ´ìĽĥì§ĳ":9574,"Ġë¬´ëĦĪì§Ģê³ł":9575,"Ġë¬´ëĦĪì§ĢëĬĶ":9576,"Ġê³łë¯¼ìĹĲ":9577,"Ġê±°ëĵŃëĤĺ":9578,"Ġê±°ëĵŃëĤľëĭ¤":9579,"Ġë°ĶëŀĮìĿĦ":9580,"Ġê²½ê³łë¥¼":9581,"Ġìº£ëĭĪìĬ¤":9582,"Ġëıķê¸°":9583,"Ġìĸ´ëł¤ìĽĢ":9584,"ĠìĽ¬ëĶĶìĿĺ":9585,"ĠìĽ¬ì¦Īëį°ìĿ´":9586,"ĠíĻ©ìłľëĬĶ":9587,"ĠíĶĦë¡ľê·¸ëŀ":9588,"Ġìĭ¶ìĸ´íķľëĭ¤":9589,"ê°Ķëįĺ":9590,"ê²ģëĤĺë¨¼":9591,"Ġê·¸ë¦¼ìŀĲê°Ģ":9592,"Ġê·¸ë¦¼ìŀĲë¥¼":9593,"Ġì§ĵìĿĦ":9594,"Ġê³ģìľ¼ë¡ľ":9595,"ĠìĬ¤íĬ¸ëłĪ":9596,"ĠìĬ¤íĬ¸ëłĪìĿ¸":9597,"ĠíĮĮìĽĮë¥¼":9598,"Ġê³¼íķĻìŀĲëĵ¤ìĿĢ":9599,"Ġëª©íĳľë¡ľ":9600,"Ġê¹ĬìĿ´":9601,"Ġìĭ¬ë°ĶìĿĺ":9602,"ĠìĿĢíķĺê³Ħë¥¼":9603,"Ġìĭ¸ìĽĢìĿ´":9604,"ĠíĶĦë¡ľìłĿíĬ¸ìĹĲ":9605,"Ġì¦Ŀê±°ë¬¼ìĿĦ":9606,"Ġê°±ëĭ¨":9607,"ĠìĪĺíĺ¸ìĭł":9608,"Ġë²½ìĿĦ":9609,"ĠìĬ¤íĶ¼ëĵľ":9610,"ĠìĬ¤íħĮíĮĲ":9611,"Ġê³łíĨµìĿĦ":9612,"ĠíĮĮíĹ¤ì¹ĺê¸°":9613,"Ġì£¼ë³ĢìĿĺ":9614,"ĠìķĪìłĦíķľ":9615,"ĠëĤ´ìļ©ìĿĦ":9616,"ĠëĤ´ìļ©ìĿĺ":9617,"ì¼ĢìĿ´ëĶĶ":9618,"ì£½ìĿĢ":9619,"ĠìĿĢíĩ´ë¥¼":9620,"ĠíĦ¸ìĸ´":9621,"ĠìĨĲìĺ¤ê³µìĿĦ":9622,"ĠìĪĺìĪĺê»ĺëģ¼ë¥¼":9623,"Ġê³łêµ°ë¶ĦíĪ¬íķĺëĬĶ":9624,"íĬ¹ìĪĺ":9625,"Ġë§Īë¥´ì¿ł":9626,"Ġë§Īë¥´ê·¸ë¦¬":9627,"ĠìĭľëĵľëĭĪ":9628,"ĠìłĦíĻĶê°Ģ":9629,"Ġëª¨ë¥¸ëĭ¤ëĬĶ":9630,"ĠìłľìŀĳëĲľ":9631,"Ġê³łìļ©íķľ":9632,"Ġê³łìļ©íķ´":9633,"Ġê³łìļ©íķľëĭ¤":9634,"Ġê±°ë¶Ģíķľ":9635,"Ġìķħëł¹ìĿ´":9636,"ĠìłĢíķŃêµ°ìĿĺ":9637,"ĠìłĢíķŃêµ°ìĿĢ":9638,"Ġìŀłìŀħíķ´":9639,"Ġìķ¼ìĥĿìĿĺ":9640,"Ġì²ŃìĨĮëħĦ":9641,"ĠíĢ¸ì¹´":9642,"Ġë¡ĿíĤ¤ìĹĲê²Į":9643,"ë·Ķ":9644,"Ġìī¬ìĸ´ì¹¸":9645,"ĠìĤ¬ë¡ľìŀ¡íŀĮ":9646,"ĠìķĦëĤĺíĤ¨":9647,"ĠìĨĶë¡ľ":9648,"ĠìĬ¤íİĺìĿ¸":9649,"ĠìĨĮìĨįìĿĺ":9650,"Ġê³µê°ĦìĿĦ":9651,"Ġë°©íķ´ë¡ľ":9652,"Ġê´Ģëł¨ìĿ´":9653,"Ġì²«ëĤłë¶ĢíĦ°":9654,"Ġìŀ¡ìķĦë¨¹":9655,"Ġë¶Ļìŀ¡íĺĢ":9656,"Ġë°ĶëĢĮê³ł":9657,"ĠíħĮëŁ¬ë¦¬ìĬ¤íĬ¸ëĵ¤ìĿ´":9658,"ĠìĬ¤íģ¬ë¦°":9659,"ĠìĬ¤íģ¬ë£¨ì§Ģ":9660,"Ġê¸°ì°¨ìĹĲ":9661,"ìĨĲìľ¼ë¡ľ":9662,"ëĶ°ëĿ¼":9663,"Ġíķ´ë³ĢìĹĲìĦľ":9664,"ĠìĹĲë°Ģë¦¬":9665,"Ġê°Ĳì§Ģíķĺê³ł":9666,"ĠëĴ¤ë¡ľíķĺê³ł":9667,"ĠëĳĲëł¤ìĽĢìĹĲ":9668,"ĠìĬ¤ì½§ìĿĢ":9669,"Ġê°Ģë¡ľë§ī":9670,"ĠìĬ¤íĨłë¦¬":9671,"ĠíĮĮëĿ¼ìĺ¤ìĿĺ":9672,"Ġëħ¹ìĥī":9673,"Ġíİłë¦Ń":9674,"ĠíĽĦê³ĦìŀĲìĿ¸":9675,"Ġíĺ¸íģ¬ë£©":9676,"Ġì¦īìĭľ":9677,"ĠìĤ¬ëĿ¼ì¡Įëįĺ":9678,"ĠëĦĪë¬´ëĤĺëıĦ":9679,"Ġë¬´ì°¨ë³ĦìłģìĿ¸":9680,"ê¶ĤìĿĢ":9681,"ĠìķĻìĭ¬ìĿĦ":9682,"Ġê°Ķëįĺ":9683,"Ġê³¤ì¶©":9684,"Ġìĭľë¯¼ëĵ¤ìĿĦ":9685,"Ġìĥģìĸ´ìĿĺ":9686,"ĠìĦľì»¤ìĬ¤ëĭ¨ìĿĺ":9687,"ĠìłĢìĬ¹ìľ¼ë¡ľ":9688,"Ġë§ĪìĿ´ìĸ´ìĬ¤":9689,"ĠíĥĲíĹĺê°Ģ":9690,"ĠìĭĿëŁīìĿĦ":9691,"ĠìĮĵìķĦ":9692,"Ġì¿µíĳ¸ë¥¼":9693,"Ġì¥Ĳê³ł":9694,"ĠëĲĺëıĮë¦´":9695,"ĠìĨĮëł¨ìĿĺ":9696,"Ġìļ°ìĬ¹ìĿĦ":9697,"ĠëĸłëıĮëįĺ":9698,"Ġì§ĦíĻĶëĲľ":9699,"Ġì§Ħìĭ¤ìĿ´":9700,"ĠìĻ¸ëª¨ìĹĲ":9701,"ĠìĻ¸ëª¨ìĻĢ":9702,"Ġëĭ¬ëŁ¬ë¥¼":9703,"Ġìŀ¬íļĮíķĺê²Į":9704,"ĠìĹ´ì°¨ìĹĲìĦľ":9705,"Ġëı¼ì§Ģì´Į":9706,"ĠVIP":9707,"ëĭ¤ëĭĪìĹĺ":9708,"ë¹ħíĦ°":9709,"ĠëıĻìĽĲíķ´":9710,"Ġë°ľëªħê°Ģ":9711,"Ġìļ°ìłķìĿĢ":9712,"Ġê²°ê³¼ë¥¼":9713,"Ġíĸīíģ¬ìĬ¤":9714,"ĠíĤ´ë²Į":9715,"ĠìĹ´ìĩłë¥¼":9716,"Ġë£°ìĿĦ":9717,"Ġì¢ħë§ĲìĿĦ":9718,"Ġë¹ĪìĦ¼íĬ¸ìĿĺ":9719,"ĠìłĬê³ł":9720,"ë§Įíģ¼ìĿĢ":9721,"Ġëª¨ìľ¼ê³ł":9722,"Ġìĸ´ëĶĺì§Ģ":9723,"ĠíķľëķĮëĬĶ":9724,"ĠìĨĮíĸīìĦ±ìĹĲ":9725,"Ġìĥģê´ĢìĹĨìĿ´":9726,"ĠíĶ¼ìĹĲë¥´":9727,"Ġì½¤ë¹Ħ":9728,"Ġë§Ĳìį½ê¾¸ëŁ¬ê¸°":9729,"ĠëıĮìķĦìĻĶëĭ¤":9730,"ĠëĿ¼ìĬ¤íĳ¸":9731,"ĠìĨĲëĭĺìĿ´":9732,"ĠìĹŃëĮĢê¸ī":9733,"Ġìłķìĭłë³ĳìĽĲìĹĲ":9734,"Ġì»¨ë²Ħ":9735,"Ġê¾¸ë¯¸ëĬĶëį°":9736,"Ġìĭ±ê¸Ģ":9737,"ĠìłĦìĹŃìĿĦ":9738,"Ġì¹¸ëĭ¤":9739,"ì£¼ìĿ¸ê³µ":9740,"Ġë³´ìĹ¬ì¤Ģëĭ¤":9741,"íĭ¸ëŁ¬":9742,"ĠìĹ´ìłķìłģìĿ¸":9743,"ĠìķłìĻĦê²¬":9744,"ĠëĪĪì¹ĺì±Ħ":9745,"ĠìħĢë¦°":9746,"ĠìıŁìķĦì§ĢëĬĶ":9747,"ĠìķĦëĤĺìĬ¤íĥĢìĥ¤ëĬĶ":9748,"Ġìĺ¤ëĳĲë§īìĹĲ":9749,"ĠãĢĮ":9750,"Ġëª¨íĶ¼ìĸ´":9751,"Ġìĸ´ë²¤ìł¸ìĬ¤":9752,"ĠìĬ¤íĮ¨ë¡ľìļ°":9753,"ĠìĿĺë¯¸ìĭ¬":9754,"Ġëħ¸ë¥´ë¹Ĺ":9755,"ĠëĴ¤ì«ĵìķĦ":9756,"ĠíĶĦë¦¬ìłĢìĿĺ":9757,"Ġë§ŀëĭ¥ëľ¨ë¦°ëĭ¤":9758,"Ġíķĺë£»ë°¤ìĿĦ":9759,"Ġë§·ìĿĢ":9760,"ëį´ìł¤":9761,"ĠìĤ¬ìļ°ë¡łìĿĺ":9762,"ĠìŀĲì¡´ìĭ¬ìĿĦ":9763,"Ġìłľìķķíķĺê³ł":9764,"Ġë¡ľëłĮìĬ¤":9765,"Ġë°ĺíķŃìķĦ":9766,"ĠìŀĦìĭłíķľ":9767,"Ġìļ©ê°Ĳíķľ":9768,"Ġë¸Įë£¨ìĬ¤ëĬĶ":9769,"ĠíĬ¸ëŁŃìĿĦ":9770,"Ġì£Ħì±ħê°Ĳ":9771,"ëĲĲëĭ¤ëĬĶ":9772,"ĠìĦ¸ìļ°ëĬĶëį°":9773,"ĠìĦ¸ìĽĶìĿ´":9774,"ĠìĬ¤ë¯¸ìĬ¤ëĬĶ":9775,"ĠìĨĮë¬¸ìĿ´":9776,"Ġê±°ì¹¨ìĹĨìĿ´":9777,"ĠìĹĲë¦¬ìĸ¼ìĿĢ":9778,"Ġì±Ļê²¨":9779,"ĠíĶĦëĿ¼ìŀĦ":9780,"Ġê¹ľì°į":9781,"Ġíı¬ìĻĢë¡ľëĬĶ":9782,"Ġíı¬ìĭĿìŀĲ":9783,"ĠìĤ´ìĿ¸ë²Ķìľ¼ë¡ľ":9784,"Ġë²łëĭĪìĬ¤ìĹĲìĦľ":9785,"ĠìĦ¤ìĥģê°Ģìĥģìľ¼ë¡ľ":9786,"ĠíķĦìĤ¬ìłģìľ¼ë¡ľ":9787,"ĠëĨįêµ¬íĮĢ":9788,"Ġíħľíı¬ëŁ´":9789,"Ġìĭ«ìĸ´íķĺëĬĶ":9790,"Ġë®¤ì§Ģì»¬":9791,"Ġìĭ£ê³ł":9792,"ĠìķĦìĿ¼ëŀľëĵľ":9793,"Ġëª¨ìĿĢëĭ¤":9794,"Ġë¬´ëª¨íķľ":9795,"Ġë°Ķíĭ°ì¹¸":9796,"ĠìĭłìŀħìĥĿ":9797,"ĠìĨįìĪĺë¬´ì±ħìľ¼ë¡ľ":9798,"ĠëĪĦëĵ¤ìĬ¤ëĬĶ":9799,"Ġë©Ģíĭ°ë²Ħ":9800,"Ġíľ©ìĵ¸ëł¤":9801,"ë®¤":9802,"ìŀłìĿĦ":9803,"Ġê°Ģë¸Įë¦¬ìĹĺìĿ´":9804,"Ġìĸ´ì§ĢëŁ½":9805,"ĠíĥģìĽĶíķľ":9806,"Ġìłľëħ¸ë¹ĦìķĦìĿĺ":9807,"ĠìĿĺê¸°íĪ¬íķ©":9808,"ĠìķħëŀĦíķľ":9809,"Ġë²Ħíģ¬ìĦ¬":9810,"Ġíģ´ëŀĺìĭĿ":9811,"Ġê¼´ëłĪìĺ¤":9812,"ĠëĽ°ìĸ´ëĦĺëĬĶ":9813,"ĠìĹĶíĦ°íĶĦëĿ¼ìĿ´ì¦Ī":9814,"Ġì¿¨ìĬ¤ë¹Į":9815,"Ġë§ĺëª¨ìĬ¤":9816,"ĠìĿ¸íĦ°ë·°ë¥¼":9817,"ĠìĹłë§Īëī´ìĹĺìĿĢ":9818,"Ġë¬´ë¦ħìĵ°ê³ł":9819,"Ġë¡¤ëŁ¬ì½ĶìĬ¤íĦ°ê°Ģ":9820,"âĻ¡":9821,"Ġëºı":9822,"Ġê¶¤":9823,"ìĬ¤íĮĮíĤ¤":9824,"ĠìĿ´ìŀĲë²¨":9825,"Ġê°Ģê¹Ŀê²Į":9826,"ëĮĢë¯¸ë¬¸ìĿĺ":9827,"ìłľëłĪë¯¸":9828,"Ġìĺ¤ëĶĺìĿĺ":9829,"Ġêµ¬ìĤ¬ìĿ¼ìĥĿìľ¼ë¡ľ":9830,"ĠëĤłì¹´ë¡ľìļ´":9831,"Ġìĺģê´ĳìĿĦ":9832,"ĠíĶ¼ì¹´ì¸":9833,"Ġìĭ¤ë§Īë¦¬ë¥¼":9834,"ĠìķĦìĿ´ëĶĶìĸ´ë¥¼":9835,"ĠëĿ¼íĳ¼ìł¤":9836,"ĠìºĲëĤĺëĭ¤ë¡ľ":9837,"ĠëłĪìĿ´ëĨĢì¦Ī":9838,"Ġìĵ°ëłĪê¸°":9839,"ĠíĿĺëłĢëĭ¤":9840,"Ġê°Ģë¡ľì§Ģë¥´ëĬĶ":9841,"ĠìĬ¬ë¡ľìľħìĿĺ":9842,"ĠìķĦê·¸ëĿ¼ë°Ķ":9843,"Ġìĸ´ë§Īìĸ´ë§Īíķľ":9844,"ION":9845,"LENGE":9846,"Ġê°Ģë³įê²Į":9847,"Ġëĭ¤ëŀĮì¥Ĳ":9848,"ĠëĤĺë©Ķíģ¬":9849,"ĠìĿ¼ìĳ¤":9850,"ĠìĨĮê¿ī":9851,"Ġë¯¸ì¼ĪëŀĢìł¤":9852,"Ġìĺ¤íİĺëĿ¼":9853,"Ġëĵ¤ëĸł":9854,"ĠìĦľë°ĶìĿ´ë²Į":9855,"Ġëĭ¨ìĪ¨ìĹĲ":9856,"ĠëıħíĬ¹íķľ":9857,"ĠëĶĶìŀĲìĿ´ëĦĪ":9858,"ĠCraig":9859,"ĠCHALLENGE":9860,"ĠíķĦëĿ¼ëį¸íĶ¼ìķĦ":9861,"ĠMISSION":9862,")_":9863,"100":9864,"1000":9865,"21":9866,"35":9867,"80":9868,"90":9869,"?âĢĿ":9870,"BA":9871,"De":9872,"EP":9873,"LA":9874,"Mr":9875,"TEP":9876,"_âĢľ":9877,"ad":9878,"ay":9879,"all":9880,"ce":9881,"id":9882,"it":9883,"ill":9884,"ley":9885,"ris":9886,"¥ìĬ¤":9887,"¨ìĶ¬":9888,"·ìĿĦ":9889,"¼ëŁ¬":9890,"Âł":9891,"ĠZ":9892,"ĦìĥĪ":9893,"Īëĭ¤":9894,"įì²Ń":9895,"ĳ¥":9896,"ĵìĿĢ":9897,"ĵ¨ë¦¬":9898,"ĺìĸ´":9899,"ľìĸ´":9900,"ľìĶ¨":9901,"ĿìĹĲ":9902,"ŀìĹ¬":9903,"ŃìħĶ":9904,"Ġì©":9905,"ĠìŁ":9906,"Ġì¥¬":9907,"Ġì«Ĵ":9908,"Ġìĳ¥":9909,"Ġëķ":9910,"Ġíį½":9911,"Ġíĵ¨ë¦¬":9912,"ìĿ´ìĥģ":9913,"ìĿ´ì¦ĪìĿĺ":9914,"ëĭ¤ìĿĺ":9915,"íķĺëĦ¤":9916,"íķĺê¸¸":9917,"íķĺê³¤":9918,"íķĺëĶĺ":9919,"ì§±":9920,"ë¡ľìĸ´":9921,"ê³łë¡ľ":9922,"ê³łìĻĢ":9923,"ê³łìĹĲìĦľ":9924,"ê³łëıĦ":9925,"ĠìŀĬìĿĢ":9926,"ĠìķĹ":9927,"ê°Ģìŀ¥":9928,"ê°ĢìĪĺ":9929,"ê°ĢëłĽ":9930,"ì§ĢëĤĺ":9931,"ì§Ģë©´":9932,"ì§Ģë§ī":9933,"ì§Ģì¤ĳ":9934,"ì§ĢëĮĢìĹĲ":9935,"ì§Ģë¶Ģë¥¼":9936,"ì§ĢíĦ¸":9937,"ìłĵ":9938,"ë¦¬ëŁ¬":9939,"ë§¡":9940,"ë§£":9941,"ë§ŀ":9942,"Ġê·¸ê±¸":9943,"ê²ĮìĿ¼":9944,"ëĵ¤ê¸°":9945,"ëĵ¤ë©°":9946,"ëĵ¤ì²ĺëŁ¼":9947,"ê¸°ìĤ¬":9948,"ê¸°ë©°":9949,"ê¸°ìĸµ":9950,"ìĬ¤íķľ":9951,"ìĬ¤ìĬ¤íķľ":9952,"íķ´ìĹĲ":9953,"íķ´ë¥¼":9954,"íķ´ëĤĺ":9955,"íķ´ì§Ī":9956,"íķ´ìĻĶëįĺ":9957,"ĠìĹ®":9958,"ĠìĹİ":9959,"ìĿ¸ì§Ģë¥¼":9960,"ĠëĤŃ":9961,"ĠìĤ¬ëĤĺ":9962,"ĠìĤ¬íĨł":9963,"ĠìĤ¬ê¸°ë¥¼":9964,"ĠìĤ¬ê°ģ":9965,"ĠìĤ¬ìĦ¤":9966,"ĠìĤ¬ëĤ´ëĬĶ":9967,"ĠìĤ¬ê·Ħ":9968,"ĠìĤ¬ëĤĺìĿ´":9969,"Ġìľ¤":9970,"ĠìĿ´ê¸°":9971,"ĠìĿ´ì£¼":9972,"ĠìĿ´ëĿ¼ëĬĶ":9973,"ĠìĿ´ì¦Ī":9974,"ĠìĿ´ìĦ±ìĿĦ":9975,"ĠìĿ´ìķĪìĿĢ":9976,"ĠìĿ´ìĬ¬ëĿ¼":9977,"ìĸ´ëĬĶ":9978,"ìĸ´ìĿĺ":9979,"ìĸ´ìĬ¤":9980,"ìĸ´íĬ¸":9981,"ĠëĲĲ":9982,"Ġì§§":9983,"ìķĦìķ¼":9984,"ìķĦê·Ģ":9985,"ìķĦíĶĦë¦¬ì¹´":9986,"ëĿ¼ëĭĪ":9987,"ëĿ¼ëĿ¼ëĬĶ":9988,"ëĿ¼ëıĦëĬĶ":9989,"ëĿ¼ì¼Ħ":9990,"ìŀĲìłģìĿ¸":9991,"ìŀĲëĵ¤ìĹĲê²Į":9992,"ìŀĲë¦¬ê°Ģ":9993,"ìŀĲìĺĢëįĺ":9994,"ëŀ¬":9995,"Ġê³¡":9996,"ìĥĮ":9997,"ëĤĺìĦľ":9998,"ëĤĺëĤĺ":9999}