<unk>	0
<s>	0
</s>	0
,	-1.78676
,*,*,*,*	-2.43672
,*,	-2.58977
▁	-2.88573
F	-3.03977
T	-3.13008
▁NNG	-3.62626
/	-3.68341
ETM	-4.20044
/*	-4.39239
/*+	-4.45147
VV	-4.55272
+	-4.60059
ct	-4.64407
fle	-4.64421
In	-4.64421
▁VV	-4.68282
,*,*,*	-4.7359
EC	-5.0091
NNG	-5.15201
EF	-5.17816
▁NNP	-5.2281
JKO	-5.24059
▁JKB	-5.27706
C	-5.31377
▁EC	-5.33162
하	-5.34433
행위	-5.3967
▁S	-5.43657
인명	-5.46833
ᆫ	-5.48089
를	-5.55538
▁E	-5.57688
을	-5.63686
OS	-5.66078
의	-5.66252
는	-5.68319
▁JX	-5.68515
이	-5.69161
JKG	-5.74259
부사	-5.74656
▁SF	-5.74775
▁을	-5.7585
▁.	-5.79039
▁의	-5.79809
XSV	-5.8002
▁는	-5.82532
▁XSV	-5.88286
p	-5.90579
ou	-5.90623
nd	-5.90644
,*,*,	-5.90646
om	-5.90678
XSA	-5.9849
JKS	-6.03681
▁ETM	-6.06302
▁MAG	-6.1452
에	-6.17888
가	-6.21901
▁이	-6.23286
정적사태	-6.24214
|	-6.24867
분	-6.25497
성	-6.27188
장소	-6.30651
▁에	-6.31559
고	-6.32583
VCP	-6.3368
한	-6.33695
Y	-6.36393
은	-6.36961
▁XSN	-6.3818
ᆫ다	-6.4218
▁하	-6.45045
▁고	-6.48166
▁은	-6.49517
되	-6.52576
▁한	-6.52831
▁MM	-6.53608
,~	-6.54076
아	-6.54337
VX	-6.54752
명사	-6.56926
▁VX	-6.5806
들	-6.58521
▁NNB	-6.59702
▁XSA	-6.67058
VA	-6.67673
있	-6.6769
▁VA	-6.67783
▁NP	-6.68633
어	-6.77997
▁들	-6.78655
EP	-6.78658
▁가	-6.83007
▁VCP	-6.83781
게	-6.91325
R	-6.96132
JC	-6.98915
기	-7.04981
그	-7.05114
▁게	-7.05481
로	-7.06493
것	-7.08541
지	-7.18294
▁그	-7.21321
과	-7.21697
에서	-7.22411
▁로	-7.22536
다	-7.22984
으로	-7.23311
와	-7.23627
시간	-7.26099
인	-7.26243
ᆯ	-7.30008
▁X	-7.30836
양태부사	-7.30893
▁NNBC	-7.32551
▁ETN	-7.34393
▁에서	-7.34432
▁으로	-7.34884
▁과	-7.36093
▁와	-7.36126
던	-7.37732
▁기	-7.37858
▁SN	-7.44346
▁다	-7.47506
▁던	-7.50234
지만	-7.50749
▁되	-7.50911
한다	-7.51684
‘	-7.55351
지명	-7.55975
는데	-7.56067
자	-7.5895
었	-7.59087
▁한다	-7.6193
시작	-7.62416
▁인	-7.6547
▁는데	-7.68067
산	-7.69778
▁SS	-7.7019
▁MAJ	-7.70648
에게	-7.71018
도	-7.72112
▁’	-7.72726
위하	-7.74238
수	-7.74568
정도	-7.75776
)	-7.78224
된다	-7.8338
▁에게	-7.85177
친구	-7.85437
SO	-7.86807
사람	-7.87916
(	-7.88472
년	-7.88813
적	-7.90005
NNB	-7.90485
L	-7.91083
위해	-7.92862
장	-7.93524
함께	-7.93953
▁된다	-7.94326
▁지	-7.9548
▁도	-7.9574
그녀	-7.96011
라는	-7.96147
않	-8.00784
된	-8.01756
▁위해	-8.04349
자신	-8.05462
▁어	-8.10543
JX	-8.1213
만	-8.13101
▁된	-8.14283
▁적	-8.15441
▁N	-8.15779
만나	-8.17417
▁자신	-8.17497
▁수	-8.17992
문	-8.1849
▁..	-8.1877
날	-8.20087
해	-8.20226
알	-8.20479
ETN	-8.21419
사건	-8.21558
하지만	-8.22743
▁!	-8.23701
면서	-8.23932
가족	-8.26106
사랑	-8.27585
았	-8.27788
없	-8.28324
인간	-8.2851
까지	-8.31047
▁만	-8.31807
며	-8.33074
모든	-8.34026
▁없	-8.37159
▁EP	-8.37712
▁해	-8.38602
그리고	-8.42188
살	-8.4566
전	-8.45715
받	-8.46397
세상	-8.47215
▁며	-8.47861
NP	-8.48882
오	-8.49106
주	-8.50057
마을	-8.5154
▁...	-8.53436
그러나	-8.5416
▁SE	-8.56241
▁XPN	-8.56757
▁자	-8.57701
▁받	-8.58263
사	-8.59637
▁알	-8.61082
아버지	-8.61135
▁날	-8.62716
발견	-8.62825
보	-8.62858
상	-8.62925
세계	-8.6473
어느	-8.65347
일	-8.66062
구하	-8.6677
나	-8.67382
남자	-8.6764
대	-8.68136
새로운	-8.71826
IC	-8.72707
속	-8.73627
집	-8.7576
위기	-8.76294
▁어느	-8.7691
▁전	-8.77489
한편	-8.77829
▁세계	-8.78681
못하	-8.79861
말	-8.80565
죽	-8.81122
▁아	-8.81811
중	-8.82126
상태변화	-8.82611
양	-8.82909
할	-8.83329
두	-8.83677
▁일	-8.85067
거대	-8.85449
빠지	-8.86381
모두	-8.86709
찾	-8.87002
음	-8.87644
▁살	-8.87913
▁속	-8.89947
나타나	-8.90295
는다	-8.93211
당하	-8.94033
▁할	-8.94806
다는	-8.94894
도시	-8.9572
위한	-8.96492
떠나	-8.96692
리	-8.97148
▁찾	-8.9926
▁중	-9.00064
라	-9.00112
라고	-9.00377
시키	-9.00454
죽음	-9.01273
가지	-9.01382
여	-9.01992
명	-9.02099
아내	-9.03009
시	-9.03883
▁는다	-9.04313
듣	-9.04964
가장	-9.06164
위협	-9.06517
버리	-9.06777
서로	-9.06867
려는	-9.07144
삶	-9.07303
아이	-9.07741
비밀	-9.08585
지키	-9.0861
공격	-9.08871
후	-9.0957
▁?	-9.10897
학교	-9.11405
만들	-9.11471
지구	-9.11556
JKB	-9.12023
내	-9.12282
▁다는	-9.13085
▁두	-9.13672
상황	-9.15521
요원	-9.15523
치	-9.1586
▁집	-9.16472
간	-9.16853
더	-9.18243
다시	-9.18909
차	-9.19473
이야기	-9.1948
부터	-9.19739
엄마	-9.19872
향하	-9.2035
우연히	-9.20799
결국	-9.21704
마지막	-9.2262
안	-9.22936
▁지구	-9.23627
▁보	-9.23692
새롭	-9.24013
그곳	-9.242
▁후	-9.25044
생활	-9.2582
했	-9.26528
▁비밀	-9.26636
뿐	-9.26845
접속	-9.27326
편	-9.27439
인해	-9.27814
▁명	-9.28401
평화	-9.29273
임무	-9.2928
▁주	-9.29724
▁다시	-9.30464
맞서	-9.30772
위험	-9.31814
스	-9.3223
계획	-9.32265
운명	-9.32273
▁아이	-9.32425
크	-9.32926
살인	-9.33033
순간	-9.3311
작전	-9.33246
없이	-9.3529
원	-9.35595
단	-9.36094
동안	-9.36678
여자	-9.36831
신	-9.37049
로부터	-9.37285
곳	-9.37502
때문	-9.37601
면	-9.3777
보내	-9.37816
돌아가	-9.37996
▁했	-9.3815
모습	-9.3853
점점	-9.38534
▁더	-9.39145
아서	-9.3921
도움	-9.39629
딸	-9.4005
서	-9.40315
앞	-9.4058
전설	-9.40717
NNP	-9.41306
들어가	-9.42404
▁라	-9.42954
로운	-9.42963
관	-9.43284
전쟁	-9.43686
다고	-9.43734
아들	-9.4375
채	-9.43984
다른	-9.44052
숨	-9.44252
누구	-9.44647
▁나	-9.45812
마	-9.45854
▁말	-9.45945
싶	-9.46381
마침내	-9.46389
사라지	-9.4642
나서	-9.47028
길	-9.47633
ᄆ	-9.48145
때	-9.48548
과연	-9.48827
보다	-9.49158
으며	-9.49895
대하	-9.50598
번	-9.50615
보이	-9.50953
처럼	-9.51136
▁대	-9.51147
갈	-9.51586
모르	-9.51994
▁안	-9.52233
비	-9.52386
살아남	-9.52389
으로부터	-9.52674
눈	-9.52908
살아가	-9.53015
목	-9.54313
남	-9.54371
님	-9.5442
롭	-9.54478
겠	-9.54896
행복	-9.54896
느끼	-9.54897
▁위험	-9.55421
하나	-9.55523
▁죽	-9.55613
▁다른	-9.55859
왕국	-9.56182
힘	-9.56364
소	-9.56475
▁아들	-9.56971
같	-9.56978
밤	-9.57088
존재	-9.57169
데	-9.57645
MAG	-9.58544
▁딸	-9.58796
도착	-9.58826
남편	-9.58854
온	-9.59082
세	-9.59129
그러	-9.59201
공주	-9.59452
박	-9.59493
행성	-9.59549
▁면	-9.59941
사실	-9.59955
이후	-9.60893
미국	-9.61345
▁여	-9.61444
악당	-9.61456
사이	-9.61597
죽이	-9.61938
능력	-9.63507
파티	-9.63509
꿈	-9.63562
잃	-9.64173
괴물	-9.64211
이상	-9.64471
타	-9.64666
조직	-9.65024
아야	-9.65092
▁채	-9.65685
팀	-9.65746
▁같	-9.65787
발생	-9.67044
▁힘	-9.67207
정체	-9.67288
▁전쟁	-9.67476
벌이	-9.68095
불	-9.68234
엄청난	-9.68476
아빠	-9.6848
해야	-9.68658
우주	-9.68784
막	-9.6897
손	-9.69119
부모	-9.69187
어머니	-9.69922
▁존재	-9.70231
▁앞	-9.70659
사고	-9.70924
탈출	-9.71094
인류	-9.71165
▁사실	-9.71401
겪	-9.71429
갑자기	-9.71429
야	-9.71802
최고	-9.72018
등	-9.72251
과거	-9.72783
혼란	-9.7294
▁사이	-9.73121
마음	-9.73416
찾아오	-9.73702
소녀	-9.74338
돌아오	-9.74471
제안	-9.74524
부	-9.74548
▁하나	-9.74559
이제	-9.74672
뒤	-9.75155
▁잃	-9.75942
숲	-9.76027
방법	-9.76031
신비	-9.76098
▁이상	-9.76583
려	-9.77062
미션	-9.77609
어둠	-9.77619
인생	-9.78042
대한	-9.78201
▁꿈	-9.78298
▁온	-9.78381
뉴욕	-9.78539
▁1	-9.78562
▁내	-9.78972
동생	-9.79081
제이슨	-9.79216
걸	-9.79531
살해	-9.79941
의문	-9.80146
아니	-9.80287
벌어지	-9.80848
평범	-9.80848
결심	-9.80848
계속	-9.80896
▁오	-9.81035
▁미국	-9.81925
결혼	-9.81999
▁조직	-9.82233
준비	-9.82525
존	-9.83123
▁최고	-9.83605
▁인류	-9.8365
첫	-9.83744
나가	-9.83806
인가	-9.83824
게임	-9.83828
째	-9.8409
새	-9.84172
부정	-9.84197
로봇	-9.84282
제	-9.8433
▁그러	-9.84965
꿈꾸	-9.85055
▁과거	-9.85073
둘	-9.85541
마법	-9.85587
러	-9.85893
충격	-9.85912
벗어나	-9.85912
▁차	-9.8624
경찰	-9.86357
소년	-9.86473
복수	-9.86504
납치	-9.86505
▁소녀	-9.867
처하	-9.86865
▁이제	-9.87022
▁등	-9.87181
▁신	-9.87589
일어나	-9.87659
처음	-9.87661
▁번	-9.88026
어야	-9.88052
▁탈출	-9.88105
▁남	-9.88145
대결	-9.8852
기다리	-9.88661
개	-9.89055
또	-9.89217
스럽	-9.89433
되찾	-9.89434
떠난다	-9.89729
:	-9.90337
▁밤	-9.90394
▁대한	-9.90514
어리	-9.90596
▁능력	-9.90699
범죄	-9.91046
▁뉴욕	-9.91095
▁막	-9.91246
어떤	-9.91252
일행	-9.91262
가진	-9.91291
▁사	-9.91293
▁곳	-9.91421
물	-9.91761
일상	-9.91777
▁뒤	-9.91879
몸	-9.92101
▁2	-9.92451
생	-9.92545
려고	-9.92989
믿	-9.93104
VCN	-9.93172
▁세	-9.93733
싸우	-9.94025
돈	-9.94039
숨기	-9.94263
몬스터	-9.94968
마저	-9.94981
그런데	-9.94996
형사	-9.95065
쓰	-9.95071
감	-9.95131
기억	-9.95154
▁떠나	-9.9533
끝	-9.95794
소식	-9.95892
의해	-9.9615
▁게임	-9.96433
▁려	-9.96678
▁시간	-9.96828
마이클	-9.96881
시절	-9.96888
▁마음	-9.97019
향한다	-9.97062
빠진다	-9.97117
영화	-9.97175
▁존	-9.97289
▁VCN	-9.97766
다가	-9.97988
모험	-9.98072
▁팀	-9.98152
여행	-9.98192
가운데	-9.98394
뱀파이어	-9.98833
습격	-9.98833
찾아가	-9.98838
살인마	-9.98918
▁둘	-9.98954
▁또	-9.99275
전사	-9.99375
▁3	-10.0013
▁살인	-10.0014
떨어지	-10.0082
깨닫	-10.0082
여정	-10.0086
분노	-10.0087
공포	-10.0137
▁사고	-10.0144
▁4	-10.0162
건	-10.0165
▁치	-10.0182
▁맞서	-10.0182
여인	-10.0197
왕	-10.0201
▁복수	-10.0212
▁가진	-10.0228
목숨	-10.0246
성공	-10.0247
현실	-10.0285
잠시	-10.029
실	-10.0385
요정	-10.0389
표현	-10.0389
미래	-10.0464
선	-10.0472
주인	-10.0485
역시	-10.0493
▁서	-10.0519
생존	-10.0573
변하	-10.0604
▁보내	-10.0615
▁타	-10.0675
영혼	-10.0704
현장	-10.0705
가능	-10.0722
달	-10.0739
▁의해	-10.0773
무	-10.078
못한	-10.0787
통하	-10.0832
▁납치	-10.0843
▁’(	-10.0852
▁기억	-10.0876
피	-10.0896
유일	-10.0916
진실	-10.0922
▁스	-10.0941
키	-10.0963
왕자	-10.0966
란	-10.0971
쫓기	-10.0981
▁돈	-10.1006
터	-10.1016
섬	-10.1028
얻	-10.1032
▁소년	-10.1067
였	-10.1072
▁다가	-10.1108
▁단	-10.1115
카	-10.1137
선택	-10.1141
부부	-10.1145
수행	-10.1145
저주	-10.1148
단서	-10.1151
인형	-10.118
▁정체	-10.1211
따르	-10.125
태어나	-10.1254
▁끝	-10.1271
바로	-10.1273
반	-10.1337
명령	-10.1369
미스터리	-10.1369
제거	-10.137
즐기	-10.1375
나선다	-10.138
▁모험	-10.1394
▁목숨	-10.1405
훔치	-10.1482
▁야	-10.149
▁범죄	-10.1554
무엇	-10.1599
악마	-10.1601
세력	-10.1602
대신	-10.1617
범인	-10.1619
▁손	-10.1654
▁개	-10.1671
▁때	-10.1708
어디	-10.1727
▁미래	-10.1742
니	-10.1743
▁성공	-10.1749
강력	-10.1759
▁영화	-10.1785
줄	-10.1829
아름다운	-10.1835
예상	-10.1837
매일	-10.1839
▁믿	-10.1851
심	-10.1853
▁공포	-10.187
소리	-10.1879
잭	-10.1886
위해서	-10.1909
ᄂ	-10.191
▁못한	-10.1954
밝히	-10.1956
잡	-10.1959
어린	-10.1981
될	-10.201
▁데	-10.204
I	-10.2045
스러운	-10.2078
출신	-10.2078
최악	-10.2078
▁였	-10.208
▁여행	-10.2095
든	-10.211
그것	-10.2113
▁시	-10.2139
생각	-10.2143
▁얻	-10.2199
▁길	-10.2213
히	-10.223
▁왕	-10.2243
파괴	-10.2271
동료	-10.2275
낯선	-10.2326
마녀	-10.2327
알렉스	-10.2328
▁유일	-10.2331
마법사	-10.2342
바	-10.2355
맞	-10.2372
하루	-10.2413
드	-10.2414
▁바로	-10.2437
▁우주	-10.2444
피하	-10.2461
▁’.	-10.2481
▁불	-10.2491
▁눈	-10.2523
▁몸	-10.2527
자리	-10.2537
외계	-10.254
통해	-10.2544
상태	-10.2581
진짜	-10.2581
최강	-10.2581
찰리	-10.2582
우주선	-10.2586
생존자	-10.2614
관계	-10.2679
히어로	-10.2681
을까	-10.2702
▁러	-10.2715
도록	-10.2716
▁경찰	-10.2719
거	-10.2724
버린	-10.2783
군	-10.2793
밖	-10.2805
지내	-10.2811
공간	-10.2839
부르	-10.2841
엄청나	-10.2842
부탁	-10.2843
저택	-10.2843
환상	-10.2843
혼자	-10.2845
군단	-10.2846
▁첫	-10.2888
만난다	-10.2913
▁비	-10.2918
▁결혼	-10.292
▁간	-10.2951
공	-10.2959
젊	-10.296
큰	-10.296
나오	-10.297
▁건	-10.2972
시대	-10.2998
▁잭	-10.3049
▁달	-10.3092
▁섬	-10.3104
▁될	-10.3106
고향	-10.3114
전직	-10.3121
▁음	-10.3133
▁어린	-10.3148
거리	-10.3207
쫓	-10.3234
달리	-10.3238
MM	-10.3248
지니	-10.3257
▁생각	-10.33
▁강력	-10.3324
의하	-10.3331
▁잡	-10.3353
나라	-10.3356
갇히	-10.3387
매력	-10.3387
일당	-10.3388
용의자	-10.3389
론	-10.3413
만든	-10.3416
이끄	-10.3416
외계인	-10.3425
조	-10.3425
에게서	-10.3489
열	-10.3512
어서	-10.3517
할머니	-10.3528
생명	-10.3544
도중	-10.3552
형	-10.3559
계	-10.357
초	-10.3628
많	-10.3644
누군가	-10.367
돕	-10.3671
숨겨진	-10.3671
생명체	-10.3672
키우	-10.3672
나누	-10.3672
맨	-10.3673
사투	-10.3673
정체불명	-10.3674
연인	-10.3682
멀	-10.3693
런던	-10.3695
음모	-10.3696
▁통해	-10.3704
과정	-10.372
▁동료	-10.3727
대전	-10.3728
든다	-10.3734
위	-10.3738
배	-10.3748
맥스	-10.3777
학생	-10.3786
총	-10.3812
▁이름	-10.3813
▁파괴	-10.3818
갖	-10.3833
박사	-10.3837
▁히어로	-10.3847
끔찍	-10.385
이끌	-10.3857
▁피	-10.3859
알리	-10.3859
▁을까	-10.3869
지나	-10.3875
입	-10.39
▁버린	-10.3959
펼치	-10.3963
프랭크	-10.3963
앤디	-10.3963
작품	-10.3965
청년	-10.3966
▁맞	-10.3967
최후	-10.3968
조차	-10.397
거나	-10.3975
▁6	-10.4002
테러	-10.4005
무기	-10.4017
▁았	-10.402
정부	-10.403
하늘	-10.405
책	-10.4096
아름답	-10.4112
함	-10.4132
만난	-10.4163
슈퍼	-10.4163
특별	-10.4164
▁마	-10.4191
발	-10.4252
악몽	-10.4263
스스로	-10.4264
무사히	-10.4264
종족	-10.4264
탄생	-10.4265
도망치	-10.4267
사악	-10.4267
범	-10.4269
실수	-10.4275
다가오	-10.4284
비행기	-10.4295
▁쫓	-10.4329
▁관계	-10.4403
보호	-10.4408
넣	-10.4417
신부	-10.4427
▁큰	-10.4431
비행	-10.4479
마약	-10.4488
내리	-10.449
바다	-10.4492
▁많	-10.456
토니	-10.4564
사회	-10.4571
멤버	-10.4573
액션	-10.4573
제임스	-10.4573
할로윈	-10.4573
접근	-10.4573
황제	-10.4573
교수	-10.4574
상처	-10.4574
점차	-10.4575
펼쳐지	-10.4575
군대	-10.4581
남기	-10.4647
추적	-10.4653
노리	-10.4655
간다	-10.4656
▁10	-10.4661
진	-10.467
▁제	-10.469
한다는	-10.4708
유럽	-10.4732
지옥	-10.4732
세우	-10.4734
넘치	-10.4735
놓	-10.4778
고자	-10.4795
빌	-10.4796
풀	-10.482
엔	-10.4823
곧	-10.4825
▁음모	-10.4861
주인공	-10.4891
"	-10.4893
서서히	-10.4893
에드워드	-10.4893
구출	-10.4893
놀라운	-10.4894
노력	-10.4894
구할	-10.4895
고양이	-10.4896
선수	-10.4913
▁줄	-10.4915
▁마법	-10.4927
나타난다	-10.493
▁박사	-10.4947
▁JK	-10.4961
미아	-10.4967
네	-10.4973
정신	-10.4992
전투	-10.4993
쓸	-10.5018
▁끔찍	-10.5018
게다가	-10.5046
자기	-10.5047
장군	-10.5052
호텔	-10.5057
식	-10.5059
▁젊	-10.5062
▁반	-10.5079
앞두	-10.5082
해서	-10.5093
피터	-10.5162
절대	-10.5163
▁아니	-10.5164
화	-10.5169
사냥	-10.5172
본	-10.52
모으	-10.5209
작	-10.5212
K	-10.5223
멸망	-10.5224
어떻게	-10.5224
킬러	-10.5224
무자비	-10.5225
아침	-10.5226
지역	-10.5231
▁만난	-10.5266
B	-10.5291
스타	-10.5297
기계	-10.5302
먹	-10.5308
▁슈퍼	-10.5315
▁특별	-10.533
▁테러	-10.5334
3	-10.5363
다르	-10.5411
포	-10.5444
▁-	-10.5449
▁형	-10.5452
▁니	-10.5458
잠	-10.5507
▁무기	-10.5522
▁든	-10.5523
불명	-10.5524
영웅	-10.5533
더욱	-10.5533
자유	-10.5534
등장	-10.5541
모이	-10.5545
이미	-10.555
▁무	-10.5565
두려움	-10.5566
브루스	-10.5566
호기심	-10.5566
변신	-10.5566
약속	-10.5569
미	-10.5587
▁위	-10.5597
▁걸	-10.5598
수많	-10.5602
집단	-10.5603
에릭	-10.5603
▁갖	-10.5702
▁카	-10.5709
상상	-10.573
일으키	-10.574
깨어나	-10.5741
마주치	-10.5748
열리	-10.5749
로서	-10.5803
▁간다	-10.5847
오르	-10.5851
다음	-10.5881
따라	-10.5887
영국	-10.5903
부대	-10.5904
회사	-10.5906
유령	-10.5906
마주	-10.5912
▁리	-10.5916
클럽	-10.592
공룡	-10.592
연쇄	-10.592
현재	-10.592
요구	-10.592
나루토	-10.592
물론	-10.5922
보안관	-10.5922
시티	-10.5923
마치	-10.5932
▁밖	-10.5934
수사	-10.5935
품	-10.5963
▁엔	-10.5978
그날	-10.5983
▁입	-10.5989
▁곧	-10.5991
▁바다	-10.6021
▁5	-10.6076
수록	-10.6084
담	-10.6091
훈련	-10.6095
빠진	-10.6096
씩	-10.6096
남매	-10.6105
조사	-10.6116
▁함	-10.6166
이번	-10.6171
지하	-10.6196
정	-10.6213
▁정부	-10.6228
▁7	-10.6239
N	-10.624
또한	-10.6248
체	-10.6263
스톤	-10.6277
호	-10.6286
가까스로	-10.6287
대통령	-10.6287
합류	-10.6287
얼굴	-10.6287
드러내	-10.6287
정글	-10.6287
박물관	-10.6287
우정	-10.6288
비롯	-10.6288
고등학교	-10.6288
잭슨	-10.6289
퍼지	-10.6289
동시	-10.6289
갈등	-10.629
참여	-10.6291
생기	-10.6295
완벽	-10.6295
피해	-10.6296
끝내	-10.63
여러	-10.6303
존스	-10.6304
곳곳	-10.6306
과학자	-10.6306
▁작	-10.6309
보낸다	-10.631
아직	-10.6312
용기	-10.6321
▁추적	-10.6325
▁피터	-10.6345
재	-10.6395
라도	-10.6397
듯	-10.6474
시달리	-10.6482
빠져	-10.6487
작가	-10.6489
동물	-10.6494
대학	-10.6494
희망	-10.6495
력	-10.6505
해리	-10.6508
▁빌	-10.6517
▁해서	-10.6548
인물	-10.6563
▁놓	-10.6586
인지	-10.6593
차지	-10.6651
▁먹	-10.6652
▁조	-10.6657
월	-10.6658
바꾸	-10.6662
라이언	-10.6667
드디어	-10.6668
테러리스트	-10.6668
요청	-10.6668
악령	-10.6668
록키	-10.6669
짓	-10.6681
마크	-10.6681
사막	-10.6685
▁더욱	-10.6691
호수	-10.6709
인방	-10.6711
무장	-10.6712
▁자리	-10.6716
찾아내	-10.6723
▁마약	-10.6755
전문가	-10.6755
이런	-10.6802
모를	-10.6823
▁나가	-10.6833
▁이미	-10.6866
꾼	-10.6891
▁영웅	-10.6898
연구	-10.69
땅	-10.6906
크리스마스	-10.6907
전문	-10.692
짝	-10.6924
▁숨	-10.693
그리	-10.694
할아버지	-10.6968
▁책	-10.6974
학	-10.7011
세기	-10.7014
레드	-10.7064
마이크	-10.7064
됐	-10.7064
케빈	-10.7064
노래	-10.7064
국제	-10.7064
맡	-10.7064
불구	-10.7067
환자	-10.7068
어릴	-10.7068
제이미	-10.7068
애	-10.7069
칼	-10.707
대회	-10.7071
▁크	-10.7077
국가	-10.7077
부상	-10.7081
기운	-10.7084
▁정신	-10.7087
최	-10.7089
찾아온다	-10.7099
전부	-10.7107
위장	-10.7107
▁등장	-10.7108
돌아온	-10.7111
팔	-10.7111
떠난	-10.7116
목격	-10.7117
경험	-10.7119
좋	-10.712
초대	-10.712
쏘	-10.7121
강한	-10.7123
▁본	-10.7125
▁주인	-10.7127
사상	-10.7131
이루	-10.7133
▁빠진	-10.7201
금	-10.7228
이브	-10.7239
이나	-10.7255
폭탄	-10.7268
▁씩	-10.7268
지능	-10.7277
부자	-10.7319
걸리	-10.7327
해결	-10.7337
구해	-10.7338
잔인	-10.7339
그런	-10.7342
▁하루	-10.7345
이용	-10.7356
▁호	-10.7365
▁절대	-10.7396
이사	-10.7411
▁스타	-10.7429
잇	-10.7464
▁전투	-10.7467
▁마주	-10.7468
평생	-10.7473
▁UN	-10.7476
배트맨	-10.7476
프레디	-10.7476
베이비	-10.7477
절친	-10.7477
자동차	-10.7477
순식간	-10.7477
파커	-10.7477
토미	-10.7477
용병	-10.7477
제이크	-10.7479
해당	-10.7479
악명	-10.7483
군인	-10.7519
▁보호	-10.7544
전하	-10.7551
파	-10.7555
형제	-10.7556
고민	-10.7557
병원	-10.7559
▁노리	-10.7566
병	-10.7574
족	-10.7577
▁듯	-10.7587
지목	-10.7609
▁새	-10.7622
▁드	-10.7625
까	-10.7626
P	-10.7649
▁화	-10.7674
▁완벽	-10.7675
▁가득	-10.7684
바뀌	-10.7685
충돌	-10.7689
직	-10.7693
▁유령	-10.7701
데리	-10.7711
▁상상	-10.7716
▁사냥	-10.7745
검	-10.7748
배우	-10.7768
싸움	-10.7773
미지	-10.7776
▁포	-10.7779
옛	-10.7782
상대	-10.78
▁달리	-10.7821
여기	-10.783
▁네	-10.7832
▁영국	-10.7853
쪽	-10.7858
▁희망	-10.7883
놓이	-10.789
브라이언	-10.79
▁생존	-10.7903
▁키	-10.7904
명예	-10.7905
급기야	-10.7907
녀석	-10.7907
프로젝트	-10.7907
살아간다	-10.7907
스티브	-10.7907
교도소	-10.7907
파워	-10.7907
거절	-10.7907
머리	-10.7908
선물	-10.791
은퇴	-10.7912
각자	-10.7918
이곳	-10.7925
시킨다	-10.7927
없애	-10.793
급	-10.7932
O	-10.7936
대원	-10.7938
지도	-10.7945
못	-10.7947
W	-10.7955
▁빠져	-10.7956
몰	-10.7968
무리	-10.798
당한	-10.8001
깊	-10.8003
난	-10.8004
최대	-10.8008
기회	-10.8026
가문	-10.8053
우	-10.8053
▁훈련	-10.8075
여성	-10.8123
휴가	-10.8165
▁자유	-10.8171
방	-10.818
왔	-10.8192
▁떠난	-10.8223
▁꾼	-10.8235
추격	-10.8249
닉	-10.8253
▁돌아온	-10.8273
마다	-10.8276
▁좋	-10.8292
트	-10.8298
▁거	-10.8299
▁크리스마스	-10.8304
사진	-10.8328
몰래	-10.8351
▁특수	-10.8354
첨단	-10.8355
곁	-10.8356
수수께끼	-10.8356
낯설	-10.8356
폐허	-10.8356
강아지	-10.8356
꼬마	-10.8356
필요	-10.8356
직접	-10.8356
외모	-10.8356
스미스	-10.8357
ᄇ니	-10.8357
심바	-10.8357
목소리	-10.8357
오른다	-10.8358
손오공	-10.8358
앨리스	-10.8358
사용	-10.836
화려	-10.8362
못했	-10.8365
달러	-10.8365
ᄂ다	-10.8443
깨	-10.8445
▁맡	-10.8468
같이	-10.8472
쇼	-10.8483
대로	-10.8494
▁이용	-10.8495
오랜	-10.8498
보안	-10.8499
감옥	-10.85
▁구해	-10.8503
▁그런	-10.851
다니	-10.8511
의식	-10.854
임	-10.8542
맞이	-10.8561
▁해리	-10.8564
구역	-10.8586
“	-10.8589
”	-10.8589
움직이	-10.8589
드러나	-10.8589
NO	-10.8595
열차	-10.8598
▁풀	-10.8657
▁배	-10.8666
톰	-10.8712
지상	-10.8714
▁소리	-10.8721
▁초대	-10.8725
걷	-10.8737
샘	-10.8744
현상	-10.8746
사라진	-10.8746
▁잔인	-10.8747
개발	-10.8747
실험	-10.8748
정보	-10.8749
▁경험	-10.8758
저	-10.8814
사태	-10.8822
우여곡절	-10.8827
무렵	-10.8827
바이러스	-10.8827
신데렐라	-10.8827
헨리	-10.8827
패밀리	-10.8827
고군분투	-10.8827
운영	-10.8827
토마스	-10.8827
침공	-10.8827
흑인	-10.8828
대령	-10.8829
투입	-10.8829
장악	-10.8831
오직	-10.8835
온갖	-10.8836
결성	-10.8837
피할	-10.8852
즈	-10.8905
JKC	-10.8918
술	-10.8925
포기	-10.8927
라며	-10.8933
고통	-10.8934
▁이사	-10.8954
동	-10.8968
마리	-10.8998
이집트	-10.9002
통제	-10.9004
▁피해	-10.9008
리더	-10.9013
지금	-10.9015
이르	-10.9016
A	-10.9029
고등	-10.9149
▁따라	-10.9173
▁당한	-10.9174
르	-10.9183
▁해결	-10.9211
▁병원	-10.922
삼	-10.9241
칸	-10.9254
뜻	-10.9264
암살	-10.9264
전화	-10.9264
폴	-10.9266
부활	-10.9269
시체	-10.927
로버트	-10.9272
기술	-10.9274
지배	-10.9279
▁최대	-10.9282
0	-10.9288
가정	-10.9293
대해	-10.9294
나간다	-10.9296
회	-10.9304
갔	-10.9309
빠르	-10.9318
변화	-10.932
뜨거운	-10.9321
아파트	-10.9321
캡틴	-10.9321
놀랍	-10.9321
활동	-10.9321
휘말리	-10.9321
커플	-10.9321
정예	-10.9321
닥터	-10.9321
재능	-10.9321
감독	-10.9321
부족	-10.9323
잠입	-10.9324
시민	-10.9324
예수	-10.9328
거부	-10.9328
본부	-10.9328
일삼	-10.9336
주위	-10.9339
무대	-10.9348
재산	-10.9365
▁진	-10.937
쥐	-10.9392
▁검	-10.9393
▁맨	-10.9397
▁무리	-10.9401
대상	-10.9406
만남	-10.9422
▁왔	-10.9425
▁닉	-10.943
알아내	-10.9435
▁여성	-10.9437
의심	-10.9445
▁목격	-10.9456
▁부	-10.9494
높	-10.9515
빛	-10.9519
V	-10.9526
과학	-10.9531
빌리	-10.9533
실종	-10.9534
윌	-10.9537
행동	-10.9539
러시아	-10.9539
▁못	-10.955
외	-10.9569
받아들이	-10.9577
차별	-10.9578
티	-10.9606
▁생	-10.9625
▁깊	-10.9656
반지	-10.9696
고대	-10.9708
▁기회	-10.9713
▁사상	-10.9723
대가	-10.9725
▁형제	-10.9725
▁땅	-10.9756
돌아갈	-10.9759
사자	-10.9759
▁쏘	-10.9765
살아나	-10.9784
먼	-10.9785
법	-10.9791
관리	-10.9815
문제	-10.9816
파트너	-10.9816
▁이곳	-10.9821
난다	-10.9831
아프리카	-10.9833
쉽	-10.9835
도둑	-10.984
멋진	-10.984
쌍둥이	-10.984
여전히	-10.984
잔혹	-10.984
텍사스	-10.984
슈렉	-10.984
예측	-10.984
욕망	-10.984
빈센트	-10.984
평소	-10.984
무시무시	-10.984
파헤치	-10.9841
리플리	-10.9841
머물	-10.9841
파견	-10.9841
영원히	-10.9842
재회	-10.9842
물리치	-10.9843
앞둔	-10.9843
조금	-10.9843
루크	-10.9844
위험천만	-10.9845
사이먼	-10.9846
성격	-10.9847
키스	-10.9847
전혀	-10.9847
유지	-10.9848
중요	-10.9849
찾아간다	-10.9852
와중	-10.9854
죄수	-10.9855
▁사라진	-10.9855
소속	-10.9855
대형	-10.9856
방해	-10.9864
강하	-10.9908
▁샘	-10.9926
증	-10.9926
▁톰	-10.9927
기대	-10.9932
▁감옥	-10.9941
야수	-10.9946
12	-10.9952
▁바	-10.9965
▁맞이	-10.997
▁상대	-10.9988
분위기	-11.0021
레이	-11.0034
인데	-11.0047
▁쓰	-11.0052
해진	-11.0098
치료	-11.01
폭발	-11.0101
대니	-11.0104
선생	-11.0105
불리	-11.0105
홀로	-11.0105
흐르	-11.0111
감추	-11.0111
꾸미	-11.0111
데려가	-11.0111
이유	-11.0115
아무	-11.0134
버린다	-11.0166
힘들	-11.0183
▁지금	-11.0187
성장	-11.0221
▁임	-11.0244
▁마다	-11.0245
▁대로	-11.0259
아기	-11.0271
▁재	-11.0276
▁초	-11.0324
▁대학	-11.0334
▁동물	-11.0345
▁칸	-11.0375
뜨	-11.0376
볼	-11.0388
합니다	-11.0388
맺	-11.0388
애니메이션	-11.0388
앨빈	-11.0388
오히려	-11.0388
유혹	-11.0388
폭파	-11.0388
프로그램	-11.0388
뛰어난	-11.0388
규모	-11.0388
스콧	-11.0388
잃어버린	-11.0388
동굴	-11.0388
헌트	-11.0388
괴롭히	-11.0388
시킬	-11.0388
따뜻	-11.0389
혼돈	-11.0389
완전히	-11.0389
본능	-11.0389
반격	-11.0389
실체	-11.0389
승리	-11.0389
빅터	-11.039
방식	-11.0391
후계자	-11.0391
열정	-11.0391
누나	-11.0393
데이브	-11.0395
▁20	-11.0396
돌보	-11.0396
아래	-11.0397
너무나	-11.04
▁회사	-11.0402
▁수사	-11.0402
군사	-11.0403
용의	-11.0412
전체	-11.0413
선장	-11.0416
위대	-11.0417
느낀다	-11.0417
▁폴	-11.0424
▁난	-11.0424
▁높	-11.0426
기괴	-11.0433
감지	-11.0435
▁로버트	-11.0447
도전	-11.0449
▁통제	-11.046
▁열	-11.0483
마리아	-11.0508
한때	-11.0512
제인	-11.0528
유명	-11.0534
▁싸움	-11.0536
가난	-11.054
▁롭	-11.0553
놈	-11.0582
상어	-11.0607
씨	-11.0649
올	-11.0658
아메리카	-11.0668
벤	-11.0672
뜨겁	-11.0674
도사리	-11.0678
폭력	-11.0679
▁거리	-11.0685
자살	-11.0688
진정	-11.0691
멕시코	-11.0694
몰리	-11.0696
시골	-11.0697
관심	-11.0697
몇	-11.0697
실패	-11.0699
자연	-11.0699
변해	-11.07
위치	-11.07
▁아닌	-11.0701
은행	-11.0704
▁윌	-11.0705
부인	-11.0711
▁칼	-11.0734
사기	-11.0741
▁리더	-11.0751
▁먼	-11.082
▁잠	-11.0842
데이	-11.0842
베	-11.0854
점	-11.0888
짐	-11.0945
잘	-11.0948
▁원	-11.0952
악	-11.0953
탐정	-11.0958
모	-11.0967
ᅥ	-11.0967
원숭이	-11.0968
불시착	-11.0968
도미닉	-11.0968
섹스	-11.0968
슬픔	-11.0968
알라딘	-11.0968
아이언맨	-11.0968
뮬란	-11.0968
재앙	-11.0968
당신	-11.0968
사라졌	-11.0968
저항군	-11.0968
루이스	-11.0968
스파이더맨	-11.0969
우디	-11.0969
들어오	-11.0969
대항	-11.097
진화	-11.0972
조건	-11.0972
그림자	-11.0975
단체	-11.0976
카터	-11.0976
왕위	-11.0976
담시	-11.0977
니스	-11.0979
벌인다	-11.098
▁외계	-11.0983
바람	-11.0992
여동생	-11.0996
구	-11.1003
희생	-11.1004
직장	-11.1004
나타난	-11.1008
▁러시아	-11.1008
▁행동	-11.1009
보스	-11.1009
늘	-11.1009
천재	-11.1011
역사	-11.1011
▁개발	-11.1014
두목	-11.1022
▁시체	-11.1025
▁부활	-11.1029
▁대해	-11.1035
▁오랜	-11.1053
관한	-11.1063
원인	-11.1073
잠들	-11.109
국	-11.1094
▁레이	-11.1095
인기	-11.1097
▁고대	-11.1103
기사	-11.1111
▁미	-11.1172
권	-11.1172
코	-11.1188
준	-11.1193
▁이유	-11.1207
판	-11.1208
▁해진	-11.1215
▁전화	-11.124
▁쇼	-11.1241
▁여름	-11.1269
교도	-11.127
멈추	-11.1271
낳	-11.1271
무너지	-11.1271
▁LA	-11.1271
주어지	-11.1271
동원	-11.1272
▁이집트	-11.1282
▁홀로	-11.1283
▁파트너	-11.1297
하딘	-11.1298
호기	-11.1299
매기	-11.1311
편지	-11.1319
프리	-11.1323
으로서	-11.1328
침입	-11.1329
노예	-11.1332
스파이	-11.1332
향해	-11.1333
▁즈	-11.1336
▁버린다	-11.134
▁총	-11.136
별	-11.1367
런	-11.1378
▁계	-11.1403
데스	-11.141
▁아기	-11.1416
▁J	-11.1459
버스	-11.1471
▁월	-11.1472
▁실종	-11.1541
▁대니	-11.1558
갇혀	-11.1584
규칙	-11.1584
낡	-11.1584
반드시	-11.1584
숀	-11.1584
습니다	-11.1584
아나스타샤	-11.1584
어드벤처	-11.1584
어벤져스	-11.1584
워싱턴	-11.1584
쿵푸	-11.1584
팅커벨	-11.1584
파일럿	-11.1584
탈취	-11.1584
무언가	-11.1584
찾아와	-11.1585
장난감	-11.1585
▁파	-11.1586
예전	-11.1588
포함	-11.1588
결과	-11.1589
슈퍼맨	-11.159
직원	-11.159
단짝	-11.1591
세운다	-11.1594
치열	-11.1595
테사	-11.1597
심장	-11.1598
▁벤	-11.1601
예기	-11.1602
일까	-11.1606
그렇게	-11.1611
이혼	-11.1618
차원	-11.1619
견	-11.1642
▁직	-11.1643
사업	-11.1654
좀	-11.1658
잊	-11.1664
생일	-11.1669
여왕	-11.167
부하	-11.1689
귀	-11.1693
거인	-11.1693
자라	-11.1695
당한다	-11.1697
▁다니	-11.1721
▁문제	-11.1793
▁아무	-11.1811
다며	-11.182
천	-11.1822
투	-11.1864
▁위치	-11.1872
▁법	-11.1873
극	-11.1875
▁변해	-11.1875
▁몇	-11.1877
▁데이	-11.1879
소련	-11.1906
▁폭발	-11.1911
지켜보	-11.1916
▁품	-11.1919
문명	-11.1924
다루	-11.1932
살리	-11.1935
▁발	-11.1942
돌	-11.1953
비아	-11.1967
그때	-11.1989
반하	-11.2004
일본	-11.2008
소원	-11.201
감정	-11.201
크리스	-11.2011
치명	-11.2019
목적	-11.2025
이때	-11.2029
사장	-11.2067
으려는	-11.2079
▁방	-11.2089
▁터	-11.209
▁D	-11.2109
▁나타난	-11.2121
▁부인	-11.2136
매	-11.2164
레이스	-11.2169
▁인기	-11.2182
▁보스	-11.2197
▁실패	-11.221
▁부대	-11.2216
떨어져	-11.2239
근처	-11.224
무섭	-11.224
컴퓨터	-11.224
허락	-11.224
엘리자베스	-11.224
깨어난	-11.224
마이어스	-11.224
노출	-11.224
무서운	-11.224
벤자민	-11.224
비디오	-11.224
저승	-11.224
주민	-11.224
웬디	-11.224
무덤	-11.224
삼촌	-11.224
크루즈	-11.224
유물	-11.2241
시드니	-11.2241
현상금	-11.2241
외롭	-11.2241
잘못	-11.2242
어쩔	-11.2242
그렉	-11.2244
누명	-11.2244
지하실	-11.2245
직감	-11.2245
초능력	-11.2248
막히	-11.2249
임신	-11.225
화신	-11.2254
병사	-11.2255
고립	-11.2259
전쟁터	-11.226
케이지	-11.2264
돼지	-11.2267
▁지배	-11.2268
팀원	-11.2271
▁성장	-11.2271
처한다	-11.2305
▁깨	-11.2324
낸	-11.2335
참	-11.234
도심	-11.2343
질	-11.2347
용	-11.235
밝혀	-11.2366
얼마	-11.2367
방문	-11.2367
▁8	-11.2368
자원	-11.2386
▁프리	-11.2403
▁준	-11.2442
의사	-11.2449
려던	-11.2469
▁멕시코	-11.2481
▁마리	-11.2484
▁향해	-11.2504
▁스파이	-11.2504
▁잘	-11.2519
주장	-11.2522
▁시골	-11.2526
장난	-11.2526
▁천재	-11.2528
▁역사	-11.2532
▁짐	-11.2532
▁은행	-11.2552
▁티	-11.2568
환영	-11.2573
is	-11.2587
헤어지	-11.2591
장면	-11.2603
▁기술	-11.2613
휩싸이	-11.2617
벌	-11.2625
▁삼	-11.2652
▁실험	-11.2695
사망	-11.2701
쉬	-11.2708
▁폭력	-11.2724
우리	-11.2729
거래	-11.2733
활약	-11.2734
향한	-11.2735
▁진정	-11.2736
그린	-11.2736
반대	-11.2737
불안	-11.274
통	-11.2741
▁천	-11.2752
독	-11.2757
▁최	-11.2779
▁연구	-11.2783
정의	-11.2802
▁상	-11.2818
▁트	-11.2826
끝나	-11.2832
▁지도	-11.2856
▁당한다	-11.2875
척	-11.2899
7	-11.2902
갈수록	-11.2909
▁볼	-11.291
친	-11.2917
으나	-11.2925
소동	-11.2934
학살	-11.2936
특급	-11.2939
ys	-11.2941
가까운	-11.2941
스피릿	-11.2941
캐릭터	-11.2941
펭귄	-11.2941
걱정	-11.2942
회복	-11.2942
점령	-11.2942
헤매	-11.2942
거칠	-11.2942
케이트	-11.2942
항상	-11.2942
▁MI	-11.2942
주식회사	-11.2942
감행	-11.2942
배경	-11.2942
크리스탈	-11.2942
오랫동안	-11.2942
환생	-11.2942
저지르	-11.2942
크리드	-11.2943
열쇠	-11.2943
천국	-11.2943
필사	-11.2943
파이터	-11.2943
지킬	-11.2944
넘어가	-11.2944
재난	-11.2944
수용소	-11.2945
초월	-11.2945
사촌	-11.2945
제국	-11.2945
국장	-11.2946
막강	-11.2946
잡히	-11.2946
함정	-11.2946
종말	-11.2947
물건	-11.2947
하루하루	-11.2948
엘라	-11.2949
조니	-11.2949
순수	-11.295
스타크	-11.2958
대화	-11.296
배후	-11.296
하우스	-11.2961
추격전	-11.2961
불길	-11.2966
자매	-11.2966
빼앗기	-11.2967
눈앞	-11.2968
옛날	-11.297
중심	-11.298
▁지하	-11.2983
▁나오	-11.2994
▁족	-11.3008
만드	-11.3014
▁정보	-11.3025
일원	-11.3045
▁애	-11.3066
캐	-11.307
꽃	-11.3089
핵	-11.3094
거기	-11.3096
십	-11.3098
오래	-11.3107
묻	-11.3115
폭풍	-11.3117
참석	-11.3118
불러	-11.3119
시켜	-11.3121
블랙	-11.3121
처한	-11.3131
색	-11.3132
시도	-11.3163
탄	-11.3169
▁크리스	-11.3189
▁투	-11.32
▁귀	-11.32
▁노예	-11.3215
▁여왕	-11.3216
▁늘	-11.3225
▁학생	-11.3237
9	-11.3257
▁생명	-11.3268
▁도전	-11.3274
기이	-11.3281
▁유명	-11.3293
▁치료	-11.3295
교사	-11.3301
rea	-11.3312
근무	-11.3312
읽	-11.3312
달아나	-11.3312
떠오르	-11.3312
닥치	-11.3312
박물	-11.3314
어울리	-11.3334
끌려가	-11.3342
버	-11.3351
층	-11.3356
테	-11.3361
이끌리	-11.3361
▁30	-11.3396
▁런	-11.3414
청	-11.3417
지속	-11.3454
▁옛	-11.3478
▁일본	-11.3491
▁소원	-11.3491
파리	-11.3495
준다	-11.3501
음악	-11.351
벨	-11.3511
요	-11.3511
조종	-11.3512
프랑스	-11.3512
배신	-11.3517
찾아온	-11.3518
▁낸	-11.3519
졸업	-11.3519
너무	-11.3521
람보	-11.3521
▁악	-11.3528
▁얼마	-11.3533
알려	-11.3534
복판	-11.3535
참가	-11.3539
▁밝혀	-11.354
이기	-11.3547
▁감정	-11.355
필드	-11.3571
▁9	-11.3572
▁M	-11.3591
▁버스	-11.3603
랜드	-11.3606
▁관심	-11.3609
▁이루	-11.3611
로리	-11.3612
속도	-11.3658
슨	-11.3663
밴드	-11.3694
트롤	-11.3696
nal	-11.3696
뭐	-11.3696
어두운	-11.3696
강렬	-11.3696
베테랑	-11.3696
엉뚱	-11.3696
포켓몬	-11.3696
피노키오	-11.3696
호그와트	-11.3696
홍콩	-11.3696
하워드	-11.3696
맥클레인	-11.3697
짜릿	-11.3697
돌아왔	-11.3697
둘러싼	-11.3697
돌연변이	-11.3697
식당	-11.3697
히브리	-11.3697
상징	-11.3697
마커스	-11.3697
제니퍼	-11.3697
디에고	-11.3697
헌터	-11.3697
당시	-11.3697
킹콩	-11.3697
토끼	-11.3697
시스템	-11.3697
크리스틴	-11.3697
선언	-11.3697
스토리	-11.3697
승무원	-11.3697
케이디	-11.3697
평온	-11.3697
라디오	-11.3697
얘기	-11.3697
험난	-11.3697
타일러	-11.3697
유인원	-11.3697
언니	-11.3697
라이벌	-11.3697
매니저	-11.3697
공식	-11.3697
물체	-11.3697
요새	-11.3698
대립	-11.3698
타고난	-11.3698
봉인	-11.3698
일곱	-11.3698
독일군	-11.3698
버즈	-11.3698
부유	-11.3698
표적	-11.3698
서커스단	-11.3699
역대	-11.3699
먼저	-11.3699
시리즈	-11.3699
변호사	-11.3699
며칠	-11.37
테드	-11.37
최초	-11.37
코치	-11.37
케이시	-11.3701
존슨	-11.3701
스런	-11.3703
배달	-11.3704
집착	-11.3705
멀리	-11.3706
직면	-11.3708
이어지	-11.3708
바치	-11.3709
낸시	-11.3709
살인범	-11.371
착한	-11.371
제대로	-11.371
건물	-11.3712
▁불리	-11.3713
실제로	-11.3718
대위	-11.372
왕비	-11.3721
그리스도	-11.3724
이끌려	-11.3744
믿음	-11.3745
ᆯ지	-11.3755
지도자	-11.3757
지우	-11.3758
▁가정	-11.3797
들리	-11.3803
노	-11.3808
극한	-11.3817
이러	-11.3824
메	-11.3845
▁향한	-11.3851
▁배우	-11.3865
오해	-11.3868
가방	-11.3889
▁내리	-11.391
기자	-11.391
강도	-11.3912
▁척	-11.3916
구조	-11.3932
주변	-11.3933
▁장	-11.3933
결혼식	-11.3936
떼	-11.3937
캣	-11.3937
캠프	-11.3937
경고	-11.3939
▁저	-11.3958
이웃	-11.3963
▁19	-11.3966
▁치명	-11.3967
▁좀	-11.3974
▁물	-11.3984
나이	-11.4009
S	-11.4011
온다	-11.4012
ᄅ	-11.4028
천만	-11.4062
디	-11.4072
대륙	-11.4091
출전	-11.4096
곡절	-11.4096
줏	-11.4096
데려오	-11.4097
회장	-11.4114
분투	-11.4121
친하	-11.4177
▁뜻	-11.418
강	-11.4194
민	-11.4219
▁처한	-11.4236
▁그린	-11.4257
괴	-11.426
▁시켜	-11.4295
커	-11.4306
▁시도	-11.4321
지대	-11.4325
도주	-11.4332
▁정의	-11.4343
더그	-11.4345
긴	-11.4349
수호	-11.4357
푸	-11.436
증거	-11.4366
진행	-11.4367
외딴	-11.4368
연락	-11.437
쓴	-11.437
챔피언	-11.437
목표	-11.4371
드래곤	-11.4371
감시	-11.4376
금지	-11.4387
▁준다	-11.4392
어도	-11.4396
수상	-11.4439
▁자연	-11.446
00	-11.4465
원하	-11.4471
쌍	-11.4509
쇠	-11.4511
순식	-11.4512
즐거운	-11.4513
커다란	-11.4513
간신히	-11.4513
계략	-11.4513
붕괴	-11.4513
샌프란시스코	-11.4513
스페인	-11.4513
웡	-11.4513
제이콥	-11.4513
초콜릿	-11.4513
파멸	-11.4513
프레데터	-11.4513
국경	-11.4513
공항	-11.4513
뒤흔들	-11.4513
즐겁	-11.4513
감춘	-11.4513
블루	-11.4513
숨겨져	-11.4513
육체	-11.4513
레이싱	-11.4513
처키	-11.4514
발휘	-11.4514
마피아	-11.4514
멋지	-11.4514
미녀	-11.4514
고등학생	-11.4514
압도	-11.4514
발각	-11.4514
실비아	-11.4514
초유	-11.4515
콤비	-11.4515
공존	-11.4515
꿈꾼다	-11.4515
아수라장	-11.4515
베니스	-11.4515
미모	-11.4515
돌입	-11.4515
얼음	-11.4516
덤보	-11.4516
데이트	-11.4516
베일리	-11.4516
외로운	-11.4517
물려받	-11.4518
육지	-11.4518
영상	-11.4518
옆집	-11.4518
입학	-11.4519
겁나	-11.4519
불법	-11.4519
나갈	-11.452
전역	-11.452
포드	-11.4521
자동	-11.4521
시저	-11.4522
짝사랑	-11.4523
조종사	-11.4524
리온	-11.4524
제리	-11.4526
신호	-11.4526
바비	-11.4527
하얀	-11.4527
동물원	-11.4527
▁오래	-11.453
칼라	-11.4532
놓치	-11.4534
여학생	-11.4535
힘든	-11.4536
네오	-11.4556
장치	-11.4561
자체	-11.4565
암살자	-11.4566
사내	-11.4581
놀라	-11.4582
주목	-11.4585
해진다	-11.4607
터지	-11.4617
▁추격	-11.462
▁찾아온	-11.4636
도니	-11.4645
괴한	-11.4646
그저	-11.4649
▁불러	-11.4658
▁참석	-11.4672
▁파리	-11.468
▁너무	-11.469
자크	-11.4702
범죄자	-11.4707
▁사망	-11.4707
▁람보	-11.4707
▁알려	-11.4713
▁블랙	-11.4731
▁목적	-11.4733
▁권	-11.474
웃	-11.4747
▁우리	-11.4758
▁여기	-11.4759
따	-11.4763
빈	-11.478
결	-11.4783
▁로리	-11.4789
기적	-11.4789
딴	-11.479
암	-11.4794
▁탄	-11.4798
운전	-11.4798
일생	-11.4799
▁생일	-11.481
▁침입	-11.481
연합	-11.481
e	-11.4817
황금	-11.4819
권력	-11.482
경쟁	-11.4821
떨어진	-11.4821
암호	-11.4821
태어난	-11.4822
생물	-11.4822
훔쳐	-11.4824
벨라	-11.4824
추락	-11.4824
축제	-11.4824
음식	-11.4828
모인	-11.4832
인질	-11.4833
▁나이	-11.4866
▁의뢰	-11.488
▁코	-11.4887
미국인	-11.4887
▁농장	-11.4928
못한다	-11.4937
둘러싸	-11.4941
▁베	-11.4946
흔들리	-11.495
애쓰	-11.4952
사귀	-11.4956
커지	-11.4981
▁군	-11.4982
▁암살	-11.4983
너	-11.5014
연	-11.5019
밖에	-11.5027
▁술	-11.5029
다짐	-11.5033
루	-11.5042
▁결혼식	-11.5087
▁캣	-11.5124
▁캠프	-11.5124
종	-11.5133
▁별	-11.5157
▁방문	-11.5182
▁버	-11.5214
끌	-11.5241
▁온다	-11.5244
y	-11.5256
떠돌	-11.5272
물리	-11.5274
▁잊	-11.5284
아도	-11.5284
소설	-11.5286
나무	-11.5289
털	-11.529
미치	-11.5292
거미	-11.5294
제작	-11.5297
야생	-11.5301
처참	-11.5301
내용	-11.5301
모세	-11.5301
펼쳐진다	-11.5306
다리	-11.5307
이모	-11.5348
▁관리	-11.5363
▁의사	-11.5394
▁소	-11.54
컵	-11.5402
하룻밤	-11.5402
뉴요커	-11.5402
디즈니	-11.5402
레이첼	-11.5402
매트릭스	-11.5402
메시지	-11.5402
발칵	-11.5402
복싱	-11.5402
아프가니스탄	-11.5402
에이전트	-11.5402
응징	-11.5402
이윽고	-11.5402
저녁	-11.5402
지금껏	-11.5402
캐서린	-11.5402
싣	-11.5402
절체절명	-11.5402
교회	-11.5403
은신처	-11.5403
겨우	-11.5403
리암	-11.5403
덩치	-11.5403
람세스	-11.5403
미셸	-11.5403
자존심	-11.5403
할리우드	-11.5403
탐욕	-11.5403
포르노	-11.5403
테일러	-11.5403
운석	-11.5403
캐스퍼	-11.5403
울프	-11.5403
동행	-11.5403
유능	-11.5403
행각	-11.5403
침투	-11.5403
교통사고	-11.5403
출발	-11.5403
제우스	-11.5403
소탕	-11.5403
연결	-11.5403
모델	-11.5403
핵폭탄	-11.5403
피에르	-11.5403
새끼	-11.5404
처리	-11.5404
피오나	-11.5404
좋아하	-11.5404
간호사	-11.5404
엘리트	-11.5404
면접	-11.5404
래리	-11.5404
파라오	-11.5404
걷잡	-11.5404
거듭나	-11.5405
▁병	-11.5405
감금	-11.5405
토드	-11.5405
거친	-11.5405
아담스	-11.5405
알려진	-11.5406
방학	-11.5406
니슨	-11.5406
모피	-11.5406
비극	-11.5408
이렇게	-11.5409
판단	-11.5409
정치	-11.541
카드	-11.5412
개월	-11.5412
호러	-11.5415
▁15	-11.5417
마야	-11.5425
반면	-11.5428
올해	-11.5428
첫눈	-11.543
에리카	-11.5434
직전	-11.5436
통과	-11.5436
대학생	-11.5439
내부	-11.5441
고교	-11.5445
각기	-11.5446
노인	-11.5447
하나님	-11.5448
인연	-11.5455
들어간다	-11.5461
고백	-11.5463
한창	-11.5465
해도	-11.5481
애인	-11.5501
▁주변	-11.5504
그레이스	-11.5515
칸다	-11.5527
▁테	-11.5543
날리	-11.5551
▁경고	-11.5556
▁현상	-11.5557
▁드래곤	-11.5558
▁떼	-11.5587
▁지나	-11.5614
▁거래	-11.5641
▁불안	-11.5671
레	-11.5676
m	-11.5678
▁100	-11.5702
▁담	-11.5708
얼	-11.5729
다면	-11.5734
리그	-11.5735
이것	-11.5755
옷	-11.5757
끊	-11.5771
수용	-11.5772
서커스	-11.5773
축구	-11.5778
옆	-11.5778
유전	-11.5779
▁이끌	-11.5784
신경	-11.5785
탐사	-11.5786
찍	-11.5789
토르	-11.5792
라면	-11.5794
신세	-11.5796
결정	-11.5796
담당	-11.5796
지켜	-11.5799
연애	-11.5799
루시	-11.5801
모자	-11.5805
지난	-11.5811
▁몰리	-11.5821
고용	-11.5824
에디	-11.5824
o	-11.5846
도와	-11.585
어인	-11.5872
친절	-11.5874
빨리	-11.5877
환경	-11.5878
쓰러지	-11.5879
뛰어들	-11.5879
갖추	-11.588
현대	-11.588
우여	-11.5881
치밀	-11.5882
꼬이	-11.5883
두뇌	-11.5883
누리	-11.5884
조작	-11.5885
건네	-11.5886
치르	-11.5887
유	-11.5891
밝혀내	-11.5891
한계	-11.5896
▁음악	-11.5904
더니	-11.5912
넘기	-11.5936
▁태어난	-11.5943
▁떨어진	-11.5944
고군	-11.5946
▁모인	-11.5949
신분	-11.5974
▁훔쳐	-11.5976
▁축제	-11.5996
▁벨라	-11.6007
▁목표	-11.6038
▁감시	-11.6044
▁금지	-11.6049
▁사업	-11.6052
▁십	-11.6064
▁졸업	-11.6095
회의	-11.6122
▁못한다	-11.6124
처	-11.6135
▁활약	-11.6143
져	-11.6146
▁쉬	-11.6161
▁팔	-11.6168
▁바람	-11.6207
바탕	-11.6219
머	-11.6257
찬	-11.6265
▁용	-11.6283
갱	-11.6306
▁짓	-11.6308
반란	-11.6311
호크	-11.6317
행방	-11.6317
밥	-11.6324
틈	-11.6324
식량	-11.6325
윌리엄	-11.6325
걸린	-11.6325
춤	-11.6326
영원	-11.6326
윅	-11.6326
리타	-11.6327
으러	-11.6328
나선	-11.6328
오디	-11.6328
로라	-11.633
제시	-11.6332
▁범	-11.6333
첫날	-11.6339
집안	-11.6341
안전	-11.6347
울리	-11.6351
계기	-11.6356
상금	-11.6372
바꿀	-11.6373
ᅡ	-11.6379
사고뭉치	-11.6379
빠른	-11.6379
나머지	-11.6379
냉혹	-11.6379
농구	-11.6379
다이아몬드	-11.6379
다이애나	-11.6379
됩니다	-11.6379
드라큘라	-11.6379
맞닥뜨리	-11.6379
브래드	-11.6379
설득	-11.6379
아슬아슬	-11.6379
아일랜드	-11.6379
앨런	-11.6379
어려운	-11.6379
이벤트	-11.6379
인디아나	-11.6379
티켓	-11.6379
폐쇄	-11.6379
헝거	-11.6379
황폐	-11.6379
사사건건	-11.6379
덤블	-11.6379
로맨스	-11.6379
얼떨결	-11.6379
유쾌	-11.6379
카르텔	-11.6379
광경	-11.6379
얽힌	-11.6379
카리스마	-11.6379
처절	-11.6379
이루어지	-11.6379
미이라	-11.6379
방향	-11.6379
돌아와	-11.6379
티파니	-11.6379
▁24	-11.6379
북쪽	-11.6379
죄책감	-11.6379
일생일대	-11.6379
트레이너	-11.6379
오두막	-11.6379
취급	-11.6379
씨제이	-11.6379
버릴	-11.6379
제압	-11.6379
오빠	-11.6379
부패	-11.6379
추구	-11.6379
물고기	-11.6379
예정	-11.6379
원정대	-11.6379
제다이	-11.638
직업	-11.638
추방	-11.638
유력	-11.638
삼총사	-11.638
크리시	-11.638
반란군	-11.638
▁빌리	-11.638
연합군	-11.638
젊은이	-11.6381
스릴러	-11.6381
공부	-11.6381
약물	-11.6381
볼트	-11.6382
최첨단	-11.6382
루피	-11.6382
때마침	-11.6382
무슨	-11.6382
갱단	-11.6383
보석	-11.6383
자랑	-11.6383
선발	-11.6383
외면	-11.6384
용감	-11.6384
대표	-11.6384
으면서	-11.6385
고고학자	-11.6385
피트	-11.6386
진심	-11.6387
신참	-11.6387
마음씨	-11.6387
난생	-11.6388
본드	-11.6388
간직	-11.6389
좀처럼	-11.6389
연구소	-11.639
귀신	-11.6391
납치범	-11.6393
신체	-11.6394
하퍼	-11.6396
용사	-11.6397
유산	-11.6397
유전자	-11.64
시카고	-11.6402
시선	-11.6402
선사	-11.6406
많이	-11.6408
마마	-11.641
벌어진다	-11.6417
기차	-11.6422
분파	-11.6426
해저	-11.643
희생자	-11.6433
에스터	-11.6433
니나	-11.6434
떨어진다	-11.6458
자니	-11.6477
▁모세	-11.6484
▁처참	-11.6488
▁프랑스	-11.6491
▁펼쳐진다	-11.6494
▁비행	-11.6495
▁추락	-11.6499
무적	-11.65
청하	-11.6501
맡기	-11.6506
이거	-11.6506
가루	-11.6519
▁연락	-11.6541
▁챔피언	-11.6552
▁선	-11.6559
▁벨	-11.6603
토	-11.6623
▁전문	-11.6639
▁론	-11.6643
렌	-11.6651
이내	-11.6654
이별	-11.6703
고급	-11.6748
착	-11.6759
▁희생	-11.6764
가정부	-11.6802
▁신세	-11.6817
둔	-11.6821
인공	-11.6852
책임	-11.6853
넘	-11.6857
해변	-11.6868
들키	-11.6872
지휘	-11.6873
들어간	-11.6877
에밀리	-11.6877
퀸	-11.6879
맘	-11.688
체포	-11.688
기업	-11.6884
보물	-11.689
공장	-11.6891
지시	-11.6897
뛰어나	-11.6905
쏟아지	-11.6905
갑작스럽	-11.6905
붙잡히	-11.6906
포터	-11.6906
공원	-11.6908
▁결정	-11.6911
완성	-11.6918
▁지난	-11.6918
유인	-11.6919
▁지켜	-11.6931
취하	-11.6937
달려가	-11.6938
▁벌	-11.6938
쫓아내	-11.6939
가스	-11.6945
▁황금	-11.6965
▁루시	-11.6984
잃어버	-11.6989
▁토르	-11.6992
▁에디	-11.7002
말리	-11.7008
▁내용	-11.702
▁진행	-11.7037
▁음식	-11.7057
▁배신	-11.709
▁수상	-11.7096
시장	-11.7098
▁참가	-11.7124
▁올	-11.7167
▁끊	-11.7205
▁모	-11.7239
거의	-11.7258
갓	-11.727
가상	-11.7273
망	-11.7308
겁	-11.7362
이란	-11.7379
지나가	-11.738
▁관련	-11.7403
변호	-11.7409
북	-11.742
▁찬	-11.7425
뛰	-11.7441
엘	-11.7446
앉	-11.745
소유	-11.7451
발명	-11.7451
▁나선	-11.7454
뇨	-11.7459
후계	-11.746
푸른	-11.746
설상가상	-11.7461
갚	-11.7461
귀여운	-11.7461
귀엽	-11.7461
난쟁이	-11.7461
레스토랑	-11.7461
멸종	-11.7461
스카우트	-11.7461
익스펜더블	-11.7461
커다랗	-11.7461
클라크	-11.7461
부딪히	-11.7461
착륙	-11.7461
흩어지	-11.7461
빠뜨리	-11.7461
패트릭	-11.7461
페르시아	-11.7461
사우론	-11.7461
필립	-11.7461
니콜라스	-11.7461
미식축구	-11.7461
복서	-11.7461
랄프	-11.7461
자마자	-11.7461
티몬	-11.7461
동경	-11.7461
추억	-11.7461
할로우	-11.7461
스패로우	-11.7461
샌디	-11.7461
살아온	-11.7461
홈즈	-11.7461
반복	-11.7461
거센	-11.7461
빨려	-11.7461
용맹	-11.7461
업계	-11.7461
인공지능	-11.7461
로렌스	-11.7461
짜리	-11.7461
건설	-11.7461
빌딩	-11.7461
각국	-11.7461
강요	-11.7462
라이프	-11.7462
안락	-11.7462
절정	-11.7462
장교	-11.7462
머피	-11.7462
앤	-11.7462
르네	-11.7463
터너	-11.7463
지모도	-11.7463
아무런	-11.7463
식물	-11.7463
광대	-11.7463
재판	-11.7464
완수	-11.7464
외부	-11.7465
경기	-11.7465
수녀	-11.7465
축하	-11.7465
인디언	-11.7465
총격전	-11.7465
버스터	-11.7465
린치	-11.7465
장착	-11.7466
연관	-11.7466
윌리스	-11.7466
특수부대	-11.7466
빅	-11.7467
동화	-11.7467
보낸	-11.7467
고스트	-11.7467
미군	-11.7468
팬더	-11.7468
전학	-11.7468
실험실	-11.7468
마티	-11.7468
거세	-11.7469
인사	-11.747
그리스	-11.747
나니아	-11.747
학년	-11.7472
언제나	-11.7472
프로	-11.7472
데니스	-11.7472
일으킨다	-11.7475
휩싸인다	-11.7475
세월	-11.7476
만류	-11.7476
다가온다	-11.7477
▁참	-11.7477
구해야	-11.7479
에리얼	-11.7479
해킹	-11.748
발명가	-11.7481
부대원	-11.7483
주니어	-11.7483
헬기	-11.7485
피부	-11.7485
전통	-11.7487
로즈	-11.7487
오공	-11.7487
거두	-11.749
해커	-11.7494
피신	-11.7496
번개	-11.7496
위성	-11.7498
경찰관	-11.7499
구성	-11.7503
▁걸린	-11.7504
어요	-11.7506
▁윅	-11.7507
새로	-11.7508
나날	-11.7508
별장	-11.7509
▁윌리엄	-11.7511
착하	-11.7513
▁영원	-11.7517
▁춤	-11.7519
▁제시	-11.752
▁오디	-11.7521
▁져	-11.7523
▁오르	-11.7526
▁레	-11.7531
가짜	-11.7535
리사	-11.7549
▁고용	-11.7555
▁경쟁	-11.7566
로디	-11.7566
대부분	-11.757
노아	-11.7572
▁암호	-11.7576
▁17	-11.7583
▁끌	-11.7585
지미	-11.7592
죽인	-11.7595
▁긴	-11.7604
상자	-11.7622
사라진다	-11.7622
어린이	-11.7627
▁인질	-11.763
▁견	-11.7634
▁외딴	-11.7642
조던	-11.766
객	-11.7662
주말	-11.7663
산장	-11.7672
▁강도	-11.7687
전기	-11.7689
주일	-11.7695
한국	-11.7753
개성	-11.7758
▁18	-11.7775
될지	-11.7791
풀리	-11.7822
브	-11.7833
니아	-11.7871
E	-11.7911
속이	-11.7918
▁에밀리	-11.7935
는지	-11.7936
▁렌	-11.7937
츠	-11.7966
▁넘	-11.799
▁들어간	-11.8005
혀	-11.802
죄	-11.8029
주식	-11.8036
약혼	-11.8043
공군	-11.8048
호랑이	-11.8049
덮치	-11.8049
합치	-11.8049
꾸리	-11.8053
으려	-11.8058
불시	-11.8059
▁퀸	-11.8068
탐험	-11.8069
▁맘	-11.8072
변이	-11.8073
긴장	-11.8075
콘	-11.8078
엘리	-11.808
쌓	-11.808
마술	-11.8082
남긴	-11.8088
싫	-11.8089
탑승	-11.8089
트럭	-11.8089
곰	-11.809
▁밥	-11.809
동네	-11.8091
코너	-11.8091
▁담당	-11.8094
주먹	-11.8096
정상	-11.8096
빙하	-11.8096
기록	-11.8097
무시	-11.8097
그루	-11.8103
뒤집	-11.8104
▁집안	-11.8105
▁틈	-11.8108
무한	-11.811
▁식량	-11.811
조지	-11.8112
사라	-11.8113
수감	-11.8115
모아	-11.8118
에단	-11.8122
▁제작	-11.8128
▁계기	-11.8129
▁연애	-11.8144
▁괴	-11.8151
▁권력	-11.817
일대	-11.818
▁다면	-11.8211
5	-11.8308
▁새로	-11.8356
명성	-11.8362
▁나날	-11.8366
▁폭풍	-11.8367
정하	-11.8376
성적	-11.8397
▁반대	-11.8398
▁돌	-11.8428
▁그리	-11.8475
워	-11.8542
▁앤	-11.8579
닐	-11.8587
▁보낸	-11.8597
턴	-11.8606
끌리	-11.8608
▁엘	-11.8611
▁소설	-11.8613
싸	-11.8614
▁프로	-11.8617
촌	-11.8618
도로	-11.8618
▁그리스	-11.8626
▁빅	-11.8638
라곤	-11.8647
라이	-11.8647
▁으려	-11.8647
웬	-11.8652
▁공장	-11.8661
▁고스트	-11.8665
▁죽인	-11.8666
웨인	-11.8666
램프	-11.8672
절명	-11.8673
호시탐탐	-11.8674
가브리엘	-11.8674
개구리	-11.8674
늙	-11.8674
다큐멘터리	-11.8674
달마시안	-11.8674
리조트	-11.8674
마이애미	-11.8674
바쁜	-11.8674
발탁	-11.8674
베트남	-11.8674
볼드모트	-11.8674
스코틀랜드	-11.8674
스탠리	-11.8674
스트레인지	-11.8674
씬	-11.8674
어려움	-11.8674
업그레이드	-11.8674
옵티머스	-11.8674
좌충우돌	-11.8674
축복	-11.8674
크리스토퍼	-11.8674
킹스맨	-11.8674
트래비스	-11.8674
혹독	-11.8674
흩어져	-11.8674
누들스	-11.8674
당황	-11.8674
몰아넣	-11.8674
속수무책	-11.8674
아테나	-11.8674
에일리언	-11.8674
기상천외	-11.8674
복귀	-11.8674
엔지니어	-11.8674
컴뱃	-11.8674
퍼붓	-11.8674
광활	-11.8674
얽히	-11.8674
나타났	-11.8674
쿠퍼	-11.8674
바이킹	-11.8674
스칼렛	-11.8674
백설	-11.8674
거액	-11.8674
극복	-11.8674
머나먼	-11.8674
심지어	-11.8674
청혼	-11.8674
아가씨	-11.8674
코퍼	-11.8674
팬텀	-11.8674
최근	-11.8674
결투	-11.8674
따돌리	-11.8674
오토봇	-11.8674
귀환	-11.8674
콜린	-11.8674
취직	-11.8674
경악	-11.8674
코끼리	-11.8674
공유	-11.8674
열광	-11.8674
갖춘	-11.8674
맥퀸	-11.8674
데이빗	-11.8674
바쁘	-11.8674
치킨	-11.8674
경력	-11.8674
멘토	-11.8674
앨리슨	-11.8674
왕궁	-11.8674
국군	-11.8675
동참	-11.8675
드류	-11.8675
치닫	-11.8675
카메론	-11.8675
패배	-11.8675
교장	-11.8675
마틴	-11.8675
경제	-11.8675
터프	-11.8675
욕심	-11.8675
빌린	-11.8675
위태	-11.8676
실증	-11.8676
뉴스	-11.8676
남녀	-11.8676
실마리	-11.8676
조용히	-11.8676
권투	-11.8676
편집장	-11.8676
폭풍우	-11.8676
멀티	-11.8676
헤더	-11.8676
공개	-11.8676
만났	-11.8676
증명	-11.8677
전락	-11.8677
포식자	-11.8677
악동	-11.8677
돌진	-11.8677
간호	-11.8677
말콤	-11.8677
귀족	-11.8678
조커	-11.8678
리즈	-11.8678
조쉬	-11.8678
슈퍼밴드	-11.8678
거짓말	-11.8678
선배	-11.8679
강제	-11.868
무모	-11.868
아이린	-11.868
흥분	-11.8681
영리	-11.8681
그토록	-11.8682
무술	-11.8682
밝혀진다	-11.8682
제외	-11.8682
잠든	-11.8683
원작	-11.8683
▁로즈	-11.8684
난무	-11.8684
토안	-11.8684
바니	-11.8685
노라	-11.8685
사탄	-11.8685
식사	-11.8686
오늘	-11.869
광기	-11.869
추	-11.8692
오즈	-11.8693
아픈	-11.8696
투명	-11.8696
수업	-11.8696
제물	-11.8697
남학생	-11.8698
참전	-11.87
수호자	-11.8701
소유자	-11.8703
▁체포	-11.8704
티나	-11.8706
▁보물	-11.8706
되돌리	-11.8707
은신	-11.8708
부리	-11.8711
인격	-11.8715
올리	-11.8716
공기	-11.8716
손님	-11.8717
지나치	-11.8719
클	-11.8721
괴수	-11.8723
앞서	-11.8726
입양	-11.8729
링	-11.8736
나온다	-11.8737
웃음	-11.874
소문	-11.8741
비명	-11.8742
청소	-11.8743
촬영	-11.8744
못해	-11.8746
뚫	-11.8746
글	-11.8748
일어난	-11.8748
바라	-11.8749
경계	-11.8749
우승	-11.8749
구한다	-11.875
정복	-11.8752
구원	-11.8752
느낀	-11.8753
독립	-11.8754
▁극	-11.8754
벅	-11.8754
도구	-11.8755
절망	-11.8755
왜	-11.8755
s	-11.8756
매튜	-11.8756
우연	-11.8757
크루	-11.8757
애니	-11.8757
델	-11.8759
수트	-11.8761
리치	-11.8764
라마	-11.8768
친한	-11.8772
태어난다	-11.8773
▁모자	-11.8774
신문	-11.878
오더	-11.8781
한다고	-11.8786
해군	-11.8791
도박	-11.8798
한적	-11.8811
병기	-11.8813
▁쓴	-11.8815
▁야생	-11.8815
한눈	-11.8829
▁토	-11.8841
지치	-11.8846
파이	-11.8857
중간	-11.8867
미로	-11.8875
가필드	-11.8878
본인	-11.8886
6	-11.8897
그대로	-11.8903
지터	-11.891
▁구조	-11.8915
반한다	-11.8929
▁신분	-11.8931
연이	-11.8937
말살	-11.8942
▁이웃	-11.8949
사업가	-11.8956
집사	-11.8977
n	-11.8992
제이	-11.8992
들어서	-11.903
살상	-11.9057
빠져들	-11.9096
▁강	-11.9098
주문	-11.9101
▁200	-11.9124
가두	-11.9127
타인	-11.9128
무어	-11.9145
▁브	-11.9162
아주	-11.9165
▁해변	-11.9169
▁사라	-11.917
틀	-11.9176
1	-11.9179
인도	-11.9213
▁남긴	-11.9215
곤	-11.9216
▁엘리	-11.9222
▁독	-11.9258
.	-11.9262
▁00	-11.9265
고치	-11.927
▁모아	-11.928
▁코너	-11.9283
보도	-11.9283
▁무시	-11.9297
▁그루	-11.93
▁뒤집	-11.9301
▁둔	-11.9304
▁늑대	-11.9317
율	-11.9317
▁구성	-11.9329
▁동화	-11.933
왠	-11.9332
궁전	-11.9333
록	-11.9333
어쩌	-11.9335
▁뛰	-11.9335
오랫	-11.9336
물질	-11.934
휘두르	-11.934
쏟	-11.9341
맴돌	-11.9341
돌연	-11.9341
들이닥치	-11.9341
총각	-11.9342
다스리	-11.9342
쫓겨나	-11.9343
맞추	-11.9343
마디	-11.9344
나아가	-11.9344
숨막히	-11.9346
피우	-11.9348
올라가	-11.935
파크	-11.9352
거치	-11.9354
예	-11.9356
시계	-11.9362
운	-11.9368
총사	-11.9369
▁기업	-11.9377
비서	-11.9378
▁196	-11.938
절	-11.9383
킴	-11.9391
▁디	-11.9398
일가	-11.94
자고	-11.9416
▁첫날	-11.9423
헬	-11.9424
스카	-11.9427
킹	-11.9428
▁기사	-11.9432
▁안전	-11.9437
▁판	-11.9437
세대	-11.9445
조각	-11.9446
궁금	-11.9447
건너	-11.9447
암흑	-11.9449
패션	-11.9453
벽	-11.9454
다니엘	-11.9457
모여	-11.9458
연습	-11.946
모른	-11.946
돌아온다	-11.9462
넷	-11.9462
빼앗	-11.9462
돼	-11.9464
공연	-11.9464
마침	-11.9465
시킨	-11.9466
월드	-11.9467
출연	-11.9468
사라져	-11.9469
미스터	-11.9469
커져	-11.9469
으면	-11.9469
마스터	-11.947
행크	-11.947
되살리	-11.9474
지진	-11.9479
8	-11.948
예고	-11.9484
소중	-11.9485
되살아나	-11.9487
▁198	-11.9495
그레이	-11.95
▁빈	-11.9503
제자	-11.9511
타고	-11.9523
으려고	-11.9529
달하	-11.9533
먹이	-11.9537
▁금	-11.9543
이동	-11.9563
다크	-11.957
기관	-11.9575
프	-11.9599
▁캐	-11.9621
▁라이	-11.9704
▁링	-11.9772
버트	-11.978
능	-11.9787
▁B	-11.9834
던지	-11.9843
▁조지	-11.9866
▁느낀	-11.9889
룰	-11.9913
▁멀	-11.9916
▁리치	-11.993
이안	-11.9937
▁일어난	-11.9939
d	-11.9943
▁크루	-11.9945
쳐	-11.9946
▁왜	-11.9949
▁매튜	-11.9949
▁애니	-11.9953
▁우연	-11.9957
▁수감	-11.9965
▁웬	-11.9967
봇	-11.9978
▁트럭	-11.9993
▁우	-11.9996
▁정상	-12.0003
▁동네	-12.0004
▁곰	-12.0004
▁아주	-12.0018
▁제이	-12.0026
밀	-12.003
▁루	-12.0036
스틱	-12.0041
▁기념	-12.0046
쫓아가	-12.0049
버티	-12.0052
결합	-12.0053
교통	-12.0053
잎	-12.0054
승객	-12.0055
▁차례	-12.0055
감춰진	-12.0055
드와이트	-12.0055
딜런	-12.0055
뛰어넘	-12.0055
롤러코스터	-12.0055
리차드	-12.0055
마르쿠스	-12.0055
바티칸	-12.0055
번번히	-12.0055
셀린느	-12.0055
스폰지	-12.0055
아스가르드	-12.0055
언젠가	-12.0055
엄격	-12.0055
에제키엘	-12.0055
엑소시즘	-12.0055
엠마뉴엘	-12.0055
일으켜	-12.0055
저스티스	-12.0055
참혹	-12.0055
클레어	-12.0055
터미네이터	-12.0055
폭포	-12.0055
프랑켄슈타인	-12.0055
플로리다	-12.0055
헤라클레스	-12.0055
공통점	-12.0055
나뭇잎	-12.0055
네트워크	-12.0055
버려진	-12.0055
인터뷰	-12.0055
크리퍼	-12.0055
불청객	-12.0055
착취	-12.0055
나타샤	-12.0055
갑작스런	-12.0055
구멍	-12.0055
데이비드	-12.0055
트라우마	-12.0055
굶주린	-12.0055
넘나들	-12.0055
브라운	-12.0055
연료	-12.0055
버렸	-12.0055
베스트셀러	-12.0055
찾아왔	-12.0055
클락	-12.0055
데이비스	-12.0055
무도회	-12.0055
통합	-12.0055
언덕	-12.0055
스프링필드	-12.0055
사이보그	-12.0055
앵무새	-12.0055
다이아나	-12.0055
북극	-12.0055
종교	-12.0055
프라임	-12.0055
판도라	-12.0055
하수구	-12.0055
그리피스	-12.0055
물러나	-12.0055
루미스	-12.0055
맘모스	-12.0055
밀매	-12.0055
무료	-12.0055
오디션	-12.0055
출동	-12.0055
악랄	-12.0055
석판	-12.0055
초록색	-12.0055
수족관	-12.0055
처형	-12.0055
드락	-12.0055
괴롭힘	-12.0055
불러들이	-12.0055
아마존	-12.0055
유괴	-12.0055
호출	-12.0055
모탈	-12.0055
실행	-12.0055
너머	-12.0056
워너	-12.0056
궁금증	-12.0056
광란	-12.0056
웨이드	-12.0056
스피드	-12.0056
범행	-12.0056
식구	-12.0056
지하철	-12.0056
쉴드	-12.0056
견디	-12.0056
연극	-12.0056
정반대	-12.0056
달콤	-12.0056
가르치	-12.0056
처치	-12.0056
열혈	-12.0056
계약	-12.0056
갈망	-12.0056
총잡이	-12.0056
사립	-12.0057
살육	-12.0057
테디	-12.0057
어느덧	-12.0057
영입	-12.0057
어딘가	-12.0057
노파	-12.0057
본격	-12.0057
불허	-12.0057
행방불명	-12.0057
예감	-12.0057
코브라	-12.0057
크릭	-12.0057
드웨인	-12.0057
긴장감	-12.0058
온라인	-12.0058
보스턴	-12.0058
부동산	-12.0058
오딘	-12.0058
떠날	-12.0058
윌슨	-12.0058
설명	-12.0058
로드니	-12.0058
야욕	-12.0058
불태우	-12.0058
실화	-12.0058
모호	-12.0059
유타	-12.0059
파악	-12.0059
역할	-12.0059
무법자	-12.0059
시각	-12.0059
머신	-12.0059
탈라	-12.0059
익사	-12.006
진구	-12.006
마일스	-12.006
장벽	-12.006
어떠	-12.006
증거물	-12.006
침대	-12.006
야망	-12.006
카일라	-12.0061
인근	-12.0061
줄리안	-12.0061
제노	-12.0061
리노	-12.0061
배회	-12.0061
러너	-12.0061
핀치	-12.0062
불꽃	-12.0063
지켜야	-12.0063
질서	-12.0064
업자	-12.0065
도망쳐	-12.0065
소심	-12.0065
자녀	-12.0065
알프레드	-12.0065
기사단	-12.0066
레지나	-12.0066
라이더	-12.0066
잠자리	-12.0066
처지	-12.0066
아이콘	-12.0067
창고	-12.0067
오로라	-12.0067
영주	-12.0068
가디언	-12.0069
묘한	-12.0069
세티	-12.007
버크	-12.007
데드	-12.007
조선	-12.0072
엔터	-12.0072
심상	-12.0073
호감	-12.0073
연주	-12.0073
선원	-12.0073
인정받	-12.0074
개조	-12.0076
마음먹	-12.0077
엘사	-12.0077
길거리	-12.0077
질주	-12.0078
만약	-12.0079
늑대인간	-12.008
몰살	-12.0081
청소년	-12.0082
원소	-12.0082
무려	-12.0082
수사관	-12.0086
군중	-12.0087
피타	-12.009
못할	-12.0099
▁매	-12.0101
온몸	-12.0103
전술	-12.0106
터전	-12.0113
장비	-12.0114
인턴	-12.0115
불편	-12.0116
각지	-12.0116
려면	-12.0124
단편	-12.0128
입대	-12.0128
세스	-12.0128
야간	-12.0128
칼날	-12.0131
하와이	-12.0133
자파	-12.0135
지친	-12.0136
접하	-12.0137
만족	-12.0145
낼	-12.0149
잔	-12.0155
▁빛	-12.0157
해간다	-12.0168
▁다리	-12.0173
총격	-12.0176
덕분	-12.0177
수장	-12.018
도난	-12.018
▁찍	-12.0182
▁라면	-12.0187
거짓	-12.0197
어느새	-12.0197
SA	-12.0198
보관	-12.0199
별로	-12.0207
▁쥐	-12.0207
초록	-12.0208
페이스	-12.0209
홀	-12.0214
떨	-12.0215
피해자	-12.0218
프리다	-12.0218
▁털	-12.0219
▁거미	-12.0224
생긴	-12.0224
시험	-12.0226
안내	-12.0228
주어진	-12.0229
맷	-12.0229
예언	-12.023
홀리	-12.0231
방송	-12.0232
막내	-12.0233
밑	-12.0233
팬	-12.0233
강간	-12.0234
언제	-12.0234
연방	-12.0235
소개	-12.0236
으니	-12.0237
콰	-12.0237
깨달	-12.0237
당해	-12.0238
날려	-12.0238
중단	-12.0239
이탈리아	-12.024
시드	-12.0244
보라	-12.0244
▁기차	-12.0246
놀이	-12.0247
마시	-12.0248
은둔	-12.0257
라라	-12.0258
저지	-12.0261
인정	-12.0265
해안	-12.0265
▁생물	-12.0267
초인	-12.0267
▁이모	-12.0272
가게	-12.0272
개인	-12.0277
대장	-12.0289
개장	-12.0294
금고	-12.03
▁증거	-12.0309
건지	-12.0329
▁11	-12.033
▁A	-12.0347
빼	-12.036
▁질	-12.0362
▁돌아온다	-12.0363
포로	-12.0367
심하	-12.0388
고독	-12.0389
장자	-12.0391
의미	-12.0392
손자	-12.0404
시기	-12.0404
장수	-12.0409
위로	-12.0446
잡이	-12.0446
▁묻	-12.0452
▁몰	-12.047
▁킹	-12.0471
살인자	-12.0481
크기	-12.0487
수도	-12.0509
불과	-12.0528
하데스	-12.0531
고아	-12.0539
▁벽	-12.0546
이해	-12.0565
▁감	-12.0577
▁모여	-12.059
▁돼	-12.0602
▁시킨	-12.0606
약	-12.0607
▁빼앗	-12.062
i	-12.0621
장인	-12.063
어스	-12.0634
▁스카	-12.0637
단지	-12.0639
가리	-12.0643
▁모른	-12.0645
▁정복	-12.0661
▁미스터	-12.0665
▁사라져	-12.0666
▁마침	-12.0666
▁다니엘	-12.0668
▁행크	-12.0668
▁으면	-12.0668
▁넷	-12.067
▁커져	-12.0673
▁202	-12.0674
▁소중	-12.0675
▁마스터	-12.0677
그만	-12.0678
▁킴	-12.0682
▁그레이	-12.0682
격	-12.0685
▁곤	-12.0689
▁제자	-12.069
▁츠	-12.0692
케	-12.0702
▁22	-12.0703
▁이동	-12.0703
▁벅	-12.071
▁절망	-12.0718
주년	-12.0719
표	-12.0763
▁주먹	-12.0767
▁싫	-12.0769
▁콘	-12.077
▁탑승	-12.0771
▁파이	-12.0774
보트	-12.0776
▁경기	-12.0784
어기	-12.0808
갖은	-12.0808
▁수녀	-12.0812
톱	-12.0812
태우	-12.0821
흙	-12.0822
승무	-12.0823
가로지르	-12.0824
살아오	-12.0824
절체	-12.0824
사로잡히	-12.0825
내려오	-12.0826
들려오	-12.0826
미식	-12.0827
묘지	-12.083
남미	-12.0831
주도	-12.0831
사정	-12.0832
▁갓	-12.0835
아프	-12.0846
천사	-12.0847
중년	-12.0851
꾸	-12.0854
진다	-12.0886
쿠	-12.0888
제일	-12.0905
돌리	-12.0949
▁V	-12.0981
독일	-12.0987
휩싸	-12.1004
묶	-12.1007
▁어린이	-12.1008
애완	-12.1009
▁나무	-12.102
놀	-12.1024
드리	-12.1025
혈	-12.1037
!	-12.104
폰	-12.104
콜	-12.1046
일어난다	-12.1047
유대	-12.1048
겉	-12.1049
예술	-12.1049
낮	-12.1049
격투	-12.1055
리틀	-12.1056
겨울	-12.1058
복제	-12.1058
중국	-12.1059
죠	-12.106
완전	-12.106
질투	-12.106
룸	-12.1062
댄	-12.1062
나치	-12.1062
담긴	-12.1064
멘	-12.1064
소피	-12.1064
실력	-12.1064
댄스	-12.1066
마스크	-12.1068
카메라	-12.1068
엠마	-12.1068
키워	-12.1068
찰스	-12.1069
수백	-12.107
자금	-12.107
캐리	-12.1071
도우	-12.1076
여신	-12.1081
놓인	-12.1102
로드	-12.1125
그동안	-12.1128
메이	-12.113
전해	-12.1167
만날	-12.1185
로마	-12.1186
▁노	-12.1235
▁H	-12.124
해적	-12.124
변	-12.1259
▁De	-12.1278
주의	-12.1279
일기	-12.1323
가수	-12.1333
울	-12.135
▁라라	-12.1381
번지	-12.1406
▁팬	-12.1418
▁생긴	-12.1423
▁깨달	-12.1424
h	-12.143
▁주어진	-12.143
▁당해	-12.144
▁으니	-12.1445
▁죄	-12.1446
▁시드	-12.1447
▁콰	-12.1448
▁인정	-12.1448
▁낼	-12.1454
▁경계	-12.1459
▁저지	-12.1463
▁예고	-12.1464
▁룰	-12.1469
다양	-12.1469
▁글	-12.1487
▁출연	-12.1495
▁구원	-12.1496
G	-12.1498
▁델	-12.1499
▁운	-12.1505
▁떠돌	-12.1506
석방	-12.1532
▁독립	-12.1551
다가가	-12.1551
레이디	-12.1563
기상	-12.1568
툰	-12.1585
▁도박	-12.1596
▁다크	-12.1598
▁의미	-12.16
미안	-12.1608
망자	-12.1617
픈	-12.162
질수록	-12.163
▁지휘	-12.1635
내심	-12.1638
요일	-12.1639
개척	-12.1646
롯	-12.1653
아수라	-12.1654
릿	-12.1656
▁전학	-12.1657
잣	-12.1657
꾸러기	-12.1657
몰아치	-12.1657
잉글랜드	-12.1657
승승장구	-12.1657
펼친다	-12.1657
끈질기	-12.1657
방사능	-12.1657
억만장자	-12.1657
간달프	-12.1657
개츠비	-12.1657
고메즈	-12.1657
구스타브	-12.1657
그야말로	-12.1657
느낌	-12.1657
덴젤	-12.1657
도라에몽	-12.1657
라푼젤	-12.1657
레오나르도	-12.1657
레이놀즈	-12.1657
매버릭	-12.1657
매혹	-12.1657
멈블	-12.1657
미구엘	-12.1657
밀림	-12.1657
법칙	-12.1657
빅토리아	-12.1657
뿔뿔이	-12.1657
사스케	-12.1657
스크루지	-12.1657
스테판	-12.1657
스파르타	-12.1657
아틀란티스	-12.1657
안젤라	-12.1657
어마어마	-12.1657
엘리엇	-12.1657
예쁜	-12.1657
우두머리	-12.1657
울타리	-12.1657
일촉즉발	-12.1657
차례차례	-12.1657
카우보이	-12.1657
콘서트	-12.1657
클라이드	-12.1657
페라리	-12.1657
프린스	-12.1657
플래시	-12.1657
헤르미온느	-12.1657
흐름	-12.1657
송두리	-12.1657
출현	-12.1657
캐나다	-12.1657
갑작스러운	-12.1657
따돌림	-12.1657
아이디어	-12.1657
약혼녀	-12.1657
블록버스터	-12.1657
돌이킬	-12.1657
열심히	-12.1657
골든	-12.1657
살아난	-12.1657
공화국	-12.1657
구사일생	-12.1657
넘나드	-12.1657
떠올리	-12.1657
아폴로	-12.1657
역경	-12.1657
착각	-12.1657
흘렀	-12.1657
헤비급	-12.1657
매료	-12.1657
브라이스	-12.1657
조나단	-12.1657
큐브	-12.1657
헐크	-12.1657
실현	-12.1657
영광	-12.1657
인터넷	-12.1657
드라이버	-12.1657
싱글	-12.1657
보금자리	-12.1657
스카일러	-12.1657
갱스터	-12.1657
외출	-12.1657
말썽꾸러기	-12.1658
트리플	-12.1658
좁혀	-12.1658
풀려나	-12.1658
얼룩진	-12.1658
화장실	-12.1658
표범	-12.1658
결코	-12.1658
녹색	-12.1658
상류층	-12.1658
주유소	-12.1658
퍼스트	-12.1658
전기톱	-12.1658
당당히	-12.1658
무참히	-12.1658
각각	-12.1658
달튼	-12.1658
도서관	-12.1658
믹키	-12.1658
절벽	-12.1658
이자벨	-12.1658
외로움	-12.1658
심각	-12.1658
풋볼	-12.1658
위키드	-12.1658
타노스	-12.1658
스턴트맨	-12.1658
스트로드	-12.1658
추종	-12.1658
예견	-12.1658
돌변	-12.1658
격돌	-12.1658
운전기사	-12.1658
승진	-12.1658
들어온다	-12.1658
화끈	-12.1658
계곡	-12.1658
드러난다	-12.1658
앤드류	-12.1658
입니다	-12.1659
엘렌	-12.1659
커버	-12.1659
가까워진다	-12.1659
월버그	-12.1659
소령	-12.1659
애쓴다	-12.1659
아바타	-12.1659
발자국	-12.1659
처단	-12.1659
출소	-12.1659
투성이	-12.1659
동족	-12.1659
초래	-12.1659
백작	-12.1659
정거장	-12.1659
다아시	-12.1659
미세스	-12.1659
폐기물	-12.1659
인조인간	-12.166
증세	-12.166
나쁘	-12.166
신혼	-12.166
눈치채	-12.166
롱크	-12.166
최종	-12.166
동거	-12.166
제레미	-12.166
실리	-12.166
자스민	-12.166
관리국	-12.166
무죄	-12.1661
해골	-12.1661
러셀	-12.1661
감동	-12.1661
슬리스	-12.1661
뒤로하	-12.1661
경비원	-12.1661
베티	-12.1661
몰려오	-12.1661
UNA	-12.1661
병동	-12.1661
호머	-12.1661
정보국	-12.1661
사춘기	-12.1662
결전	-12.1662
듀스	-12.1662
듀크	-12.1662
재벌	-12.1662
청소부	-12.1662
코난	-12.1662
부여받	-12.1662
은하계	-12.1662
뒤늦	-12.1662
비추	-12.1662
패치	-12.1662
불능	-12.1662
데보라	-12.1662
도토리	-12.1662
리링	-12.1662
전면전	-12.1662
구마	-12.1663
안느	-12.1663
탐내	-12.1663
자취	-12.1663
더미	-12.1663
수호신	-12.1663
취해	-12.1663
휩싸여	-12.1663
틈타	-12.1664
세요	-12.1665
착수	-12.1665
레건	-12.1665
이모부	-12.1665
학대	-12.1665
왕따	-12.1665
날아가	-12.1665
수락	-12.1665
격리	-12.1665
변해간다	-12.1665
니모	-12.1666
경찰청	-12.1666
마친	-12.1666
진학	-12.1666
실려	-12.1666
고아원	-12.1667
커크	-12.1667
오스카	-12.1667
이어받	-12.1667
품바	-12.1668
부화	-12.1669
바위	-12.1669
팔리	-12.167
혈전	-12.167
여유	-12.1671
행사	-12.1671
산모	-12.1671
윌리엄스	-12.1672
온통	-12.1672
남극	-12.1672
모시	-12.1673
용서	-12.1673
맞선다	-12.1673
캐시	-12.1674
호프만	-12.1674
루시안	-12.1674
오버	-12.1674
빌라도	-12.1675
마술사	-12.1675
해리건	-12.1675
개최	-12.1675
일기장	-12.1675
알린다	-12.1675
십자	-12.1676
행	-12.1676
무공	-12.1676
각오	-12.1677
서쪽	-12.1677
십자가	-12.1678
불화	-12.1678
▁신경	-12.1678
제공	-12.1679
보루	-12.1679
고릴라	-12.1681
구조대	-12.1682
빛나	-12.1682
자꾸	-12.1683
코리	-12.1685
남작	-12.1686
명탐정	-12.1687
신화	-12.1687
업	-12.1688
도끼	-12.1688
시공간	-12.1689
책임자	-12.1691
싸인	-12.1694
로움	-12.1697
내쫓	-12.1698
들인다	-12.17
문서	-12.1703
닥친다	-12.1704
백인	-12.1704
지쳐	-12.1705
둘째	-12.1707
아니타	-12.1711
돌아간다	-12.1711
마주친다	-12.1713
오반	-12.1713
▁197	-12.1714
랭던	-12.1715
남성	-12.1716
마신	-12.1716
왕관	-12.1717
드라고	-12.1718
자극	-12.1719
▁진다	-12.1722
야채	-12.1723
여전사	-12.1725
바보	-12.1726
지르	-12.1729
함대	-12.1729
마더	-12.1729
시신	-12.1735
젊음	-12.1736
마약상	-12.1742
빌보	-12.1744
각	-12.1744
이송	-12.1753
어색	-12.1753
▁회	-12.1755
가영	-12.1755
릭	-12.1758
하녀	-12.1761
쓴다	-12.1763
침입자	-12.1766
소장	-12.1771
아트	-12.1771
해체	-12.1772
대비	-12.1781
따분	-12.1783
오크	-12.1783
백성	-12.1785
구분	-12.179
지배자	-12.1797
지방	-12.1815
▁인도	-12.1816
에린	-12.1827
막대	-12.1829
보원	-12.1841
고쳐	-12.1844
생산	-12.1845
사상자	-12.1846
누가	-12.1848
뜻밖에	-12.1852
▁그만	-12.1861
슬	-12.1862
패	-12.1867
데이지	-12.1872
차사	-12.1873
2	-12.1877
입수	-12.1878
끝날	-12.1882
그린다	-12.1885
▁이것	-12.1896
▁201	-12.1897
맥	-12.1898
고객	-12.1902
끊임없이	-12.1912
리라는	-12.1914
속편	-12.1919
누	-12.1932
▁일어난다	-12.1932
설계	-12.1934
사살	-12.1934
투어	-12.1935
악어	-12.1935
경비	-12.1938
폐기	-12.194
폭행	-12.1942
팅	-12.1944
트리	-12.1945
깨우	-12.1945
심리	-12.1946
레나	-12.1954
승부	-12.1955
행하	-12.1956
초토	-12.1958
침략	-12.1961
경호	-12.1964
매니	-12.1965
뜻밖	-12.1966
극장	-12.1967
타임	-12.1968
셋	-12.1969
운반	-12.1969
헤어진	-12.197
어른	-12.197
캘리포니아	-12.1971
랭	-12.1971
벌어진	-12.1971
걸려	-12.1972
다룬	-12.1972
빚	-12.1972
게릴라	-12.1972
항해	-12.1973
숨긴	-12.1973
센트	-12.1974
콩	-12.1974
가까워	-12.1975
겟	-12.1975
파피	-12.1976
나온	-12.1977
제니	-12.1979
윌리	-12.1979
집중	-12.1983
수천	-12.1985
이겨	-12.1992
자비	-12.202
고요	-12.2022
구한	-12.2026
▁갈	-12.2059
▁조종	-12.2059
이티	-12.2086
▁소피	-12.2112
토이	-12.2146
▁AI	-12.2147
수단	-12.2166
따라가	-12.2174
▁댄	-12.2182
▁k	-12.2192
▁담긴	-12.2194
▁독일	-12.2201
▁도로	-12.2205
▁전해	-12.2205
▁놀	-12.2225
▁도우	-12.2242
▁놓인	-12.2245
▁수백	-12.2256
▁이탈리아	-12.2259
로키	-12.226
▁키워	-12.2277
래	-12.2278
▁마스크	-12.228
▁카메라	-12.228
▁캐리	-12.228
▁멘	-12.2281
▁찰스	-12.2283
▁엠마	-12.2284
▁리틀	-12.2284
▁연습	-12.229
▁나치	-12.2303
▁은둔	-12.2304
모의	-12.2306
도적	-12.2308
▁언제	-12.2323
▁50	-12.2327
▁로드	-12.2335
과제	-12.2335
▁연방	-12.2335
▁공연	-12.2357
부풀	-12.2365
▁개인	-12.2372
가치	-12.2388
▁월드	-12.2396
▁우승	-12.2399
▁쌓	-12.2408
▁시기	-12.241
▁300	-12.2412
짜	-12.2414
▁메	-12.2414
가공	-12.2428
묘	-12.2444
다치	-12.2457
서기	-12.2459
▁기관	-12.2476
조한	-12.2518
톨	-12.2524
▁겁	-12.2527
바닷	-12.2543
▁바꿔	-12.2544
t	-12.2546
감각	-12.2565
u	-12.2565
도도	-12.2566
무법	-12.2566
알아차리	-12.2566
끌어들이	-12.2566
베스트	-12.2567
찾아보	-12.2567
알아보	-12.2567
가져오	-12.2568
기지	-12.257
피난	-12.2572
불리우	-12.2572
외치	-12.2578
바라보	-12.2582
빠져나가	-12.2585
자국	-12.2592
아끼	-12.2592
▁I	-12.2599
무도	-12.2604
▁누	-12.2613
도망가	-12.2619
자존	-12.2625
k	-12.2633
▁암	-12.264
▁급	-12.2645
▁행방	-12.2679
▁각	-12.2681
역	-12.2681
두려워하	-12.2692
류	-12.2725
▁14	-12.274
부수	-12.2764
부분	-12.279
▁커	-12.2799
고심	-12.2811
▁너	-12.2813
깊이	-12.2821
▁연	-12.2825
에바	-12.2847
태	-12.2864
플	-12.2867
낸다	-12.2869
▁약	-12.2873
반항	-12.2874
아비	-12.288
거주	-12.2893
답	-12.2899
탈	-12.29
▁푸	-12.2902
남부	-12.2905
부지	-12.2915
좁	-12.2918
백만	-12.2918
항공	-12.2918
상류	-12.292
욕	-12.2921
미리	-12.2925
파란	-12.2939
창조	-12.2947
핀	-12.295
늦	-12.2952
잡혀	-12.2953
엉망	-12.2958
주술	-12.2958
해독	-12.296
메리	-12.2961
사형	-12.2961
가르	-12.2962
소행	-12.2963
셀	-12.2963
정착	-12.2964
걸음	-12.2965
작업	-12.2966
달린	-12.2966
즐	-12.2967
라이트	-12.2967
쥬	-12.2968
구경	-12.2968
갇힌	-12.2968
남겨진	-12.2968
미친	-12.2969
빨간	-12.2969
러브	-12.2969
합쳐	-12.2972
트리스	-12.2972
붉	-12.2972
조용	-12.2973
글리	-12.2974
신디	-12.2974
전국	-12.2975
뒤쫓	-12.2976
서부	-12.2979
가동	-12.2984
대부	-12.2984
▁보안	-12.2985
▁뜻밖	-12.2988
비밀리	-12.2989
전수	-12.2993
상관	-12.3004
유성	-12.3007
케이	-12.3012
자란	-12.3014
▁매니	-12.3021
▁걸려	-12.3021
산타	-12.3025
▁NA	-12.3026
상사	-12.3045
속하	-12.3059
적대	-12.3059
대기	-12.3079
▁헤어진	-12.3106
▁다룬	-12.3107
지원	-12.3113
▁숨긴	-12.312
끊이	-12.312
▁벌어진	-12.3123
▁구한	-12.3132
▁랭	-12.3133
▁콜	-12.3135
▁나온	-12.3137
의존	-12.3153
▁정	-12.3168
▁수천	-12.3169
▁메이	-12.3174
▁가까워	-12.3188
▁윌리	-12.3189
▁셋	-12.319
▁실력	-12.3194
▁파피	-12.3195
▁겟	-12.3195
▁센트	-12.3195
▁콩	-12.3196
키는	-12.3197
▁제니	-12.3198
▁이겨	-12.32
▁릭	-12.3209
가세	-12.322
▁맷	-12.3238
▁댄스	-12.325
▁예언	-12.3263
▁방송	-12.3293
▁떨	-12.3294
▁로마	-12.3297
▁강간	-12.3317
▁밑	-12.3319
린다	-12.332
▁마시	-12.3323
린	-12.3332
▁웃음	-12.3334
들으며	-12.3336
▁행	-12.3341
끄	-12.335
▁~	-12.335
철	-12.337
상하	-12.3396
▁그렇	-12.3422
▁워	-12.344
▁빙하	-12.3445
령	-12.3454
고야	-12.3454
쁘	-12.3503
▁도쿄	-12.3532
▁앨리	-12.3557
값	-12.356
프라이즈	-12.356
태평양	-12.356
넌	-12.3564
얼룩	-12.3565
측	-12.3565
태평	-12.3565
포식	-12.3566
밍	-12.3566
서비스	-12.3566
캡슐	-12.3566
일어났	-12.3566
전대미문	-12.3566
특공대	-12.3566
꾸민다	-12.3566
랗	-12.3566
날카로운	-12.3566
얼떨	-12.3566
죄책	-12.3566
곤충	-12.3566
글로리아	-12.3566
깜찍	-12.3566
나탈리	-12.3566
다람쥐	-12.3566
다이버전트	-12.3566
독특	-12.3566
디자이너	-12.3566
레시피	-12.3566
마르그리트	-12.3566
뮤지컬	-12.3566
미켈란젤로	-12.3566
발레리나	-12.3566
버겐	-12.3566
버틀러	-12.3566
서바이벌	-12.3566
스콜피온	-12.3566
스크린	-12.3566
스파키	-12.3566
스필만	-12.3566
실베스터	-12.3566
아나킨	-12.3566
아저씨	-12.3566
앙숙	-12.3566
앤더슨	-12.3566
엉덩이	-12.3566
에블린	-12.3566
오페라	-12.3566
올림픽	-12.3566
요셉	-12.3566
응답	-12.3566
제페토	-12.3566
챙겨	-12.3566
카트리나	-12.3566
콜롬비아	-12.3566
클래식	-12.3566
킴벌리	-12.3566
테레사	-12.3566
테오도르	-12.3566
트랭크	-12.3566
특유	-12.3566
파우더	-12.3566
펠릭스	-12.3566
포세이돈	-12.3566
프랭키	-12.3566
프로테우스	-12.3566
필라델피아	-12.3566
해롤드	-12.3566
호아킨	-12.3566
황량	-12.3566
휘말려	-12.3566
휩쓸려	-12.3566
흉칙	-12.3566
교활	-12.3566
기나긴	-12.3566
돌아다니	-12.3566
마놀로	-12.3566
마다가스카	-12.3566
아드리안	-12.3566
앤드리아	-12.3566
장동수	-12.3566
블레이드	-12.3566
크로노스	-12.3566
메가마인드	-12.3566
창립	-12.3566
블록	-12.3566
플린트	-12.3566
이른다	-12.3566
프라이드	-12.3566
헐리우드	-12.3566
고질라	-12.3566
룸메이트	-12.3566
처녀	-12.3566
하이에나	-12.3566
가르침	-12.3566
미치광이	-12.3566
통쾌	-12.3566
표류	-12.3566
활용	-12.3566
돌아올	-12.3566
평행	-12.3566
군림	-12.3566
벗어날	-12.3566
압력	-12.3566
허용	-12.3566
되돌릴	-12.3567
잠수함	-12.3567
취업	-12.3567
의기투합	-12.3567
비루스	-12.3567
스펜서	-12.3567
찾아볼	-12.3567
테이프	-12.3567
단숨에	-12.3567
버튼	-12.3567
퇴치	-12.3567
파란만장	-12.3567
퍼디	-12.3567
호크룩스	-12.3567
에이리언	-12.3567
카를로스	-12.3567
도무지	-12.3567
월레스	-12.3567
타깃	-12.3567
사무실	-12.3567
석유	-12.3567
콜럼버스	-12.3567
마르타	-12.3567
목걸이	-12.3567
애완견	-12.3567
잠재우	-12.3567
전시물	-12.3567
백악관	-12.3567
크로우	-12.3567
애플렉	-12.3567
매들린	-12.3567
그라바	-12.3567
마테오	-12.3567
숨겨둔	-12.3567
출몰	-12.3567
레너드	-12.3567
앙심	-12.3567
리무진	-12.3567
로드릭	-12.3567
붙잡혀	-12.3567
순결	-12.3567
들어갔	-12.3567
퍼피	-12.3567
교내	-12.3567
블랙펄	-12.3567
비올라	-12.3567
돌봐	-12.3567
뉴트	-12.3567
보여준다	-12.3567
올리버	-12.3567
포럴	-12.3567
회계사	-12.3567
▁16	-12.3567
금요일	-12.3567
패티	-12.3567
워렌	-12.3567
젠코	-12.3567
당일	-12.3567
잠겨	-12.3567
어딘지	-12.3567
발굴	-12.3568
데려와	-12.3568
꺼내	-12.3568
북부	-12.3568
지켜낼	-12.3568
방탕	-12.3568
호송	-12.3568
맞닥뜨린다	-12.3568
데려간다	-12.3568
브로디	-12.3568
숫자	-12.3568
피닉스	-12.3568
탐닉	-12.3568
쿨스	-12.3568
태국	-12.3568
부푼	-12.3568
실망	-12.3568
국왕	-12.3568
폭주족	-12.3568
밀러	-12.3568
야영장	-12.3568
급속도	-12.3568
레미	-12.3568
구애	-12.3568
조언	-12.3568
커리어	-12.3568
레오네	-12.3568
의미심장	-12.3568
적대감	-12.3568
시설	-12.3568
순조	-12.3568
라일리	-12.3568
가까이	-12.3568
침실	-12.3568
미행	-12.3568
정통	-12.3569
신랑	-12.3569
팔머	-12.3569
운동	-12.3569
신시아	-12.3569
들어갈	-12.3569
창시자	-12.3569
예거	-12.3569
캐런	-12.3569
패션계	-12.3569
창문	-12.3569
철없	-12.3569
크리스찬	-12.3569
괴력	-12.3569
그레이트	-12.3569
손가락	-12.3569
열린다	-12.3569
세이지	-12.357
원정	-12.357
바바라	-12.357
조여오	-12.357
궁리	-12.357
나희	-12.357
정우	-12.357
앤트	-12.357
매직	-12.357
발리안	-12.357
피터팬	-12.357
결말	-12.357
자칭	-12.357
매달리	-12.357
터커	-12.3571
영감	-12.3571
탐사선	-12.3571
커드	-12.3571
정식	-12.3571
채굴	-12.3571
아레스	-12.3572
괴롭	-12.3572
캐리건	-12.3572
드레스	-12.3572
동부	-12.3572
통째	-12.3572
서래	-12.3572
리넷	-12.3572
여고생	-12.3572
총동원	-12.3572
금발	-12.3572
데이먼	-12.3572
계모	-12.3572
해적단	-12.3573
비운	-12.3573
여느	-12.3573
타잔	-12.3573
지훈	-12.3573
파즈	-12.3573
스페이스	-12.3573
원주민	-12.3574
행세	-12.3574
퀸카	-12.3574
레니	-12.3574
월트	-12.3574
니노	-12.3574
즉시	-12.3574
분출	-12.3575
루이자	-12.3575
찰나	-12.3575
증오	-12.3575
역전	-12.3575
해고	-12.3575
생쥐	-12.3575
나영	-12.3575
제시카	-12.3575
총애	-12.3575
조국	-12.3575
조짐	-12.3576
소재	-12.3576
입구	-12.3576
오드리	-12.3576
구사	-12.3577
서처	-12.3577
입증	-12.3577
말레나	-12.3577
작동	-12.3577
생애	-12.3578
치유	-12.3578
어쩌다	-12.3578
적힌	-12.3578
성경	-12.3579
매번	-12.3579
행크스	-12.3579
비우	-12.3579
화재	-12.3579
토비	-12.3579
약혼자	-12.358
에이스	-12.358
합의	-12.358
부품	-12.358
반쪽	-12.3581
호화	-12.3581
엘리스	-12.3581
새미	-12.3582
지냈	-12.3582
도로시	-12.3582
위력	-12.3582
생계	-12.3582
치료제	-12.3583
그레이시	-12.3583
모처럼	-12.3583
선보이	-12.3583
접수	-12.3584
무기력	-12.3584
사이버	-12.3584
엔진	-12.3584
슈퍼스타	-12.3584
탐사대	-12.3584
귀등	-12.3585
빠져드	-12.3585
사나이	-12.3585
모면	-12.3585
비난	-12.3586
모은다	-12.3586
신문사	-12.3586
마땅	-12.3586
탈출구	-12.3586
엔조	-12.3586
거북이	-12.3587
가축	-12.3587
모세스	-12.3587
운전사	-12.3587
정리	-12.3588
뒤바뀌	-12.3588
포키	-12.3588
스톰	-12.3588
들떠	-12.3589
수석	-12.359
상공	-12.3591
수송기	-12.3592
편집	-12.3592
신임	-12.3593
영문	-12.3593
사냥개	-12.3593
비범	-12.3594
이웃집	-12.3594
상심	-12.3595
주디	-12.3595
스파이스	-12.3595
신병	-12.3595
딱지	-12.3596
사이트	-12.3596
능가	-12.3596
도대체	-12.3597
대런	-12.3597
아이돌	-12.3598
에메트	-12.3598
집요	-12.3598
혼인	-12.3601
백수	-12.3602
모집	-12.3602
나갔	-12.3605
왕실	-12.3606
지영	-12.3606
반려	-12.3607
술집	-12.3607
내놓	-12.3609
나왔	-12.361
거듭난다	-12.361
투사	-12.361
반항아	-12.3611
▁21	-12.3614
자처	-12.3616
가출	-12.3617
벽장	-12.3618
친다	-12.3619
여긴다	-12.3619
원더	-12.3623
신선	-12.3625
간부	-12.3625
아니면	-12.3629
로이드	-12.3629
열중	-12.363
매년	-12.363
할까	-12.3634
파사	-12.3635
라드	-12.3636
방주	-12.3637
여행길	-12.3637
총상	-12.3638
오두	-12.3638
조명	-12.3639
경찰서	-12.364
부럽	-12.3642
손길	-12.3643
시온	-12.3644
할수록	-12.3647
수관	-12.3648
증가	-12.3648
우수	-12.3649
사제	-12.365
불사	-12.3651
차리	-12.3654
대해서	-12.3654
놓인다	-12.3656
전력	-12.366
생사	-12.366
붙이	-12.3661
사원	-12.3663
기밀	-12.3663
해외	-12.3666
빙하기	-12.3666
줄리아	-12.3666
적극	-12.3667
남다른	-12.367
참가자	-12.3672
사소	-12.3677
오랜만	-12.3678
개시	-12.3679
해온다	-12.368
지독	-12.3688
끼	-12.3688
▁호크	-12.369
토와	-12.3694
거침없이	-12.3695
그웬	-12.3696
귀도	-12.37
들르	-12.3714
모른다는	-12.3718
세리	-12.372
로져	-12.3731
기술자	-12.3732
모인다	-12.3732
전달	-12.3732
고철	-12.3734
관리인	-12.3747
인조	-12.3747
반해	-12.3759
알란	-12.3761
오후	-12.3761
탄지	-12.3762
전개	-12.3765
a	-12.3765
버그	-12.3774
전시	-12.3777
탐험가	-12.3777
함장	-12.3785
인한	-12.3787
목격자	-12.379
원수	-12.3806
영	-12.3812
▁불명	-12.3823
심한	-12.3827
▁미치	-12.3832
불만	-12.384
뇌	-12.3845
레아	-12.3852
다급	-12.3859
▁낸다	-12.3859
고르	-12.3864
일단	-12.3874
제도	-12.3907
왕년	-12.3909
총기	-12.3912
스턴트	-12.3922
▁르	-12.3926
▁잡혀	-12.3928
▁메리	-12.395
나사	-12.3969
▁태	-12.3977
플레이	-12.3977
아부	-12.3981
▁비밀리	-12.3984
후보	-12.399
간수	-12.3998
▁소행	-12.4003
ᆫ다면	-12.4005
덕	-12.4015
▁대부	-12.4016
집행	-12.4026
탐	-12.403
태양	-12.403
정비	-12.4033
전면	-12.4037
휴	-12.4037
▁극장	-12.4038
오른	-12.4046
독재	-12.4047
탑	-12.4051
차장	-12.4051
즐긴다	-12.4051
끊임없	-12.4063
중독	-12.4063
관찰	-12.4066
저격	-12.4067
공학	-12.4068
타락	-12.4069
첩보	-12.4069
설치	-12.4069
커피	-12.407
탈옥	-12.4072
접촉	-12.4072
내린	-12.4073
시합	-12.4073
해병	-12.4075
뭉친	-12.4075
새벽	-12.4076
돌아간	-12.4076
검사	-12.4076
마주친	-12.4077
포스	-12.4078
돔	-12.4078
스러워	-12.4079
불행	-12.408
아이스	-12.4088
레인	-12.409
수학	-12.409
인식	-12.4098
하버드	-12.4098
▁달린	-12.411
▁케이	-12.4112
▁즐	-12.4117
이탈	-12.4118
로저	-12.412
▁남겨진	-12.4123
▁갇힌	-12.4124
할리	-12.4126
▁자란	-12.414
▁상관	-12.4158
▁맥	-12.4159
▁플	-12.4162
살대	-12.4166
아담	-12.417
고문	-12.4171
들러	-12.4173
수면	-12.4177
건다	-12.418
▁핀	-12.4189
▁합쳐	-12.4192
▁조용	-12.4196
▁트리스	-12.4198
▁셀	-12.4198
▁글리	-12.4199
▁신디	-12.4199
▁뒤쫓	-12.4202
▁운반	-12.4205
▁남부	-12.4213
아닌가	-12.4228
수집	-12.4232
▁25	-12.424
▁암흑	-12.4241
▁복제	-12.4241
▁캘리포니아	-12.4242
▁게릴라	-12.4242
▁항해	-12.4243
기원	-12.4251
▁해안	-12.4255
▁어른	-12.4263
▁빚	-12.4267
▁히	-12.4268
▁쿠	-12.4274
▁성인	-12.4275
하트	-12.4325
▁여신	-12.4332
▁낮	-12.4334
▁룸	-12.4336
▁이티	-12.4342
조이	-12.4342
▁절	-12.4362
할지	-12.4367
창	-12.4376
▁탐험	-12.4385
▁홀리	-12.4405
▁소개	-12.4406
▁바라	-12.4423
▁록	-12.4446
▁알리	-12.4475
▁자라	-12.4475
▁촬영	-12.4485
빨	-12.4494
의지	-12.4496
준다는	-12.45
▁틀	-12.4501
해나	-12.4528
▁뚫	-12.4538
▁신문	-12.4548
타이	-12.4554
▁소문	-12.4555
화성	-12.456
해상	-12.4564
▁마술	-12.4598
내기	-12.4608
본성	-12.461
전날	-12.4626
▁외	-12.4636
부랑	-12.4657
깃들	-12.4669
▁폭주	-12.4675
치우	-12.4677
벌레	-12.4677
숙녀	-12.4677
울트론	-12.4677
▁페스	-12.4677
ie	-12.4678
거느리	-12.4678
설상	-12.4678
헤치	-12.4678
공통	-12.4678
익히	-12.4679
각색	-12.4679
셀러	-12.4679
힘겹	-12.4679
바르	-12.4681
우선	-12.4684
누비	-12.4684
달라지	-12.4685
끼치	-12.4685
서클	-12.4685
남다르	-12.469
캐내	-12.4697
단의	-12.4697
모자라	-12.4697
개미	-12.4698
지모	-12.4704
계시	-12.4725
▁휴	-12.4726
수족	-12.4734
사이드	-12.4736
!!	-12.4739
배리	-12.4741
화장	-12.4744
라니	-12.4758
끊기	-12.4776
▁영	-12.4777
ᄅ까	-12.4878
▁탐사	-12.4882
▁즐긴다	-12.4928
제한	-12.493
~	-12.4953
▁끊임없	-12.4976
▁194	-12.4994
▁모이	-12.5013
▁연합	-12.5046
백	-12.5058
▁전기	-12.506
기도	-12.5069
마고	-12.51
약하	-12.5105
한테	-12.5113
성인	-12.5113
▁덕	-12.5117
▁80	-12.5167
학자	-12.5182
eb	-12.5215
IM	-12.5223
느	-12.5228
▁뭉친	-12.5238
▁돌아간	-12.5241
▁마주친	-12.5242
수송	-12.5242
듯이	-12.5267
납	-12.5273
험	-12.5286
슈	-12.5295
▁정착	-12.5297
젖	-12.5298
민간	-12.5299
라스	-12.5299
극비	-12.5301
▁린	-12.5302
보인다	-12.5304
▁내린	-12.5306
심판	-12.5309
에너지	-12.531
좌절	-12.531
▁스러워	-12.531
▁불행	-12.531
추진	-12.5311
▁돔	-12.5313
▁포스	-12.5315
▁추	-12.5315
수배	-12.5316
▁아담	-12.5317
코드	-12.5317
봐	-12.5321
벗어난	-12.5321
닥친	-12.5321
부두	-12.5323
푹	-12.5324
사로잡	-12.5324
정면	-12.5324
뽑	-12.5324
설리	-12.5325
리처드	-12.5325
퍼시	-12.5325
스릴	-12.5325
산업	-12.5325
우즈	-12.5326
신입	-12.5326
자격	-12.5327
▁레인	-12.533
데니	-12.5332
공중	-12.5333
NA	-12.5335
▁예술	-12.5336
본다	-12.5336
대피	-12.5339
▁이탈	-12.534
마비	-12.5341
심해	-12.5342
수술	-12.5342
박스	-12.5342
변한	-12.5343
총알	-12.5343
연기	-12.5344
▁로저	-12.5344
▁작업	-12.5346
▁홀	-12.535
로빈	-12.5351
신나	-12.5354
은밀	-12.5355
XSN	-12.5357
마일	-12.5358
▁할리	-12.5359
▁쥬	-12.538
▁붉	-12.5383
▁미친	-12.5385
▁구경	-12.5387
▁러브	-12.5388
▁라이트	-12.5389
▁빨간	-12.5389
r	-12.539
▁상사	-12.5396
▁전국	-12.5396
▁서부	-12.5397
로니	-12.5404
▁유성	-12.5405
▁하트	-12.5406
▁종	-12.541
▁끝나	-12.5413
날아오	-12.5419
려다	-12.542
이민	-12.5431
수리	-12.5433
▁중국	-12.5454
▁격투	-12.5455
▁타임	-12.546
▁팅	-12.5461
▁승부	-12.5469
▁레나	-12.5469
▁폭행	-12.547
er	-12.552
토하	-12.5522
수다	-12.5523
▁완전	-12.5541
▁질투	-12.5543
▁겨울	-12.5544
▁죠	-12.5547
▁빼	-12.5577
▁할지	-12.5603
▁시험	-12.5608
▁청소	-12.5739
탕	-12.5756
▁클	-12.5758
가죽	-12.5759
보로	-12.5778
부를	-12.5797
속한	-12.5821
이드	-12.5824
고조	-12.5835
리드	-12.5854
허	-12.5858
▁도적	-12.5861
▁Jo	-12.5869
울려	-12.5891
▁소유	-12.5893
렉스	-12.591
▁이뤄	-12.5911
리포터	-12.5912
구석	-12.5913
노동	-12.5917
김	-12.5918
▁’!	-12.592
식민	-12.5921
틱	-12.5921
우먼	-12.5921
뒷	-12.5922
률	-12.5922
놀림	-12.5922
랜든	-12.5923
찌르	-12.5926
부동	-12.5926
앗	-12.5926
미사일	-12.5927
굶주	-12.5927
정신병자	-12.5927
기숙사	-12.5927
보름달	-12.5927
수사슴	-12.5927
끈질긴	-12.5927
소매치기	-12.5927
감쪽같이	-12.5927
고슴도치	-12.5927
근근이	-12.5927
글래스	-12.5927
글로벌	-12.5927
기븐스	-12.5927
넘쳐나	-12.5927
노릇	-12.5927
뉴올리언스	-12.5927
뉴올리언즈	-12.5927
디셉티콘	-12.5927
디젤	-12.5927
라파엘	-12.5927
럭셔리	-12.5927
레오니다스	-12.5927
레전드	-12.5927
마운틴	-12.5927
마찬가지	-12.5927
마틸다	-12.5927
맘껏	-12.5927
모비우스	-12.5927
무찔러	-12.5927
바네사	-12.5927
바라쿠다	-12.5927
뱅가드	-12.5927
뱅크스	-12.5927
브랜치	-12.5927
브렌트	-12.5927
브리트니	-12.5927
사뮤엘	-12.5927
세드릭	-12.5927
소말리아	-12.5927
스나이퍼	-12.5927
스마우그	-12.5927
스머프	-12.5927
스웨거	-12.5927
스케일	-12.5927
스테픈	-12.5927
스튜디오	-12.5927
스틸러	-12.5927
시애틀	-12.5927
쏟아져	-12.5927
아티스트	-12.5927
알레한드로	-12.5927
애지중지	-12.5927
어김없이	-12.5927
에스페란자	-12.5927
에피소드	-12.5927
엘도라도	-12.5927
엠마누엘	-12.5927
예루살렘	-12.5927
오비완	-12.5927
오아시스	-12.5927
오코넬	-12.5927
와이어트	-12.5927
유니콘	-12.5927
잔뜩	-12.5927
저스틴	-12.5927
질렌할	-12.5927
코스텔로	-12.5927
크라켄	-12.5927
크립톤	-12.5927
템페스트	-12.5927
퇴출	-12.5927
트랜스포머	-12.5927
티격태격	-12.5927
파라다이스	-12.5927
팔레스타인	-12.5927
패러디	-12.5927
패리쉬	-12.5927
퍼틴	-12.5927
페루치오	-12.5927
페르디난드	-12.5927
페르세우스	-12.5927
페스티벌	-12.5927
포레스트	-12.5927
폴란드	-12.5927
프로그래머	-12.5927
프로스트	-12.5927
필름	-12.5927
헤이우드	-12.5927
확률	-12.5927
히긴스	-12.5927
교환	-12.5928
늘어놓	-12.5928
망가져	-12.5928
반가운	-12.5928
봉황	-12.5928
비비안	-12.5928
와트니	-12.5928
코카인	-12.5928
균열	-12.5928
디지털	-12.5928
보우만	-12.5928
불가사의	-12.5928
세인트	-12.5928
집어삼키	-12.5928
체이스	-12.5928
취향	-12.5928
가라앉	-12.5928
뒤집어쓰	-12.5928
흉측	-12.5928
이슬라	-12.5928
클리포드	-12.5928
슈미트	-12.5928
탐탐	-12.5928
컨버터	-12.5928
관광객	-12.5928
아쿠아	-12.5928
하이브리드	-12.5928
무너진	-12.5928
벌어졌	-12.5928
블레이크	-12.5928
스카이워커	-12.5928
움직일	-12.5928
쿠스코	-12.5928
합병	-12.5928
곤도르	-12.5928
네이든	-12.5928
노르웨이	-12.5928
이즈마	-12.5928
쥬라기	-12.5928
세일즈맨	-12.5928
지날수록	-12.5928
▁Mr	-12.5928
러윈	-12.5928
아지트	-12.5928
소스케	-12.5928
억압	-12.5928
바른	-12.5928
버림	-12.5928
에이프릴	-12.5928
교외	-12.5928
레옹	-12.5928
슬픈	-12.5928
관료	-12.5928
미니언	-12.5928
유희	-12.5928
촉망	-12.5928
시추선	-12.5928
우현	-12.5928
후타로	-12.5928
씽씽	-12.5928
휘말린	-12.5928
셰프	-12.5928
샌들러	-12.5928
태풍	-12.5928
팔찌	-12.5928
퍼져	-12.5928
로알드	-12.5928
어수선	-12.5928
브로즈	-12.5928
테크노	-12.5928
놀랄	-12.5928
붙잡힌	-12.5928
트레버	-12.5928
미용실	-12.5928
미카엘	-12.5928
외곽	-12.5928
밝힐	-12.5928
출처	-12.5928
리드맨	-12.5928
합세	-12.5928
갈림길	-12.5928
교실	-12.5928
소향	-12.5928
강압	-12.5928
교감	-12.5928
종지부	-12.5928
피아노	-12.5928
백만장자	-12.5928
가만히	-12.5928
퇴사	-12.5928
교황청	-12.5928
레슬링	-12.5928
억울	-12.5928
모조리	-12.5928
냉전	-12.5928
립스	-12.5928
현금	-12.5928
철거	-12.5928
부근	-12.5928
사령관	-12.5928
연맹	-12.5928
토템	-12.5928
에스더	-12.5928
트랩	-12.5928
예약	-12.5928
추측	-12.5928
경연	-12.5928
인터폴	-12.5928
날아온	-12.5928
링컨	-12.5928
였음을	-12.5928
주머니쥐	-12.5928
천외	-12.5928
상냥	-12.5928
플릭	-12.5928
머글	-12.5928
바닷물	-12.5928
방황	-12.5928
올라타	-12.5928
당했	-12.5928
감당	-12.5928
비키니	-12.5928
돌고래	-12.5928
여기저기	-12.5928
왕좌	-12.5928
유죄	-12.5928
비커스	-12.5928
희대	-12.5928
형무소	-12.5928
현란	-12.5928
▁48	-12.5928
암울	-12.5928
기차역	-12.5928
반갑	-12.5928
끝났	-12.5928
자유자재	-12.5928
산티노	-12.5928
강철	-12.5929
떠돈	-12.5929
컨트롤	-12.5929
강탈	-12.5929
부작용	-12.5929
젠슨	-12.5929
치히로	-12.5929
뱃속	-12.5929
타이탄	-12.5929
블랙우드	-12.5929
경우	-12.5929
로빈슨	-12.5929
괴짜	-12.5929
당할	-12.5929
피비린내	-12.5929
혈통	-12.5929
멀린	-12.5929
커츠	-12.5929
클레이드	-12.5929
동영상	-12.5929
패닉	-12.5929
오른팔	-12.5929
각종	-12.5929
쿠노	-12.5929
피콜로	-12.5929
악덕	-12.5929
기다린다	-12.5929
신디케이트	-12.5929
태양계	-12.5929
정확히	-12.5929
드리우	-12.5929
거둔다	-12.5929
마지못해	-12.5929
미콜라	-12.5929
연루	-12.5929
생물학자	-12.5929
업무	-12.5929
출생	-12.5929
마가렛	-12.5929
무찌르	-12.5929
솔트	-12.5929
다가올수록	-12.5929
거슬러	-12.5929
체력	-12.5929
생화학	-12.5929
라몬	-12.5929
얼룩말	-12.5929
정처	-12.5929
손아귀	-12.593
악행	-12.593
충성심	-12.593
휴먼	-12.593
망신	-12.593
윌라드	-12.593
샹치	-12.593
풍선	-12.593
스티치	-12.593
승선	-12.593
심슨	-12.593
티아나	-12.593
약점	-12.593
소린	-12.593
패거리	-12.593
엑스맨	-12.593
보복	-12.593
미묘	-12.593
초토화	-12.593
총책임자	-12.593
미운	-12.593
파격	-12.593
철저히	-12.593
구미	-12.593
당장	-12.593
풍부	-12.593
인공섬	-12.593
불사신	-12.593
소꿉친구	-12.593
추정	-12.593
색다른	-12.5931
곧이어	-12.5931
걸려온다	-12.5931
가상현실	-12.5931
망가지	-12.5931
판매	-12.5931
구입	-12.5931
재결합	-12.5931
계절	-12.5931
손녀	-12.5931
사설	-12.5931
당도	-12.5931
요란	-12.5931
원래	-12.5931
전복	-12.5931
키팅	-12.5931
은밀히	-12.5931
파이트	-12.5931
황무지	-12.5931
통화	-12.5931
거울	-12.5931
무책	-12.5931
키아라	-12.5931
추위	-12.5931
형태	-12.5931
존경	-12.5931
스승	-12.5932
부호	-12.5932
편견	-12.5932
롤리	-12.5932
소통	-12.5932
제라드	-12.5932
끌려온	-12.5932
말랑	-12.5932
매우	-12.5932
유대감	-12.5932
칸토	-12.5932
머나	-12.5932
경관	-12.5932
쿠바	-12.5932
대출	-12.5932
수도원	-12.5932
피톨	-12.5932
자홍	-12.5932
맥심	-12.5932
몸값	-12.5932
금방	-12.5933
켄신	-12.5933
보살피	-12.5933
살려야	-12.5933
싸워야	-12.5933
크리스천	-12.5933
누드	-12.5933
맥피	-12.5933
순박	-12.5933
선교사	-12.5933
제약	-12.5933
원망	-12.5933
포착	-12.5933
정작	-12.5933
영생	-12.5933
데려다	-12.5934
숨겨온	-12.5934
부랑자	-12.5934
팀플레이	-12.5934
우드	-12.5934
오싹	-12.5934
챈스	-12.5934
별난	-12.5934
바디	-12.5934
라이조	-12.5934
몇몇	-12.5934
달라스	-12.5934
어찌	-12.5934
번영	-12.5934
급히	-12.5934
연달	-12.5935
트레이시	-12.5935
필주	-12.5935
해리슨	-12.5935
수퍼	-12.5935
가치관	-12.5935
또래	-12.5935
구박	-12.5935
장래	-12.5935
거미줄	-12.5935
저마다	-12.5935
빈자리	-12.5935
속출	-12.5935
비록	-12.5935
임모	-12.5935
끝낼	-12.5935
식민지	-12.5935
카레	-12.5936
리브	-12.5936
개척자	-12.5936
라미	-12.5936
헤나	-12.5936
떨치	-12.5936
호시	-12.5936
막내딸	-12.5936
희한	-12.5936
마비스	-12.5936
따라다니	-12.5937
젠더	-12.5937
떠도	-12.5937
라우라	-12.5937
단절	-12.5937
혈안	-12.5937
소닉	-12.5937
애정	-12.5937
지켜줄	-12.5938
선포	-12.5938
권총	-12.5938
주유	-12.5938
▁산다	-12.5939
별거	-12.5939
메타	-12.5939
리코	-12.5939
전과자	-12.5939
건강	-12.5939
바트	-12.594
보험	-12.594
대답	-12.594
느라	-12.594
빈민가	-12.594
배신감	-12.5941
선거	-12.5941
남북	-12.5941
초호	-12.5941
심비	-12.5941
나이키	-12.5941
코스타	-12.5942
견제	-12.5942
감돈	-12.5942
오로지	-12.5942
불안감	-12.5942
알아낸다	-12.5942
놀리	-12.5943
약간	-12.5943
강박	-12.5943
오닐	-12.5943
우타	-12.5943
출산	-12.5944
상상력	-12.5944
콜라	-12.5944
끝낸	-12.5945
구속	-12.5945
▁뜨	-12.5945
야생마	-12.5945
지켜온	-12.5946
히어로즈	-12.5946
메간	-12.5946
달빛	-12.5946
걸까	-12.5947
공사	-12.5947
비법	-12.5948
극단	-12.5948
무력	-12.5949
내민	-12.5949
눈빛	-12.5949
베타	-12.5949
시점	-12.595
둘러싸인	-12.595
빠져버린	-12.595
주술사	-12.595
종일	-12.5951
대처	-12.5952
코소	-12.5952
달아난다	-12.5952
개방	-12.5953
따라나선다	-12.5953
월러	-12.5953
수배자	-12.5953
내려가	-12.5953
유태인	-12.5953
궁지	-12.5954
금치	-12.5954
될수록	-12.5954
대체	-12.5954
연속	-12.5954
채용	-12.5955
연일	-12.5956
자영	-12.5956
바닷가	-12.5957
해리포터	-12.5958
개스톤	-12.5958
로써	-12.5959
독재자	-12.596
니카	-12.596
높이	-12.5961
남몰래	-12.5961
초등	-12.5961
해답	-12.5961
▁지니	-12.5961
함선	-12.5962
쓰러진다	-12.5962
발목	-12.5962
거스	-12.5962
남쪽	-12.5962
열세	-12.5965
자행	-12.5965
묶인	-12.5965
주요	-12.5966
개입	-12.5966
면회	-12.5967
레이서	-12.5967
정사	-12.5967
사형수	-12.5968
마리온	-12.5969
강력반	-12.5969
그레그	-12.5969
목사	-12.5969
어울려	-12.597
루오	-12.597
반감	-12.5971
엘리오	-12.5972
오트	-12.5972
파편	-12.5972
청한다	-12.5973
시위	-12.5973
▁28	-12.5975
여배우	-12.5975
파차	-12.5975
조수아	-12.5977
키라	-12.5978
심문	-12.598
직후	-12.5981
복수심	-12.5981
아이즈	-12.5982
재치	-12.5983
수잔	-12.5984
태도	-12.5985
화면	-12.5985
라이브	-12.5986
질문	-12.5986
시터	-12.5987
눈물	-12.5988
첫째	-12.5988
요다	-12.5989
손잡고	-12.5991
아라곤	-12.5991
얼마나	-12.5991
대담	-12.5993
버전	-12.5994
책임지	-12.5995
그렇지만	-12.5996
세실	-12.5996
관심사	-12.5999
해리스	-12.5999
기도서	-12.6001
무단	-12.6004
새엄마	-12.6006
형편	-12.6007
주체	-12.6007
줄스	-12.6008
지낸다	-12.6009
채피	-12.6013
따로	-12.6015
주피터	-12.6016
수백만	-12.6016
회수	-12.6016
발사	-12.6018
서막	-12.6019
생일날	-12.602
갇힌다	-12.6021
기린	-12.6022
남동생	-12.6022
비치	-12.6025
등등	-12.6026
불신	-12.6028
독자	-12.6029
전우	-12.6029
갖가지	-12.603
피치	-12.6032
초사	-12.6032
무명	-12.6035
▁갱	-12.604
수색	-12.6042
외톨이	-12.6046
분방	-12.6046
만점	-12.6047
진주	-12.6048
스타일	-12.6048
권력자	-12.6049
중학생	-12.6051
바오	-12.6052
대대로	-12.6055
고래	-12.6061
전작	-12.6064
조상	-12.6065
차마	-12.6067
호주	-12.6068
에스텔라	-12.6078
에드가	-12.6078
지식	-12.6081
강인	-12.6089
M	-12.6091
한탕	-12.6091
로워	-12.6093
전학생	-12.6093
죽인다	-12.6094
반사	-12.6096
▁통	-12.61
일지	-12.6103
몸집	-12.6109
▁반란	-12.6111
이전	-12.6112
자식	-12.6119
or	-12.6121
사생활	-12.6122
가석방	-12.6124
드문	-12.6127
알바	-12.6135
똑같이	-12.614
속수	-12.6144
대면	-12.6152
도서	-12.6156
로리타	-12.6157
시속	-12.616
아포	-12.6162
베인	-12.6163
아무리	-12.6167
개발자	-12.6172
비전	-12.6181
목적지	-12.6183
이단	-12.6187
듀이	-12.6187
제의	-12.6191
적진	-12.6194
해든	-12.6197
대치	-12.6203
▁보인다	-12.6209
탄로	-12.621
수입	-12.6214
▁뇌	-12.622
▁U	-12.6221
대학교	-12.6223
▁백	-12.6238
앞집	-12.6239
적군	-12.6244
반장	-12.6248
하울	-12.6257
이집트인	-12.6259
도발	-12.6263
▁웃	-12.6266
▁실	-12.6269
보호자	-12.6278
형수	-12.6281
산다	-12.6292
분야	-12.6295
먼지	-12.6297
대중	-12.6319
집시	-12.6323
기우	-12.6337
다정	-12.6357
전원	-12.636
목성	-12.6361
기병	-12.6361
문자	-12.6374
▁신나	-12.6381
영국인	-12.6392
관계자	-12.6397
▁걷	-12.6428
피자	-12.6433
젠	-12.6455
팀장	-12.6462
▁마일	-12.6468
앞날	-12.6469
▁려다	-12.6472
▁벗어난	-12.6493
▁닥친	-12.6496
▁봐	-12.6506
▁로니	-12.6509
전투기	-12.6526
석	-12.6527
원로	-12.6545
▁변한	-12.6546
▁설리	-12.6555
▁푹	-12.656
▁데니	-12.656
▁느	-12.6563
▁스릴	-12.6564
▁뽑	-12.6566
▁사로잡	-12.6567
▁마비	-12.6567
▁리처드	-12.6568
▁우즈	-12.6569
▁퍼시	-12.6569
▁박스	-12.6569
어제	-12.658
오만	-12.6582
▁라스	-12.6586
▁이민	-12.6589
▁로빈	-12.6593
▁탈옥	-12.6594
▁은밀	-12.6596
▁접촉	-12.6602
악한	-12.6605
▁시합	-12.6612
▁자비	-12.6616
상인	-12.6624
론가	-12.6624
중상	-12.6625
주머니	-12.6631
c	-12.6637
선고	-12.6638
고모	-12.6653
▁탑	-12.6655
▁새벽	-12.6658
솔	-12.6664
버드	-12.6668
정찰	-12.6668
유태	-12.667
교황	-12.6671
언	-12.6673
공동	-12.6673
곡	-12.6694
프레드	-12.6696
덤	-12.6698
오토	-12.6699
▁인식	-12.6703
어라	-12.6704
찰	-12.6705
걸로	-12.6708
유리	-12.6711
요리	-12.6712
테리	-12.6714
억	-12.6717
만장	-12.6718
계승	-12.6725
바닥	-12.6725
모범	-12.6726
유모	-12.6727
쓰레기	-12.6727
발표	-12.6727
능력자	-12.6732
해져	-12.6734
여우	-12.6735
들린	-12.6736
교육	-12.6738
밝	-12.6739
첩	-12.6739
컨	-12.674
통치	-12.674
나간	-12.674
테스트	-12.6741
수영	-12.6743
깬	-12.6743
빼앗긴	-12.6744
▁늦	-12.6744
된다는	-12.6744
싸워	-12.6744
찾아간	-12.6744
▁60	-12.6744
변장	-12.6745
즉	-12.6746
호프	-12.6746
안정	-12.6747
뻔	-12.6747
굿	-12.6747
숨겨	-12.6747
스티븐	-12.6747
느껴	-12.6747
그래서	-12.6747
꼭	-12.6747
발전	-12.6748
여긴	-12.6748
보낼	-12.6751
실제	-12.6751
팔려	-12.6751
피카	-12.6753
레오	-12.6754
줄리	-12.6756
해방	-12.6758
내린다	-12.6758
놓여	-12.6759
친해	-12.6759
카라	-12.6764
데비	-12.6764
무사	-12.6765
카일	-12.677
▁40	-12.6771
금기	-12.6771
문화	-12.6773
다면서	-12.6782
▁침략	-12.6782
살려	-12.6788
리지	-12.6797
대사	-12.6799
해온	-12.6808
g	-12.6818
보여	-12.682
▁경호	-12.6827
가담	-12.6834
▁지원	-12.6835
대대	-12.6839
▁보로	-12.6857
총성	-12.69
기생	-12.6916
도리	-12.6917
▁꾸	-12.693
고위	-12.6932
▁자금	-12.6935
로건	-12.6957
성대	-12.6969
해양	-12.699
고생	-12.6994
신기	-12.6995
l	-12.7011
▁막내	-12.7017
▁대장	-12.7031
제어	-12.7048
▁패션	-12.7104
보장	-12.7111
하임	-12.7114
다소	-12.7171
그걸	-12.7211
맹	-12.7247
갑	-12.7264
고서	-12.7265
수중	-12.7276
굴	-12.7281
수년	-12.7301
▁긴장	-12.7301
의도	-12.7309
on	-12.7312
▁거듭	-12.7315
▁씨	-12.7328
망치	-12.7331
자주	-12.7341
EO	-12.7342
보수	-12.7342
백악	-12.7346
붓	-12.7347
싹	-12.7348
▁혁명	-12.7352
롤러	-12.7353
화학	-12.7354
꿉	-12.7355
앵무	-12.7356
투합	-12.7356
날카롭	-12.7356
갈라지	-12.7356
틀어지	-12.7356
슬프	-12.7356
어지럽히	-12.7356
나뭇	-12.7356
생겨나	-12.7356
알아채	-12.7357
▁99	-12.7357
코스터	-12.7357
싫어하	-12.7357
쳐들어오	-12.7357
불청	-12.7359
따위	-12.7359
극악	-12.7359
올라오	-12.736
가락	-12.7361
모함	-12.7365
▁책임	-12.7366
휴대	-12.7371
포위	-12.7371
사무	-12.7383
채우	-12.7386
에이미	-12.7399
지라	-12.7417
원시	-12.7419
자루	-12.743
기간	-12.7444
재해	-12.7462
명분	-12.7475
뒤덮이	-12.7478
형성	-12.7479
오인	-12.7524
돌이	-12.7524
다투	-12.7537
기력	-12.756
전선	-12.7575
화산	-12.7579
분명	-12.7583
깨지	-12.7595
▁탐	-12.761
▁옷	-12.7618
▁유전	-12.7619
전과	-12.7644
▁과학	-12.7654
▁축구	-12.7658
▁옆	-12.7659
안기	-12.7667
다발	-12.7737
라인	-12.7746
사전	-12.7805
▁물리	-12.7806
ig	-12.7822
누이	-12.7854
▁줄리	-12.7861
▁험	-12.7892
▁테스트	-12.7898
▁깬	-12.7914
▁수호	-12.7915
▁놀라	-12.7919
▁실제	-12.7921
▁빼앗긴	-12.7925
기치	-12.7932
▁찾아간	-12.7933
▁여긴	-12.7933
▁싸워	-12.7939
붙	-12.7943
▁첩	-12.795
▁즉	-12.7963
▁대대	-12.7966
▁심해	-12.7967
▁나간	-12.7972
▁호프	-12.7975
▁솔	-12.7982
▁숨겨	-12.7982
로만	-12.7988
▁해온	-12.7992
▁팔려	-12.7996
▁분명	-12.7997
▁문화	-12.7998
▁굿	-12.7999
▁해져	-12.8
▁젠	-12.8001
▁그래서	-12.8001
▁컨	-12.8002
▁느껴	-12.8003
▁스티븐	-12.8003
▁꼭	-12.8004
▁뻔	-12.8004
▁보낼	-12.8004
▁데비	-12.8004
▁내린다	-12.8005
▁친해	-12.8006
하비	-12.8007
이론	-12.8007
▁카라	-12.8007
▁프레드	-12.8008
▁레오	-12.8008
▁오토	-12.8009
▁피카	-12.8009
▁카일	-12.8009
▁놓여	-12.8012
고기	-12.8018
▁격	-12.8021
▁살려	-12.8029
무이	-12.8045
▁보여	-12.805
인수	-12.8066
승	-12.8091
▁코드	-12.8094
▁산업	-12.8104
▁정면	-12.8107
▁신입	-12.8108
▁공중	-12.8108
▁자격	-12.811
▁대피	-12.8111
▁이기	-12.8118
▁수술	-12.8119
▁연기	-12.8121
▁총알	-12.8123
호이	-12.8147
▁공학	-12.8155
▁수학	-12.8162
순	-12.8164
▁저격	-12.8164
▁수집	-12.8167
▁검사	-12.8169
멜	-12.8172
펠	-12.8177
▁신기	-12.8182
▁첩보	-12.819
움	-12.8207
▁관찰	-12.8209
▁타락	-12.8211
▁해독	-12.8211
▁설치	-12.8212
▁커피	-12.8212
경	-12.8216
▁끼	-12.8217
오가	-12.822
▁500	-12.8226
무게	-12.8239
나기	-12.8249
본의	-12.8291
▁고문	-12.8299
▁욕	-12.8306
▁유	-12.8307
▁혈	-12.8307
▁엉망	-12.8317
▁산타	-12.8317
찢	-12.8322
고난	-12.8328
국민	-12.8329
빙	-12.8329
슬러	-12.8332
경영	-12.8336
동업	-12.8337
철학	-12.8338
유언	-12.8338
스포츠	-12.8339
잠재	-12.8342
딱	-12.8357
힐	-12.8358
도망	-12.836
▁195	-12.8363
빗	-12.8363
뜬	-12.8371
샤	-12.8372
우울	-12.8374
집결	-12.8375
모욕	-12.8375
캠	-12.8375
보유	-12.8379
위조	-12.8379
휘	-12.838
화물	-12.838
노린다	-12.8384
스키	-12.8384
틴	-12.8386
듀	-12.8388
콤	-12.8392
제트	-12.8393
피라미드	-12.8394
영향	-12.8394
스노우	-12.8394
벗	-12.8394
전환	-12.8395
헤어	-12.8396
푼	-12.8396
심술	-12.8397
조카	-12.8399
챈	-12.8401
몰린	-12.8402
저지른	-12.8402
드러낸	-12.8402
거듭난	-12.8403
놀란	-12.8403
도망친	-12.8404
장례식	-12.8404
펄	-12.8404
말린	-12.8405
소니	-12.8405
팩	-12.8405
상실	-12.8405
크리스티	-12.8405
씽	-12.8406
격렬	-12.8406
마블	-12.8406
밴	-12.8406
코미디	-12.8406
퐁	-12.8406
제프	-12.8406
드림	-12.8406
엑스	-12.8406
철저	-12.8406
순진	-12.8406
드레	-12.8406
루카	-12.8407
코니	-12.8408
메트로	-12.8408
아델라	-12.841
리처	-12.841
코스	-12.841
스파이더	-12.8412
주어진다	-12.8412
오브	-12.8412
▁깨우	-12.8412
슬로	-12.8413
물려	-12.8415
처해	-12.8416
베일	-12.8416
크레이	-12.8417
솔로	-12.8417
▁초토	-12.8421
수십	-12.8425
▁유대	-12.8433
레지	-12.8434
사명	-12.8434
입장	-12.8438
벌인	-12.844
비상	-12.8447
고고	-12.8451
-	-12.8453
MAJ	-12.8455
는다는	-12.8464
자는	-12.8469
▁하비	-12.8472
▁울	-12.8481
하무	-12.8485
상속	-12.8488
▁고서	-12.8509
▁안내	-12.8519
▁쳐	-12.852
▁겉	-12.8521
해치	-12.8522
종이	-12.8525
소수	-12.8526
▁조이	-12.853
이중	-12.8545
에르	-12.8557
녀	-12.8563
▁점	-12.8602
▁이단	-12.861
▁페이스	-12.8639
전장	-12.8639
어다	-12.8642
분열	-12.8646
▁타이	-12.8661
로비	-12.8663
주로	-12.8676
▁고아	-12.8677
고든	-12.8677
반한	-12.869
▁보라	-12.869
▁놀이	-12.8702
에드	-12.8702
b	-12.8718
▁조각	-12.8721
▁건너	-12.8736
▁궁금	-12.8746
교	-12.8755
에선	-12.8762
▁흘러	-12.8775
당	-12.8785
▁촌	-12.8791
터널	-12.8792
기후	-12.8795
딘	-12.8802
▁친	-12.8819
성수	-12.8822
스텔라	-12.8825
스터	-12.8831
지지	-12.8848
켜	-12.8849
▁해적	-12.8871
렛	-12.8871
겨	-12.8883
▁가치	-12.8884
f	-12.8894
미키	-12.8897
번성	-12.8902
항	-12.8914
유로	-12.8921
업체	-12.8944
뜬다	-12.8947
▁바뀐	-12.8949
리키	-12.8958
울린다	-12.8972
한데	-12.8972
▁다름	-12.8982
거북	-12.8992
억만	-12.8992
▁바깥	-12.9002
흥	-12.9002
닝	-12.9006
흑	-12.901
션	-12.9011
신고	-12.9014
사춘	-12.9015
딩	-12.9017
드로이드	-12.9017
소꿉	-12.902
마칠	-12.902
클론	-12.902
추천	-12.902
스트리트	-12.9021
스퍼	-12.9022
민병	-12.9022
덩어리	-12.9022
레스터	-12.9022
▁말썽	-12.9022
꾀	-12.9022
골칫	-12.9022
정거	-12.9023
중개업자	-12.9023
승승	-12.9023
가벼운	-12.9023
바람둥이	-12.9023
새겨진	-12.9023
천신만고	-12.9023
몬테카를로	-12.9023
쓰여진	-12.9023
골칫덩어리	-12.9023
싹쓸이	-12.9023
인신매매	-12.9023
질풍노도	-12.9023
크로스컨트리	-12.9023
산타클로스	-12.9023
아비규환	-12.9023
테마파크	-12.9023
갑작스레	-12.9023
겁쟁이	-12.9023
고블린	-12.9023
광저우	-12.9023
근근히	-12.9023
녹스빌	-12.9023
느닷없이	-12.9023
도나텔로	-12.9023
도미니카	-12.9023
두려운	-12.9023
디스트릭트	-12.9023
디트로이트	-12.9023
라스베가스	-12.9023
라스베이거스	-12.9023
라운드	-12.9023
라퓨타	-12.9023
리메이크	-12.9023
마히토	-12.9023
막시무스	-12.9023
맥팔레인	-12.9023
모니터	-12.9023
모스크바	-12.9023
몽구스	-12.9023
무너져	-12.9023
무르익	-12.9023
뮤지션	-12.9023
미디안	-12.9023
미얀마	-12.9023
바스티안	-12.9023
배긴스	-12.9023
범블비	-12.9023
베킨세일	-12.9023
보디가드	-12.9023
브래들리	-12.9023
브루노	-12.9023
브릭스턴	-12.9023
블라디미르	-12.9023
블론디	-12.9023
사일런트	-12.9023
샤이닝	-12.9023
서슴없이	-12.9023
섹션	-12.9023
센티넬	-12.9023
숙희	-12.9023
스네이크	-12.9023
스니드	-12.9023
시즈쿠	-12.9023
아놀드	-12.9023
아드리앙	-12.9023
아르바이트	-12.9023
아름다움	-12.9023
아마추어	-12.9023
알래스카	-12.9023
알렉산드로	-12.9023
알카트라즈	-12.9023
알퐁스	-12.9023
어리둥절	-12.9023
에드먼드	-12.9023
에르네스토	-12.9023
에메랄드	-12.9023
엑스칼리버	-12.9023
오케스트라	-12.9023
오필리아	-12.9023
옮긴다	-12.9023
요한슨	-12.9023
우르스	-12.9023
우술라	-12.9023
움직임	-12.9023
유난히	-12.9023
으스스	-12.9023
익스프레스	-12.9023
인셉션	-12.9023
인크레더블	-12.9023
일루미나티	-12.9023
임파서블	-12.9023
자메이카	-12.9023
자이언트	-12.9023
정태석	-12.9023
즐거움	-12.9023
차림	-12.9023
천방지축	-12.9023
치카노	-12.9023
카멜리아	-12.9023
카운티	-12.9023
캄캄	-12.9023
캐스피언	-12.9023
캘러웨이	-12.9023
코렐라	-12.9023
코스트너	-12.9023
코요미	-12.9023
콘래드	-12.9023
토너먼트	-12.9023
토렌스	-12.9023
트위디	-12.9023
파치노	-12.9023
파키스탄	-12.9023
페르디타	-12.9023
펠프스	-12.9023
프란시스	-12.9023
프랜차이즈	-12.9023
프로듀서	-12.9023
프로페셔널	-12.9023
플라잉	-12.9023
플레처	-12.9023
플렛처	-12.9023
필리핀	-12.9023
허름	-12.9023
헤네시	-12.9023
헬리콥터	-12.9023
혼비백산	-12.9023
홀연히	-12.9023
확실히	-12.9023
힘겨운	-12.9023
다프네	-12.9023
도미노	-12.9023
도저히	-12.9023
로맨틱	-12.9023
로버츠	-12.9023
로웨나	-12.9023
매그니	-12.9023
미들랜드	-12.9023
미디어	-12.9023
베를린	-12.9023
비스트	-12.9023
사나운	-12.9023
스위스	-12.9023
알프스	-12.9023
야쿠자	-12.9023
요즘	-12.9023
우크라	-12.9023
웨딩	-12.9023
전지전능	-12.9023
카지노	-12.9023
킬리언	-12.9023
파인즈	-12.9023
황궁	-12.9023
골룸	-12.9023
나이트메어	-12.9023
달마티아	-12.9023
사사키	-12.9023
타투인	-12.9023
극악무도	-12.9023
시로우	-12.9023
액체	-12.9023
자물쇠	-12.9023
차크라	-12.9023
풀려난	-12.9023
핸드폰	-12.9023
황급히	-12.9023
규합	-12.9023
균형	-12.9023
끌어들여	-12.9023
멈출	-12.9023
무심코	-12.9023
불면증	-12.9023
설렘	-12.9023
아비게일	-12.9023
움직인	-12.9023
웨이언스	-12.9023
유유히	-12.9023
쥬만지	-12.9023
찌른	-12.9023
찌질	-12.9023
황홀	-12.9023
휴대폰	-12.9023
흩어진	-12.9023
뛰어든	-12.9023
마르셀	-12.9023
몰아친	-12.9023
엉망진창	-12.9023
이루어져	-12.9023
포위망	-12.9023
품평회	-12.9023
게스트	-12.9023
교류	-12.9023
깃든	-12.9023
네이트	-12.9023
코넬리우스	-12.9023
트랜스포터	-12.9023
호가드	-12.9023
화이트	-12.9023
강대국	-12.9023
굴욕	-12.9023
내려진다	-12.9023
냉담	-12.9023
빠트리	-12.9023
시니어	-12.9023
오스틴	-12.9023
햄버거	-12.9023
흥미진진	-12.9023
실베스타	-12.9023
후유증	-12.9023
강림	-12.9023
사무라이	-12.9023
세이디	-12.9023
기다려온	-12.9023
리본군	-12.9023
싸이렌	-12.9023
컴백	-12.9023
베른	-12.9023
클로딘	-12.9023
합법	-12.9023
끈끈	-12.9023
덩달	-12.9023
헬싱	-12.9023
따윈	-12.9023
빠졌	-12.9023
종료	-12.9023
청춘	-12.9023
삭제	-12.9023
발보아	-12.9023
베이더	-12.9023
젠틀맨	-12.9023
와일드	-12.9023
피난민	-12.9023
불어넣	-12.9023
나눈다	-12.9023
추궁	-12.9023
공황	-12.9023
조나스	-12.9023
부두교	-12.9023
잔꾀	-12.9023
히나타	-12.9023
원자력	-12.9023
폐업	-12.9023
포크스	-12.9023
애꾸눈	-12.9023
슈레더	-12.9023
헤비	-12.9023
양육	-12.9023
황실	-12.9023
유부남	-12.9023
케이블	-12.9023
테두리	-12.9023
센트럴	-12.9023
떠밀려	-12.9023
물리칠	-12.9023
심취	-12.9023
골칫거리	-12.9023
뉴잉글랜드	-12.9023
하느님	-12.9023
모가도	-12.9023
외동딸	-12.9023
꽃다발	-12.9023
배심원	-12.9023
소외감	-12.9023
체험	-12.9023
프로모터	-12.9023
학창	-12.9023
가르쳐	-12.9023
연출	-12.9023
황야	-12.9023
세이야	-12.9023
징집	-12.9023
압박	-12.9023
액수	-12.9023
힐링	-12.9023
찍힌	-12.9023
답답	-12.9023
처벌	-12.9023
발현	-12.9023
출구	-12.9023
띄워	-12.9023
박힌	-12.9023
알리시아	-12.9023
캔디	-12.9023
분수대	-12.9023
재현	-12.9023
근사	-12.9023
꼭대기	-12.9023
번번이	-12.9023
불러들여	-12.9023
외교	-12.9023
▁199	-12.9023
랜턴	-12.9023
맥베인	-12.9023
싸울	-12.9023
떠맡	-12.9023
페이스트리	-12.9023
와이파이	-12.9023
치른	-12.9023
궁극	-12.9023
벌써	-12.9023
에이모스	-12.9023
남겨둔	-12.9023
표식	-12.9023
레슬리	-12.9023
웰런	-12.9023
장난꾸러기	-12.9023
키튼	-12.9023
부잣집	-12.9023
유치원	-12.9023
머릿속	-12.9023
세워진	-12.9023
캠벨	-12.9024
동태	-12.9024
영역	-12.9024
키드먼	-12.9024
안기부	-12.9024
외로워	-12.9024
눈부시	-12.9024
이곳저곳	-12.9024
헬렌	-12.9024
허니문	-12.9024
감출	-12.9024
아카데미상	-12.9024
내려놓	-12.9024
둔갑	-12.9024
맹세	-12.9024
주성치	-12.9024
애완용	-12.9024
덴트	-12.9024
왈드	-12.9024
선풍	-12.9024
랜디	-12.9024
겁탈	-12.9024
아득히	-12.9024
매디슨	-12.9024
친밀	-12.9024
다행히	-12.9024
연령	-12.9024
페이스북	-12.9024
가까워질수록	-12.9024
놀이공원	-12.9024
바넬	-12.9024
그리움	-12.9024
마냥	-12.9024
독수리	-12.9024
메린	-12.9024
공동체	-12.9024
소환	-12.9024
윈터	-12.9024
도가니	-12.9024
브레인	-12.9024
시달린다	-12.9024
타마라	-12.9024
불량배	-12.9024
박탈	-12.9024
진압	-12.9024
행운	-12.9024
정령	-12.9024
무방비	-12.9024
드니로	-12.9024
예민	-12.9024
자연재해	-12.9024
질린	-12.9024
목욕	-12.9024
진출	-12.9024
애널리	-12.9024
영토	-12.9024
호스맨	-12.9024
용납	-12.9024
피난길	-12.9024
누워	-12.9024
소냐	-12.9024
화합	-12.9024
보라색	-12.9024
허치	-12.9024
호킨스	-12.9024
올리비아	-12.9024
신정수	-12.9024
레나토	-12.9024
교양	-12.9024
꺼려	-12.9024
왜가리	-12.9024
트로이	-12.9024
웰드	-12.9024
조합	-12.9024
딴판	-12.9024
침몰	-12.9024
멜먼	-12.9025
바쳐야	-12.9025
펄먼	-12.9025
몰려든	-12.9025
난항	-12.9025
모린	-12.9025
동떨어진	-12.9025
발명품	-12.9025
센터	-12.9025
돌격	-12.9025
르망	-12.9025
스포츠카	-12.9025
파이프	-12.9025
슈즈	-12.9025
올라온	-12.9025
글렌	-12.9025
소굴	-12.9025
사이퍼	-12.9025
워커	-12.9025
표면	-12.9025
산드라	-12.9025
건넨다	-12.9025
혼재	-12.9025
디제이	-12.9025
배운다	-12.9025
메이커	-12.9025
붙인다	-12.9025
코린	-12.9025
배닝	-12.9025
결혼기념일	-12.9025
밝힌다	-12.9025
사명감	-12.9025
복지	-12.9025
교전	-12.9025
네이비	-12.9025
맞설	-12.9025
잇따라	-12.9025
정비공	-12.9025
앙신	-12.9025
어쩌면	-12.9025
엘로디	-12.9025
발신자	-12.9025
환심	-12.9025
트루스	-12.9025
가로채	-12.9025
그리곤	-12.9025
라모나	-12.9025
라켈	-12.9025
코울	-12.9025
당사자	-12.9025
아만다	-12.9025
쉬프	-12.9025
▁27	-12.9025
리디아	-12.9025
더스티	-12.9026
맞춰	-12.9026
잠재력	-12.9026
마시모	-12.9026
무당	-12.9026
으라는	-12.9026
보너스	-12.9026
통증	-12.9026
보컬	-12.9026
바닷속	-12.9026
칼린	-12.9026
무녀	-12.9026
유학	-12.9026
유색인	-12.9026
잘생긴	-12.9026
디노	-12.9026
동쪽	-12.9026
상경	-12.9026
질색	-12.9026
코츠	-12.9026
괴로워한다	-12.9026
메모	-12.9026
길들이	-12.9026
남부러울	-12.9026
안간힘	-12.9026
유품	-12.9027
공화	-12.9027
기착지	-12.9027
애절	-12.9027
끊긴	-12.9027
들려주	-12.9027
욕조	-12.9027
시리아	-12.9027
마샤	-12.9027
드영	-12.9027
중앙	-12.9027
스캔들	-12.9027
몬테로	-12.9027
유엔	-12.9027
비교	-12.9027
원령	-12.9027
널리	-12.9027
조력자	-12.9027
머론	-12.9027
낙원	-12.9027
레이프	-12.9027
정권	-12.9027
휴식	-12.9027
동작	-12.9027
백조	-12.9027
진흙	-12.9027
외우	-12.9027
토모	-12.9027
터틀	-12.9028
힐데	-12.9028
감돌	-12.9028
인질극	-12.9028
동유럽	-12.9028
겸비	-12.9028
교도관	-12.9028
메론	-12.9028
돌려보내	-12.9028
▁순	-12.9028
본업	-12.9028
놓아주	-12.9028
밀스	-12.9028
신분증	-12.9028
루저	-12.9028
카린	-12.9028
체제	-12.9028
본거지	-12.9028
소망	-12.9028
엘르	-12.9028
그루트	-12.9029
술탄	-12.9029
등교	-12.9029
마리너	-12.9029
질투심	-12.9029
손놀림	-12.9029
내릴	-12.9029
간병인	-12.9029
젖소	-12.9029
검객	-12.9029
열망	-12.9029
졸지에	-12.9029
웃음거리	-12.9029
잠옷	-12.9029
드래곤볼	-12.903
절대절명	-12.903
연발	-12.903
박히	-12.903
코코	-12.903
악질	-12.903
죽여야	-12.903
끌려오	-12.903
절반	-12.903
크레인	-12.903
외형	-12.903
독차지	-12.903
뒤집히	-12.903
노동자	-12.903
달래	-12.903
서울	-12.903
대홍수	-12.903
우애	-12.903
노신부	-12.903
엘리즈	-12.903
대장정	-12.903
오션	-12.903
이시다	-12.9031
모임	-12.9031
금기시	-12.9031
마시바	-12.9031
익명	-12.9031
갈구	-12.9031
물색	-12.9031
반물질	-12.9031
콜터	-12.9031
꾸려	-12.9031
안겨	-12.9031
좀도둑	-12.9031
계층	-12.9031
아케이드	-12.9031
더치맨	-12.9031
본토	-12.9031
톰슨	-12.9031
묶여	-12.9032
배너	-12.9032
정책	-12.9032
소질	-12.9032
순서	-12.9032
니브	-12.9032
미코	-12.9032
왜군	-12.9032
에이바	-12.9032
가져다주	-12.9032
코트	-12.9032
오언	-12.9032
쇼코	-12.9033
산맥	-12.9033
원시인	-12.9033
눈보라	-12.9033
셋째	-12.9033
먼데이	-12.9033
겉모습	-12.9033
합쳐야	-12.9034
극비리	-12.9034
네버	-12.9034
천진	-12.9034
환대	-12.9034
도우러	-12.9034
핵전쟁	-12.9034
준우	-12.9034
입국	-12.9035
조안나	-12.9035
어울릴	-12.9035
이겨야	-12.9035
서약	-12.9035
발동	-12.9035
지났	-12.9035
본색	-12.9035
경호원	-12.9035
니암	-12.9035
맴도	-12.9035
극심	-12.9035
마르	-12.9035
바늘	-12.9036
더우먼	-12.9036
합성	-12.9036
거주민	-12.9036
간츠	-12.9036
원천	-12.9036
탈주	-12.9037
처참히	-12.9037
신약	-12.9037
파파	-12.9037
끼리	-12.9037
포악	-12.9037
악화	-12.9037
외딴섬	-12.9037
검술	-12.9037
위독	-12.9038
담배	-12.9038
상대방	-12.9038
카라스	-12.9038
난파	-12.9038
진술	-12.9038
걸친	-12.9038
작별	-12.9038
마루	-12.9038
케이스	-12.9039
재력	-12.9039
방사	-12.9039
차세대	-12.9039
보금	-12.9039
버니	-12.9039
우물	-12.904
노타	-12.904
무천	-12.904
개척지	-12.904
키티	-12.904
네즈	-12.904
포즈	-12.904
유언장	-12.9041
장본인	-12.9041
해병대	-12.9041
하버드대	-12.9041
빼내	-12.9041
IO	-12.9041
부임	-12.9042
바짝	-12.9042
팬서	-12.9042
잠식	-12.9042
소진	-12.9042
▁Cra	-12.9043
발발	-12.9043
따른다	-12.9043
바깥세상	-12.9043
품위	-12.9043
첫날밤	-12.9043
성당	-12.9043
받아들인다	-12.9044
루비	-12.9044
뒤바꾸	-12.9044
마귀	-12.9044
워치	-12.9044
번져	-12.9044
크리스티나	-12.9044
왠지	-12.9044
조우	-12.9044
오웬	-12.9045
반티	-12.9045
현지	-12.9045
수녀원	-12.9045
수익	-12.9045
기원전	-12.9045
장강	-12.9046
전투력	-12.9046
그냥	-12.9046
장구	-12.9046
다가갈수록	-12.9046
위트	-12.9046
생포	-12.9046
단테	-12.9046
부랑아	-12.9047
중령	-12.9047
크루스	-12.9047
진범	-12.9047
호크아이	-12.9047
대지진	-12.9048
마트	-12.9048
비바람	-12.9048
철학자	-12.9048
진입	-12.9048
생지옥	-12.9048
상관없이	-12.9048
정원	-12.9049
최선	-12.9049
연구실	-12.9049
동업자	-12.9049
입력	-12.9049
쌓여	-12.9049
몰려들	-12.905
신대륙	-12.905
두드리	-12.905
거주자	-12.905
시험대	-12.905
벌목	-12.9051
에이치	-12.9051
신청	-12.9051
입히	-12.9051
남친	-12.9051
터키	-12.9052
금서	-12.9052
폴터	-12.9052
다국적	-12.9052
휴일	-12.9052
박차	-12.9053
살인극	-12.9053
호위	-12.9053
강도단	-12.9053
잔해	-12.9053
스모	-12.9053
빈더	-12.9054
원형	-12.9054
계왕	-12.9055
형식	-12.9055
자라나	-12.9055
우편	-12.9055
모이라	-12.9055
천부	-12.9056
보웬	-12.9056
우라	-12.9056
재건	-12.9056
빠져든	-12.9056
끝나갈	-12.9056
조위	-12.9057
완벽히	-12.9057
건조	-12.9057
상위	-12.9057
왕족	-12.9057
이어진다	-12.9058
세포	-12.9059
레더	-12.9059
끈다	-12.9059
마력	-12.9059
재생	-12.9059
장례식장	-12.906
유명세	-12.906
일약	-12.906
반정부	-12.9061
장르	-12.9061
리호	-12.9061
방불	-12.9062
전격	-12.9062
리안	-12.9063
음직	-12.9063
유령선	-12.9063
설계도	-12.9063
어린이집	-12.9063
대디	-12.9064
마음대로	-12.9064
단검	-12.9064
애비	-12.9065
오천	-12.9066
세트	-12.9067
곧바로	-12.9067
정찰기	-12.9067
풀러	-12.9068
기옥	-12.9069
강력계	-12.9069
설계자	-12.9069
잭맨	-12.9069
잠수	-12.907
과감히	-12.9071
찾아낸다	-12.9071
니타	-12.9071
제드	-12.9072
저편	-12.9073
녹지	-12.9073
신검	-12.9073
정보원	-12.9073
배려	-12.9074
라우리	-12.9074
증인	-12.9074
온난	-12.9074
아르고	-12.9074
청산	-12.9075
신경전	-12.9075
다가간다	-12.9076
연구원	-12.9076
창조자	-12.9077
레이크	-12.9078
별명	-12.9078
달라도	-12.908
안티	-12.908
조직력	-12.908
레이번	-12.9081
코라	-12.9082
바로잡	-12.9082
편할	-12.9082
▁26	-12.9083
나올	-12.9083
괴상	-12.9084
플레이어	-12.9084
북한	-12.9084
운전수	-12.9084
되돌려	-12.9085
민간인	-12.9085
첩자	-12.9085
사로잡힌다	-12.9085
단계	-12.9086
시초	-12.9087
전처	-12.9087
저명	-12.9087
건달	-12.9087
이삭	-12.9087
방치	-12.9088
날뛰	-12.9089
안내자	-12.9089
호온	-12.9089
오브라이언	-12.9089
호소	-12.909
마왕	-12.9091
쪽지	-12.9091
따라서	-12.9091
진단	-12.9094
이민자	-12.9094
행적	-12.9095
중독자	-12.9096
침략자	-12.9096
활약상	-12.9096
지령	-12.9096
술사	-12.9098
밤거리	-12.9098
드러낸다	-12.9098
나우	-12.91
노만	-12.91
감사	-12.9102
제자리	-12.9103
농장주	-12.9104
아킴	-12.9104
단란	-12.9105
공포물	-12.9106
임시	-12.9107
가졌	-12.9107
범상	-12.9109
다시금	-12.9112
제타	-12.9112
크레이그	-12.9113
수소문	-12.9114
자연사	-12.9114
말린다	-12.9115
경기장	-12.9115
나호	-12.9115
폐가	-12.9119
예지	-12.9119
볼일	-12.912
타피아	-12.9121
나미	-12.9122
일찍이	-12.9122
문신	-12.9125
광고	-12.9125
싸이	-12.9126
벗어난다	-12.9126
원치	-12.9126
지낼	-12.9127
마소	-12.913
아렌	-12.9131
재미있	-12.9131
정장	-12.9132
소집	-12.9132
내키	-12.9133
반스	-12.9134
반크	-12.9134
대책	-12.9134
우승자	-12.9135
지킴	-12.9135
니다	-12.9137
군주	-12.9137
자청	-12.9138
혈기	-12.9138
뭉친다	-12.914
지촌	-12.9143
해파리	-12.9143
후빌	-12.9143
밤새	-12.9144
손잡이	-12.9146
메인	-12.9146
대장인	-12.9148
마리오	-12.9149
자질	-12.9152
날씨	-12.9152
매수	-12.9153
남겨진다	-12.9154
막아서	-12.9154
눈길	-12.9154
메리다	-12.9156
힘쓰	-12.9156
▁자아	-12.9158
가리키	-12.9158
일족	-12.9159
기묘	-12.916
주입	-12.9163
격투기	-12.9165
일어서	-12.9167
하필	-12.9168
숨긴다	-12.9169
동기	-12.9173
일정	-12.9175
끝없이	-12.9179
결의	-12.918
강자	-12.9185
통로	-12.9187
다이안	-12.9188
사부	-12.9189
밤비	-12.9189
다시피	-12.919
안개	-12.9191
다운	-12.9194
호보	-12.9195
수사망	-12.9195
지루	-12.9199
기능	-12.9199
▁머	-12.92
무전	-12.92
▁가리	-12.9204
지점	-12.921
진행자	-12.9211
하나하나	-12.9212
저기	-12.9215
흘러가	-12.9221
형상	-12.9232
입사	-12.9232
둔다	-12.9235
기르	-12.9236
개리	-12.9237
시내	-12.9244
으려다	-12.9248
나부	-12.9248
마중	-12.9248
일자리	-12.9249
메이어	-12.9251
방문자	-12.9252
자정	-12.9253
더불	-12.9256
파장	-12.9257
도전장	-12.9259
이아고	-12.9259
이터널	-12.926
아톰	-12.9261
▁빙	-12.9266
리오	-12.927
▁노린다	-12.9275
▁듀	-12.9284
후손	-12.9287
반전	-12.9288
가업	-12.9288
투자	-12.9292
등대	-12.9293
세라	-12.9294
나비	-12.9299
의뢰인	-12.9303
▁따	-12.9303
장성	-12.9304
고뇌	-12.9308
수상자	-12.9312
여기자	-12.9313
원자	-12.9315
새해	-12.9317
하이드	-12.9326
다친	-12.9333
수세기	-12.9341
단속	-12.9343
▁붙	-12.9345
더없이	-12.9352
예술가	-12.9353
게토	-12.9354
주차	-12.9354
인구	-12.9355
새기	-12.936
속마음	-12.9382
성실	-12.9383
분리	-12.9386
지병	-12.9388
해안가	-12.9391
암흑가	-12.9395
상해	-12.9395
빙의	-12.9396
고쿠	-12.94
귀인	-12.9402
집채	-12.9406
▁서커스	-12.9414
악과	-12.9415
치기	-12.9415
소행성	-12.9416
코로	-12.9433
날개	-12.944
해피	-12.9443
▁193	-12.9456
신세계	-12.9456
해선	-12.9458
he	-12.9474
▁주어진다	-12.9478
이래	-12.9488
주간	-12.9498
에밀리아	-12.9501
도입	-12.9505
과외	-12.9511
자아	-12.9519
4	-12.9525
신전	-12.9528
▁샤	-12.9542
아무것	-12.9544
도장	-12.9554
해제	-12.956
건장	-12.9563
▁펠	-12.9569
어내	-12.9572
▁운전	-12.9575
▁챈	-12.958
▁몰린	-12.9589
▁푼	-12.959
▁크레이	-12.959
내전	-12.9591
이룰	-12.9596
▁저지른	-12.9601
▁놀란	-12.9602
▁도망친	-12.9602
▁드러낸	-12.9604
고속	-12.9605
전신	-12.9605
▁말린	-12.9606
▁거듭난	-12.9607
▁뜬	-12.9607
한바탕	-12.961
자신감	-12.9616
▁예	-12.9626
진과	-12.963
▁헤어	-12.9633
위해선	-12.9635
▁벌인	-12.9636
▁물려	-12.9637
▁장례식	-12.9643
진지	-12.9649
꾼다	-12.965
▁크리스티	-12.9652
소설가	-12.9659
▁수십	-12.9659
▁드레	-12.9661
강가	-12.9663
▁소수	-12.9664
재기	-12.9665
▁제프	-12.9666
▁펄	-12.9667
▁슈	-12.9667
▁마블	-12.9669
도피	-12.967
▁팩	-12.9671
▁루카	-12.9672
▁콤	-12.9674
나나	-12.9675
▁격렬	-12.9676
▁베일	-12.9676
▁철저	-12.9676
▁밴	-12.9677
열기	-12.9677
▁엑스	-12.9677
▁코스	-12.9678
▁슬로	-12.9679
▁처해	-12.9679
▁오브	-12.968
▁코미디	-12.968
▁퐁	-12.968
▁씽	-12.968
▁드림	-12.968
▁메트로	-12.968
▁아델라	-12.968
▁코니	-12.968
전편	-12.968
▁순진	-12.968
▁리처	-12.9681
게티	-12.9682
▁소니	-12.9683
하객	-12.9683
▁스파이더	-12.9683
▁틴	-12.9684
도달	-12.9684
속내	-12.9685
참고	-12.9687
▁억	-12.969
▁솔로	-12.9691
▁레지	-12.9691
▁멜	-12.9694
초기	-12.9696
스타인	-12.9704
단장	-12.9721
불의	-12.9729
성서	-12.973
라오	-12.9733
▁통치	-12.9742
일시	-12.9744
서장	-12.9755
▁수영	-12.9764
▁에드	-12.9773
▁본다	-12.9774
▁교육	-12.9783
▁해치	-12.9789
일명	-12.98
한층	-12.9801
▁밝	-12.9802
▁변장	-12.9802
▁안정	-12.9805
▁에선	-12.981
▁버드	-12.9811
▁해방	-12.9824
▁무사	-12.9824
▁에르	-12.9837
▁반한	-12.9838
음악가	-12.9842
여행자	-12.9848
비하	-12.9848
기발	-12.9859
걸이	-12.9868
▁도리	-12.9872
▁심판	-12.9873
선가	-12.9884
문제아	-12.991
▁답	-12.9916
음산	-12.9919
▁에너지	-12.992
▁좌절	-12.9924
▁추진	-12.9927
▁로비	-12.9929
조로	-12.9933
▁고든	-12.9948
아님	-12.9951
고수	-12.9977
한판	-12.9985
▁중독	-13.0009
진정한	-13.0021
날라	-13.0029
▁0	-13.0029
▁고위	-13.0034
로열	-13.0037
고국	-13.0046
어부	-13.0056
송	-13.0058
▁해병	-13.0061
▁하버드	-13.0062
끈	-13.0073
리스	-13.0076
귀가	-13.0084
나날이	-13.0086
▁아이스	-13.0095
새로이	-13.0095
정이	-13.01
▁꽃	-13.0101
▁핵	-13.0109
혼	-13.0117
▁창조	-13.0122
릴	-13.0131
▁사형	-13.0146
끌려	-13.0149
강의	-13.0149
에버스	-13.0159
도비	-13.0159
괴이	-13.0164
이비	-13.0166
명문	-13.017
▁장난	-13.017
▁주술	-13.0171
히이	-13.018
아크	-13.018
▁백만	-13.0193
▁걸음	-13.0194
우주인	-13.0209
▁류	-13.0223
50	-13.0253
▁트리	-13.0265
마지	-13.0273
▁케	-13.0284
가명	-13.0285
냐	-13.0287
▁수년	-13.0297
▁기원	-13.0299
▁휩싸	-13.0302
접	-13.0311
양성	-13.0319
돌려	-13.032
미술	-13.0332
환호	-13.0332
사도	-13.0334
약탈	-13.0338
침	-13.0339
잡아먹	-13.034
동맹	-13.034
매춘	-13.034
모래	-13.034
공급	-13.0342
방위	-13.0343
정화	-13.0344
광산	-13.0344
뒤덮	-13.0347
의료	-13.0348
모스	-13.0359
분석	-13.0363
혼혈	-13.0367
기절	-13.0368
외국	-13.037
똑	-13.0374
겸	-13.0375
캠핑	-13.0375
초청	-13.0375
띄	-13.0375
혈액	-13.0375
템	-13.0375
희귀	-13.0375
언론	-13.0375
넘버	-13.0375
합동	-13.0375
동창	-13.0376
긴급	-13.0376
도스	-13.0377
세운	-13.0377
똑같	-13.0379
켄	-13.0379
추리	-13.0379
유사	-13.0383
포트	-13.0387
랜	-13.0387
일어날	-13.039
이루어진	-13.0391
사로잡힌	-13.0391
시타	-13.0391
재미	-13.0391
떠났	-13.0391
이끌린	-13.0391
그림	-13.0393
풋	-13.0394
슬리	-13.0394
이스트	-13.0394
스펙터	-13.0394
쉴	-13.0394
붙잡	-13.0394
조엘	-13.0395
남겨	-13.0395
매디	-13.0395
블라	-13.0395
HAL	-13.0395
노르	-13.0395
불타	-13.0395
머무	-13.0396
상담	-13.0397
미니	-13.0399
싸운다	-13.04
빌려	-13.0402
미소	-13.0403
트레이	-13.0408
만화	-13.0415
지워	-13.0422
눈치	-13.0432
일부	-13.0435
▁폰	-13.0447
더치	-13.0448
데일	-13.0454
XPN	-13.0456
▁드리	-13.0461
스와	-13.0484
방어	-13.0489
SS	-13.0521
기존	-13.0529
▁잔	-13.0541
라가	-13.0558
▁90	-13.0564
▁초록	-13.0578
▁싸	-13.0585
보살	-13.0586
가입	-13.0589
와해	-13.0592
수명	-13.06
전전	-13.0621
그러다	-13.0636
천하	-13.0639
▁똘똘	-13.0646
고담	-13.0658
가진다	-13.0704
인내	-13.0769
단기	-13.0774
자상	-13.0776
양자	-13.0777
반신	-13.082
의견	-13.0837
인적	-13.0888
▁심	-13.0896
밀리	-13.0906
J	-13.0911
▁훔친	-13.0949
으	-13.0949
봉	-13.0965
해성	-13.0979
시들	-13.098
활	-13.0992
빈민	-13.1002
뱃	-13.1006
데어	-13.1009
관광	-13.1014
her	-13.1014
홍수	-13.1015
춰	-13.1016
복종	-13.1018
▁충성	-13.1019
창시	-13.102
야영	-13.102
▁페인	-13.102
NG	-13.1021
미용	-13.1022
룩스	-13.1022
고달프	-13.1023
핸드	-13.1023
팔아넘기	-13.1023
미워하	-13.1023
쓸어버리	-13.1023
▁Ken	-13.1023
부러지	-13.1023
유치	-13.1023
겨누	-13.1023
젠틀	-13.1023
쫓아오	-13.1023
컨트리	-13.1023
설레	-13.1023
짐승	-13.1023
당부	-13.1024
띄우	-13.1024
서두르	-13.1024
▁Ra	-13.1024
닫히	-13.1024
몰아가	-13.1024
회계	-13.1024
화폐	-13.1024
숨어들	-13.1024
사령	-13.1025
디디	-13.1026
인공물	-13.1028
간첩	-13.1028
넘어서	-13.103
선의	-13.1032
소외	-13.1032
조력	-13.1032
틀리	-13.1035
타운	-13.1035
나와	-13.1037
고장나	-13.1038
사슬	-13.1038
바닥나	-13.1038
간병	-13.1041
최소	-13.1043
▁일기	-13.1047
아시아	-13.1047
털리	-13.105
공포증	-13.1052
미문	-13.1062
타오르	-13.107
으로써	-13.1073
조개	-13.1079
내리치	-13.1105
냐고	-13.1115
원주	-13.1117
man	-13.1117
비행사	-13.1121
re	-13.1126
소리치	-13.1127
부치	-13.113
기쁘	-13.115
일급	-13.1157
지망	-13.1168
부양	-13.1175
다가서	-13.1179
대서	-13.1215
전대	-13.1216
모여들	-13.1222
단어	-13.1262
사인	-13.1265
와서	-13.1269
가면	-13.1279
살피	-13.1288
아라	-13.1299
▁혼	-13.1301
피살	-13.1325
수정	-13.1335
▁빗	-13.1346
▁똑같	-13.1346
주소	-13.1347
잡혀가	-13.139
ol	-13.1406
▁켄	-13.1414
수거	-13.1473
▁끌려	-13.1511
이변	-13.1517
▁일부	-13.1525
▁리스	-13.1545
▁수용	-13.1561
▁재미	-13.1562
▁일어날	-13.1598
▁릴	-13.1611
▁이루어진	-13.1614
▁랜	-13.1614
▁이끌린	-13.1614
▁사로잡힌	-13.1617
▁세운	-13.1624
라다	-13.1627
▁떠났	-13.1629
▁테리	-13.1638
▁그림	-13.1645
▁언	-13.1664
▁포트	-13.1665
▁침	-13.1666
▁돌려	-13.1676
▁조엘	-13.1679
▁슬리	-13.1685
▁빌려	-13.1688
▁싸운다	-13.1689
▁트레이	-13.1689
▁쉴	-13.169
▁붙잡	-13.1691
▁남겨	-13.1691
▁풋	-13.1691
▁블라	-13.1691
▁머무	-13.1691
▁양자	-13.1692
▁매디	-13.1692
▁스펙터	-13.1692
▁이스트	-13.1693
▁HAL	-13.1693
▁노르	-13.1694
▁템	-13.1694
▁미니	-13.1696
▁그러다	-13.1699
▁미소	-13.1699
▁모스	-13.1701
▁지워	-13.1704
병들	-13.1706
▁눈치	-13.1708
▁시타	-13.1711
▁데일	-13.1717
로크	-13.1737
▁더치	-13.1741
▁제트	-13.1742
거지	-13.1765
하수	-13.177
▁보살	-13.1815
▁구	-13.1843
▁조카	-13.1843
▁딴	-13.1843
▁피라미드	-13.1844
▁영향	-13.1845
▁스노우	-13.1846
든지	-13.1846
▁분열	-13.1847
▁벗	-13.1847
▁전환	-13.1848
▁휘	-13.1848
기나	-13.1848
▁심술	-13.1848
▁마지	-13.1859
▁패	-13.186
의학	-13.1861
▁분리	-13.1863
건가	-13.1876
▁비상	-13.1882
▁일생	-13.1883
▁전전	-13.1886
▁단기	-13.1891
▁입장	-13.1899
전지	-13.1916
▁종이	-13.1924
하치	-13.193
▁들린	-13.1946
▁계승	-13.1948
▁동	-13.1951
만만	-13.1958
▁모범	-13.1958
▁찰	-13.1964
▁바닥	-13.1988
기내	-13.1988
▁유모	-13.1994
▁발표	-13.2004
▁쓰레기	-13.2004
▁여우	-13.2012
▁발전	-13.2015
▁나와	-13.2016
▁민간	-13.2086
▁180	-13.2094
잡지	-13.2128
▁극비	-13.2154
▁젖	-13.2157
▁부두	-13.2181
▁학자	-13.2192
▁탈	-13.2197
모험가	-13.2218
여고	-13.2225
▁가면	-13.2245
▁오른	-13.2245
기분	-13.2248
▁독재	-13.2272
▁기후	-13.2273
기라	-13.2296
▁고르	-13.2299
▁신고	-13.2413
필	-13.2472
▁파란	-13.2495
▁짝	-13.2527
▁설계	-13.2546
▁부풀	-13.2575
출	-13.2578
익	-13.2589
녹	-13.2614
U	-13.2619
풍	-13.2621
▁심리	-13.263
▁경비	-13.2649
▁폐기	-13.2659
분장	-13.2689
오어	-13.2693
써	-13.2741
te	-13.2757
램	-13.2766
설	-13.278
광	-13.2783
▁걸리	-13.2788
바하	-13.2796
께	-13.28
람	-13.2806
랄	-13.283
헤	-13.283
느냐	-13.2833
겨루	-13.2838
두려워	-13.2838
근거	-13.2838
녹음	-13.2839
증언	-13.2842
영업	-13.2842
출근	-13.2842
뱀	-13.2842
쑥대	-13.2843
갓난	-13.2843
환	-13.2844
노란	-13.2845
청부	-13.2847
결단	-13.2848
시청	-13.2848
사각	-13.2849
통신	-13.2849
셔	-13.2851
거물	-13.2852
오리	-13.2852
재단	-13.2855
귀중	-13.2856
텔	-13.286
거침없	-13.2861
연장	-13.2862
언어	-13.2865
피스	-13.2865
감마	-13.2866
올린	-13.2867
묵	-13.2867
싸운	-13.2869
트라	-13.2871
달려	-13.2872
판타지	-13.2872
롱	-13.2872
덮친	-13.2872
들이닥친	-13.2873
랫	-13.2873
묻힌	-13.2873
달라진	-13.2873
찾아낸	-13.2873
쓰러진	-13.2873
일으킨	-13.2874
꿀	-13.2874
쫓겨	-13.2874
닥	-13.2874
엠	-13.2875
미스테리	-13.2875
샌	-13.2876
어려워	-13.2876
낯	-13.2876
발타자	-13.2876
애덤	-13.2876
헤쳐	-13.2876
블러드	-13.2876
저항	-13.2877
엘프	-13.2877
뉴	-13.2877
꼬여	-13.2877
거쳐	-13.2877
릴리	-13.2878
단순	-13.2878
발레	-13.2878
매트	-13.2878
버거	-13.2879
미스	-13.2879
비틀	-13.288
차려	-13.288
낙인	-13.2882
모른다	-13.2882
떠들	-13.2884
웨이	-13.2885
구스	-13.2885
스칼	-13.2887
타피	-13.2887
심사	-13.2887
취한	-13.2888
애스	-13.2889
변한다	-13.2891
야심	-13.2891
생생	-13.2892
그레	-13.2892
조안	-13.2896
휩싸인	-13.2899
이룬	-13.29
미나	-13.2905
ia	-13.2911
관중	-13.292
주니	-13.2922
파도	-13.2938
디아	-13.296
이건	-13.296
잠자	-13.2963
시사	-13.2984
▁거짓	-13.2985
부산	-13.302
메가	-13.3025
▁헬	-13.3036
티아	-13.3042
게리	-13.3077
le	-13.3103
과감	-13.3112
권하	-13.3157
아론	-13.3189
▁식	-13.3202
립	-13.3215
칠	-13.3235
도라	-13.324
성형	-13.3251
졌	-13.3274
플렉	-13.3281
라자	-13.3289
리자	-13.329
한번	-13.3303
모니카	-13.3305
럽	-13.3306
at	-13.3307
쿠나	-13.332
슬링	-13.3344
▁올리	-13.3356
옥	-13.3388
▁페리	-13.3391
an	-13.3394
고비	-13.3398
럼	-13.3415
럴	-13.3419
▁Ca	-13.3428
리카	-13.3435
스팅	-13.3441
레이저	-13.3444
랑	-13.3453
합	-13.3454
냈	-13.3461
▁협력	-13.3464
긴다	-13.3465
힌	-13.3465
압	-13.3466
탈리아	-13.3467
▁경	-13.3468
감히	-13.3477
둠	-13.3483
망쳐	-13.3485
황	-13.3487
희	-13.3487
둑	-13.3489
겹	-13.349
결사	-13.3495
증권	-13.3496
학원	-13.3497
작곡	-13.3503
져간다	-13.3508
톤	-13.3508
텀	-13.3508
삭스	-13.3511
쩌	-13.3511
졸	-13.3511
흉	-13.3511
섞	-13.3511
▁흔들	-13.3512
꼽	-13.3514
황무	-13.3515
패드	-13.3516
던져진	-13.3517
부러울	-13.3517
▁충분	-13.3518
구루	-13.3519
롬	-13.3519
▁정확	-13.3519
다닌다	-13.352
킨스	-13.3521
출판	-13.3521
선교	-13.3522
셔츠	-13.3522
피비린	-13.3522
갈림	-13.3522
곽	-13.3522
세일즈	-13.3522
꺼림	-13.3522
잊혀졌	-13.3522
기회주의자	-13.3523
말썽쟁이	-13.3523
해수욕장	-13.3523
뒷골목	-13.3523
흉악	-13.3523
랍	-13.3523
동고동락	-13.3523
쾌락	-13.3523
견습생	-13.3523
돌기둥	-13.3523
멋쟁이	-13.3523
바퀴벌레	-13.3523
산산조각	-13.3523
전염병	-13.3523
종횡무진	-13.3523
주정뱅이	-13.3523
짜여진	-13.3523
택한다	-13.3523
펼쳐질까	-13.3523
누군지	-13.3523
지질학자	-13.3523
부턴가	-13.3523
철조망	-13.3523
소울메이트	-13.3523
시끄러운	-13.3523
시행착오	-13.3523
올라탄다	-13.3523
음담패설	-13.3523
일거수일투족	-13.3523
기절초풍	-13.3523
눈부신	-13.3523
변두리	-13.3523
사이코패스	-13.3523
삼지창	-13.3523
신성모독	-13.3523
옥수수	-13.3523
천진난만	-13.3523
추기경	-13.3523
퇴짜	-13.3523
헤엄쳐	-13.3523
길들여진	-13.3523
등대지기	-13.3523
신용카드	-13.3523
토착민	-13.3523
활화산	-13.3523
백화점	-13.3523
위조지폐	-13.3523
제럴드	-13.3523
▁페니	-13.3523
▁페번시	-13.3523
가톨릭	-13.3523
개구쟁이	-13.3523
고스란히	-13.3523
골고다	-13.3523
광폭	-13.3523
글로버	-13.3523
급작스런	-13.3523
김승기	-13.3523
나폴레옹	-13.3523
남달랐	-13.3523
내세울	-13.3523
노르망디	-13.3523
농락	-13.3523
누빈다	-13.3523
다다랐	-13.3523
당첨	-13.3523
대공습	-13.3523
대물림	-13.3523
데자뷰	-13.3523
도널드	-13.3523
디카프리오	-13.3523
딜레마	-13.3523
떨어뜨리	-13.3523
떨어뜨린	-13.3523
뜨거웠	-13.3523
라스푸틴	-13.3523
라플란드	-13.3523
래드클리프	-13.3523
레골라스	-13.3523
레베카	-13.3523
레티시아	-13.3523
로맨티스트	-13.3523
록산느	-13.3523
루벤스타인	-13.3523
루이지애나	-13.3523
루즈벨트	-13.3523
룬드그렌	-13.3523
마드리갈	-13.3523
마드리드	-13.3523
마스코트	-13.3523
망망대해	-13.3523
맥시멀	-13.3523
맥커너히	-13.3523
맥컬리	-13.3523
메리웨더	-13.3523
메피스토펠레스	-13.3523
모랄레스	-13.3523
무작정	-13.3523
미시시피	-13.3523
바르보사	-13.3523
바르샤바	-13.3523
박스오피스	-13.3523
배고픔	-13.3523
버라이어티	-13.3523
베리모어	-13.3523
베오울프	-13.3523
벨레로폰	-13.3523
보잘것없	-13.3523
볼드윈	-13.3523
봉쇄	-13.3523
부러워	-13.3523
부스러기	-13.3523
브라우닝	-13.3523
브래너	-13.3523
브래트	-13.3523
브렌다	-13.3523
블레이즈	-13.3523
비칸데르	-13.3523
빈틈없	-13.3523
사이프리드	-13.3523
사츠키	-13.3523
사쿠라	-13.3523
샹크스	-13.3523
세일럼	-13.3523
속삭인다	-13.3523
쇼트케이크	-13.3523
순순히	-13.3523
숨가쁜	-13.3523
슈나이더	-13.3523
슈베르트	-13.3523
슈왈제네거	-13.3523
슈퍼마켓	-13.3523
슐	-13.3523
스케줄	-13.3523
스쿠비	-13.3523
스태덤	-13.3523
스털링	-13.3523
스테파노	-13.3523
스테파니	-13.3523
스튜어트	-13.3523
스트롱	-13.3523
슬로바키아	-13.3523
시끌벅적	-13.3523
시뮬레이션	-13.3523
시시각각	-13.3523
심부름	-13.3523
쓰러트리	-13.3523
아가멤논	-13.3523
아랑곳	-13.3523
아메리칸	-13.3523
아슬란	-13.3523
아웃사이더	-13.3523
아즈텍	-13.3523
안타깝	-13.3523
알렉산더	-13.3523
알베르토	-13.3523
알츠하이머	-13.3523
알코올	-13.3523
애나벨	-13.3523
애리조	-13.3523
애프터	-13.3523
앤서니	-13.3523
얼어붙	-13.3523
얽매이	-13.3523
엄습	-13.3523
엇갈리	-13.3523
에스메랄다	-13.3523
에저튼	-13.3523
엘리베이터	-13.3523
엘비스	-13.3523
염라대왕	-13.3523
오라클	-13.3523
오리엔트	-13.3523
오리지널	-13.3523
오컬트	-13.3523
올로프	-13.3523
올림포스	-13.3523
요세프	-13.3523
요츠바	-13.3523
위노나	-13.3523
위더스푼	-13.3523
유니버스	-13.3523
유토피아	-13.3523
은근히	-13.3523
이구아노돈	-13.3523
이리저리	-13.3523
이스라엘	-13.3523
이스탄불	-13.3523
이야말로	-13.3523
이정표	-13.3523
익숙	-13.3523
인디펜던스	-13.3523
인피니티	-13.3523
일망타진	-13.3523
일으킬	-13.3523
잡동사니	-13.3523
재클린	-13.3523
쟁취	-13.3523
저널리스트	-13.3523
죠슈아	-13.3523
짝달싹	-13.3523
천천히	-13.3523
체르노빌	-13.3523
첼리오스	-13.3523
축출	-13.3523
카델리니	-13.3523
카츠모토	-13.3523
카츠키	-13.3523
카펠라	-13.3523
칼립소	-13.3523
캄보디아	-13.3523
캐스트	-13.3523
컨퍼런스	-13.3523
케네디	-13.3523
케네스	-13.3523
콘스탄틴	-13.3523
콘티넨탈	-13.3523
퀴디치	-13.3523
크라운	-13.3523
크로프트	-13.3523
크롬웰	-13.3523
크리스토프	-13.3523
크세르크세스	-13.3523
클라이맥스	-13.3523
타케시	-13.3523
탈레반	-13.3523
테렌스	-13.3523
테이텀	-13.3523
퇴폐	-13.3523
트라볼타	-13.3523
트란실바니아	-13.3523
파시스트	-13.3523
파운데이션	-13.3523
패트리샤	-13.3523
팬케이크	-13.3523
퍼부으	-13.3523
퍼포먼스	-13.3523
페드로	-13.3523
페퍼	-13.3523
펙	-13.3523
펜타곤	-13.3523
포이즌	-13.3523
포카혼타스	-13.3523
폭설	-13.3523
프랑수아	-13.3523
프로그래밍	-13.3523
프로메테우스	-13.3523
프로페서	-13.3523
프린즈	-13.3523
피아니스트	-13.3523
허덕이	-13.3523
허큘리스	-13.3523
헨릭슨	-13.3523
헬레네	-13.3523
호루스	-13.3523
호타카	-13.3523
환멸	-13.3523
히틀러	-13.3523
골딩	-13.3523
냉철	-13.3523
네이션	-13.3523
도노반	-13.3523
뛰어다니	-13.3523
마타타	-13.3523
메두사	-13.3523
무미건조	-13.3523
미어캣	-13.3523
베어울프	-13.3523
셀리나	-13.3523
수르트	-13.3523
안테나	-13.3523
알카디	-13.3523
암파로	-13.3523
어설픈	-13.3523
차우더	-13.3523
키무라	-13.3523
털어놓	-13.3523
평균	-13.3523
허수아비	-13.3523
고른다	-13.3523
뛰어드	-13.3523
마갈리	-13.3523
마카오	-13.3523
스며든	-13.3523
에테르	-13.3523
에프론	-13.3523
징표	-13.3523
겨냥	-13.3523
다우니	-13.3523
떠올린다	-13.3523
리얼리티	-13.3523
미란다	-13.3523
복역	-13.3523
완료	-13.3523
유목민	-13.3523
쾌락주의	-13.3523
클리프	-13.3523
피서객	-13.3523
하운드	-13.3523
가려진	-13.3523
깨어났	-13.3523
놀러갔	-13.3523
다뤄야	-13.3523
러팔로	-13.3523
무너뜨리	-13.3523
무로마치	-13.3523
비지니스	-13.3523
삼합회	-13.3523
솔깃	-13.3523
스토커	-13.3523
쓰러져	-13.3523
쓰러질	-13.3523
아닐까	-13.3523
압류	-13.3523
이츠키	-13.3523
책임져야	-13.3523
키리토	-13.3523
튜링	-13.3523
파헤친다	-13.3523
홍루	-13.3523
훔칠	-13.3523
흥겨운	-13.3523
데이비슨	-13.3523
돌아갔	-13.3523
뒤집어쓴	-13.3523
랩퍼	-13.3523
메릴랜드	-13.3523
스코필드	-13.3523
얀센	-13.3523
옥토퍼스	-13.3523
스러울	-13.3523
아이스크림	-13.3523
애드리언	-13.3523
창녀	-13.3523
타고났	-13.3523
합친다	-13.3523
헤로인	-13.3523
동림	-13.3523
맨하탄	-13.3523
빠트릴	-13.3523
사교계	-13.3523
슬레이드	-13.3523
야지드	-13.3523
윤곽	-13.3523
합격	-13.3523
교묘	-13.3523
내다볼	-13.3523
냉동	-13.3523
대마초	-13.3523
덴햄	-13.3523
떨어졌	-13.3523
멈춘	-13.3523
복구	-13.3523
빠트린	-13.3523
스트로베리	-13.3523
아름다워	-13.3523
양로원	-13.3523
올드먼	-13.3523
요리조리	-13.3523
통행증	-13.3523
프랫	-13.3523
함부로	-13.3523
몬트	-13.3523
불치병	-13.3523
빼어난	-13.3523
친일파	-13.3523
헤맨다	-13.3523
훈족	-13.3523
주교	-13.3523
기꺼이	-13.3523
베로나	-13.3523
생필품	-13.3523
솔로몬	-13.3523
식료품	-13.3523
애드리안	-13.3523
팩스턴	-13.3523
흑사병	-13.3523
과잉보호	-13.3523
숨어든	-13.3523
앵그리	-13.3523
작용	-13.3523
저질렀	-13.3523
탈퇴	-13.3523
퇴학	-13.3523
투리스모	-13.3523
닥쳐올	-13.3523
봉착	-13.3523
야유회	-13.3523
일그러진	-13.3523
카타콤	-13.3523
태어날	-13.3523
호스텔	-13.3523
굿윈	-13.3523
아브라함	-13.3523
의무병	-13.3523
금액	-13.3523
나일강	-13.3523
모조품	-13.3523
브라이드	-13.3523
세르게이	-13.3523
우림	-13.3523
찢어질	-13.3523
교토	-13.3523
꽃미남	-13.3523
디자인	-13.3523
샌드맨	-13.3523
활강	-13.3523
국립	-13.3523
굴착	-13.3523
사무엘	-13.3523
ine	-13.3523
갑옷	-13.3523
구현	-13.3523
기호학	-13.3523
노랫소리	-13.3523
대수롭	-13.3523
밀입국	-13.3523
받아들일	-13.3523
복잡	-13.3523
라르고	-13.3523
설립	-13.3523
위원회	-13.3523
트랙터	-13.3523
하누만	-13.3523
경희	-13.3523
다락방	-13.3523
미시족	-13.3523
변변	-13.3523
익힌	-13.3523
잉태	-13.3523
쫓겨났	-13.3523
맹활약	-13.3523
복무	-13.3523
양육권	-13.3523
자전거	-13.3523
쿠삭	-13.3523
흑기사	-13.3523
힌트	-13.3523
가타카	-13.3523
소용돌이	-13.3523
찰톤	-13.3523
불어난	-13.3523
수도승	-13.3523
퇴물	-13.3523
뉴포트	-13.3523
대장장이	-13.3523
도망칠	-13.3523
똑똑	-13.3523
찾아다니	-13.3523
침묵	-13.3523
쾌감	-13.3523
털북숭이	-13.3523
▁Dr	-13.3523
커티스	-13.3523
패셔	-13.3523
결백	-13.3523
나무늘보	-13.3523
자만심	-13.3523
항구	-13.3523
딱딱	-13.3523
흉악범	-13.3523
때려치우	-13.3523
망각	-13.3523
빨강	-13.3523
삭막	-13.3523
앙헬	-13.3523
풋풋	-13.3523
풍경	-13.3523
규율	-13.3523
꺼져	-13.3523
빈털터리	-13.3523
인더스	-13.3523
공무원	-13.3523
근데	-13.3523
꾀임	-13.3523
브롤린	-13.3523
영춘	-13.3523
트레이닝	-13.3523
헤어졌	-13.3523
그리하여	-13.3523
매복	-13.3523
뮤츠	-13.3523
셸비	-13.3523
오대수	-13.3523
이네스	-13.3523
하여금	-13.3523
하이퍼	-13.3523
휴게소	-13.3523
끌로드	-13.3523
내다보	-13.3523
배관공	-13.3523
살아왔	-13.3523
욕설	-13.3523
패리스	-13.3523
깨어날	-13.3523
알리바이	-13.3523
눈치챈	-13.3523
무용단	-13.3523
퇴마	-13.3523
경솔	-13.3523
걸어온	-13.3523
까칠	-13.3523
단조로운	-13.3523
점박이	-13.3523
제스처	-13.3523
카르멘	-13.3523
쇠약	-13.3523
윌리암스	-13.3523
합심	-13.3523
합창단	-13.3523
유리창	-13.3523
출혈	-13.3523
틴틴	-13.3523
흉터	-13.3523
상급생	-13.3523
수상쩍	-13.3523
루시퍼	-13.3523
잔당	-13.3523
슈퍼플라이	-13.3523
캘빈	-13.3523
으론	-13.3523
종합	-13.3523
광산촌	-13.3523
시끄럽	-13.3523
업로드	-13.3523
es	-13.3523
가려내	-13.3523
별칭	-13.3523
서사시	-13.3523
페이슨	-13.3523
넘어선	-13.3523
코미디언	-13.3523
피어슨	-13.3523
독립기념일	-13.3523
미라벨	-13.3523
향했	-13.3523
클랜시	-13.3523
흑조	-13.3523
헤롯	-13.3523
기울여	-13.3523
코믹	-13.3523
펼쳐져	-13.3523
너희	-13.3523
노하우	-13.3523
짜증	-13.3523
히드라	-13.3523
골라	-13.3523
공교	-13.3523
켈리	-13.3523
키메라	-13.3523
투모로우	-13.3523
귀향	-13.3523
아델라이드	-13.3523
이치카	-13.3523
클루니	-13.3523
혼령	-13.3523
멜라니	-13.3523
▁189	-13.3523
라이트닝	-13.3523
마른	-13.3523
메뉴	-13.3523
빠질	-13.3523
몰락	-13.3523
스며들	-13.3523
양탄자	-13.3523
천문학	-13.3523
거북선	-13.3523
들려준	-13.3523
고분고분	-13.3523
핵미사일	-13.3523
루돌프	-13.3523
백억	-13.3523
지휘봉	-13.3523
풍운	-13.3523
굿이어	-13.3524
임산부	-13.3524
탈주범	-13.3524
헬레나	-13.3524
트루먼	-13.3524
황소	-13.3524
가져올	-13.3524
언변	-13.3524
넘어온	-13.3524
공허	-13.3524
구두쇠	-13.3524
토랜스	-13.3524
페레즈	-13.3524
허공	-13.3524
정립	-13.3524
가면라이더	-13.3524
소림사	-13.3524
재스민	-13.3524
미노스	-13.3524
스즈메	-13.3524
종업원	-13.3524
홍보	-13.3524
타이밍	-13.3524
서른	-13.3524
거추장	-13.3524
독설	-13.3524
빼돌려	-13.3524
알렉사	-13.3524
불사조	-13.3524
타이타닉	-13.3524
국토	-13.3524
안토니오	-13.3524
테크닉	-13.3524
밑바닥	-13.3524
사만다	-13.3524
정화통	-13.3524
금광	-13.3524
뮤직	-13.3524
스펙터클	-13.3524
유창	-13.3524
다녀오	-13.3524
찾아나서	-13.3524
이력서	-13.3524
지저분	-13.3524
부조리	-13.3524
즉각	-13.3524
결별	-13.3524
톱스타	-13.3524
닥쳐오	-13.3524
포옹	-13.3524
결판	-13.3524
뛰어가	-13.3524
부추기	-13.3524
모텔	-13.3524
타임캡슐	-13.3524
머셋	-13.3524
영영	-13.3524
매달려	-13.3524
살아갈	-13.3524
실버라도	-13.3524
쳐들어온다	-13.3524
타락천사	-13.3524
시에나	-13.3524
알려졌	-13.3524
부쩍	-13.3524
아도니스	-13.3524
룸서비스	-13.3524
십자군	-13.3524
헤메	-13.3524
유무죄	-13.3524
정교	-13.3524
다이얼	-13.3524
파웰	-13.3524
풍요	-13.3524
홀린	-13.3524
듀브	-13.3524
홍해	-13.3524
앤소니	-13.3524
위엄	-13.3524
트로트	-13.3524
틀린	-13.3524
약혼식	-13.3524
촉발	-13.3524
카튼	-13.3524
난장이	-13.3524
뚫린	-13.3524
물러날	-13.3524
무일푼	-13.3524
줄행랑	-13.3524
미궁	-13.3524
소개팅	-13.3524
재커리	-13.3524
교관	-13.3524
크리스텔	-13.3524
헤어져	-13.3524
노이드	-13.3524
당원	-13.3524
캔트	-13.3524
레슬러	-13.3524
상륙	-13.3524
제멋대로	-13.3524
격추	-13.3524
선출	-13.3524
디컨	-13.3524
게이츠	-13.3524
파라즈	-13.3524
맹렬히	-13.3524
모과이	-13.3524
연합함대	-13.3524
미라즈	-13.3524
요리점	-13.3524
윈드	-13.3524
이라크	-13.3524
방랑	-13.3524
페이든	-13.3524
맥콜	-13.3524
급격히	-13.3524
애써	-13.3524
퍼드	-13.3524
구워	-13.3524
육군	-13.3524
미나토	-13.3524
밀회	-13.3524
경매	-13.3524
훈장	-13.3524
상당히	-13.3524
메탈	-13.3525
방출	-13.3525
복장	-13.3525
쓰레기통	-13.3525
으라고	-13.3525
심령	-13.3525
일리아	-13.3525
게이머	-13.3525
포춘	-13.3525
불쑥	-13.3525
비춘다	-13.3525
취재	-13.3525
스테이섬	-13.3525
추운	-13.3525
불태워	-13.3525
발타자르	-13.3525
기동대	-13.3525
불평	-13.3525
러스티	-13.3525
담겨	-13.3525
모하비	-13.3525
도로변	-13.3525
역부족	-13.3525
주파수	-13.3525
출판사	-13.3525
키취	-13.3525
브리스	-13.3525
여우원숭이	-13.3525
향수	-13.3525
순탄	-13.3525
유머	-13.3525
데렉	-13.3525
매달린	-13.3525
석우	-13.3525
트리쉬	-13.3525
맴돈	-13.3525
배꼽	-13.3525
끼우	-13.3525
스트레스	-13.3525
동반	-13.3525
악녀	-13.3525
함락	-13.3525
결론	-13.3525
급변	-13.3525
레인져	-13.3525
패권	-13.3525
마코토	-13.3525
관측	-13.3525
힌다	-13.3525
발송	-13.3525
발표회	-13.3525
휴머	-13.3525
스쿨	-13.3525
재활	-13.3525
의사소통	-13.3525
배필	-13.3525
캐슬	-13.3525
팀워크	-13.3525
공권력	-13.3525
토요일	-13.3525
방위군	-13.3525
동맹군	-13.3525
리처드슨	-13.3525
쓰인다	-13.3525
헤스톤	-13.3525
브룸	-13.3525
봉사	-13.3525
살림	-13.3525
스완	-13.3525
월스트리트	-13.3525
재혼	-13.3525
크리티	-13.3526
간절히	-13.3526
켄트	-13.3526
망가진	-13.3526
싸늘	-13.3526
돌프	-13.3526
피폐	-13.3526
때려잡	-13.3526
나타내	-13.3526
그리핀	-13.3526
맥아담스	-13.3526
동결	-13.3526
탐낸	-13.3526
해서웨이	-13.3526
백색	-13.3526
민병대	-13.3526
신앙	-13.3526
조롱	-13.3526
하이킹	-13.3526
마도사	-13.3526
내려야	-13.3526
독약	-13.3526
재스퍼	-13.3526
모태	-13.3526
위압	-13.3526
유독	-13.3526
먹인다	-13.3526
흐리	-13.3526
낙심	-13.3526
브록	-13.3526
사칭	-13.3526
리언	-13.3526
네이던	-13.3526
부정부패	-13.3526
채리티	-13.3526
바나나	-13.3526
달려간다	-13.3526
동요	-13.3526
셔터	-13.3526
학급	-13.3526
청동	-13.3526
친척	-13.3526
바리새인	-13.3526
첫인상	-13.3526
빈촌	-13.3526
월드컵	-13.3526
도적질	-13.3526
잡힌	-13.3526
슈트	-13.3526
따돌린다	-13.3526
증발	-13.3526
맡겨	-13.3526
미도리	-13.3526
제롬	-13.3526
쫓아낸다	-13.3526
데려온다	-13.3526
변했	-13.3526
여대생	-13.3526
예외	-13.3526
진샤	-13.3526
감싸	-13.3526
물러난다	-13.3526
한가운데서	-13.3526
▁Re	-13.3526
가로막히	-13.3526
아바돈	-13.3526
영매	-13.3526
새침	-13.3527
요트	-13.3527
메이슨	-13.3527
서둘러	-13.3527
최상위	-13.3527
단순히	-13.3527
메종	-13.3527
헌신	-13.3527
밝혀낸다	-13.3527
가르친다	-13.3527
룰루	-13.3527
춤추	-13.3527
lar	-13.3527
광선	-13.3527
추진력	-13.3527
할리데이	-13.3527
날아간다	-13.3527
드레이크	-13.3527
살아날	-13.3527
앙크	-13.3527
잉크	-13.3527
종용	-13.3527
섬광	-13.3527
예방	-13.3527
밀실	-13.3527
건졌	-13.3527
해빙기	-13.3527
호빗	-13.3527
동정	-13.3527
파피용	-13.3527
추악	-13.3527
넘긴다	-13.3527
사무소	-13.3527
막달라	-13.3527
핵실험	-13.3527
눈꼽	-13.3527
삼류	-13.3527
엔딩	-13.3527
생고생	-13.3527
흘러나온다	-13.3527
스키터	-13.3527
전장터	-13.3527
쿠니스	-13.3527
꾸린다	-13.3527
떠안	-13.3527
나키아	-13.3527
비디아	-13.3527
홀리데이	-13.3527
탑승객	-13.3527
라킨	-13.3527
매춘부	-13.3527
표시	-13.3527
크릴	-13.3527
킨더	-13.3527
화물선	-13.3527
백방	-13.3528
속임수	-13.3528
엘레	-13.3528
래피	-13.3528
욕정	-13.3528
미끼	-13.3528
니르	-13.3528
수하물	-13.3528
후퇴	-13.3528
베넷	-13.3528
발걸음	-13.3528
자유분방	-13.3528
아이언스	-13.3528
독거미	-13.3528
박살내	-13.3528
건전지	-13.3528
위스키	-13.3528
브룩스	-13.3528
세탁소	-13.3528
유치장	-13.3528
위빙	-13.3528
이방인	-13.3528
멘데스	-13.3528
아찔	-13.3528
오사카	-13.3528
시추	-13.3528
강연	-13.3528
모욕감	-13.3528
주축	-13.3528
격정	-13.3528
데미스	-13.3528
텐더	-13.3528
뒤로한	-13.3528
스테이시	-13.3528
체계	-13.3528
체조	-13.3528
검투사	-13.3528
홀트	-13.3528
방울	-13.3528
통역사	-13.3528
진영	-13.3528
광야	-13.3528
동반자	-13.3528
자금력	-13.3528
커진다	-13.3528
사들여	-13.3528
도박판	-13.3528
재소자	-13.3528
브랜드	-13.3528
채널	-13.3528
친형제	-13.3528
월요일	-13.3529
헤일리	-13.3529
현명	-13.3529
개봉	-13.3529
강해진다	-13.3529
구체	-13.3529
상승	-13.3529
채취	-13.3529
유체	-13.3529
드라이브	-13.3529
소문난	-13.3529
늦잠	-13.3529
메이저	-13.3529
크롤러	-13.3529
지점장	-13.3529
금괴	-13.3529
맞붙	-13.3529
배넌	-13.3529
도살자	-13.3529
사라질	-13.3529
쿠파	-13.3529
ᅥ야	-13.3529
추천장	-13.3529
낙마	-13.3529
플레이보이	-13.3529
우랜드	-13.3529
소매	-13.3529
잡아가	-13.3529
트램프	-13.3529
알려져	-13.3529
대서사	-13.353
레슨	-13.353
핸들	-13.353
토르메	-13.353
연회	-13.353
넬스	-13.353
겨울잠	-13.353
용암	-13.353
공범	-13.353
조슈아	-13.353
싫증	-13.353
핵무기	-13.353
부활절	-13.353
완전체	-13.353
무슈	-13.353
동포	-13.353
밀려나	-13.353
일부러	-13.353
까진	-13.353
노먼	-13.353
올슨	-13.353
유일무이	-13.353
반납	-13.353
급성장	-13.353
리로이	-13.353
부류	-13.353
업원	-13.353
지하보도	-13.353
불러들인다	-13.353
공조	-13.353
빠져나온	-13.353
라텐	-13.353
바쿠	-13.353
유전학	-13.353
끼니	-13.353
챔피언십	-13.353
구형	-13.353
결정짓	-13.3531
식품	-13.3531
독점	-13.3531
일반인	-13.3531
전속력	-13.3531
버디	-13.3531
전근	-13.3531
정비소	-13.3531
타당	-13.3531
단세포	-13.3531
원맥	-13.3531
도망갈	-13.3531
약체	-13.3531
좌절감	-13.3531
거행	-13.3531
떠보	-13.3531
불타오르	-13.3531
스마트	-13.3531
망할	-13.3531
감탄	-13.3531
참극	-13.3531
모리스	-13.3531
설마	-13.3531
놀이터	-13.3531
넘어와	-13.3531
그럴싸한	-13.3531
패스	-13.3531
엄한	-13.3531
코프사	-13.3531
상실감	-13.3531
형무	-13.3532
호쿠	-13.3532
핵심	-13.3532
육상	-13.3532
성주신	-13.3532
욕실	-13.3532
윌버그	-13.3532
음식점	-13.3532
런스	-13.3532
버벌	-13.3532
넬리	-13.3532
그린필드	-13.3532
태초	-13.3532
급파	-13.3532
설원	-13.3532
불행히	-13.3532
버질	-13.3532
아더스	-13.3532
셰리	-13.3532
강간범	-13.3532
대주교	-13.3532
점거	-13.3532
호숫가	-13.3532
뛰쳐나가	-13.3533
앞세운	-13.3533
급부상	-13.3533
발전소	-13.3533
심정	-13.3533
터진다	-13.3533
장갑	-13.3533
물레	-13.3533
끝장내	-13.3533
그지없	-13.3533
무패	-13.3533
종지기	-13.3533
정직	-13.3533
품종	-13.3533
바브	-13.3533
아이패드	-13.3533
이중생활	-13.3533
바라바	-13.3533
나설	-13.3534
다림	-13.3534
해독제	-13.3534
악독	-13.3534
항공편	-13.3534
거닐	-13.3534
샌더	-13.3534
비밀결사	-13.3534
온순	-13.3534
노미	-13.3534
마스크맨	-13.3534
카메라맨	-13.3534
랜스	-13.3534
벽화	-13.3534
연대기	-13.3534
크레나	-13.3534
비싸	-13.3534
마린	-13.3534
회담	-13.3534
바넘	-13.3534
국내	-13.3534
노화	-13.3534
매정	-13.3534
채닝	-13.3535
뇌물	-13.3535
연계	-13.3535
매체	-13.3535
칼빈	-13.3535
사샤	-13.3535
사경	-13.3535
쿠키	-13.3535
착오	-13.3535
미리암	-13.3535
신들린	-13.3535
걸쳐	-13.3535
만삭	-13.3535
피울	-13.3535
무능	-13.3535
생이별	-13.3535
강호	-13.3535
전화벨	-13.3535
구제	-13.3536
군견	-13.3536
무예	-13.3536
파탄	-13.3536
푸드	-13.3536
철수	-13.3536
모난	-13.3536
올까	-13.3536
대릴	-13.3536
워터	-13.3536
걸음마	-13.3536
집필	-13.3536
사들이	-13.3536
견학	-13.3537
치맨	-13.3537
대니얼	-13.3537
애런	-13.3537
봐야	-13.3537
매진	-13.3537
명봉	-13.3537
거처	-13.3537
강화	-13.3537
리콜	-13.3537
유모차	-13.3537
아이템	-13.3537
모금	-13.3537
태생	-13.3537
기울이	-13.3537
구야	-13.3537
총독	-13.3538
닉슨	-13.3538
에너지원	-13.3538
노바	-13.3538
루카스	-13.3538
모여드	-13.3538
예비	-13.3538
번창	-13.3538
피곤	-13.3538
체크	-13.3538
아이리스	-13.3538
날벼락	-13.3538
돌려주	-13.3538
데미안	-13.3538
네루	-13.3539
파코	-13.3539
검색	-13.3539
초특급	-13.3539
밀려오	-13.3539
정열	-13.3539
안전거리	-13.3539
리버티	-13.3539
대국민	-13.3539
축구팀	-13.3539
공세	-13.3539
남태평양	-13.3539
뜻대로	-13.3539
한결같이	-13.3539
제이든	-13.3539
파고들	-13.3539
크리스티안	-13.3539
카토	-13.354
카렌	-13.354
바친	-13.354
진척	-13.354
제츠	-13.354
이웃나라	-13.354
별나	-13.354
데일리	-13.354
구치	-13.354
곤란	-13.354
루니	-13.354
무토	-13.354
피어스	-13.354
회심	-13.354
총구	-13.3541
일환	-13.3541
꽃길	-13.3541
프리즈	-13.3541
백악기	-13.3541
조이스	-13.3541
요양	-13.3541
대사관	-13.3541
슈치	-13.3541
불운	-13.3541
병력	-13.3541
투병	-13.3541
주먹왕	-13.3541
무얼	-13.3542
책가방	-13.3542
헬라	-13.3542
루키	-13.3542
루터	-13.3542
덕목	-13.3542
푹신	-13.3542
밀주	-13.3542
부친	-13.3542
지골	-13.3542
데비안	-13.3542
건너편	-13.3543
태세	-13.3543
머레이	-13.3543
족족	-13.3543
휴비	-13.3543
대접전	-13.3543
절박	-13.3543
무루	-13.3543
다이너	-13.3544
모형	-13.3544
난동	-13.3544
미르	-13.3544
선정	-13.3544
신변	-13.3544
숨결	-13.3544
엔필드	-13.3544
붙여	-13.3544
마구	-13.3544
검증	-13.3545
명석	-13.3545
옥분	-13.3545
육도	-13.3545
항공사	-13.3545
프랑스군	-13.3545
미스테리오	-13.3545
퀸터	-13.3545
삼키	-13.3545
작곡가	-13.3545
독실	-13.3545
즐길	-13.3545
기술력	-13.3546
원귀	-13.3546
타워	-13.3546
파병	-13.3546
네모	-13.3546
중학	-13.3546
딸린	-13.3546
트레드	-13.3546
로저스	-13.3546
공안	-13.3546
치프	-13.3546
팅크	-13.3546
거구	-13.3546
실감	-13.3546
어이없	-13.3546
동면	-13.3547
찬란	-13.3547
단기간	-13.3547
편히	-13.3547
계급	-13.3547
법정	-13.3547
소파	-13.3547
종마	-13.3547
여태	-13.3547
섬너	-13.3547
린지	-13.3547
누님	-13.3547
원점	-13.3548
형벌	-13.3548
발짝	-13.3548
위용	-13.3548
따내	-13.3548
진저	-13.3548
심야	-13.3548
친했	-13.3548
강물	-13.3549
물정	-13.3549
벌였	-13.3549
숨통	-13.3549
봉고	-13.3549
경주	-13.3549
졸업반	-13.3549
오픈	-13.3549
지겹	-13.3549
포티	-13.355
마리네	-13.355
따라왔	-13.355
질려	-13.355
막혀	-13.355
네임	-13.355
대부호	-13.3551
총력	-13.3551
연대	-13.3551
생물체	-13.3551
속상한	-13.3551
고액	-13.3552
기념일	-13.3552
불쌍	-13.3552
일본군	-13.3552
피쉬	-13.3552
나태	-13.3552
모건	-13.3552
러쉬	-13.3552
소포	-13.3552
발작	-13.3553
다리우스	-13.3553
니까	-13.3553
급박	-13.3553
다락	-13.3553
키즈	-13.3553
쿠차	-13.3553
촬영차	-13.3553
무조건	-13.3554
무전기	-13.3554
포우	-13.3554
왜소	-13.3554
베터	-13.3554
놀스	-13.3554
지휘관	-13.3555
접해	-13.3555
뒤바꿀	-13.3555
비랜드	-13.3555
조직망	-13.3555
빼앗길	-13.3555
코피	-13.3555
키트	-13.3555
간디	-13.3555
플리	-13.3556
도취	-13.3556
상점	-13.3556
였으나	-13.3556
민수	-13.3556
진담	-13.3556
노마	-13.3556
진품	-13.3557
상급	-13.3557
경험담	-13.3557
괴롭힌다	-13.3557
쫓아간다	-13.3557
입술	-13.3557
퍼진다	-13.3557
완다	-13.3558
배정	-13.3558
주류	-13.3558
수립	-13.3558
쿠시	-13.3558
사이코	-13.3558
넘어	-13.3558
윤지	-13.3558
생체	-13.3559
조난	-13.3559
비참	-13.3559
난입	-13.3559
카즈	-13.3559
지켜본다	-13.3559
주차장	-13.356
사이렌	-13.356
재배	-13.3561
우세	-13.3561
우박	-13.3561
노크	-13.3561
실세	-13.3561
선실	-13.3561
등장인물	-13.3561
진진	-13.3561
소버린	-13.3562
종결자	-13.3562
금세	-13.3562
전해져	-13.3562
경찰국	-13.3562
양심	-13.3562
왕권	-13.3562
심리학자	-13.3562
해결책	-13.3563
주치의	-13.3563
공급자	-13.3563
약탈자	-13.3563
맨발	-13.3564
스티그	-13.3564
포트만	-13.3564
월든	-13.3564
보내온다	-13.3564
동양	-13.3564
경영자	-13.3564
어리버리	-13.3564
조정	-13.3564
종지	-13.3565
레비	-13.3565
꿈결	-13.3565
불씨	-13.3566
개국	-13.3566
코너스	-13.3566
재소	-13.3566
첩보전	-13.3566
사토르	-13.3566
네빌	-13.3566
중개	-13.3566
우마	-13.3566
간판	-13.3566
진나라	-13.3567
두리틀	-13.3567
검거	-13.3567
반평생	-13.3567
빌미	-13.3567
독단	-13.3568
저러	-13.3568
입담	-13.3568
후예	-13.3568
월터	-13.3568
국수	-13.3569
소카	-13.3569
토크	-13.3569
진군	-13.3569
발달	-13.3569
일탈	-13.357
수도사	-13.357
미터	-13.357
국도	-13.357
시체실	-13.357
추대	-13.3571
계란	-13.3571
벅시	-13.3571
폭발물	-13.3572
벨마	-13.3573
나앉	-13.3573
서판	-13.3573
점보	-13.3573
반담	-13.3573
여종	-13.3574
동료애	-13.3574
장모	-13.3574
난감	-13.3574
청해	-13.3574
원조	-13.3574
하수인	-13.3575
치좀	-13.3575
등극	-13.3575
드론	-13.3575
여신상	-13.3576
치명타	-13.3576
수억만	-13.3576
군부	-13.3577
깨달음	-13.3577
비트	-13.3577
승자	-13.3578
오커	-13.3578
불우	-13.3578
명망	-13.3578
통보	-13.3579
비급	-13.3579
만프레드	-13.3579
들어선다	-13.3579
보유자	-13.3579
엔초	-13.358
서키스	-13.358
미시	-13.358
올라간다	-13.358
지지자	-13.358
쓰였	-13.3581
영화배우	-13.3581
비파	-13.3581
파괴력	-13.3581
맡긴다	-13.3581
숨진	-13.3581
일격	-13.3582
집행자	-13.3582
별다른	-13.3582
상식	-13.3582
불명예	-13.3583
동전	-13.3583
남아메리카	-13.3583
브리	-13.3583
탐문	-13.3583
폴러	-13.3583
선박	-13.3583
벨라스	-13.3584
모범수	-13.3584
성욕	-13.3585
애타	-13.3585
몰아내	-13.3585
혼수	-13.3585
소피나	-13.3585
간파	-13.3586
수갑	-13.3586
성역	-13.3586
주토	-13.3587
유가족	-13.3587
답장	-13.3587
잘리	-13.3588
시트	-13.3589
다니엘스	-13.3589
조심	-13.3589
배관	-13.359
거실	-13.359
해치우	-13.3591
문밖	-13.3591
괴리	-13.3592
파리스	-13.3592
갈채	-13.3592
반군	-13.3593
끈기	-13.3593
나노	-13.3594
슬러그	-13.3594
든든	-13.3595
기억력	-13.3595
했으나	-13.3596
카니	-13.3597
계승자	-13.3597
투신	-13.3597
겁주	-13.3597
사냥감	-13.3597
주연	-13.3597
면모	-13.3597
몰두	-13.3598
대소동	-13.3599
감내	-13.3599
위반	-13.3599
화제	-13.3599
내외	-13.3599
장애	-13.36
피드	-13.36
투스	-13.36
데본	-13.3601
해류	-13.3601
고메스	-13.3601
사법	-13.3601
내동	-13.3601
달라진다	-13.3602
묻힌다	-13.3602
월남	-13.3602
세금	-13.3603
난세	-13.3603
다든지	-13.3603
상속인	-13.3603
서재	-13.3604
뒤덮인	-13.3604
은행원	-13.3604
힐다	-13.3604
도리안	-13.3605
따라야	-13.3605
사유지	-13.3605
자각	-13.3605
집행인	-13.3605
자재	-13.3606
지갑	-13.3607
끝난다	-13.3607
말투	-13.3608
per	-13.3608
마니아	-13.3609
상반	-13.3609
손발	-13.361
심판자	-13.361
법원	-13.3611
저격수	-13.3611
행해	-13.3611
장미	-13.3611
대모	-13.3613
옷장	-13.3614
내몰	-13.3614
부려	-13.3614
위원	-13.3615
금속	-13.3616
장화	-13.3616
독보	-13.3616
시빌	-13.3616
전망	-13.3616
속옷	-13.3616
장식	-13.3617
사병	-13.3617
난관	-13.3617
병명	-13.3618
가져가	-13.3618
훔친다	-13.3618
알제이	-13.3619
알아주	-13.3619
미신	-13.3619
평가	-13.362
접한다	-13.362
쇼크	-13.362
매주	-13.3623
우상	-13.3623
계단	-13.3624
추장	-13.3624
굴하	-13.3624
해낼	-13.3624
이루어진다	-13.3624
투시	-13.3625
속임	-13.3625
마키	-13.3625
폴스	-13.3625
공수	-13.3625
임원	-13.3626
봐도	-13.3626
공학자	-13.3627
이디스	-13.3628
유수	-13.363
회사원	-13.363
장학생	-13.363
이륙	-13.3631
빗과	-13.3631
선명	-13.3631
촬영장	-13.3631
모험심	-13.3631
살결	-13.3632
주코	-13.3632
바뀐다	-13.3633
늘리	-13.3633
죽임	-13.3633
독살	-13.3634
경로	-13.3635
화목	-13.3635
사체	-13.3636
장거리	-13.3636
밤하늘	-13.3637
톨이	-13.3637
축제일	-13.3638
실전	-13.3643
마감	-13.3643
금전	-13.3645
면담	-13.3646
파이만	-13.3646
감상	-13.3646
놀란다	-13.3647
사본	-13.3647
도망친다	-13.3647
▁두려워	-13.3647
저지른다	-13.3647
치군	-13.3648
마법부	-13.365
말싸움	-13.3651
공연장	-13.3652
기업체	-13.3652
소시	-13.3654
치하루	-13.3655
보티	-13.3655
살벌	-13.3658
후임	-13.3659
은폐	-13.366
정해	-13.366
월리	-13.366
학기	-13.3662
상하이	-13.3663
▁모른다	-13.3663
병상	-13.3663
주저	-13.3663
스무	-13.3663
아귀	-13.3663
보르	-13.3663
힘입	-13.3663
맨더	-13.3664
따라간	-13.3664
집회	-13.3665
대재	-13.3668
여주인공	-13.3669
사위	-13.3669
빼앗긴다	-13.367
소도시	-13.367
영화제	-13.3671
주방	-13.3673
속국	-13.3673
안내인	-13.3673
배치	-13.3675
리부	-13.3676
바후	-13.3678
환호성	-13.3678
치달	-13.3678
불려	-13.3679
종자	-13.368
입원	-13.3681
대포	-13.3681
다이어	-13.3682
만찬	-13.3682
대왕	-13.3683
살점	-13.3683
불가	-13.3683
암호문	-13.3685
천상	-13.3685
보병	-13.3686
분석가	-13.3686
연수	-13.3686
예언자	-13.3689
마리나	-13.369
명품	-13.3693
법대	-13.3694
약자	-13.3694
직속	-13.3696
자민	-13.3696
무스	-13.3702
하락	-13.3702
아요	-13.3702
노예주	-13.3702
마님	-13.3703
인맥	-13.3705
고슬링	-13.3705
조치	-13.3705
목장	-13.3706
ley	-13.3709
선전	-13.3712
상원	-13.3712
중국인	-13.3712
도망자	-13.3715
대열	-13.3716
적수	-13.3718
해요	-13.3718
켄들	-13.372
통해서	-13.372
보미	-13.372
글자	-13.372
도리어	-13.3721
구원자	-13.3721
성별	-13.3721
동인	-13.3723
였으며	-13.3724
비갈	-13.3724
참된	-13.3724
두려워한	-13.3725
일임	-13.3727
안심	-13.3728
공로	-13.3728
수사대	-13.3728
라미아	-13.3728
아매	-13.3729
대군	-13.3729
개비	-13.373
열대	-13.3731
거사	-13.3733
휴지	-13.3734
가렛	-13.3734
일방	-13.3734
이끌린다	-13.3736
존재감	-13.3736
자란다	-13.3737
중력	-13.3738
새라	-13.3739
치부	-13.3739
동지	-13.3739
일반	-13.3742
주범	-13.3743
다툰	-13.3743
사돈	-13.3747
일병	-13.3747
의리	-13.3747
하모니카	-13.3748
경은	-13.3748
막막	-13.3749
프로도	-13.3749
아디	-13.3751
초보	-13.3751
타이어	-13.3754
전방	-13.3754
지인	-13.3757
안주인	-13.3759
▁느냐	-13.3759
각인	-13.3762
시비	-13.3764
맷과	-13.3766
극도	-13.3767
전파	-13.3768
내걸	-13.3769
문라	-13.3769
마차	-13.3776
깊숙이	-13.3777
일체	-13.378
복제기	-13.3781
결혼식장	-13.3782
과격	-13.3783
이익	-13.3784
내성	-13.3785
▁Po	-13.3786
바라기	-13.3789
클로이	-13.3792
기약	-13.3795
담당자	-13.3798
제작자	-13.3799
장관	-13.38
콜로	-13.3801
적용	-13.3803
낙이	-13.3806
중위	-13.3808
실종사건	-13.3808
중계	-13.3809
▁트라	-13.381
▁변한다	-13.3811
하반신	-13.3812
로울	-13.3812
보니	-13.3813
테리가	-13.3815
경쟁자	-13.3815
감수	-13.3822
고순	-13.3823
파문	-13.3825
한동안	-13.3826
로보트	-13.3827
여야	-13.3827
도버	-13.3827
여부	-13.383
감도	-13.383
에리스	-13.3831
아국	-13.3833
생전	-13.3834
포주	-13.3835
보였	-13.3835
으려던	-13.3842
주선	-13.3844
일부분	-13.3845
새아버지	-13.3845
호오	-13.3847
사관	-13.3848
제이다	-13.385
정한다	-13.3854
대학살	-13.3857
족장	-13.3862
▁달려	-13.3862
이끈	-13.3863
인종	-13.3868
▁거침없	-13.3868
메기	-13.3869
▁풍	-13.387
와츠	-13.3871
차단	-13.3876
슈가	-13.3877
남긴다	-13.3878
였을	-13.3879
에펠	-13.388
치안	-13.3886
하멜	-13.3886
아동	-13.3886
조직원	-13.3889
전형	-13.3889
라야	-13.389
성화	-13.3894
싸가	-13.3897
내보내	-13.3897
아더	-13.3899
고지식	-13.39
맨날	-13.39
나마	-13.3902
전공	-13.3905
정지	-13.3906
사신	-13.3908
판다	-13.3908
도모	-13.3909
이용해	-13.3909
앤지	-13.3912
타라	-13.3912
할란	-13.3912
▁접	-13.3913
토지	-13.3917
사면	-13.3918
군수	-13.3921
시아	-13.3922
제보	-13.3925
실시간	-13.3928
주치	-13.393
그치	-13.3931
사망자	-13.3932
대박	-13.3934
수집가	-13.3936
이승	-13.394
찬다	-13.394
못된	-13.3944
레다	-13.3945
성배	-13.3946
화해	-13.395
신세인	-13.3952
cho	-13.3952
자자	-13.3952
자본	-13.3953
격분	-13.3953
기동	-13.3968
배우자	-13.3969
중범죄	-13.3971
경이	-13.3973
일선	-13.3975
결정지	-13.3982
그러다가	-13.3985
도전자	-13.3993
가격	-13.3996
▁인공	-13.3998
자발	-13.3999
내내	-13.4008
인천	-13.4014
▁헤	-13.402
초대장	-13.4022
▁설	-13.403
수재	-13.4031
▁묵	-13.4031
내버리	-13.4036
▁판타지	-13.4037
면치	-13.4037
오차	-13.4037
도왔	-13.404
소피아	-13.4041
손상	-13.4045
대단	-13.4045
나신	-13.4047
황금기	-13.4049
▁요	-13.405
중부	-13.4053
마지못	-13.4056
빌리지	-13.4058
계산	-13.4058
일러	-13.4059
막중	-13.406
▁환	-13.406
자바	-13.4068
포장	-13.4072
신음	-13.4072
밤중	-13.4072
어깨	-13.4074
대작전	-13.4074
▁타피	-13.4075
홀가	-13.4077
동성	-13.4078
전생	-13.4086
아네	-13.4097
신중	-13.4102
한다며	-13.4108
원장	-13.4111
후면	-13.4114
손주	-13.4115
▁뒤덮	-13.412
인증	-13.4122
▁덮친	-13.4122
▁들이닥친	-13.4122
▁램	-13.4124
▁주니	-13.4127
기호	-13.4128
▁묻힌	-13.4134
▁달라진	-13.4134
▁취한	-13.4137
▁찾아낸	-13.4137
▁쓰러진	-13.4138
▁그레	-13.4138
악인	-13.4139
기질	-13.414
▁이룬	-13.414
▁일으킨	-13.4141
려다가	-13.415
▁녹	-13.415
그랜드	-13.4152
▁휩싸인	-13.4152
나일	-13.4154
선인	-13.4161
이고르	-13.4162
▁쫓겨	-13.4168
각성	-13.4169
주스	-13.4179
▁익	-13.4184
주크	-13.4188
멕시코인	-13.4189
▁미스테리	-13.4191
▁샌	-13.4196
▁뉴	-13.4199
▁기도	-13.42
▁애덤	-13.4203
▁릴리	-13.4203
▁올린	-13.4203
▁발레	-13.4203
포도	-13.4204
▁싸운	-13.4204
▁롱	-13.4205
▁닥	-13.4205
▁거쳐	-13.4207
▁낯	-13.4209
후안	-13.4209
▁웨이	-13.421
▁어려워	-13.421
▁꼬여	-13.421
▁저항	-13.421
▁단순	-13.421
▁블러드	-13.421
▁텔	-13.4211
▁엠	-13.4211
▁발타자	-13.4211
▁엘프	-13.4212
▁헤쳐	-13.4212
▁비틀	-13.4213
▁버거	-13.4213
▁써	-13.4213
전야	-13.4213
▁조안	-13.4213
▁매트	-13.4214
▁꿀	-13.4214
▁랫	-13.4215
▁구스	-13.4215
▁생생	-13.4215
▁애스	-13.4217
▁낙인	-13.422
▁떠들	-13.422
▁스칼	-13.4221
▁야심	-13.4225
▁미스	-13.4225
아군	-13.4232
▁청	-13.4232
▁미나	-13.4232
고장	-13.4233
▁혼혈	-13.4235
기구	-13.4238
▁파도	-13.4249
▁아론	-13.425
프랑스어	-13.4256
채집	-13.4261
▁잠자	-13.4263
로니아	-13.4264
투로	-13.4267
대리	-13.4269
예의	-13.4271
▁외국	-13.4274
▁오리	-13.4275
방과	-13.4275
비해	-13.4279
▁디아	-13.4287
나리	-13.4288
▁메가	-13.429
방지	-13.4298
지네	-13.4299
▁리자	-13.432
안중	-13.4322
수심	-13.4324
▁아더	-13.4329
▁상한	-13.4333
링고	-13.4334
보인다는	-13.4335
▁티아	-13.434
명명	-13.4361
▁초청	-13.4375
▁언론	-13.4395
인체	-13.44
세계관	-13.44
추적자	-13.4404
▁겸	-13.4408
▁승	-13.4408
▁넘버	-13.4409
▁상담	-13.4411
▁똑	-13.4411
▁캠핑	-13.4414
▁Ba	-13.4414
▁희귀	-13.4416
▁혈액	-13.4416
▁동창	-13.4417
▁띄	-13.4417
▁합동	-13.4418
게일	-13.4419
▁긴급	-13.4419
▁추리	-13.442
▁유사	-13.4422
▁라자	-13.4423
대양	-13.4424
▁불타	-13.4434
▁도망	-13.4445
▁과감	-13.4447
무산	-13.4452
▁만화	-13.4471
안보	-13.4484
사주	-13.4491
해변가	-13.4493
▁힐	-13.4498
▁까	-13.4498
죽일	-13.4509
정성	-13.4512
해부	-13.4514
▁방어	-13.4514
여사	-13.4517
파고	-13.4522
자손	-13.4523
▁집결	-13.4538
▁딱	-13.4549
▁아라	-13.4553
▁도라	-13.4553
실은	-13.4555
▁상속	-13.4567
이운	-13.4574
알마	-13.4576
▁보유	-13.4578
로트	-13.4582
장만	-13.4586
▁우울	-13.4591
도어	-13.4601
마수	-13.4606
▁W	-13.4614
▁모욕	-13.4624
▁캠	-13.4627
우성	-13.4628
▁상실	-13.4629
▁화물	-13.4633
▁위조	-13.4636
▁스키	-13.4641
전차	-13.4669
던진	-13.467
▁시아	-13.4682
속여	-13.4683
포지	-13.4686
런들	-13.4717
ic	-13.4746
고지대	-13.4746
올가	-13.4775
한복판	-13.4777
산적	-13.4797
실에	-13.4798
가모	-13.4801
이유로	-13.4811
▁요리	-13.4816
▁덤	-13.4825
적막	-13.4828
장장	-13.4832
▁인내	-13.4835
▁유리	-13.4844
고층	-13.4848
가구	-13.485
▁석	-13.4867
소어	-13.487
달리기	-13.4873
▁금기	-13.4878
절대로	-13.4879
감성	-13.4884
mb	-13.4884
상한다	-13.4892
it	-13.4893
달한다	-13.4902
ter	-13.4915
떠돌이	-13.4916
한참	-13.4918
▁대사	-13.4956
고참	-13.4975
무인	-13.4979
이어인	-13.5023
았었	-13.5027
오래가	-13.5033
위지	-13.5049
▁납	-13.5063
▁수배	-13.5079
▁전장	-13.5088
주전	-13.5094
lo	-13.5101
▁집행	-13.5139
if	-13.5145
하우	-13.5181
라면서	-13.5183
니로	-13.5194
22	-13.5204
상한	-13.5206
지기	-13.5226
가시	-13.5227
달인	-13.523
불어	-13.5244
지불	-13.5249
박이	-13.5254
이마	-13.5258
▁태양	-13.5276
▁정비	-13.5277
나문	-13.528
온도	-13.5313
기반	-13.5321
판이	-13.5334
이력	-13.5349
▁수리	-13.5351
게살	-13.5368
▁가상	-13.5389
차이	-13.539
카게	-13.5401
▁항공	-13.5474
▁고생	-13.5482
제기	-13.5486
▁고장	-13.5496
벤가	-13.5513
▁좁	-13.5514
▁상류	-13.5515
▁미리	-13.5532
ay	-13.5549
일사	-13.5561
▁역	-13.5562
id	-13.5564
해명	-13.5581
수안	-13.5593
59	-13.5628
다가와	-13.5663
수치	-13.5665
한방	-13.5665
한쪽	-13.5674
야기	-13.5681
그란	-13.5685
▁차이	-13.5699
se	-13.5737
취	-13.5742
인다	-13.575
락	-13.5761
▁래	-13.5767
실의	-13.5808
블	-13.5818
as	-13.5821
최대한	-13.5821
말년	-13.5836
믿기	-13.5849
▁묶	-13.5853
궁	-13.5864
싱	-13.5868
▁이자	-13.5879
타지	-13.5894
그건	-13.5895
시인	-13.5907
롤	-13.5913
▁적대	-13.5926
이주	-13.5934
수여	-13.5942
폐	-13.5945
텐	-13.5949
센	-13.5954
우스	-13.5955
▁애완	-13.5983
하티	-13.6005
라우	-13.6014
낙	-13.6081
넬	-13.6084
스프	-13.6093
룬	-13.6097
버지니아	-13.6099
뉴멕시코	-13.6099
타이틀	-13.6099
끌어내	-13.6099
유랑	-13.61
회오리	-13.61
방패	-13.6101
양복	-13.6101
나이트	-13.6102
상당	-13.6102
권위	-13.6102
모터	-13.6103
실버	-13.6104
데이터	-13.6105
테크	-13.6106
베리	-13.611
만능	-13.6115
소화	-13.6118
구명	-13.6118
밀수	-13.6124
유년	-13.6127
비키	-13.6128
손목	-13.6141
내려	-13.615
무서워	-13.615
춘	-13.6152
펼쳐진	-13.6153
웰	-13.6158
수준	-13.6159
멍청	-13.6159
문어	-13.616
외톨	-13.6165
널	-13.6166
햄	-13.6168
싼	-13.6169
닫	-13.617
알려준다	-13.617
손잡	-13.6171
유기	-13.6172
캔	-13.6172
키운	-13.6172
몰려	-13.6173
랙	-13.6174
닥칠	-13.6175
선보인	-13.6175
쫓겨난	-13.6175
달아난	-13.6176
들어선	-13.6176
내려간	-13.6176
올라간	-13.6176
클레이	-13.6177
랩	-13.6177
스트로	-13.6177
이어진	-13.6177
캐롤	-13.6177
종결	-13.6177
심리학	-13.6177
키운다	-13.6177
덴	-13.6178
고고학	-13.6178
맡긴	-13.6178
셰	-13.6178
받아들여	-13.6178
웨스트	-13.6179
샤워	-13.6179
홈	-13.6179
콜럼	-13.6179
황당	-13.6179
태어났	-13.6179
퍼스	-13.6179
얽혀	-13.6179
코넬리	-13.6179
브린	-13.6179
흥미	-13.6179
코브	-13.6179
라이즈	-13.6179
가로막	-13.6179
밀려	-13.618
써서	-13.618
캐롤라	-13.618
채워	-13.618
미츠	-13.618
니콜	-13.618
드루	-13.6181
모티	-13.6181
대접	-13.6181
조디	-13.6182
가져다	-13.6183
드리스	-13.6184
베스	-13.6184
비토	-13.6185
간절	-13.6185
카르	-13.6185
밀라	-13.6186
다가올	-13.6186
소용	-13.6188
모리	-13.6189
미카	-13.6189
키드	-13.6189
시종	-13.6189
마코	-13.6189
맞선	-13.6191
스즈	-13.6194
타키	-13.6198
호스	-13.6199
폴라	-13.62
구두	-13.62
생긴다	-13.6201
▁총격	-13.6203
매사	-13.6203
ree	-13.6206
강해	-13.6207
다가온	-13.6208
포고	-13.6209
들뜬	-13.621
플로	-13.621
시카	-13.6212
달라	-13.6213
발리	-13.6214
파일	-13.6214
외인	-13.6215
가계	-13.6215
클로	-13.622
때려	-13.622
패기	-13.6221
X	-13.6231
던져	-13.6233
치과	-13.6234
카말	-13.6236
연다	-13.6239
신인	-13.6241
부여	-13.6245
인디	-13.6254
제대	-13.6261
지낸	-13.6273
사리	-13.6274
크리	-13.6286
’	-13.6291
조수	-13.6303
인상	-13.6304
▁광	-13.631
스로	-13.6316
해일	-13.6319
끝장	-13.6341
스카이	-13.6393
화분	-13.6407
에버	-13.6416
모은	-13.6422
속속	-13.643
다나	-13.6442
인터	-13.6459
기타	-13.6463
이대로	-13.6466
그려	-13.6473
인원	-13.6481
ey	-13.6504
▁깊숙	-13.6513
탈출기	-13.6562
정한	-13.6581
기소	-13.6637
아바	-13.6653
작성	-13.6668
채인	-13.6697
도그	-13.671
다다른	-13.6747
피아	-13.6749
▁폭격	-13.6755
▁낙	-13.6756
고리	-13.6767
▁사귄	-13.6771
의외	-13.6773
신성	-13.6776
▁펼쳐	-13.6805
다스	-13.681
꼬	-13.6811
슬럼	-13.683
물들	-13.683
벼락	-13.6834
곱	-13.6836
KG	-13.6844
몬테	-13.6847
수완	-13.6848
▁세탁	-13.6849
다구요	-13.6849
국적	-13.6849
유색	-13.685
숫	-13.685
▁멈춰	-13.6851
아리아	-13.6851
▁팽팽	-13.6852
송신	-13.6852
▁불량	-13.6853
▁쇼핑	-13.6854
뚱뚱	-13.6854
아카데미	-13.6854
곡예	-13.6854
순찰	-13.6854
머릿	-13.6855
바구니	-13.6855
당사	-13.6855
ann	-13.6855
어지럽	-13.6856
점프	-13.6856
규환	-13.6856
까다롭	-13.6856
품평	-13.6856
▁Daniel	-13.6856
깨뜨리	-13.6856
부딪치	-13.6856
들여다보	-13.6856
▁Chris	-13.6856
▁페투니아	-13.6856
▁Mar	-13.6856
억누르	-13.6856
돌아보	-13.6856
부서지	-13.6856
ur	-13.6856
ru	-13.6856
접어들	-13.6856
도려내	-13.6856
질풍	-13.6856
ge	-13.6856
밀어내	-13.6856
카를로	-13.6856
현관	-13.6856
트랜스	-13.6856
끼어들	-13.6856
탈영	-13.6856
애꾸	-13.6856
날아다니	-13.6856
클로스	-13.6857
싹트	-13.6857
잠복	-13.6857
진창	-13.6857
활기차	-13.6857
꺼리	-13.6857
본거	-13.6857
유혈	-13.6857
부잣	-13.6857
유예	-13.6858
늦추	-13.6858
놀래	-13.6858
매매	-13.6858
크로스	-13.6858
외동	-13.6858
당차	-13.6859
암벽	-13.6859
~!	-13.6859
허리	-13.686
유부	-13.6861
관능	-13.6861
벗겨지	-13.6862
오락	-13.6863
요조	-13.6863
고초	-13.6863
소방	-13.6864
온기	-13.6864
무역	-13.6864
실직	-13.6864
공작	-13.6864
뽑히	-13.6865
주전자	-13.6865
연금	-13.6865
탄탄	-13.6865
테마	-13.6865
▁고속	-13.6866
변사	-13.6866
후유	-13.6866
배심	-13.6867
방비	-13.6868
천신	-13.6868
승차	-13.6868
써내	-13.6868
벨트	-13.6868
전능	-13.687
저곳	-13.6871
방귀	-13.6871
헬스	-13.6871
최신	-13.6875
강대	-13.6875
발신	-13.6877
얼리	-13.6877
조르	-13.6878
사격	-13.6879
달려오	-13.688
피서	-13.6881
종신	-13.6884
비웃	-13.6884
han	-13.6886
전당	-13.6886
전교	-13.6886
내던지	-13.6888
못생기	-13.6888
휴양	-13.6888
클리	-13.689
괴로워하	-13.689
입금	-13.6897
우주국	-13.6899
눈뜨	-13.6904
노도	-13.6908
▁CE	-13.6908
불면	-13.691
일깨우	-13.6911
요상	-13.6911
로스	-13.6913
빛내	-13.6918
주둔	-13.6923
허가	-13.6923
간힘	-13.6924
기착	-13.6924
달한	-13.6924
천마	-13.6928
사모	-13.6932
장정	-13.6934
크로	-13.6938
서식	-13.6944
유적	-13.6947
장본	-13.6948
풍기	-13.6955
20	-13.6957
tre	-13.696
성주	-13.6964
호박	-13.6964
도사	-13.697
▁무서워	-13.6976
나르	-13.6977
중매	-13.6981
드라	-13.6997
떠밀	-13.7002
▁Will	-13.7004
뒤따르	-13.7004
동산	-13.7007
등반	-13.7008
▁주식	-13.701
▁Char	-13.7016
불러오	-13.7016
둘러	-13.7027
하느	-13.7037
위안	-13.705
명한다	-13.7062
보화	-13.7072
임상	-13.7074
기류	-13.7078
소대	-13.7083
산물	-13.7088
소일	-13.7091
주가	-13.7106
재주	-13.7113
자물	-13.7115
물들이	-13.7125
웃기	-13.713
척하	-13.713
못살	-13.7131
진전	-13.7151
▁멍청	-13.716
▁지지	-13.7172
▁손잡	-13.7172
무고	-13.718
▁생긴다	-13.7187
든가	-13.7193
▁변호	-13.7193
아마	-13.7217
반성	-13.7218
스치	-13.722
한나	-13.7225
▁외톨	-13.7231
▁클로	-13.7239
▁춘	-13.7247
낙하	-13.7259
생각나	-13.7262
어질	-13.7266
▁취	-13.7277
의회	-13.7288
기단	-13.7297
▁알려준다	-13.7357
▁키운다	-13.7365
▁폐	-13.7368
기척	-13.7374
▁연다	-13.7395
▁모리	-13.7402
▁수도	-13.7402
야상	-13.7403
▁몰려	-13.7418
▁시카	-13.7421
분화	-13.7429
▁플로	-13.746
▁싱	-13.7463
ell	-13.7471
인신	-13.748
이빨	-13.7486
▁닥칠	-13.7486
▁블	-13.7488
▁선보인	-13.749
▁쫓겨난	-13.749
▁내려간	-13.7491
▁채워	-13.7491
▁싼	-13.7492
▁궁	-13.7492
시오	-13.7496
▁물들	-13.7497
데기	-13.7497
▁들어선	-13.7502
▁올라간	-13.7503
▁맡긴	-13.7504
▁이어진	-13.7506
▁달아난	-13.7507
▁맞선	-13.7523
▁들뜬	-13.7526
▁종결	-13.7527
▁심리학	-13.7527
▁고고학	-13.7532
▁다가온	-13.7541
▁조수	-13.7548
▁밀려	-13.7549
▁제대	-13.7552
▁달라	-13.7554
▁펼쳐진	-13.7557
▁지낸	-13.7559
▁대접	-13.7561
카이	-13.7563
▁키운	-13.7565
▁가져다	-13.7566
▁넬	-13.7567
▁셰	-13.7568
▁스트로	-13.7568
▁코브	-13.7571
▁널	-13.7571
▁니콜	-13.7572
▁웰	-13.7572
▁랙	-13.7574
▁받아들여	-13.7575
▁샤워	-13.7577
▁랩	-13.7577
▁미츠	-13.7578
▁가로막	-13.7579
▁써서	-13.7579
▁클레이	-13.7579
▁캔	-13.758
▁덴	-13.758
▁홈	-13.758
▁태어났	-13.7581
▁간절	-13.7581
▁콜럼	-13.7581
▁캐롤	-13.7581
▁캐롤라	-13.7581
▁얽혀	-13.7581
▁퍼스	-13.7581
▁텐	-13.7581
▁브린	-13.7581
▁웨스트	-13.7582
▁밀라	-13.7582
▁흥미	-13.7582
▁닫	-13.7582
▁황당	-13.7582
▁코넬리	-13.7582
▁모티	-13.7583
▁햄	-13.7583
▁조디	-13.7583
▁소용	-13.7583
▁라이즈	-13.7584
▁센	-13.7584
▁드리스	-13.7584
▁구두	-13.7584
▁드루	-13.7584
▁비토	-13.7585
▁부여	-13.7585
▁마코	-13.7586
▁시종	-13.7587
▁다가올	-13.7587
▁카르	-13.7587
▁미카	-13.7588
▁발리	-13.7589
▁룬	-13.7589
▁키드	-13.759
▁스즈	-13.759
온상	-13.7591
▁스프	-13.7593
▁크리	-13.7593
▁베스	-13.7593
▁롤	-13.7594
▁매사	-13.7595
▁호스	-13.7598
음주	-13.7598
▁원한	-13.7599
▁패기	-13.7601
▁강해	-13.7601
▁때려	-13.7602
▁타키	-13.7602
▁폴라	-13.7604
▁정한	-13.7607
▁카말	-13.761
▁파일	-13.761
▁이중	-13.7613
▁우스	-13.7621
▁락	-13.7632
▁던져	-13.7635
▁아바	-13.7641
▁인디	-13.7641
▁모은	-13.7677
패하	-13.7681
그대	-13.7686
도일	-13.7687
이미지	-13.7696
원한	-13.7697
▁끝장	-13.771
▁출	-13.7739
라와	-13.7739
분신	-13.7742
들여	-13.7757
내주	-13.777
▁겨루	-13.7774
▁녹음	-13.7776
▁필	-13.7778
달성	-13.7779
▁셔	-13.7781
▁근거	-13.7787
▁크로	-13.78
▁인터	-13.7802
▁스카이	-13.7804
▁에버	-13.7815
▁시청	-13.7826
▁속속	-13.7832
▁연장	-13.7841
쓸이	-13.7851
탐하	-13.7851
내게	-13.7864
▁증언	-13.7864
에서부터	-13.7867
▁영업	-13.7871
도살	-13.7874
▁출근	-13.7876
▁재단	-13.7877
▁심사	-13.7881
▁결단	-13.7883
▁성형	-13.7884
▁갓난	-13.7886
▁감마	-13.7886
▁뱀	-13.7886
▁쑥대	-13.7887
▁청부	-13.7887
▁관중	-13.7887
▁노란	-13.7888
▁사각	-13.7888
▁랄	-13.7889
▁통신	-13.7889
▁거물	-13.7897
ast	-13.7903
▁귀중	-13.7904
▁람	-13.7911
▁언어	-13.7912
▁차려	-13.7918
▁미술	-13.7933
▁께	-13.794
▁분석	-13.7966
▁얼	-13.797
▁시사	-13.7971
▁부산	-13.7974
▁환호	-13.7978
사지	-13.8006
이맥스	-13.8008
▁다다른	-13.8008
지구인	-13.8025
▁냐	-13.8046
▁끈	-13.8053
▁의외	-13.8082
이자	-13.8083
기본	-13.8093
붙들	-13.8097
왕성	-13.8103
▁피아	-13.8106
▁의료	-13.8107
▁공급	-13.8142
▁약탈	-13.8142
▁다스	-13.8147
▁매춘	-13.8194
▁달한	-13.8196
▁동맹	-13.8198
▁모래	-13.82
▁잡아먹	-13.8201
▁정화	-13.8202
▁방위	-13.8203
▁광산	-13.8208
▁송	-13.8212
▁기절	-13.8252
보상	-13.8258
Co	-13.8282
ls	-13.8285
과자	-13.8304
ud	-13.8308
▁로스	-13.834
조그	-13.8343
▁도사	-13.8358
기여	-13.8368
▁슬러	-13.8425
▁경영	-13.8437
▁철학	-13.8468
▁동업	-13.8468
▁유언	-13.8485
고전	-13.8514
▁스포츠	-13.8524
▁잠재	-13.8525
▁국민	-13.8526
▁찢	-13.8531
NB	-13.8546
말기	-13.8551
▁움	-13.857
지부	-13.8585
▁사명	-13.859
▁카이	-13.8605
들소	-13.8635
임하	-13.8636
▁불가	-13.8705
▁곡	-13.8737
다물	-13.8747
▁정찰	-13.8756
▁지아	-13.8768
th	-13.8777
▁유태	-13.8778
ob	-13.8787
▁공동	-13.8861
▁교황	-13.8864
▁주머니	-13.8875
속상	-13.8879
수수	-13.895
▁천하	-13.8957
의해서	-13.8983
▁그대	-13.8998
만두	-13.9013
▁하마	-13.9095
▁수송	-13.9114
사수	-13.9139
▁날아오	-13.9171
급하	-13.9197
nk	-13.9201
어보	-13.9214
중지	-13.929
등지	-13.9327
ad	-13.9376
▁플레이	-13.9416
속인	-13.9462
가위	-13.9582
▁반항	-13.9589
▁스턴트	-13.9595
고발	-13.9724
▁전면	-13.9731
85	-13.9734
▁거주	-13.9796
트이	-13.981
하급	-13.9888
▁Ma	-14.005
▁업	-14.013
▁가르	-14.0228
귀하	-14.028
▁슬	-14.031
ra	-14.0343
완	-14.039
까요	-14.0409
▁들러	-14.0423
ri	-14.0456
하마	-14.0562
▁’...	-14.0583
떠	-14.0619
ank	-14.0631
빼돌	-14.0674
ne	-14.0722
여의	-14.0744
퍼	-14.079
윤	-14.0837
노스	-14.0896
얀	-14.0897
▁밀	-14.09
킨	-14.0903
릴라	-14.0914
리얼	-14.0923
윈	-14.0942
ch	-14.0943
10	-14.0961
렉	-14.0967
ho	-14.1043
앙	-14.1044
마니	-14.1051
빠	-14.1062
현	-14.1066
레스	-14.1066
트레	-14.1079
육	-14.1082
브라	-14.1083
쿨	-14.1085
즐거워	-14.1089
잉	-14.1102
세워	-14.1102
펜	-14.1103
노린	-14.1104
한스	-14.1105
컴	-14.1105
촉	-14.1107
쩍	-14.1107
섞여	-14.1108
믹	-14.1108
흐	-14.1108
스테이	-14.1109
알아챈	-14.1109
흐른	-14.1109
길러진	-14.1109
모모	-14.1109
꺼	-14.1109
굶	-14.1109
괴롭힌	-14.1109
쫓아간	-14.111
따른	-14.111
왈	-14.111
받아들인	-14.111
태운	-14.111
퍼진	-14.111
알아낸	-14.111
맴	-14.111
평	-14.111
멍	-14.1111
샹	-14.1111
에스텔	-14.1111
뿔	-14.1112
큐	-14.1112
브룩	-14.1112
메피스토	-14.1112
당당	-14.1112
뮤	-14.1112
골탕	-14.1112
스프링	-14.1112
스패로	-14.1112
넘어간	-14.1112
냉정	-14.1112
플랫	-14.1112
코프	-14.1112
옥토	-14.1112
모셔	-14.1112
캘	-14.1112
칼럼	-14.1112
프레	-14.1112
떨쳐	-14.1113
출입	-14.1113
물리쳐	-14.1113
헌	-14.1113
헐리	-14.1113
물리학	-14.1113
레너	-14.1113
급격	-14.1114
지켜본	-14.1114
허드	-14.1114
깨워	-14.1114
불린	-14.1114
잠긴	-14.1114
규	-14.1115
실린	-14.1115
놓친	-14.1115
트루	-14.1115
워크	-14.1115
바쳐	-14.1115
투모	-14.1115
들른	-14.1115
네트	-14.1116
저질	-14.1116
배워	-14.1116
타이타	-14.1116
헤일	-14.1116
밝혀진	-14.1117
사우스	-14.1117
앤드	-14.1117
밤낮	-14.1118
사이클	-14.112
판타	-14.112
무참	-14.1121
스티	-14.1121
루이지	-14.1121
베니	-14.1122
쇼맨	-14.1122
올라	-14.1122
시켜야	-14.1123
토마	-14.1124
될까	-14.1125
프라	-14.1125
애드	-14.1125
피닉	-14.1126
끝난	-14.1126
토라	-14.1126
일찍	-14.1128
들어와	-14.113
공공	-14.1131
티타	-14.1131
건진	-14.1131
세르	-14.1133
제정	-14.1133
올린다	-14.1133
가져온	-14.1133
꾸며	-14.1135
따라온	-14.1138
카카	-14.1139
약해	-14.1139
제조	-14.114
레이더	-14.114
투리	-14.1141
나루	-14.1142
모라	-14.1143
참사	-14.1154
카타	-14.1155
파라	-14.1156
라기	-14.1161
바스	-14.1163
미라	-14.1166
정말	-14.1169
빌라	-14.1169
전해진	-14.1171
해질	-14.1172
접한	-14.1174
발라	-14.1174
조여	-14.1176
엘리자	-14.1176
드라이	-14.118
최상	-14.118
케인	-14.118
다행	-14.1182
대작	-14.1189
제스	-14.1191
정전	-14.1194
부스	-14.1202
소스	-14.1217
로렌	-14.1239
?	-14.1241
원했	-14.1253
26	-14.1255
피오	-14.1257
간단	-14.1267
D	-14.1286
14	-14.1304
나타	-14.1306
마사	-14.1317
모로	-14.1328
▁Do	-14.1335
자네	-14.1338
타오	-14.1342
신속	-14.1343
박살	-14.1361
남아	-14.1378
전자	-14.1381
산드	-14.1396
가져	-14.1407
ther	-14.1409
죽여	-14.142
오스	-14.142
말라	-14.1425
il	-14.1446
차오	-14.1472
라일	-14.1479
보리	-14.1492
고속도	-14.1492
부적	-14.1494
복	-14.1507
디스	-14.1507
▁45	-14.1516
향	-14.1522
튼	-14.1565
아르	-14.1577
끌림	-14.1579
삭	-14.1596
륙	-14.1603
all	-14.1616
수세	-14.1618
끌린다	-14.1623
축	-14.1625
상부	-14.1658
퇴	-14.1666
메트	-14.1677
디언	-14.1686
렀	-14.17
려왔	-14.172
컬	-14.1724
루이	-14.1728
▁....	-14.1728
근	-14.1728
바토	-14.1733
료	-14.1745
스코	-14.1751
메일	-14.1756
▁페이	-14.176
래디	-14.1761
냥	-14.1765
▁이렇	-14.1765
아미	-14.1769
메스	-14.1769
살아났	-14.1772
이즐리	-14.1772
괴로워	-14.1777
골	-14.1778
홍	-14.1781
났	-14.1783
동해	-14.1785
덮	-14.1786
토록	-14.1788
니엘스	-14.179
리우스	-14.1795
웨	-14.1796
훈	-14.1797
찌	-14.1806
니퍼	-14.1806
그리워	-14.1807
킬	-14.1808
오사	-14.1812
뜬금없	-14.1813
난데없	-14.1813
울릴	-14.1815
몬	-14.1816
돌려준다	-14.1817
쩔	-14.1817
떤	-14.1817
따라다닌다	-14.1818
한결같	-14.1819
엄	-14.1819
츠츠	-14.1821
머니	-14.1823
칭	-14.1823
머레	-14.1824
뛰쳐나	-14.1833
일린	-14.1834
미완	-14.1834
호숫	-14.1834
민영	-14.1835
좌	-14.1836
그럴싸	-14.1836
덤벼	-14.1837
머지않	-14.1838
쑥	-14.1838
핸	-14.184
덧	-14.184
살핀다	-14.1842
스캔	-14.1843
냉	-14.1844
켈	-14.1845
뭇	-14.1846
덮칠	-14.1846
뒤바뀐	-14.1847
빠뜨린	-14.1847
찾아올	-14.1847
잊혀진	-14.1847
뒤섞	-14.1847
▁걸렸	-14.1847
쫓아온	-14.1847
얘	-14.1847
앞장선	-14.1847
뛰쳐나온	-14.1848
멋	-14.1848
벗겨	-14.1848
따돌린	-14.1848
바리새	-14.1848
쫓아낸	-14.1848
헐	-14.1848
물러난	-14.1848
쾌	-14.1848
맞닥뜨린	-14.1849
뒤집힌	-14.1849
데려온	-14.1849
기다린	-14.1849
드러난	-14.1849
루토	-14.1849
밝힌	-14.1849
스민	-14.1849
징	-14.1849
넨	-14.1849
망친	-14.1849
엉킨	-14.185
튜	-14.185
데려간	-14.185
불러들인	-14.185
태워	-14.185
테이트	-14.185
흘러나온	-14.185
미룬	-14.185
뷰	-14.1851
꾸린	-14.1851
가르친	-14.1851
▁응급	-14.1851
▁주름	-14.1852
룩	-14.1852
코비치	-14.1852
셸	-14.1852
▁맹렬	-14.1852
▁옮겨	-14.1853
▁아득	-14.1853
옹	-14.1853
멋대로	-14.1853
건넨	-14.1853
행랑	-14.1853
비린내	-14.1853
키퍼	-14.1853
날아간	-14.1853
캐이	-14.1853
▁배낭	-14.1854
▁꿈꿔	-14.1854
텔레비	-14.1854
배워야	-14.1854
덩	-14.1854
골동품	-14.1854
▁페레	-14.1854
소림	-14.1854
욱	-14.1854
엄청	-14.1854
플래너	-14.1854
입힌	-14.1855
뇌부	-14.1855
라이덴	-14.1855
케이드	-14.1855
몬타	-14.1855
텍	-14.1855
통역	-14.1855
안드레아	-14.1855
접전	-14.1855
엑	-14.1855
빠뜨려	-14.1855
▁페르	-14.1855
합창	-14.1855
작아져	-14.1855
▁낭만	-14.1855
북숭이	-14.1855
닥쳐	-14.1855
앵	-14.1855
털터리	-14.1855
걱	-14.1855
허니	-14.1855
얽	-14.1856
뒤바꿔	-14.1856
뮬	-14.1856
비즈니스	-14.1856
옮겨다닌	-14.1856
프릴	-14.1856
닷	-14.1856
캄	-14.1856
그럴듯한	-14.1856
정략결혼	-14.1856
내려온	-14.1856
견습공	-14.1856
괴로와한다	-14.1856
끼워져	-14.1856
돈세탁	-14.1856
뒤죽박죽	-14.1856
몽유병	-14.1856
무신론자	-14.1856
미확인	-14.1856
불충분	-14.1856
비폭력주의	-14.1856
살까봐	-14.1856
스쳐간다	-14.1856
어째서인지	-14.1856
여겨진다	-14.1856
쟁탈전	-14.1856
점성술사	-14.1856
찢겨져	-14.1856
초현대식	-14.1856
파헤쳐진	-14.1856
픽업트럭	-14.1856
흐려진	-14.1856
버려졌	-14.1856
예행연습	-14.1856
뜨거워져	-14.1856
종업	-14.1856
백발백중	-14.1856
엔젤레스	-14.1856
잊혀져	-14.1856
한날한시	-14.1856
tor	-14.1856
골동	-14.1856
가까웠	-14.1856
감춰왔	-14.1856
감춰져	-14.1856
고색창연	-14.1856
과대망상	-14.1856
괴뢰군	-14.1856
교향	-14.1856
국유림	-14.1856
그럼에도	-14.1856
금붕어	-14.1856
노략질	-14.1856
농작물	-14.1856
느린	-14.1856
다름아닌	-14.1856
당나귀	-14.1856
당혹감	-14.1856
대서특필	-14.1856
동남아시아	-14.1856
두려울	-14.1856
드리워진	-14.1856
드립니다	-14.1856
만장일치	-14.1856
미성숙	-14.1856
미수정란	-14.1856
반신반의	-14.1856
반신반인	-14.1856
부러움	-14.1856
부적응	-14.1856
부쳐질	-14.1856
부풀려간다	-14.1856
불기둥	-14.1856
불철주야	-14.1856
불협화음	-14.1856
비단뱀	-14.1856
비켜갈	-14.1856
사나워진	-14.1856
산호초	-14.1856
선남선녀	-14.1856
수차례	-14.1856
심술쟁이	-14.1856
쌍심지	-14.1856
아기사슴	-14.1856
어리숙한	-14.1856
옮겨졌	-14.1856
으십니까	-14.1856
일확천금	-14.1856
잔칫집	-14.1856
지름길	-14.1856
찢겨진	-14.1856
천생연분	-14.1856
추첨식	-14.1856
콧방귀	-14.1856
탁아소	-14.1856
파충류	-14.1856
활쏘기	-14.1856
휩쓴다	-14.1856
흡혈귀	-14.1856
급물살	-14.1856
끌러간	-14.1856
명중률	-14.1856
산란실	-14.1856
실용주의	-14.1856
애플파이	-14.1856
여객항	-14.1856
이성애자	-14.1856
하류층	-14.1856
가려졌	-14.1856
데이터베이스	-14.1856
마천루	-14.1856
수수료	-14.1856
실어증	-14.1856
이만저만	-14.1856
자외선	-14.1856
징검다리	-14.1856
헤엄	-14.1856
ain	-14.1856
나타낸	-14.1856
방아쇠	-14.1856
자폐증	-14.1856
갈라진	-14.1856
겨눈다	-14.1856
고소공포증	-14.1856
골호랑이	-14.1856
공산주의	-14.1856
권모술수	-14.1856
금은보화	-14.1856
끊어진	-14.1856
드리운다	-14.1856
망연자실	-14.1856
박장대소	-14.1856
반신불수	-14.1856
배양액	-14.1856
서투른	-14.1856
연말연시	-14.1856
요하네스	-14.1856
임진왜란	-14.1856
장물아비	-14.1856
전광석화	-14.1856
지겨운	-14.1856
지겨워서	-14.1856
콘택트렌즈	-14.1856
틀어진다	-14.1856
현모양처	-14.1856
고리대금	-14.1856
금문교	-14.1856
길들여져	-14.1856
끌어들인다	-14.1856
동갑내기	-14.1856
머그잔	-14.1856
무사안일	-14.1856
부서진	-14.1856
시궁창	-14.1856
신신당부	-14.1856
일광욕	-14.1856
접어든	-14.1856
천덕꾸러기	-14.1856
초년생	-14.1856
카운트	-14.1856
태워져	-14.1856
교향곡	-14.1856
까다로운	-14.1856
노랫	-14.1856
되바라진	-14.1856
떨기나무	-14.1856
방패막이	-14.1856
사리사욕	-14.1856
엉겁결	-14.1856
이것저것	-14.1856
합니까	-14.1856
결벽증	-14.1856
뚱	-14.1856
아이스하키	-14.1856
전리품	-14.1856
전자화폐	-14.1856
채찍질	-14.1856
하층민	-14.1856
ation	-14.1856
eve	-14.1856
▁큘로라	-14.1856
▁페어	-14.1856
가에타노	-14.1856
갈라놓	-14.1856
건드린다	-14.1856
게으름	-14.1856
겟세마니	-14.1856
곤살레스	-14.1856
골드러시	-14.1856
골드버그	-14.1856
골드브럼	-14.1856
골드블럼	-14.1856
골짜기	-14.1856
공공연히	-14.1856
광주리	-14.1856
교향악단	-14.1856
구덩이	-14.1856
귀여울	-14.1856
그덕거리	-14.1856
그랑프리	-14.1856
그랜트	-14.1856
그럴까요	-14.1856
그레이브스	-14.1856
그린란드	-14.1856
그린블랫	-14.1856
그제서야	-14.1856
근육	-14.1856
금주법	-14.1856
기울어지	-14.1856
기진맥진	-14.1856
길가메시	-14.1856
깨트린	-14.1856
꿈틀거리	-14.1856
끌어당기	-14.1856
나이아가라	-14.1856
나츠코	-14.1856
낭포성	-14.1856
너구리	-14.1856
넘사벽	-14.1856
넘쳐난다	-14.1856
네레우스	-14.1856
네티즌	-14.1856
네페르타리	-14.1856
노숙자	-14.1856
노틸러스	-14.1856
눈여겨보	-14.1856
달가워하	-14.1856
달팽이	-14.1856
당연히	-14.1856
더군다나	-14.1856
더글라스	-14.1856
덩그러니	-14.1856
덩케르크	-14.1856
도브레브	-14.1856
도쿠가와	-14.1856
돌팔이	-14.1856
동키콩	-14.1856
두근거림	-14.1856
뒤뚱거리	-14.1856
드러먼드	-14.1856
드미트리	-14.1856
들립니다	-14.1856
들여다본다	-14.1856
디샤넬	-14.1856
디셉션	-14.1856
디스커버리	-14.1856
디저트	-14.1856
디펜더	-14.1856
디폴트	-14.1856
람보르기니	-14.1856
래브라도	-14.1856
랩소디	-14.1856
러다이트	-14.1856
레귀자모	-14.1856
레예스	-14.1856
레오나드	-14.1856
레오폴드	-14.1856
레이먼드	-14.1856
레이몬드	-14.1856
레전즈	-14.1856
레즈비언	-14.1856
로널드	-14.1856
로드리게스	-14.1856
로스앤젤레스	-14.1856
로페즈	-14.1856
루도비코	-14.1856
루브르	-14.1856
루실라	-14.1856
루퍼트	-14.1856
리네뜨	-14.1856
리비에라	-14.1856
리허설	-14.1856
마네킹	-14.1856
마닐라	-14.1856
마르티네즈	-14.1856
마리골드	-14.1856
마멀레이드	-14.1856
마스터베이션	-14.1856
마푸체	-14.1856
만신창이	-14.1856
말레이시아	-14.1856
매너리즘	-14.1856
매머드	-14.1856
매사추세츠	-14.1856
매지컬	-14.1856
매커너히	-14.1856
맥과이어	-14.1856
맥그리거	-14.1856
맥도웰	-14.1856
맥아덤즈	-14.1856
맥코맥	-14.1856
맥필리	-14.1856
맨테그나	-14.1856
머큐리	-14.1856
메갈로돈	-14.1856
메넬라오스	-14.1856
메달리스트	-14.1856
메트로폴리탄	-14.1856
멕	-14.1856
명실공히	-14.1856
모가디슈	-14.1856
모라이어티	-14.1856
모레츠	-14.1856
모로베이	-14.1856
모리셔스	-14.1856
모킹제이	-14.1856
모토코	-14.1856
몬카다	-14.1856
몬토야	-14.1856
몰티즈	-14.1856
몸부림치	-14.1856
무거운	-14.1856
무너뜨린다	-14.1856
무너질	-14.1856
무럭무럭	-14.1856
무소불위	-14.1856
무솔리니	-14.1856
무용지물	-14.1856
무임승차	-14.1856
무자헤딘	-14.1856
무지막지	-14.1856
무지무지	-14.1856
뮤지엄	-14.1856
미네소타	-14.1856
미드키프	-14.1856
미심쩍	-14.1856
미케네	-14.1856
민둥산	-14.1856
밀어낸다	-14.1856
밀어붙이	-14.1856
바루첼	-14.1856
바르셀로나	-14.1856
바빌론	-14.1856
바야흐로	-14.1856
바운티	-14.1856
바이올렛	-14.1856
바티스타	-14.1856
발레롱가	-14.1856
발렌타인	-14.1856
발버둥치	-14.1856
방방곡곡	-14.1856
버릇없	-14.1856
버뱅크	-14.1856
벌어질까	-14.1856
베니치오	-14.1856
베르나스	-14.1856
베를리오즈	-14.1856
베서니	-14.1856
베이시스트	-14.1856
베이싱어	-14.1856
베이징	-14.1856
베이트만	-14.1856
베토벤	-14.1856
벤치마킹	-14.1856
벨루치	-14.1856
벼랑	-14.1856
벼룩	-14.1856
벼른	-14.1856
보글거리	-14.1856
보푸라기	-14.1856
보헤미안	-14.1856
복화술	-14.1856
볼티모어	-14.1856
부끄러운	-14.1856
부다페스트	-14.1856
부디카	-14.1856
부딪힌다	-14.1856
부에노스아이레스	-14.1856
북적거리	-14.1856
불특정	-14.1856
뷰캐넌	-14.1856
브라우너	-14.1856
브라티슬라바	-14.1856
브랜던	-14.1856
브랜트	-14.1856
브레슬린	-14.1856
브레이브	-14.1856
브레킨	-14.1856
브렌든	-14.1856
브렌튼	-14.1856
브로스넌	-14.1856
브로크백	-14.1856
브룩하이머	-14.1856
브르타뉴	-14.1856
브리지스	-14.1856
블라디슬로프	-14.1856
블런트	-14.1856
블레드소	-14.1856
블레어	-14.1856
비앤비	-14.1856
비탈리	-14.1856
빈둥거리	-14.1856
빈둥빈둥	-14.1856
빌링스	-14.1856
빙글빙글	-14.1856
빚쟁이	-14.1856
사루가쿠	-14.1856
사브리나	-14.1856
사스가드	-14.1856
살라자르	-14.1856
생글생글	-14.1856
샤롯트	-14.1856
샤리포프	-14.1856
샹그리라	-14.1856
서글프	-14.1856
서두른다	-14.1856
서브제로	-14.1856
선머슴	-14.1856
섬유증	-14.1856
세바스찬	-14.1856
세페다	-14.1856
섹슈얼	-14.1856
센세이션	-14.1856
소비에트	-14.1856
소사이어티	-14.1856
소홀히	-14.1856
손꼽히	-14.1856
쇠갈퀴	-14.1856
수류탄	-14.1856
순진무구	-14.1856
숨막힌	-14.1856
슈라이버	-14.1856
슈워제네거	-14.1856
슈프림팀	-14.1856
스나입스	-14.1856
스노클링	-14.1856
스미소니언	-14.1856
스워스	-14.1856
스웨덴	-14.1856
스웨이즈	-14.1856
스위프트	-14.1856
스케치	-14.1856
스콰이어	-14.1856
스타워즈	-14.1856
스태프	-14.1856
스태플턴	-14.1856
스탠드	-14.1856
스탠스	-14.1856
스테틀러	-14.1856
스텔론	-14.1856
스텔스	-14.1856
스토코프스키	-14.1856
스튜어디스	-14.1856
스트라빈스키	-14.1856
스트라이드	-14.1856
스트래튼	-14.1856
스트립	-14.1856
스트릿	-14.1856
스틴버겐	-14.1856
스파게티	-14.1856
스페라	-14.1856
스페이더	-14.1856
스펙타클	-14.1856
스포일러	-14.1856
스폰서	-14.1856
슬라티나	-14.1856
슬퍼하	-14.1856
시나리오	-14.1856
시날로아	-14.1856
시노미야	-14.1856
시니컬	-14.1856
시달림	-14.1856
시머스	-14.1856
시종일관	-14.1856
시크릿	-14.1856
시프카	-14.1856
신드롬	-14.1856
실랑이	-14.1856
싱가포르	-14.1856
쏟아진다	-14.1856
쓰러뜨리	-14.1856
쓸쓸히	-14.1856
아그네스	-14.1856
아낌없이	-14.1856
아나키스트	-14.1856
아드리아나	-14.1856
아르놀트	-14.1856
아리스토텔레스	-14.1856
아리아드네	-14.1856
아멜리아	-14.1856
아뿔사	-14.1856
아세니오	-14.1856
아우구스토	-14.1856
아우렐리우스	-14.1856
아우슈비츠	-14.1856
아웃랜드	-14.1856
아키타견	-14.1856
아킨슨	-14.1856
아터튼	-14.1856
아파토사우루스	-14.1856
안드로메다	-14.1856
안쓰럽	-14.1856
안젤로	-14.1856
안젤리나	-14.1856
안젤리카	-14.1856
암스테르담	-14.1856
앙증맞	-14.1856
애거튼	-14.1856
애슐리	-14.1856
애크로이드	-14.1856
앤젤라	-14.1856
앨러미다	-14.1856
약육강식	-14.1856
어거스트	-14.1856
어메이징	-14.1856
어벤저스	-14.1856
어지러운	-14.1856
어처구니	-14.1856
어쿠스틱	-14.1856
언터처블	-14.1856
얼씬거리	-14.1856
얽히고설킨	-14.1856
엄브렐라	-14.1856
엄친아	-14.1856
엉터리	-14.1856
에니그마	-14.1856
에드워즈	-14.1856
에르난데스	-14.1856
에스퀴벨	-14.1856
에스토니아	-14.1856
엑기스	-14.1856
엑소시스트	-14.1856
엘위스	-14.1856
엠파이어	-14.1856
영구히	-14.1856
오랑우탄	-14.1856
오랑캐	-14.1856
오리모토	-14.1856
오리무중	-14.1856
오맹달	-14.1856
오베론	-14.1856
오스트럼	-14.1856
오오츠키	-14.1856
오키나와	-14.1856
오키프	-14.1856
오펜하이머	-14.1856
오합지졸	-14.1856
옥스포드	-14.1856
옥신각신	-14.1856
옥타비아	-14.1856
올망졸망	-14.1856
왔다갔다	-14.1856
외눈박이	-14.1856
외조부모	-14.1856
요보비치	-14.1856
우당탕탕	-14.1856
우르술라	-14.1856
우르크하이	-14.1856
우유부단	-14.1856
웅덩이	-14.1856
웨일랜드	-14.1856
위르겐	-14.1856
위즐리	-14.1856
윈슬렛	-14.1856
윌킨슨	-14.1856
유고슬라비아	-14.1856
유니크	-14.1856
유유자적	-14.1856
유튜브	-14.1856
응접실	-14.1856
이글이글	-14.1856
이니셜	-14.1856
이매뉴얼	-14.1856
이병헌	-14.1856
이상야릇	-14.1856
이소룡	-14.1856
이스트엔드	-14.1856
이슬람	-14.1856
익살맞	-14.1856
인시디어스	-14.1856
인즉슨	-14.1856
인플루엔자	-14.1856
인피니트	-14.1856
일거수	-14.1856
일투족	-14.1856
잠근다	-14.1856
재규어	-14.1856
절룩거리	-14.1856
정정당당	-14.1856
제네바	-14.1856
젤위거	-14.1856
조세핀	-14.1856
좌지우지	-14.1856
주세페	-14.1856
죽마고우	-14.1856
줄다리기	-14.1856
중매쟁이	-14.1856
지푸라기	-14.1856
질렌홀	-14.1856
차이콥스키	-14.1856
채터후치	-14.1856
챔피온	-14.1856
철두철미	-14.1856
철통같	-14.1856
청순가련	-14.1856
추파카브라	-14.1856
칠더스	-14.1856
침팬지	-14.1856
카멜레온	-14.1856
카미노	-14.1856
카사블랑카	-14.1856
카슈미르	-14.1856
카스티요	-14.1856
카와시마	-14.1856
카톨릭	-14.1856
카펜터	-14.1856
카푸치노	-14.1856
카프론	-14.1856
칵테일	-14.1856
칼럼니스트	-14.1856
칼리스토	-14.1856
캐니언	-14.1856
캔터베리	-14.1856
캠코더	-14.1856
커닝햄	-14.1856
커뮤니티	-14.1856
커틀러	-14.1856
컨벤션	-14.1856
컨테이너	-14.1856
컴퍼니	-14.1856
케노비	-14.1856
케서린	-14.1856
켄타우로스	-14.1856
켈러만	-14.1856
코나츠	-14.1856
코노발	-14.1856
코렐리	-14.1856
코스티건	-14.1856
코왈스키	-14.1856
콘스탄스	-14.1856
콘클라베	-14.1856
콜렉터	-14.1856
콜트레인	-14.1856
콤플렉스	-14.1856
콩닥콩닥	-14.1856
쿠데타	-14.1856
쿠릴렌코	-14.1856
쿠사나기	-14.1856
쿠사카베	-14.1856
큐레이터	-14.1856
크란츠	-14.1856
크래쉬	-14.1856
크래시	-14.1856
크래신스키	-14.1856
크래커	-14.1856
크랜스톤	-14.1856
크렘린	-14.1856
크로니클	-14.1856
클라플린	-14.1856
클레멘타인	-14.1856
클린트	-14.1856
키노피오	-14.1856
타블렛	-14.1856
타블로이드	-14.1856
타카사키	-14.1856
타카하시	-14.1856
터미널	-14.1856
테라코타	-14.1856
테러리즘	-14.1856
테르모필레	-14.1856
테미스토클레스	-14.1856
테일즈	-14.1856
테츠오	-14.1856
테크놀로지	-14.1856
텔레파시	-14.1856
토도로키	-14.1856
토론토	-14.1856
톰린슨	-14.1856
튜즈데이	-14.1856
트럼불	-14.1856
트렌드	-14.1856
트렌트	-14.1856
트렘블레이	-14.1856
트와일라잇	-14.1856
티라노	-14.1856
티라노사우루스	-14.1856
티플러	-14.1856
팀버레이크	-14.1856
파브로비치	-14.1856
파운드	-14.1856
팔라딘	-14.1856
팔아넘긴	-14.1856
패러데이	-14.1856
패리시	-14.1856
퍼니셔	-14.1856
퍼펙트	-14.1856
페가소스	-14.1856
페가수스	-14.1856
페니와이즈	-14.1856
페어팩스	-14.1856
페트릭	-14.1856
펠드만	-14.1856
펭	-14.1856
편안히	-14.1856
포르셰	-14.1856
폰키엘리	-14.1856
폴란스키	-14.1856
폴리네시아	-14.1856
프라이데이	-14.1856
프라이빗	-14.1856
프란체스코	-14.1856
프랑코	-14.1856
프랜시스	-14.1856
프랭코	-14.1856
프렌치	-14.1856
프로토콜	-14.1856
프로파일러	-14.1856
프록터	-14.1856
프론티어	-14.1856
프리랜서	-14.1856
플라토닉	-14.1856
피노체트	-14.1856
피라냐	-14.1856
피에트로	-14.1856
하드위케	-14.1856
하마터면	-14.1856
할러웨이	-14.1856
해럴슨	-14.1856
해줄께	-14.1856
해프닝	-14.1856
허겁지겁	-14.1856
허물어지	-14.1856
허우적대	-14.1856
허진스	-14.1856
허처슨	-14.1856
허페이	-14.1856
헤드윅	-14.1856
헤밀턴	-14.1856
헤서웨이	-14.1856
헤이엑	-14.1856
헤파이스토스	-14.1856
헬로우	-14.1856
호락호락	-14.1856
호르몬	-14.1856
호르바스	-14.1856
호르헤	-14.1856
호제르	-14.1856
호찌민	-14.1856
홀딩스	-14.1856
홀로코스트	-14.1856
홀츠먼	-14.1856
확고부동	-14.1856
황당무계	-14.1856
후아레즈	-14.1856
후지모토	-14.1856
휘태커	-14.1856
휩쓸린다	-14.1856
흔들흔들	-14.1856
히라야마	-14.1856
히말라야	-14.1856
히스테리	-14.1856
히트맨	-14.1856
▁Josh	-14.1856
마인드	-14.1856
acon	-14.1856
가쓰시카	-14.1856
각양각색	-14.1856
거꾸로	-14.1856
고달픈	-14.1856
굶주림	-14.1856
그레인저	-14.1856
그리니치	-14.1856
기막힌	-14.1856
내비친	-14.1856
녹아내리	-14.1856
니시미	-14.1856
다호메이	-14.1856
도미니크	-14.1856
따가운	-14.1856
망가뜨린	-14.1856
매그넘	-14.1856
멀다하고	-14.1856
멜리나	-14.1856
몰아붙이	-14.1856
물러설	-14.1856
백과사전	-14.1856
베아트리스	-14.1856
복합	-14.1856
부세미	-14.1856
불리운다	-14.1856
붉은색	-14.1856
브누아	-14.1856
빈티지	-14.1856
빼돌릴	-14.1856
산체스	-14.1856
살라미스	-14.1856
샤를리즈	-14.1856
서번트	-14.1856
쇼생크	-14.1856
스웨이지	-14.1856
시그널	-14.1856
시네마	-14.1856
시라이시	-14.1856
신주쿠	-14.1856
아나베스	-14.1856
아누비스	-14.1856
아레나스	-14.1856
아장아장	-14.1856
안식처	-14.1856
알폰스	-14.1856
암벽등반	-14.1856
야옹이	-14.1856
어떨까	-14.1856
어워드	-14.1856
에스키모	-14.1856
오스트리아	-14.1856
오푸스	-14.1856
우월주의	-14.1856
월장석	-14.1856
의기양양	-14.1856
인텔리	-14.1856
저절로	-14.1856
적절히	-14.1856
족제비	-14.1856
중얼거리	-14.1856
츠나데	-14.1856
카사노바	-14.1856
카스트	-14.1856
캠프파이어	-14.1856
콜드웰	-14.1856
타츠오	-14.1856
토키오	-14.1856
틀어박혀	-14.1856
프라이멀	-14.1856
프리실라	-14.1856
플레어	-14.1856
피날레	-14.1856
피츠제럴드	-14.1856
항복	-14.1856
호들갑	-14.1856
휘어잡	-14.1856
rrig	-14.1856
값비싼	-14.1856
겉보기	-14.1856
겉치레	-14.1856
곤두박질친	-14.1856
기세등등	-14.1856
깃털	-14.1856
단단히	-14.1856
뛰어내린	-14.1856
레일라	-14.1856
루이지아나	-14.1856
림팩	-14.1856
막아설	-14.1856
모나리자	-14.1856
반가움	-14.1856
브란도	-14.1856
삼각지대	-14.1856
시부야	-14.1856
아르테미스	-14.1856
아브라삭스	-14.1856
알비노	-14.1856
액세스	-14.1856
어수룩	-14.1856
에벌린	-14.1856
연금술사	-14.1856
오프닝	-14.1856
윈콧	-14.1856
조속히	-14.1856
지참금	-14.1856
카운트다운	-14.1856
콰이곤	-14.1856
키어넌	-14.1856
허리케인	-14.1856
가리봉동	-14.1856
기웃거리	-14.1856
동호회	-14.1856
레일리	-14.1856
맥코이	-14.1856
멀찍이	-14.1856
바란스키	-14.1856
발두치	-14.1856
비토리아	-14.1856
사루만	-14.1856
사뿐히	-14.1856
서전트	-14.1856
술파로	-14.1856
알렉산드라	-14.1856
알론조	-14.1856
야상곡	-14.1856
요시다	-14.1856
요조숙녀	-14.1856
웨슬리	-14.1856
이바네즈	-14.1856
이본느	-14.1856
조르다나	-14.1856
지킨다	-14.1856
칭송	-14.1856
쾌활	-14.1856
퇴락	-14.1856
틈틈이	-14.1856
파올로	-14.1856
프림	-14.1856
히다카	-14.1856
uck	-14.1856
가로질러야	-14.1856
견인차	-14.1856
굴복	-14.1856
그래험	-14.1856
기다렸	-14.1856
깨뜨린	-14.1856
끌어들였	-14.1856
난도질	-14.1856
노에미	-14.1856
더블린	-14.1856
데미언	-14.1856
데블린	-14.1856
돌립니다	-14.1856
드라마틱	-14.1856
디스플레이	-14.1856
러해시	-14.1856
매이슨	-14.1856
메세지	-14.1856
모자랐	-14.1856
무너뜨렸	-14.1856
무너졌	-14.1856
반데라스	-14.1856
발레리아	-14.1856
벗어났	-14.1856
베이츠	-14.1856
부딪친	-14.1856
부딪힘	-14.1856
부른다	-14.1856
불거진다	-14.1856
불도저	-14.1856
빠뜨렸	-14.1856
빠뜨릴	-14.1856
상계동	-14.1856
샌드버그	-14.1856
스러움	-14.1856
스러웠	-14.1856
스트리밍	-14.1856
스포트라이트	-14.1856
슬림	-14.1856
쓸어버릴	-14.1856
아이러니	-14.1856
알아차린다	-14.1856
어지럽힌다는	-14.1856
오바디아	-14.1856
요하네스버그	-14.1856
이블린	-14.1856
일제히	-14.1856
자랄수록	-14.1856
전산망	-14.1856
전송기	-14.1856
좌석	-14.1856
집어삼킬	-14.1856
찔러도	-14.1856
터트린다	-14.1856
포인트	-14.1856
헤아릴	-14.1856
홍역	-14.1856
휴이트	-14.1856
흉내내	-14.1856
흩어졌	-14.1856
견자단	-14.1856
끌어낼	-14.1856
냉랭	-14.1856
노이즈	-14.1856
뒤엉켜	-14.1856
뜨거워진다	-14.1856
맥어보이	-14.1856
미워한다	-14.1856
부순다	-14.1856
살찌워	-14.1856
샤일로	-14.1856
스테인	-14.1856
신경과민	-14.1856
어두워	-14.1856
완전무결	-14.1856
일어선다	-14.1856
임상시험	-14.1856
집어삼킨	-14.1856
착해질	-14.1856
코알라	-14.1856
퇴역	-14.1856
펜던트	-14.1856
하릴없이	-14.1856
가드너	-14.1856
강경책	-14.1856
거추장스러울	-14.1856
그렌델	-14.1856
끼어든	-14.1856
날아다닌다	-14.1856
노스캐롤라이나	-14.1856
놀려도	-14.1856
놓아준다	-14.1856
두쪽나	-14.1856
라운지	-14.1856
러버프	-14.1856
로레타	-14.1856
마나님	-14.1856
미주리	-14.1856
바래다준다	-14.1856
복사본	-14.1856
북받친	-14.1856
스토킹	-14.1856
아파서	-14.1856
오렌지색	-14.1856
온전히	-14.1856
윈스턴	-14.1856
좌표	-14.1856
캘린더	-14.1856
후속작	-14.1856
흔들림	-14.1856
가져왔으나	-14.1856
고해성사	-14.1856
당긴다	-14.1856
바이올라	-14.1856
바이퍼	-14.1856
버려질	-14.1856
별의별	-14.1856
아타미	-14.1856
압송	-14.1856
윤서현	-14.1856
이라든지	-14.1856
이순신	-14.1856
자세히	-14.1856
쩍쩍	-14.1856
차가운	-14.1856
칠흑	-14.1856
칸베에	-14.1856
통조림	-14.1856
허춘	-14.1856
헤이스	-14.1856
활활	-14.1856
inc	-14.1856
교봉	-14.1856
뇌종양	-14.1856
다코타	-14.1856
데미갓	-14.1856
레위니옹섬	-14.1856
마십시오	-14.1856
망나니	-14.1856
망설임	-14.1856
명주실	-14.1856
몸가짐	-14.1856
물러났	-14.1856
벌거벗겨	-14.1856
부러진	-14.1856
사파이어	-14.1856
순시병	-14.1856
쓰러졌	-14.1856
애쓸수록	-14.1856
어울렸	-14.1856
일깨웠	-14.1856
철폐	-14.1856
카네다	-14.1856
코르토	-14.1856
킬링	-14.1856
트로피	-14.1856
파헤칠	-14.1856
프킨	-14.1856
플라워	-14.1856
회색곰	-14.1856
휘말렸	-14.1856
휘저으며	-14.1856
드러냈	-14.1856
드러머	-14.1856
몰아쳐	-14.1856
미우나	-14.1856
배고픈	-14.1856
식료	-14.1856
아게노르	-14.1856
에크하트	-14.1856
엑토르	-14.1856
여의봉	-14.1856
워리어	-14.1856
이사벨레	-14.1856
카나시	-14.1856
카네기	-14.1856
컬렌	-14.1856
활기찬	-14.1856
arn	-14.1856
가창력	-14.1856
꽃향기	-14.1856
도날드	-14.1856
라이플총	-14.1856
미끄러져	-14.1856
삼십육계	-14.1856
성형외과	-14.1856
싹튼	-14.1856
어우러져	-14.1856
증조할머니	-14.1856
징역형	-14.1856
크림	-14.1856
터뜨린	-14.1856
향연	-14.1856
화들짝	-14.1856
경외심	-14.1856
동정표	-14.1856
로스엔젤레스	-14.1856
마구잡이	-14.1856
마르틴	-14.1856
막바지	-14.1856
멋질	-14.1856
사토루	-14.1856
안드레이	-14.1856
야구공	-14.1856
엄연	-14.1856
업동이	-14.1856
웃어대	-14.1856
켈빈	-14.1856
클레이튼	-14.1856
파미가	-14.1856
근친	-14.1856
노스웨스트	-14.1856
되살린	-14.1856
롤린	-14.1856
미야노	-14.1856
민규	-14.1856
산산히	-14.1856
쇠퇴	-14.1856
수평선	-14.1856
스카이다이빙	-14.1856
스피디	-14.1856
아미달라	-14.1856
알버트슨	-14.1856
유람선	-14.1856
쫓아낼	-14.1856
통근열차	-14.1856
프롤	-14.1856
플로레스	-14.1856
핸드백	-14.1856
갑갑	-14.1856
동급생	-14.1856
둘러봐도	-14.1856
만다린	-14.1856
부귀영화	-14.1856
생겨난다	-14.1856
아로니카	-14.1856
중압감	-14.1856
징벌	-14.1856
취임식	-14.1856
퇴색	-14.1856
허당	-14.1856
러리맨	-14.1856
리만치	-14.1856
숫총각	-14.1856
위화감	-14.1856
기상이변	-14.1856
닫혀진	-14.1856
맥플라이	-14.1856
배구공	-14.1856
복용	-14.1856
빈민촌	-14.1856
잘려진	-14.1856
주어졌	-14.1856
패설	-14.1856
▁Ke	-14.1856
▁Vic	-14.1856
가느다란	-14.1856
교령	-14.1856
뉴튼	-14.1856
램페이지	-14.1856
매긴다면	-14.1856
복권	-14.1856
의붓아버지	-14.1856
큐피드	-14.1856
태워준	-14.1856
텔레스	-14.1856
트라키아	-14.1856
표출	-14.1856
흘러들어온	-14.1856
던져졌	-14.1856
동질감	-14.1856
바이올린	-14.1856
음주운전	-14.1856
프레이저	-14.1856
허탈감	-14.1856
그래왔	-14.1856
도르트	-14.1856
등록제	-14.1856
몰아갈	-14.1856
생김새	-14.1856
열등감	-14.1856
옥죄	-14.1856
잃어버렸	-14.1856
자야스	-14.1856
잠복근무	-14.1856
국방부	-14.1856
나치즘	-14.1856
덤퍼	-14.1856
래퍼	-14.1856
실버타운	-14.1856
이태리	-14.1856
줄어든다	-14.1856
차가워	-14.1856
트리니티	-14.1856
펠리칸	-14.1856
경쾌	-14.1856
급선무	-14.1856
낙인찍혀	-14.1856
만화동산	-14.1856
메카닉	-14.1856
쇠락	-14.1856
수바리	-14.1856
스토우	-14.1856
유혈극	-14.1856
찾아낼	-14.1856
철갑	-14.1856
켈트	-14.1856
황망	-14.1856
흑표범	-14.1856
흥행	-14.1856
클랜	-14.1856
그럴수록	-14.1856
근방	-14.1856
나카토미	-14.1856
데려갔	-14.1856
분주히	-14.1856
빗발치	-14.1856
샤오난	-14.1856
코만도	-14.1856
표주박	-14.1856
항공우주국	-14.1856
고공비행	-14.1856
더우기	-14.1856
싱싱	-14.1856
하소연	-14.1856
귀갓길	-14.1856
극저온	-14.1856
놓아줄	-14.1856
변경	-14.1856
복직	-14.1856
숨어드	-14.1856
슬랙	-14.1856
슬리퍼	-14.1856
얻어맞	-14.1856
좋아한	-14.1856
찔려	-14.1856
창백	-14.1856
체육관	-14.1856
칠레	-14.1856
카마인	-14.1856
켄튼	-14.1856
태워진	-14.1856
퇴근길	-14.1856
모닥불	-14.1856
삼합	-14.1856
윤정이	-14.1856
체이싱	-14.1856
타키가와	-14.1856
프렛	-14.1856
뒤엉	-14.1856
메트로폴리스	-14.1856
보육원	-14.1856
분화구	-14.1856
엄호	-14.1856
오스왈드	-14.1856
잡아먹힌	-14.1856
hed	-14.1856
▁Dra	-14.1856
다녀왔	-14.1856
될까봐	-14.1856
류노스케	-14.1856
버팀목	-14.1856
소방대원	-14.1856
코스프레	-14.1856
궁합	-14.1856
듀리프	-14.1856
뛰쳐나간다	-14.1856
싸이클	-14.1856
오솔길	-14.1856
차도남	-14.1856
철부지	-14.1856
펠튼	-14.1856
휘두른	-14.1856
▁Al	-14.1856
뒤바꿔줄	-14.1856
북송	-14.1856
블랑	-14.1856
쇠사슬	-14.1856
에드윈	-14.1856
오디세이	-14.1856
캄포	-14.1856
캠퍼스	-14.1856
퇴화	-14.1856
팔코네	-14.1856
흑곰	-14.1856
▁Jack	-14.1856
끌어오	-14.1856
닫힌	-14.1856
당찬	-14.1856
외판원	-14.1856
이부형제	-14.1856
자경단	-14.1856
지침서	-14.1856
집행유예	-14.1856
창업	-14.1856
총알받이	-14.1856
폐광	-14.1856
검시관	-14.1856
석궁	-14.1856
와인버그	-14.1856
유기갑	-14.1856
지운다	-14.1856
클로디아	-14.1856
탈영병	-14.1856
노스케	-14.1856
다바로스	-14.1856
물러간다	-14.1856
벗겨진	-14.1856
슬립	-14.1856
승용차	-14.1856
환락	-14.1856
동락	-14.1856
방앗간	-14.1856
비즈니스맨	-14.1856
삭발	-14.1856
색출	-14.1856
어려서	-14.1856
재주꾼	-14.1856
패기만만	-14.1856
되살아난다	-14.1856
반짝이	-14.1856
슬램	-14.1856
줄리앙	-14.1856
탄탄대로	-14.1856
가르시아	-14.1856
그레고리	-14.1856
꼬임	-14.1856
다다리오	-14.1856
달라졌	-14.1856
오토바이	-14.1856
퍼거스	-14.1856
가려줄	-14.1856
다그친다	-14.1856
돌려보냈	-14.1856
백현진	-14.1856
분기점	-14.1856
블로거	-14.1856
비로소	-14.1856
생일잔치	-14.1856
치어리더	-14.1856
걱거리	-14.1857
레빗	-14.1857
마이트	-14.1857
뱃슨	-14.1857
졸지	-14.1857
간곡히	-14.1857
구축	-14.1857
그린베레	-14.1857
극진히	-14.1857
단호히	-14.1857
랫클리프	-14.1857
배고파	-14.1857
유골	-14.1857
유복	-14.1857
이간질	-14.1857
92	-14.1857
켄싱	-14.1857
필그림	-14.1857
헬스클럽	-14.1857
갑작	-14.1857
벼락부자	-14.1857
전당포	-14.1857
그리이스	-14.1857
근심	-14.1857
락다운	-14.1857
만성절	-14.1857
원자핵	-14.1857
제설차	-14.1857
커트니	-14.1857
허브	-14.1857
플라카	-14.1857
필리스	-14.1857
굴레	-14.1857
래미스	-14.1857
린샹	-14.1857
맥켄지	-14.1857
출항	-14.1857
핸섬	-14.1857
고파서	-14.1857
대주주	-14.1857
동복	-14.1857
락샤	-14.1857
여객선	-14.1857
맥도날드	-14.1857
밀접	-14.1857
비그스	-14.1857
옷차림새	-14.1857
야심만만	-14.1857
결맹	-14.1857
관능미	-14.1857
셀레스	-14.1857
얼차려	-14.1857
추앙	-14.1857
퍼즐	-14.1857
폐경	-14.1857
꺼낸다	-14.1857
분리수거	-14.1857
스테이플	-14.1857
종복	-14.1857
쳐들어와	-14.1857
프레슬리	-14.1857
흐린	-14.1857
굴러떨어지	-14.1857
기데온	-14.1857
네이선	-14.1857
속상함	-14.1857
수비대	-14.1857
콜레트	-14.1857
파열음	-14.1857
휴스턴	-14.1857
떨쳐낼	-14.1857
막아선	-14.1857
아시안	-14.1857
이중간첩	-14.1857
잡아먹힐	-14.1857
주둔군	-14.1857
주워다가	-14.1857
커져버려	-14.1857
관중석	-14.1857
가르켜	-14.1857
군의관	-14.1857
꺼림직	-14.1857
낭만주의	-14.1857
변사체	-14.1857
종신형	-14.1857
집어먹	-14.1857
당돌	-14.1857
마리화나	-14.1857
싫어한다	-14.1857
자일스	-14.1857
최신형	-14.1857
황족	-14.1857
광녀	-14.1857
괴롭혀	-14.1857
누아르	-14.1857
알파걸	-14.1857
조랑말	-14.1857
티에리	-14.1857
ame	-14.1857
그래야	-14.1857
망령	-14.1857
쑥스럽	-14.1857
조슈	-14.1857
파울러	-14.1857
뷰러	-14.1857
패럴	-14.1857
구급대	-14.1857
브리짓	-14.1857
유격대	-14.1857
집어넣	-14.1857
클루제	-14.1857
구명보트	-14.1857
나아간다	-14.1857
싱크대	-14.1857
언어학자	-14.1857
탈환	-14.1857
페르잔	-14.1857
규약	-14.1857
당국	-14.1857
발레리안	-14.1857
자라났	-14.1857
커튼	-14.1857
궁금해하	-14.1857
드루이드	-14.1857
신경외과	-14.1857
원양어	-14.1857
라이즈보로	-14.1857
에드리언	-14.1857
골목	-14.1857
손목시계	-14.1857
오락실	-14.1857
이기홍	-14.1857
체셔	-14.1857
토벌대	-14.1857
트리톤	-14.1857
피난처	-14.1857
골려	-14.1857
뛰어내려	-14.1857
지렛대	-14.1857
판타스틱	-14.1857
노티스	-14.1857
베이시	-14.1857
한사코	-14.1857
희미	-14.1857
▁An	-14.1857
노골	-14.1857
대놓고	-14.1857
올라프	-14.1857
토토	-14.1857
골탕먹이	-14.1857
순환	-14.1857
쏘아대	-14.1857
유폐	-14.1857
허쉬	-14.1857
갑판	-14.1857
노튼	-14.1857
치러야	-14.1857
버려야	-14.1857
병원균	-14.1857
블러	-14.1857
저가주	-14.1857
존엄사	-14.1857
다이빙	-14.1857
망설일	-14.1857
못지않	-14.1857
업사이드	-14.1857
재림	-14.1857
초풍	-14.1857
▁184	-14.1857
다녀온	-14.1857
림보	-14.1857
매켄지	-14.1857
묘종	-14.1857
웨스트버그	-14.1857
터뜨려	-14.1857
파이퍼	-14.1857
ut	-14.1857
불렀으며	-14.1857
오클라호마주	-14.1857
테네시주	-14.1857
폴라로이드	-14.1857
망망	-14.1857
박평호	-14.1857
얼치기	-14.1857
이빨요정	-14.1857
좋아할	-14.1857
투우사	-14.1857
항공모함	-14.1857
냉소	-14.1857
다스린다	-14.1857
웨스	-14.1857
남아공	-14.1857
도사린	-14.1857
여지없이	-14.1857
구세주	-14.1857
그로브	-14.1857
루앙	-14.1857
ing	-14.1857
근위대	-14.1857
션트	-14.1857
속속들이	-14.1857
절대음감	-14.1857
켄터키	-14.1857
결승전	-14.1857
공중부양	-14.1857
몰골	-14.1857
동그란	-14.1857
맥베스	-14.1857
북벽	-14.1857
우즈마키	-14.1857
초고압	-14.1857
들어준다는	-14.1857
뽑힌	-14.1857
옷차림	-14.1857
날아오른다	-14.1857
록웰	-14.1857
목말라	-14.1857
도매상	-14.1857
떨어질	-14.1857
스타게이트	-14.1857
육탄전	-14.1857
절대미각	-14.1857
플레이밍	-14.1857
전교생	-14.1857
퀸튼	-14.1857
토레스	-14.1857
토카타	-14.1857
승률	-14.1857
유별나	-14.1857
거추장스러운	-14.1857
국정원	-14.1857
내려앉	-14.1857
맹추격	-14.1857
잇따른다	-14.1857
넘어설	-14.1857
모로우	-14.1857
패닝	-14.1857
답니다	-14.1857
슬플	-14.1857
청부업자	-14.1857
클리어리	-14.1857
공동묘지	-14.1857
근면	-14.1857
고우나	-14.1857
긴축	-14.1857
동정심	-14.1857
통행	-14.1857
하급생	-14.1857
빗자루	-14.1857
아리나	-14.1857
트레져	-14.1857
빠뜨려서	-14.1857
작아져서	-14.1857
천하제일	-14.1857
퐁당	-14.1857
흥정	-14.1857
안드레아스	-14.1857
유출	-14.1857
치어걸	-14.1857
텍스	-14.1857
퇴원	-14.1857
랜덤	-14.1857
멀홀랜드	-14.1857
승정원	-14.1857
카리브해	-14.1857
겁장이	-14.1857
모나크	-14.1857
교체	-14.1857
위안부	-14.1857
출격	-14.1857
태워서	-14.1857
댄싱	-14.1857
소니에르	-14.1857
조른	-14.1857
테이블	-14.1857
황반	-14.1857
훔쳐야만	-14.1857
가가멜	-14.1857
캠포스	-14.1857
슬슬	-14.1857
급진전	-14.1857
닫혀	-14.1857
맹훈련	-14.1857
취약	-14.1857
프루	-14.1857
감싼다	-14.1857
잔교	-14.1857
잠재울	-14.1857
슬롯	-14.1857
이스트우드	-14.1857
격침	-14.1857
토착	-14.1857
▁Da	-14.1857
말려들	-14.1857
멀킨	-14.1857
오르골	-14.1857
모신다	-14.1857
가위손	-14.1857
단번에	-14.1857
생필	-14.1857
웨이트리스	-14.1857
케슬러	-14.1857
망토	-14.1857
붙들려	-14.1857
완결	-14.1857
게레로	-14.1857
교화	-14.1857
변질	-14.1857
설욕	-14.1857
요제프	-14.1857
콘웰	-14.1857
파이널	-14.1857
유랑민	-14.1857
착착	-14.1857
더해만	-14.1857
들려온다	-14.1857
완강	-14.1857
편집증	-14.1857
현민	-14.1857
늦춰	-14.1857
짓이긴다	-14.1857
큰스님	-14.1857
버코프	-14.1857
유대교	-14.1857
평민	-14.1857
하비에르	-14.1857
내려와서	-14.1857
안전벨트	-14.1857
그로버	-14.1857
얀슨	-14.1857
영사관	-14.1857
허드슨	-14.1857
구쳐	-14.1857
역류	-14.1857
구혼	-14.1858
드리스콜	-14.1858
아르테	-14.1858
떨칠	-14.1858
사모님	-14.1858
징후	-14.1858
변모	-14.1858
잠재운	-14.1858
하이테크	-14.1858
환각	-14.1858
근시	-14.1858
꾸릴	-14.1858
알아본	-14.1858
피범벅	-14.1858
쇼맨십	-14.1858
내려준다	-14.1858
승패	-14.1858
꾸며낸	-14.1858
동봉	-14.1858
이뤄지는	-14.1858
전일만	-14.1858
모티브	-14.1858
외로울	-14.1858
좋아해	-14.1858
킬리	-14.1858
누설	-14.1858
덤벼라	-14.1858
양계장	-14.1858
우슬라	-14.1858
으리라	-14.1858
킬라	-14.1858
풍자극	-14.1858
골프장	-14.1858
로드리고	-14.1858
셸리	-14.1858
영접	-14.1858
통신망	-14.1858
틈바구니	-14.1858
플래너리	-14.1858
백화	-14.1858
외압	-14.1858
동침	-14.1858
백스터	-14.1858
메이트	-14.1858
보로스키	-14.1858
브라질	-14.1858
역행	-14.1858
접대부	-14.1858
선착장	-14.1858
뻔뻔	-14.1858
짜르	-14.1858
양자경	-14.1858
흘러내린	-14.1858
공녀	-14.1858
승격	-14.1858
암묵	-14.1858
템플	-14.1858
ian	-14.1858
광해군	-14.1858
까마귀	-14.1858
즉석	-14.1858
군복	-14.1858
외설	-14.1858
잡아들이	-14.1858
머문다는	-14.1858
얽혀져	-14.1858
공작원	-14.1858
삼엄	-14.1858
애칭	-14.1858
유순	-14.1858
키이라	-14.1858
화장품	-14.1858
설쳐	-14.1858
눈초리	-14.1858
눈동자	-14.1858
램버트	-14.1858
지망생	-14.1858
린스키	-14.1858
발키리	-14.1858
양복점	-14.1858
촌구석	-14.1858
나타낸다는	-14.1858
모라니스	-14.1858
챈들러	-14.1858
nat	-14.1858
파블로	-14.1858
극락	-14.1858
날아든	-14.1858
디고리	-14.1858
평판	-14.1858
하인츠	-14.1858
휴교	-14.1858
눈망울	-14.1858
덤프	-14.1858
최신예	-14.1858
길동무	-14.1858
양동이	-14.1858
빚어내	-14.1858
회오리바람	-14.1858
휘몰아치	-14.1858
루마니아	-14.1858
홀딱	-14.1858
길길이	-14.1858
나무랄	-14.1858
래프	-14.1858
교란	-14.1858
변방	-14.1858
삼킨	-14.1858
공석	-14.1858
마일리지	-14.1858
전시품	-14.1858
구치소	-14.1858
희박	-14.1858
동승	-14.1858
속삭	-14.1858
브린너	-14.1858
소넨	-14.1858
누릴	-14.1858
디오스	-14.1858
안토니나	-14.1858
쾌속	-14.1858
클라인	-14.1858
글러	-14.1858
브럴	-14.1858
펠린	-14.1858
미유키	-14.1858
정황	-14.1858
캐스팅	-14.1858
체류	-14.1858
최상층	-14.1858
캐럴	-14.1858
계좌	-14.1858
내려올	-14.1858
버클리	-14.1858
와일더	-14.1858
웨이츠	-14.1858
냉대	-14.1858
고도성장	-14.1858
브롱	-14.1858
샤이아	-14.1858
지아마티	-14.1858
토박이	-14.1858
뒷자리	-14.1858
몬타나	-14.1858
브램	-14.1858
사령부	-14.1858
평호	-14.1858
뒤덮혀	-14.1858
사각지대	-14.1858
골동품상	-14.1858
메릴	-14.1858
미네트	-14.1858
미믹	-14.1858
바이즈	-14.1858
프레티	-14.1858
군만두	-14.1858
꿈꿔왔	-14.1858
디엠	-14.1858
북아메리카	-14.1858
오리엘	-14.1858
올라갔	-14.1858
원한다면	-14.1858
화산섬	-14.1858
루이즈	-14.1858
뮤즈	-14.1858
매출	-14.1858
몰려온다	-14.1858
굴러	-14.1858
밀라노	-14.1858
최신식	-14.1858
끼친다	-14.1858
뒤치다꺼리	-14.1858
모터쇼	-14.1858
트레저	-14.1858
공직자	-14.1858
근로자	-14.1858
분신술	-14.1858
범법자	-14.1858
요양소	-14.1858
페이트	-14.1858
결핵	-14.1858
뒤통수	-14.1858
모자랄	-14.1858
라그나	-14.1858
방관자	-14.1858
슈팅	-14.1858
배낭족	-14.1858
떠다니	-14.1858
밀레	-14.1858
반역자	-14.1858
태어났으나	-14.1858
블랙베리	-14.1858
재촉	-14.1858
찢긴	-14.1858
착점	-14.1858
떠오른다	-14.1858
바이블	-14.1858
설치류	-14.1858
소방관	-14.1858
자아낸다	-14.1858
대한민국	-14.1859
꼬시	-14.1859
조지타운	-14.1859
창공	-14.1859
푸딩	-14.1859
철조	-14.1859
진홍	-14.1859
노란색	-14.1859
이어폰	-14.1859
폐차장	-14.1859
소일거리	-14.1859
시타델	-14.1859
요양원	-14.1859
우랄	-14.1859
지켜냈	-14.1859
클레인	-14.1859
우람	-14.1859
수준급	-14.1859
연교	-14.1859
체격	-14.1859
긴급회의	-14.1859
놀러	-14.1859
돌풍	-14.1859
통솔	-14.1859
트랙	-14.1859
레텔	-14.1859
현직	-14.1859
배터리	-14.1859
놀러오	-14.1859
영험	-14.1859
허무	-14.1859
바네트	-14.1859
바흐	-14.1859
벌여야	-14.1859
혈류	-14.1859
바빠	-14.1859
잠수부	-14.1859
군나르	-14.1859
프레드릭	-14.1859
록우드	-14.1859
씨앗	-14.1859
주지사	-14.1859
텔레비전	-14.1859
짐승남	-14.1859
피스트	-14.1859
바킨	-14.1859
적임자	-14.1859
색색	-14.1859
자그마	-14.1859
거느린	-14.1859
터백	-14.1859
니그렌	-14.1859
출입금	-14.1859
빼앗겨	-14.1859
흑막	-14.1859
규정	-14.1859
다이앤	-14.1859
부룩	-14.1859
앤드루	-14.1859
요케	-14.1859
결점	-14.1859
샤예	-14.1859
정혼	-14.1859
곤경	-14.1859
물리친다	-14.1859
암굴	-14.1859
앞치마	-14.1859
마구간	-14.1859
지중해	-14.1859
깃들였	-14.1859
벨기에	-14.1859
내려보낸다	-14.1859
까탈	-14.1859
공짜	-14.1859
옮겨진	-14.1859
유기체	-14.1859
호평	-14.1859
평정	-14.1859
놀림감	-14.1859
실버스톤	-14.1859
헤쳐나갈	-14.1859
낙천	-14.1859
조디악	-14.1859
▁Lo	-14.1859
겹치	-14.1859
써커	-14.1859
에이샤	-14.1859
철심	-14.1859
호박죽	-14.1859
드라이덴	-14.1859
밀거래	-14.1859
들여보낸다	-14.1859
밀수품	-14.1859
침착	-14.1859
격변	-14.1859
남겨져	-14.1859
허물	-14.1859
나이트클럽	-14.1859
풍긴	-14.1859
현진	-14.1859
외인부대	-14.1859
모래바람	-14.1859
으리	-14.1859
탄압	-14.1859
새장가	-14.1859
영령	-14.1859
공업	-14.1859
맥레인	-14.1859
변론	-14.1859
브레이크	-14.1859
사우스포	-14.1859
합동결혼식	-14.1859
헤디	-14.1859
굿스피드	-14.1859
네안데르탈인	-14.1859
물꼬	-14.1859
불가리아인	-14.1859
▁Dona	-14.1859
미망인	-14.1859
달려온다	-14.1859
아론슨	-14.1859
가져본	-14.1859
오스본	-14.1859
청운	-14.1859
우릴	-14.1859
인공위성	-14.1859
난기류	-14.1859
식탐	-14.1859
플린	-14.1859
사마리아인	-14.1859
엠버	-14.1859
이뤄낼	-14.1859
처방	-14.1859
캐스터	-14.1859
덮인	-14.1859
홀아비	-14.1859
예능	-14.1859
종영	-14.1859
샤츠	-14.1859
밀려난다	-14.1859
완화	-14.1859
헤들리	-14.1859
곰돌이	-14.1859
디딘	-14.186
후견인	-14.186
밝혀졌	-14.186
조현	-14.186
콘테스트	-14.186
유행	-14.186
인식표	-14.186
센티	-14.186
위자료	-14.186
들여놓	-14.186
멜로디	-14.186
순찰대	-14.186
점프대	-14.186
코랄	-14.186
모독	-14.186
히미코	-14.186
▁101	-14.186
▁BB	-14.186
뜨내기	-14.186
약해져	-14.186
강해질	-14.186
표공	-14.186
육식	-14.186
흑마	-14.186
갓난아기	-14.186
규범	-14.186
근원지	-14.186
넘겨	-14.186
벨포트	-14.186
줄타기	-14.186
굶주려	-14.186
졸리	-14.186
뚱뚱보	-14.186
올릴	-14.186
꽃잎	-14.186
돌덩어리	-14.186
구즈만	-14.186
올드만	-14.186
진원지	-14.186
춘삼	-14.186
천주교	-14.186
공놀이	-14.186
카오스	-14.186
무역상	-14.186
반향	-14.186
식욕	-14.186
돔놀	-14.186
카이저	-14.186
북미	-14.186
워크맨	-14.186
쇼핑몰	-14.186
재테크	-14.186
소블	-14.186
인공두뇌	-14.186
다크서클	-14.186
해빙	-14.186
행태	-14.186
상쾌	-14.186
당면	-14.186
맥구한	-14.186
교차로	-14.186
맹목	-14.186
대걸레	-14.186
크레이머	-14.186
강점기	-14.186
탐색기	-14.186
티셔츠	-14.186
호스트	-14.186
교신	-14.186
꽃피우	-14.186
곡예사	-14.186
공보관	-14.186
노학자	-14.186
나이틀리	-14.186
필살기	-14.186
교단	-14.186
놀린다	-14.186
멘탈	-14.186
처해진다	-14.186
거물급	-14.186
목도리	-14.186
이어져	-14.186
그레코	-14.186
불렀	-14.186
정석	-14.186
움트	-14.186
다비드	-14.186
일급비밀	-14.186
나른	-14.186
영업직	-14.186
외친다	-14.186
유사점	-14.186
마테라	-14.186
모션	-14.186
민족	-14.186
허세	-14.186
주름잡	-14.186
황양	-14.186
기다려	-14.186
다이버	-14.186
버드나무	-14.186
브랜든	-14.186
신속히	-14.186
간단히	-14.186
냉정히	-14.186
바클레이	-14.186
깨졌	-14.186
파나마	-14.186
하트넷	-14.1861
뛰어나간다	-14.1861
캐롤라이나	-14.1861
범접	-14.1861
콘돔	-14.1861
난이도	-14.1861
리스트	-14.1861
마조리	-14.1861
소개업자	-14.1861
파랑	-14.1861
진열장	-14.1861
정찰병	-14.1861
모녀	-14.1861
발랑	-14.1861
건축	-14.1861
리베라	-14.1861
사로잡혀	-14.1861
송금	-14.1861
핀잔	-14.1861
리뷰	-14.1861
소꼽	-14.1861
영예	-14.1861
격전지	-14.1861
린델	-14.1861
국법	-14.1861
린제이	-14.1861
파스칼	-14.1861
유콘	-14.1861
파텔	-14.1861
결단력	-14.1861
엘프먼	-14.1861
궁정	-14.1861
우울증	-14.1861
다가선다	-14.1861
오마하	-14.1861
네크로	-14.1861
베이다	-14.1861
발광	-14.1861
발랄	-14.1861
안식년	-14.1861
철야	-14.1861
민호	-14.1861
불문학	-14.1861
처넣	-14.1861
응급실	-14.1861
발설	-14.1861
앙카	-14.1861
잉카	-14.1861
미칠	-14.1861
출정	-14.1861
폐호	-14.1861
국회	-14.1861
들어왔	-14.1861
곤욕	-14.1861
마사키	-14.1861
연패	-14.1861
이겨낼	-14.1861
▁65	-14.1861
승법	-14.1861
쳐져	-14.1861
커투어	-14.1861
그래도	-14.1861
귀중품	-14.1861
동창회	-14.1861
폭행죄	-14.1861
린츠	-14.1861
키워진다	-14.1861
절절	-14.1861
데몬	-14.1861
두른	-14.1861
본햄	-14.1861
디아즈	-14.1861
비틀즈	-14.1861
이뤄져	-14.1861
옥상	-14.1861
입장권	-14.1861
프로이드	-14.1861
뒷모습	-14.1861
닉네임	-14.1861
간헐	-14.1861
돌본다	-14.1861
미술품	-14.1861
일푼	-14.1861
부산포	-14.1861
장기인	-14.1861
취미	-14.1861
급류	-14.1861
독창	-14.1861
야근	-14.1861
길복	-14.1861
부락	-14.1861
프리슬리	-14.1861
역동	-14.1862
운행	-14.1862
태클	-14.1862
증권사	-14.1862
힐즈	-14.1862
하이라이트	-14.1862
수시로	-14.1862
구토	-14.1862
전환점	-14.1862
따져	-14.1862
암호학자	-14.1862
황사	-14.1862
트릴	-14.1862
▁La	-14.1862
쳐들어간다	-14.1862
워킹	-14.1862
밀애	-14.1862
용석	-14.1862
진희	-14.1862
코니쉬	-14.1862
내려선	-14.1862
스펜	-14.1862
데려왔	-14.1862
몬도	-14.1862
▁Ri	-14.1862
열풍	-14.1862
저당	-14.1862
바텐더	-14.1862
귀걸이	-14.1862
버려도	-14.1862
태워도	-14.1862
체벌	-14.1862
수도회	-14.1862
성가신	-14.1862
차려진	-14.1862
방침	-14.1862
복도	-14.1862
쫓아와	-14.1862
체포령	-14.1862
바쳐진	-14.1862
교통경찰	-14.1862
릴라드	-14.1862
바칠	-14.1862
스노우볼	-14.1862
우슬	-14.1862
무허가	-14.1862
▁36	-14.1862
의료진	-14.1862
체질	-14.1862
헬런	-14.1862
정욕	-14.1862
커쳐	-14.1862
현관문	-14.1862
리틀록	-14.1862
시몬	-14.1862
발리우	-14.1862
단축	-14.1862
풀칠	-14.1862
스튜	-14.1862
결계	-14.1862
딴청	-14.1862
혈액병	-14.1862
스티븐슨	-14.1862
스컬	-14.1862
스피츠	-14.1862
분열증	-14.1862
설파	-14.1862
바랄	-14.1862
맹공격	-14.1862
유리병	-14.1862
밀담	-14.1862
클루	-14.1862
객실	-14.1862
신천지	-14.1862
헤어질	-14.1862
건너온다	-14.1862
육감	-14.1862
스키퍼	-14.1862
월켄	-14.1862
캘러	-14.1862
뒷이야기	-14.1862
승부조작	-14.1863
풍금	-14.1863
심약	-14.1863
애교	-14.1863
역병	-14.1863
캣우먼	-14.1863
망실	-14.1863
삼켜	-14.1863
친환경	-14.1863
폐위	-14.1863
생환	-14.1863
서현	-14.1863
스컴	-14.1863
뒤엉킨	-14.1863
매트리스	-14.1863
성년자	-14.1863
격노	-14.1863
치토스	-14.1863
국민학생	-14.1863
체코	-14.1863
머무르	-14.1863
소송	-14.1863
브릿	-14.1863
유빈	-14.1863
폴리스	-14.1863
추리력	-14.1863
▁Cl	-14.1863
우린	-14.1863
활보	-14.1863
너클	-14.1863
로지타	-14.1863
청천	-14.1863
해방구	-14.1863
굴리	-14.1863
설정	-14.1863
송나라	-14.1863
착실	-14.1863
페인트	-14.1863
친해져	-14.1863
느껴질	-14.1863
찰스턴	-14.1863
양치기	-14.1863
목각	-14.1863
블러드스톤	-14.1863
비상사태	-14.1863
잡지사	-14.1863
엘릭	-14.1863
팽팽히	-14.1863
언동	-14.1863
원피스	-14.1863
드럼	-14.1863
언뜻	-14.1863
클래리	-14.1863
새긴다	-14.1863
소울	-14.1863
크레	-14.1863
사이러스	-14.1863
요귀	-14.1863
감시탑	-14.1863
매콜	-14.1863
먹힌	-14.1863
인어공주	-14.1863
먹칠	-14.1863
청교도	-14.1863
블라트	-14.1863
잔악	-14.1863
드웨이	-14.1863
모조	-14.1863
밀고자	-14.1863
신격화	-14.1863
주고받	-14.1863
강행	-14.1863
홀랜드	-14.1863
열릴	-14.1863
최전선	-14.1863
몰려드	-14.1863
넘긴	-14.1863
모셔야	-14.1863
쇠줄	-14.1863
트레스	-14.1864
물리쳐야	-14.1864
써서든	-14.1864
직경	-14.1864
노틀	-14.1864
조립	-14.1864
컨버스	-14.1864
입니까	-14.1864
지부장	-14.1864
바닥난	-14.1864
실업	-14.1864
쓸모	-14.1864
린디	-14.1864
평등	-14.1864
희귀본	-14.1864
가져야	-14.1864
이뤄질	-14.1864
터닝	-14.1864
열린	-14.1864
생겨	-14.1864
진열대	-14.1864
반가와	-14.1864
카나리	-14.1864
마리우스	-14.1864
루프	-14.1864
어려워진	-14.1864
사마라	-14.1864
프리덤	-14.1864
당대	-14.1864
겸해서	-14.1864
아미타	-14.1864
아비스	-14.1864
지른다	-14.1864
정밀	-14.1864
갖힌	-14.1864
혈투	-14.1864
리오나	-14.1864
꼬여간다	-14.1864
영민	-14.1864
험준	-14.1864
듀티	-14.1864
언급	-14.1864
고스트페이스	-14.1864
노닐	-14.1864
쿠루	-14.1864
총집결	-14.1864
구즈	-14.1864
러들로	-14.1864
블랙하트	-14.1864
원했으나	-14.1864
혈견	-14.1864
캐봇	-14.1864
승식	-14.1864
멈춰선	-14.1864
비꼬	-14.1864
산부인과	-14.1864
공용	-14.1864
빛낼	-14.1864
유통	-14.1864
가르드	-14.1864
키워져	-14.1864
랩터	-14.1864
미츠키	-14.1864
하이바라	-14.1864
흑사	-14.1864
웃긴	-14.1864
기후학	-14.1864
리베리	-14.1864
빠삭한	-14.1864
사뭇	-14.1864
눈곱	-14.1864
변장술	-14.1864
이리나	-14.1864
극약	-14.1864
도망간다	-14.1864
자문다	-14.1864
빨간색	-14.1865
냉장고	-14.1865
토리노	-14.1865
푸토	-14.1865
사교	-14.1865
증식	-14.1865
경품	-14.1865
스테이트	-14.1865
순회	-14.1865
뒤섞여	-14.1865
내세워	-14.1865
불가피	-14.1865
빈곤	-14.1865
구매	-14.1865
로비쇼	-14.1865
탐구	-14.1865
격화	-14.1865
물들였	-14.1865
역추적	-14.1865
요법	-14.1865
비싼	-14.1865
배송	-14.1865
걸렸으며	-14.1865
월맹	-14.1865
역진	-14.1865
영향력	-14.1865
비베스	-14.1865
샤워실	-14.1865
크러쉬	-14.1865
패싸움	-14.1865
경미	-14.1865
더바인	-14.1865
구소련	-14.1865
문광	-14.1865
돌려보낸다	-14.1865
앞세워	-14.1865
케르	-14.1865
감마선	-14.1865
다를까	-14.1865
침체	-14.1865
찍혀	-14.1865
나타남	-14.1865
범태평양	-14.1865
자격증	-14.1865
반항심	-14.1865
증진	-14.1865
발언	-14.1865
글리슨	-14.1865
초빙	-14.1865
펠트	-14.1865
공권	-14.1865
촌놈	-14.1865
알카포네	-14.1865
요동	-14.1865
가이탄	-14.1865
오티스	-14.1865
사격수	-14.1865
소방수	-14.1865
올겨울	-14.1865
길들여	-14.1865
들어온	-14.1865
고위급	-14.1865
바렛	-14.1865
거릴	-14.1865
묻혀	-14.1865
잊혀진다	-14.1865
빠뜨린다	-14.1865
예법	-14.1865
들어줄	-14.1865
무용	-14.1865
경유지	-14.1865
불러낸다	-14.1865
긴밀	-14.1865
꾸준	-14.1865
스캔다	-14.1865
구별	-14.1865
미룬다	-14.1865
앞장선다	-14.1865
공모	-14.1865
동네북	-14.1865
트리스탄	-14.1865
공처가	-14.1865
요술	-14.1865
뛰쳐나온다	-14.1865
쫓아온다	-14.1865
풀어내	-14.1865
당주	-14.1866
낙하산	-14.1866
투영	-14.1866
클로즈	-14.1866
드릴	-14.1866
르노	-14.1866
박혀	-14.1866
서부극	-14.1866
권태	-14.1866
관록	-14.1866
일인자	-14.1866
지른	-14.1866
쉬울	-14.1866
애벌레	-14.1866
충분히	-14.1866
병역	-14.1866
샌드	-14.1866
벅찬	-14.1866
정죄	-14.1866
민감	-14.1866
덮칠지	-14.1866
배워야지	-14.1866
엄지	-14.1866
최우선	-14.1866
과잉	-14.1866
데블	-14.1866
야유	-14.1866
땅굴	-14.1866
찾아올지	-14.1866
동떨어져	-14.1866
학력	-14.1866
백상어	-14.1866
신고식	-14.1866
질겁	-14.1866
도예가	-14.1866
피셔	-14.1866
리자드	-14.1866
따라붙	-14.1866
섞여서	-14.1866
죽여서	-14.1866
진열	-14.1866
포레스터	-14.1866
며느리	-14.1866
투철	-14.1866
머티	-14.1866
백사장	-14.1866
스터스	-14.1866
올라서	-14.1866
발라서	-14.1866
생생히	-14.1866
떠서	-14.1866
갖춰	-14.1866
빌릴	-14.1866
돌려놓	-14.1866
실추	-14.1866
지워진	-14.1866
줄리언	-14.1866
제출	-14.1866
행색	-14.1866
달랑	-14.1866
친해진다	-14.1866
보레고	-14.1866
피의자	-14.1866
억지로	-14.1867
숨겨왔	-14.1867
전국구	-14.1867
잇포	-14.1867
웰러	-14.1867
똑소리	-14.1867
학자금	-14.1867
실직자	-14.1867
시로스	-14.1867
내리친다	-14.1867
밤낮없이	-14.1867
들어와서	-14.1867
스웰	-14.1867
참을성	-14.1867
경위	-14.1867
선술집	-14.1867
케인스	-14.1867
레이더스	-14.1867
스프링스	-14.1867
내려온다	-14.1867
마우로	-14.1867
문지기	-14.1867
부스스	-14.1867
블로그	-14.1867
바카로	-14.1867
멍크	-14.1867
가까워질	-14.1867
허나	-14.1867
연민	-14.1867
식용	-14.1867
말타기	-14.1867
평원	-14.1867
몬로	-14.1867
육신	-14.1867
카리스	-14.1867
코르그	-14.1867
방영	-14.1867
주먹다짐	-14.1867
회유	-14.1867
떼밀	-14.1867
심연	-14.1867
간호원	-14.1867
말코비치	-14.1867
정면충돌	-14.1867
흉년	-14.1867
마텔	-14.1867
말쑥	-14.1867
보낼까	-14.1867
추모	-14.1867
부녀	-14.1867
뒤집힌다	-14.1867
순정	-14.1867
금지령	-14.1867
되풀이	-14.1867
소화제	-14.1867
종이배	-14.1867
허상	-14.1867
마일즈	-14.1867
탐방	-14.1867
부식성	-14.1867
나찌	-14.1868
조각난	-14.1868
시행	-14.1868
캠핑카	-14.1868
탄약	-14.1868
터뜨	-14.1868
조항	-14.1868
관객	-14.1868
피라미드형	-14.1868
낙제	-14.1868
청력	-14.1868
펼쳐야	-14.1868
신다구요	-14.1868
탈진	-14.1868
아라키	-14.1868
토토로	-14.1868
독가스	-14.1868
샤잠	-14.1868
쉬운	-14.1868
세텐	-14.1868
유목	-14.1868
도살장	-14.1868
예금	-14.1868
alk	-14.1868
양철	-14.1868
화이자	-14.1868
고발자	-14.1868
레노아	-14.1868
광물	-14.1868
입항	-14.1868
반송	-14.1868
패션쇼	-14.1868
받아들여야	-14.1868
버넷	-14.1868
봐왔	-14.1868
말렉	-14.1868
번햄	-14.1868
걸리버	-14.1868
좋아한다	-14.1868
영화광	-14.1868
진탕	-14.1868
미덕	-14.1868
신용도	-14.1868
끝냈	-14.1868
빠져나간	-14.1868
술잔	-14.1868
격파	-14.1869
카나비	-14.1869
암거래	-14.1869
그래서인지	-14.1869
동아프리카	-14.1869
관찰력	-14.1869
고서라도	-14.1869
말라치	-14.1869
물린다	-14.1869
애어른	-14.1869
후반부	-14.1869
위닝	-14.1869
암시장	-14.1869
트릭	-14.1869
압수	-14.1869
카산드라	-14.1869
엘리너	-14.1869
콘트롤	-14.1869
베프	-14.1869
방송국	-14.1869
산산이	-14.1869
바라볼	-14.1869
스타덤	-14.1869
각별	-14.1869
바코드	-14.1869
아이레스	-14.1869
올린다면	-14.1869
항문	-14.1869
매너	-14.1869
레토	-14.1869
투표	-14.1869
뒷전	-14.1869
무서울	-14.1869
음흉	-14.1869
우유	-14.1869
켄드	-14.1869
학계	-14.1869
심층	-14.1869
운용	-14.1869
교문	-14.1869
지나쳐	-14.1869
실린더	-14.187
뇌파	-14.187
항만	-14.187
??	-14.187
암투	-14.187
코토	-14.187
자연주의	-14.187
보좌	-14.187
쳐진	-14.187
보살핀다	-14.187
보훈	-14.187
스구루	-14.187
팩맨	-14.187
캐이시	-14.187
교만	-14.187
잊혀	-14.187
구금	-14.187
텐데	-14.187
렉시	-14.187
싸워본	-14.187
처신	-14.187
라이트급	-14.187
카카시	-14.187
시립	-14.187
떠버리	-14.187
섞인	-14.187
깨울	-14.187
후퍼	-14.187
유성우	-14.187
판결	-14.187
호탕	-14.187
스템	-14.187
땅값	-14.187
라틴어	-14.1871
달릴	-14.1871
샤론	-14.1871
뱃사람	-14.1871
변할	-14.1871
우주비행사	-14.1871
네이단	-14.1871
존립	-14.1871
탑재	-14.1871
웨어	-14.1871
캐디	-14.1871
취소	-14.1871
불복종	-14.1871
심해진다	-14.1871
신용	-14.1871
텔러	-14.1871
샘플	-14.1871
놀라우	-14.1871
부산물	-14.1871
파울	-14.1871
아리아인	-14.1871
예식	-14.1871
규명	-14.1871
놓여진	-14.1871
그루버	-14.1871
척추	-14.1871
순위	-14.1871
깨워라	-14.1871
재가동	-14.1871
랜섬	-14.1871
품행	-14.1871
회색	-14.1871
방문객	-14.1871
티타임	-14.1871
괴로워한	-14.1871
연락처	-14.1871
트레이드	-14.1871
휴직	-14.1871
미팅	-14.1871
피겨	-14.1871
벨처	-14.1871
소업	-14.1871
공담	-14.1871
힐러	-14.1871
유정	-14.1871
검붉	-14.1871
구호	-14.1871
연기력	-14.1872
뒤섞인	-14.1872
착안	-14.1872
끌어내리	-14.1872
스트로마	-14.1872
참나무	-14.1872
미개척	-14.1872
잡혀왔	-14.1872
쉬머	-14.1872
출근길	-14.1872
죄악	-14.1872
케이티	-14.1872
산토로	-14.1872
쿠우	-14.1872
색소	-14.1872
격식	-14.1872
초감각	-14.1872
유적지	-14.1872
온상지	-14.1872
서식지	-14.1872
처했	-14.1872
추파	-14.1872
격렬히	-14.1872
청나라	-14.1872
트리거	-14.1872
불릴	-14.1872
오웰	-14.1872
화창	-14.1872
벤쳐	-14.1872
누르	-14.1872
입김	-14.1872
피서지	-14.1872
이뤄진	-14.1872
휴양지	-14.1872
요나라	-14.1873
휴학	-14.1873
맘슨	-14.1873
마당	-14.1873
배수관	-14.1873
굿맨	-14.1873
잡힐	-14.1873
께서	-14.1873
즉위	-14.1873
질질	-14.1873
버진	-14.1873
할지라도	-14.1873
그린북	-14.1873
여객	-14.1873
묘사	-14.1873
가까워진	-14.1873
미쿠	-14.1873
중퇴	-14.1873
정벌	-14.1873
모종	-14.1873
혁명군	-14.1873
실패율	-14.1873
링귀	-14.1873
레디	-14.1873
입힌다	-14.1873
보호관찰	-14.1873
업소	-14.1873
푸티	-14.1873
감옥행	-14.1873
거쳐야	-14.1873
잔인무도	-14.1873
안토니아	-14.1873
영정	-14.1873
지폐	-14.1873
회견	-14.1873
영재	-14.1873
실테	-14.1874
우들리	-14.1874
시오리	-14.1874
우버	-14.1874
급구	-14.1874
열변	-14.1874
팬티	-14.1874
온다더니	-14.1874
락스	-14.1874
바꾼다	-14.1874
사창가	-14.1874
무서워서	-14.1874
덤벼들	-14.1874
탈선	-14.1874
랙스	-14.1874
커나간다	-14.1874
니콜스	-14.1874
센스	-14.1874
레벨	-14.1874
잔소리	-14.1874
동물학자	-14.1874
생태	-14.1874
애스터	-14.1874
호령	-14.1874
포탈	-14.1874
거린다	-14.1874
망명	-14.1874
델리아	-14.1874
심사관	-14.1874
무진	-14.1874
배운	-14.1874
슬로터	-14.1874
팩터	-14.1874
새내기	-14.1874
조르그	-14.1874
코머	-14.1874
팔레	-14.1874
내던져진	-14.1874
칼잡이	-14.1874
머지않아	-14.1875
권유	-14.1875
불교	-14.1875
식칼	-14.1875
유진	-14.1875
기본기	-14.1875
몸무게	-14.1875
개항	-14.1875
토투	-14.1875
울버린	-14.1875
태호	-14.1875
피살자	-14.1875
선망	-14.1875
들러서	-14.1875
차출	-14.1875
송신기	-14.1875
약병	-14.1875
러브호텔	-14.1875
소프	-14.1875
분명히	-14.1875
티츠	-14.1875
스카티	-14.1875
스포트	-14.1875
달굴	-14.1875
끝마칠	-14.1875
달갑	-14.1875
개교	-14.1875
상대역	-14.1875
일컬	-14.1875
유발	-14.1875
거역	-14.1875
불순	-14.1875
커트	-14.1875
트리니	-14.1875
미스틱	-14.1875
배팅	-14.1876
급증	-14.1876
광채	-14.1876
스러워진	-14.1876
일축	-14.1876
관용	-14.1876
엘런	-14.1876
아가사	-14.1876
목판	-14.1876
히귀	-14.1876
정점	-14.1876
무미	-14.1876
유배	-14.1876
강도질	-14.1876
못생긴	-14.1876
죄의식	-14.1876
마리엘	-14.1876
연못	-14.1876
타이니	-14.1876
낮잠	-14.1876
유조차	-14.1876
앞설	-14.1876
강판	-14.1876
불붙	-14.1876
이반나	-14.1876
커진	-14.1877
실천	-14.1877
사느냐	-14.1877
마찰	-14.1877
행체	-14.1877
얼려	-14.1877
광신	-14.1877
심즈	-14.1877
월턴	-14.1877
이국의	-14.1877
피어나	-14.1877
영업차	-14.1877
금천	-14.1877
박살나	-14.1877
사오리	-14.1877
지원군	-14.1877
지켜낸	-14.1877
더블	-14.1877
미클	-14.1877
연애편지	-14.1877
계기판	-14.1877
마석	-14.1877
모친	-14.1877
모색	-14.1877
방뇨	-14.1877
으니까	-14.1877
맨홀	-14.1878
록스타	-14.1878
구시대	-14.1878
본래	-14.1878
조류	-14.1878
대니엘	-14.1878
검프	-14.1878
부각	-14.1878
출간	-14.1878
실권	-14.1878
접목	-14.1878
데니히	-14.1878
버슨	-14.1878
안긴다	-14.1878
수리비	-14.1878
민영은	-14.1878
생물학	-14.1878
짐머	-14.1878
비언	-14.1878
오셔	-14.1878
외팔	-14.1878
반영	-14.1878
환마	-14.1878
심방	-14.1878
우악	-14.1878
박쥐	-14.1878
코커	-14.1878
비컨	-14.1878
마허	-14.1879
실베	-14.1879
참견	-14.1879
종식	-14.1879
친조	-14.1879
노트	-14.1879
미공군	-14.1879
코자크	-14.1879
신경병	-14.1879
사유	-14.1879
외할아버지	-14.1879
구경거리	-14.1879
안톤	-14.1879
카타라	-14.1879
철문	-14.1879
다람	-14.1879
창조물	-14.1879
경쟁국	-14.1879
악연	-14.1879
빌레나	-14.1879
영위	-14.1879
주먹싸움	-14.1879
폴츠	-14.1879
시녀	-14.1879
카셀	-14.1879
키울	-14.1879
간곡	-14.188
자금줄	-14.188
연정	-14.188
겨자	-14.188
티얼	-14.188
언스	-14.188
죽여라	-14.188
내털리	-14.188
국면	-14.188
석관	-14.188
관상어	-14.188
번스타인	-14.188
안정제	-14.188
조업	-14.188
상사병	-14.188
깨져	-14.188
맹수	-14.188
티노	-14.188
뉴욕항	-14.188
화약	-14.188
목회	-14.188
법무성	-14.188
원격	-14.188
설리반	-14.188
버쉬	-14.188
각본	-14.188
자유주의	-14.188
뒤바뀐다	-14.188
마이어	-14.188
따라나선	-14.188
차릴	-14.188
출시	-14.188
발레단	-14.188
린드	-14.1881
근성	-14.1881
유키	-14.1881
알렉	-14.1881
치켜	-14.1881
넘버원	-14.1881
로즈마리	-14.1881
상담원	-14.1881
바이오	-14.1881
성공률	-14.1881
마주쳐	-14.1881
오래오래	-14.1881
화낼	-14.1881
성향	-14.1881
레나드	-14.1881
더하멜	-14.1881
초긴장	-14.1881
완벽주의	-14.1881
애덤스	-14.1881
공무	-14.1881
내세운	-14.1881
익스	-14.1881
죽느냐	-14.1881
오바하	-14.1881
파머	-14.1881
작스럽	-14.1881
뉴멕시코주	-14.1881
버지니아주	-14.1881
문학자	-14.1882
피오리	-14.1882
막힐	-14.1882
어른거리	-14.1882
지켜볼	-14.1882
태양신	-14.1882
윌버	-14.1882
배틀	-14.1882
위패	-14.1882
자료	-14.1882
부주의	-14.1882
버거미	-14.1882
블리	-14.1882
행정부	-14.1882
신입생	-14.1882
모국	-14.1882
힐스	-14.1882
빼든	-14.1882
정상급	-14.1882
더럽	-14.1882
봐선	-14.1882
레티	-14.1883
타이틀전	-14.1883
파레	-14.1883
고문실	-14.1883
릭맨	-14.1883
코르	-14.1883
끊임	-14.1883
마타이	-14.1883
위변	-14.1883
줄래	-14.1883
지나친	-14.1883
김정도	-14.1883
초고속	-14.1883
유무	-14.1883
미처	-14.1883
허수	-14.1883
생긴다면	-14.1883
대필	-14.1883
독방	-14.1884
피핀	-14.1884
괴현상	-14.1884
불개미	-14.1884
터져	-14.1884
맘대로	-14.1884
신녀	-14.1884
아이삭스	-14.1884
애디	-14.1884
나디아	-14.1884
점심	-14.1884
종군	-14.1884
리플레이	-14.1884
카멘	-14.1884
착상	-14.1884
린터	-14.1884
두려워했	-14.1884
팔코	-14.1884
라틴	-14.1885
카말라	-14.1885
애니스톤	-14.1885
외진	-14.1885
타티아나	-14.1885
약론	-14.1885
릴리안	-14.1885
관광지	-14.1885
뱃지	-14.1885
명랑	-14.1885
식량난	-14.1885
출연진	-14.1885
배츠	-14.1885
철장	-14.1885
기관총	-14.1885
포츠	-14.1885
부촌	-14.1885
떨군	-14.1885
조프	-14.1885
파도치	-14.1885
발루	-14.1886
레트	-14.1886
여왕벌	-14.1886
찰관	-14.1886
재빨리	-14.1886
제패	-14.1886
공감	-14.1886
이동식	-14.1886
심화	-14.1886
악용	-14.1886
서랜든	-14.1886
증거품	-14.1886
투용	-14.1886
가해자	-14.1886
사당	-14.1886
사항	-14.1886
조카딸	-14.1886
임종	-14.1887
친선	-14.1887
우리베	-14.1887
우직	-14.1887
담판	-14.1887
코모	-14.1887
루미	-14.1887
비친다	-14.1887
콜드	-14.1887
군벌	-14.1887
관직	-14.1887
반대파	-14.1887
저돌	-14.1887
억세	-14.1887
불러올	-14.1887
정호	-14.1888
가득찬	-14.1888
드라마	-14.1888
마이아	-14.1888
숨겨야	-14.1888
활기	-14.1888
호브	-14.1888
연방군	-14.1888
보텀	-14.1888
보냈	-14.1888
애쉬	-14.1888
주립	-14.1888
신곡	-14.1888
플로라	-14.1888
언서	-14.1888
재연	-14.1888
회포	-14.1888
걸리건	-14.1888
사이클론	-14.1888
리스터	-14.1889
막노동	-14.1889
활로	-14.1889
성장통	-14.1889
방탄	-14.1889
커져간다	-14.1889
판정	-14.1889
조그만	-14.1889
봉기	-14.1889
걷히	-14.1889
체비	-14.1889
마이티	-14.1889
키워드	-14.1889
아라시	-14.1889
격려	-14.1889
너거	-14.189
싸운다면	-14.189
미용사	-14.189
재커	-14.189
애매	-14.189
유소년	-14.189
나타날	-14.189
여단장	-14.189
선별	-14.189
마세요	-14.189
파트너십	-14.189
산업체	-14.189
마실리	-14.189
절실	-14.189
세로니	-14.189
리셋	-14.1891
박식	-14.1891
증언대	-14.1891
끝장나	-14.1891
어설	-14.1891
미친개	-14.1891
귀국	-14.1891
사이언	-14.1891
오슬로	-14.1891
연애담	-14.1891
술법	-14.1891
희망찬	-14.1891
시기심	-14.1891
오헤어	-14.1891
접시	-14.1891
애견	-14.1891
로버트슨	-14.1891
뒤덮여	-14.1891
실재	-14.1891
제쳐	-14.1891
시포스	-14.1891
요소	-14.1892
구걸	-14.1892
대혼	-14.1892
안드로이드	-14.1892
헤라	-14.1892
재출전	-14.1892
와이스	-14.1892
육해	-14.1892
오랫만	-14.1892
우체	-14.1892
비누	-14.1892
문화제	-14.1892
물통	-14.1892
철도	-14.1892
때늦	-14.1892
리더십	-14.1892
감방	-14.1892
선데이	-14.1892
포유	-14.1893
아오이	-14.1893
힐리	-14.1893
아버진	-14.1893
올수록	-14.1893
모나	-14.1893
윌리암	-14.1893
아일린	-14.1893
디엔	-14.1893
우치	-14.1893
시켜야만	-14.1893
대피소	-14.1893
지지리	-14.1893
오누이	-14.1893
인류학자	-14.1894
플라	-14.1894
송사	-14.1894
돼버린	-14.1894
안소니	-14.1894
동화책	-14.1894
리놀	-14.1894
빌려간	-14.1894
요상한	-14.1894
절감	-14.1894
안경	-14.1894
색대	-14.1894
서프라이즈	-14.1894
참호	-14.1895
포스터	-14.1895
갈증	-14.1895
재단사	-14.1895
아그라	-14.1895
수술비	-14.1895
수홍	-14.1895
주소지	-14.1895
끌려간	-14.1895
경계심	-14.1895
뛰어내	-14.1895
발매	-14.1895
중립	-14.1895
이사벨라	-14.1895
수뇌부	-14.1895
친일	-14.1895
니얼	-14.1895
파천	-14.1895
오붓	-14.1895
강진	-14.1895
데릭	-14.1895
마블스	-14.1895
펄스	-14.1895
참담	-14.1895
소중히	-14.1896
비자금	-14.1896
피츠	-14.1896
드레서	-14.1896
친동생	-14.1896
언더	-14.1896
밀집	-14.1896
아브라	-14.1896
아앙	-14.1896
포털	-14.1896
수호부	-14.1896
항로	-14.1896
스핀	-14.1896
크루거	-14.1896
푸키	-14.1896
편집자	-14.1896
시류	-14.1897
모여든	-14.1897
제작진	-14.1897
교로	-14.1897
극진	-14.1897
이사벨	-14.1897
양국	-14.1897
망해	-14.1897
로이스	-14.1897
후송	-14.1897
구타	-14.1897
브론	-14.1898
서류	-14.1898
무개성	-14.1898
그린트	-14.1898
포루	-14.1898
호연	-14.1898
소설책	-14.1898
홀려	-14.1898
선회	-14.1898
물러	-14.1898
선뜻	-14.1898
왔으나	-14.1898
용력	-14.1898
▁.?	-14.1898
수완가	-14.1898
배민	-14.1898
슬럼가	-14.1898
메카	-14.1898
숨죽인	-14.1899
프리먼	-14.1899
라샤	-14.1899
변수	-14.1899
대녀	-14.1899
화학자	-14.1899
발판	-14.1899
리프	-14.1899
노니	-14.1899
과학소년	-14.1899
본연	-14.1899
피워	-14.1899
때울	-14.1899
참화	-14.1899
켄시	-14.1899
츠츠이	-14.1899
해져서	-14.1899
난데없이	-14.1899
뜬금없이	-14.1899
키너	-14.19
팔려서	-14.19
손톱	-14.19
우발	-14.19
친부모	-14.19
따라다닌다는	-14.19
포커	-14.19
열매	-14.19
산더미	-14.19
동등	-14.19
스트리	-14.19
DA	-14.1901
올스타	-14.1901
안식	-14.1901
면허	-14.1901
소국	-14.1901
달링	-14.1901
묶음	-14.1901
홀어머니	-14.1901
제이니	-14.1901
성취	-14.1901
뚫려	-14.1901
설리번	-14.1901
돌려준다는	-14.1901
낙오	-14.1901
시실리	-14.1901
산행	-14.1901
헤집	-14.1902
싸움판	-14.1902
네메	-14.1902
단행	-14.1902
경영주	-14.1902
디바	-14.1902
라로이	-14.1902
학내	-14.1902
극형	-14.1902
도우려고	-14.1902
길잡이	-14.1902
혈관	-14.1902
매드	-14.1902
안내서	-14.1902
부회장	-14.1903
서툰	-14.1903
별정	-14.1903
▁70	-14.1903
두르	-14.1903
사학자	-14.1903
젠크	-14.1903
메건	-14.1903
탄력	-14.1903
학생회	-14.1903
이뤄서	-14.1904
키메	-14.1904
모네	-14.1904
미시아	-14.1904
크렌	-14.1904
졸업식	-14.1904
▁Par	-14.1904
콜걸	-14.1904
최저	-14.1904
정든	-14.1904
갈까	-14.1904
전황	-14.1904
검사관	-14.1904
리라곤	-14.1904
길버트	-14.1904
머서	-14.1905
모빌	-14.1905
리턴	-14.1905
스콜	-14.1905
백마	-14.1905
레스타	-14.1905
후딱	-14.1905
전성기	-14.1905
모진	-14.1905
늘보	-14.1905
귀병	-14.1906
고문관	-14.1906
미완성	-14.1906
체내	-14.1906
차린	-14.1906
무신경	-14.1906
단조	-14.1906
스톱	-14.1906
여름휴가	-14.1906
MMO	-14.1906
깃들인	-14.1906
스턴	-14.1907
소도둑	-14.1907
볼까	-14.1907
내린다면	-14.1907
지원서	-14.1907
지글러	-14.1907
추세	-14.1907
비워	-14.1907
선금	-14.1907
실바	-14.1907
누려	-14.1907
불러일으키	-14.1908
막내아들	-14.1908
지향	-14.1908
히든	-14.1908
제로	-14.1908
미티	-14.1908
걸려온	-14.1908
주경	-14.1908
지니퍼	-14.1908
치울	-14.1909
촉수	-14.1909
비웃음	-14.1909
절망감	-14.1909
백신	-14.1909
속력	-14.1909
아이언	-14.1909
매달	-14.1909
견공	-14.191
삼형제	-14.191
유서	-14.191
편입	-14.191
언론사	-14.191
따스	-14.191
라스크	-14.191
절세	-14.191
탄식	-14.191
왈도	-14.191
상당수	-14.191
트리시	-14.1911
투정	-14.1911
보물섬	-14.1911
구단	-14.1911
허기	-14.1911
사핀	-14.1911
급감	-14.1912
베네	-14.1912
여행객	-14.1912
어윈	-14.1912
촬영소	-14.1912
선재	-14.1912
미즈	-14.1912
나가노	-14.1912
올드	-14.1912
펠리	-14.1912
호레이스	-14.1912
역사학	-14.1912
자비스	-14.1912
애니카	-14.1912
샤리	-14.1912
찢어	-14.1912
댄스파티	-14.1912
체리	-14.1912
서성이	-14.1912
악담	-14.1913
명대사	-14.1913
명찰	-14.1913
먹통	-14.1913
서운	-14.1913
비엘	-14.1913
불가해	-14.1913
아마도	-14.1913
양쪽	-14.1913
일으	-14.1913
본질	-14.1913
축구단	-14.1913
사역	-14.1913
섬머	-14.1913
보리스	-14.1913
비겁	-14.1913
유스	-14.1913
최애	-14.1913
생모	-14.1914
감형	-14.1914
쇼트	-14.1914
재빠르	-14.1914
슈리	-14.1914
스파크	-14.1914
수상히	-14.1914
부천	-14.1914
정보력	-14.1914
데브	-14.1914
깨우치	-14.1914
천체	-14.1914
넷째	-14.1915
반강	-14.1915
증권가	-14.1915
네코	-14.1915
종목	-14.1915
구해볼	-14.1915
요리사	-14.1915
건져	-14.1915
단추	-14.1915
발급	-14.1916
미트	-14.1916
재즈	-14.1916
찬반	-14.1916
마리코	-14.1916
반디	-14.1916
만취	-14.1916
소우	-14.1916
테론	-14.1916
뒤쫓아가	-14.1916
노새	-14.1916
법학	-14.1916
우터	-14.1917
구했	-14.1917
방어전	-14.1917
경보	-14.1917
우피	-14.1917
쥬스	-14.1917
그리워하	-14.1917
발병	-14.1918
타임스	-14.1918
휴면	-14.1918
거국	-14.1918
스웨인	-14.1918
할당	-14.1918
술책	-14.1918
나와서	-14.1918
회개	-14.1918
채팅	-14.1918
져온	-14.1919
레터	-14.1919
아마사	-14.1919
호구	-14.1919
생명력	-14.1919
여린	-14.1919
대로우	-14.1919
구조선	-14.1919
산토	-14.1919
소대원	-14.1919
방정	-14.1919
상디	-14.192
권위자	-14.192
모자란	-14.192
경사	-14.192
끼여	-14.192
오묘	-14.192
따라갔	-14.192
당해야	-14.192
단죄	-14.192
음담	-14.192
점원	-14.192
물리학자	-14.192
여류	-14.192
입주민	-14.1921
비유	-14.1921
노리코	-14.1921
솔라	-14.1921
휴스	-14.1921
에디터	-14.1921
무색	-14.1921
조리	-14.1921
통채	-14.1921
다코다	-14.1921
워보이	-14.1921
천식	-14.1921
신예	-14.1922
대영	-14.1922
타이라	-14.1922
아낙	-14.1922
범위	-14.1922
정어리	-14.1922
월학	-14.1922
진통제	-14.1922
사울	-14.1922
다름없	-14.1922
풀빛	-14.1922
동물학	-14.1922
무척	-14.1922
바꿔서	-14.1923
걸어도	-14.1923
명백	-14.1923
불친절	-14.1923
델타	-14.1923
판돈	-14.1923
재직	-14.1923
짐작	-14.1923
최소한	-14.1923
예리	-14.1924
극영화	-14.1924
북산	-14.1924
머시	-14.1924
절단	-14.1924
이상주의	-14.1924
행동력	-14.1925
임금	-14.1925
베거	-14.1925
린더	-14.1925
적대시	-14.1925
연소	-14.1926
누마	-14.1926
열병	-14.1926
식신	-14.1926
살인죄	-14.1926
팬데	-14.1926
오래도록	-14.1927
모였	-14.1927
집구석	-14.1927
나오미	-14.1927
거티	-14.1927
대역	-14.1927
해졌	-14.1928
천문	-14.1928
토제	-14.1928
존망	-14.1928
자필	-14.1928
통제력	-14.1929
타토	-14.1929
군함	-14.1929
한통속	-14.1929
진급	-14.1929
비루	-14.1929
날으	-14.1929
너스	-14.193
선조	-14.193
바꾼	-14.193
모선	-14.1931
깨진	-14.1931
관심거리	-14.1931
제독	-14.1931
출장	-14.1931
스토	-14.1931
죄목	-14.1931
거르	-14.1931
휴게	-14.1931
주파	-14.1932
폭력배	-14.1932
파먹	-14.1932
교육대	-14.1932
파스타	-14.1932
병든	-14.1932
엘리야	-14.1932
재정	-14.1932
고품격	-14.1932
어본다	-14.1932
울음	-14.1932
깨달으며	-14.1933
헤어나	-14.1933
리버	-14.1933
버터	-14.1933
개빈	-14.1933
그다지	-14.1933
저군	-14.1933
버키	-14.1933
코드리	-14.1933
카짐	-14.1933
묘기	-14.1934
애총	-14.1934
댄서	-14.1934
버피	-14.1934
내용물	-14.1934
쫓겨날	-14.1934
우제	-14.1934
저버린	-14.1934
느냐면서	-14.1934
에세이	-14.1935
사절	-14.1935
커스	-14.1935
뇌리	-14.1935
애초	-14.1935
버달	-14.1935
베반	-14.1936
조엘리	-14.1936
다름없이	-14.1936
본다면	-14.1936
우울해	-14.1936
절차	-14.1936
터진	-14.1936
보호구역	-14.1937
르마	-14.1937
신기록	-14.1937
가로수	-14.1937
저드	-14.1937
알릴	-14.1937
오데드	-14.1937
미화	-14.1937
바다사자	-14.1938
외아들	-14.1938
잡혀간	-14.1938
둘레	-14.1938
러버	-14.1938
강등	-14.1939
옷가지	-14.1939
스타트	-14.1939
심리전	-14.1939
바꿔치	-14.1939
기다릴	-14.194
크리스마스이브	-14.194
화난	-14.194
연신	-14.194
우려	-14.194
병원체	-14.194
부우	-14.1941
되살아났	-14.1941
와이즐리	-14.1941
제로인	-14.1941
해져간다	-14.1941
기어오르	-14.1941
세찬	-14.1941
처자	-14.1941
용돈	-14.1941
차엘	-14.1941
오프	-14.1941
단연	-14.1942
뒤져	-14.1942
변기	-14.1942
목표물	-14.1942
풍만	-14.1942
터놓	-14.1942
입회	-14.1942
범피	-14.1943
사워	-14.1943
생길	-14.1943
프레인	-14.1943
비탄	-14.1943
몰타	-14.1944
라울	-14.1944
부검	-14.1944
대낮	-14.1944
공포탄	-14.1944
비행선	-14.1944
현인	-14.1944
귀니	-14.1944
피코	-14.1944
단결	-14.1944
퍼와	-14.1945
페이지	-14.1945
만능인	-14.1945
주정	-14.1945
정박	-14.1945
들른다	-14.1945
길러진다	-14.1945
알아챈다	-14.1945
흐른다	-14.1945
강타	-14.1945
태운다	-14.1945
법무	-14.1946
시도우	-14.1946
넘어간다	-14.1946
데버	-14.1946
거금	-14.1946
업적	-14.1946
대천사	-14.1946
물려주	-14.1946
디온	-14.1947
가져온다	-14.1947
사라져서	-14.1947
가져와	-14.1947
갈반	-14.1947
이어주	-14.1947
명승부	-14.1947
여비서	-14.1947
피바람	-14.1947
돼서	-14.1947
필수	-14.1947
초식	-14.1948
생력	-14.1948
타이거	-14.1948
주역	-14.1948
오에이	-14.1948
꽃말	-14.1949
광년	-14.1949
몸매	-14.1949
무차별	-14.1949
동물보호	-14.1949
샤오	-14.1949
용소	-14.1949
토라지	-14.1949
스테이지	-14.195
셔도	-14.195
소위	-14.195
잠긴다	-14.195
보태	-14.195
리비아	-14.195
피어	-14.195
자릴	-14.195
손색	-14.195
비용	-14.195
리투	-14.1951
듀오	-14.1951
조급	-14.1951
수년전	-14.1951
갈피	-14.1951
후각	-14.1951
올려	-14.1951
내려와	-14.1952
막연	-14.1952
나약	-14.1952
이티리	-14.1952
경찰견	-14.1952
그릴로	-14.1952
로컬	-14.1953
탐나	-14.1953
화력	-14.1953
세루	-14.1953
연안	-14.1954
버러	-14.1954
사이토	-14.1954
수출	-14.1954
물간	-14.1954
러시아군	-14.1954
위임	-14.1954
마사지	-14.1955
즉사	-14.1955
그래디	-14.1955
스메	-14.1955
돈독	-14.1956
정의감	-14.1956
상외	-14.1956
조각상	-14.1956
타테	-14.1956
스노	-14.1956
오츠	-14.1956
살라스	-14.1956
못함	-14.1957
버려	-14.1957
신종	-14.1957
방심	-14.1957
베개	-14.1958
예사	-14.1958
시나이	-14.1958
리모	-14.1958
환장	-14.1959
트리오	-14.1959
단층	-14.1959
스코치	-14.1959
만천하	-14.1959
씩씩	-14.1959
매튜스	-14.196
살가죽	-14.196
긴박	-14.196
트럭스	-14.196
레온	-14.1961
레이드	-14.1961
시청자	-14.1961
대궁전	-14.1961
문학	-14.1961
서버	-14.1961
라일로	-14.1961
초청장	-14.1961
겁내	-14.1961
공대	-14.1961
생식	-14.1961
정말로	-14.1961
풀풀	-14.1962
치민	-14.1962
파니	-14.1962
사토	-14.1962
뜨여	-14.1962
소드	-14.1962
비판	-14.1962
고속도로	-14.1963
초조	-14.1963
이름난	-14.1963
상술	-14.1963
떨리	-14.1963
나다니엘	-14.1963
어나온	-14.1963
영웅담	-14.1963
그윈	-14.1963
불모	-14.1963
물소리	-14.1963
리티	-14.1964
우비	-14.1964
레이니	-14.1964
도우려는	-14.1965
비늘	-14.1965
놓친다	-14.1965
구성원	-14.1965
카파	-14.1965
미드	-14.1965
개별	-14.1965
쇼니	-14.1965
추기	-14.1965
넘길	-14.1966
유년기	-14.1966
델라	-14.1966
아마로	-14.1966
원미	-14.1966
번민	-14.1966
라이스	-14.1967
연장자	-14.1967
캐서	-14.1967
중류	-14.1967
도립	-14.1967
중태	-14.1967
오말리	-14.1967
중국집	-14.1968
델리	-14.1968
길런	-14.1968
커리	-14.1968
난만	-14.1968
암시	-14.1968
악물	-14.1969
투생	-14.1969
탄자	-14.1969
토스	-14.1969
레이미	-14.1969
로완	-14.197
빈스	-14.197
줄까	-14.197
발반	-14.197
파카	-14.1971
부작	-14.1971
더워	-14.1971
레이카	-14.1971
진다면	-14.1972
정전기	-14.1973
아모스	-14.1973
아시타	-14.1973
아냐	-14.1973
결혼반지	-14.1973
학문	-14.1974
괴로운	-14.1974
강단	-14.1975
오찬	-14.1975
지칠	-14.1975
조미	-14.1975
끊길	-14.1975
대죄	-14.1975
세척	-14.1975
서매	-14.1975
뇌사	-14.1975
사다리	-14.1976
드빌	-14.1976
불치	-14.1976
불린다	-14.1977
사연	-14.1977
윌터	-14.1978
파실	-14.1978
타코	-14.1979
레서	-14.1979
마우	-14.1979
소란	-14.1979
행할	-14.1979
전탑	-14.198
엔포	-14.198
주프	-14.1981
열심	-14.1981
건진다	-14.1982
죄명	-14.1982
어필	-14.1983
미달	-14.1983
빼어	-14.1983
감소	-14.1983
지필	-14.1983
가득히	-14.1984
참관	-14.1984
따라온다	-14.1985
천재소년	-14.1985
화초	-14.1985
외딴곳	-14.1985
거래소	-14.1985
토리	-14.1985
친아버지	-14.1986
지구촌	-14.1986
보예	-14.1986
레이건	-14.1986
수십만	-14.1987
알라스	-14.1987
소수만	-14.1987
설산	-14.1987
리우	-14.1987
손쉽	-14.1987
전령	-14.1988
보스틱	-14.1988
남용	-14.1988
거론	-14.1988
배부르	-14.1988
동상	-14.1988
초반	-14.1989
종속	-14.1989
윅스	-14.1989
족새	-14.1989
찬스	-14.199
빈치	-14.199
자석	-14.199
중남미	-14.1991
야외	-14.1991
인기척	-14.1991
서점	-14.1991
협력자	-14.1991
결인	-14.1992
수학원	-14.1992
마무리	-14.1992
내준다	-14.1993
거듭날	-14.1993
승산	-14.1993
탐험대	-14.1993
맞바꾸	-14.1993
내려다	-14.1993
배드	-14.1993
스벤	-14.1993
로마니	-14.1993
▁육	-14.1994
반대편	-14.1994
바카	-14.1994
창가	-14.1995
재선	-14.1995
나토	-14.1996
데르	-14.1996
사귄다	-14.1996
병세	-14.1996
암흑세계	-14.1998
제프리	-14.1998
전류	-14.1998
내색	-14.1998
주워	-14.1998
통일	-14.1999
상품	-14.2
연락원	-14.2
잘려	-14.2
일요일	-14.2001
연두	-14.2001
훔쳐서	-14.2001
작위	-14.2001
항해사	-14.2001
무식	-14.2001
빼오	-14.2002
버마	-14.2002
리족	-14.2002
척박	-14.2002
소생	-14.2002
춘다	-14.2003
싼다	-14.2003
다다른다	-14.2003
피스톤	-14.2003
사친	-14.2004
티부	-14.2004
외양	-14.2004
몰려와	-14.2004
속사정	-14.2005
와스프	-14.2005
와넬	-14.2005
암말	-14.2006
장학	-14.2006
매시	-14.2006
로시오	-14.2007
학장	-14.2007
거든	-14.2007
더라면	-14.2007
서먼	-14.2007
내려간다	-14.2008
종사	-14.2008
경도	-14.2008
배반	-14.2008
바란	-14.2009
쫓겨난다	-14.2009
잡담	-14.2009
들렀	-14.2009
코번	-14.201
타르	-14.201
채워지	-14.2011
중절	-14.2011
닥칠지	-14.2011
엘시	-14.2011
자백	-14.2011
들려왔	-14.2012
가바토	-14.2012
상화	-14.2012
선보인다	-14.2012
대나무	-14.2013
캘리포니아주	-14.2013
소제	-14.2014
근거지	-14.2014
좀비	-14.2014
코마	-14.2016
정부군	-14.2016
날린	-14.2016
반발	-14.2016
다가왔	-14.2016
다릴	-14.2017
수영장	-14.2017
매리	-14.2017
산사태	-14.2017
시술	-14.2017
오리온	-14.2018
무정부	-14.2018
랜도	-14.2018
재개	-14.2019
정신줄	-14.2019
방송사	-14.2019
항의	-14.202
중개인	-14.202
알린	-14.202
게릴라전	-14.202
시샘	-14.2021
여교사	-14.2021
위나라	-14.2022
양부	-14.2022
몰라	-14.2022
성인식	-14.2022
머문	-14.2022
타오른다	-14.2023
생선	-14.2023
폭격기	-14.2023
상관없	-14.2023
여친	-14.2023
들킨	-14.2023
날린다	-14.2023
포피	-14.2024
여색	-14.2024
어딘	-14.2024
도메인	-14.2024
사극	-14.2024
사이판	-14.2025
몸체	-14.2025
제조사	-14.2025
블로	-14.2026
비정	-14.2026
거란	-14.2026
코앞	-14.2026
양어머니	-14.2026
아주머니	-14.2026
몸담	-14.2026
관리원	-14.2027
나빈	-14.2027
위치타	-14.2027
행주	-14.2027
H	-15.13
액	-15.1681
른	-15.1701
림	-15.1742
ᄇ	-15.1778
찔	-15.1825
깃	-15.1837
콧	-15.1851
균	-15.1853
엉	-15.1855
즘	-15.1855
벼	-15.1856
낌	-15.5761
v	-15.5762
옵	-15.5763
썬	-15.5764
릇	-15.5765
둡	-15.5766
헝	-15.5767
탠	-15.5768
뭔	-15.5769
룹	-15.577
됩	-15.5771
뀐	-15.5772
껴	-15.5773
겼	-15.5774
%	-15.5775
칫	-15.5776
뿌	-15.5777
깥	-15.5778
횡	-15.5779
팽	-15.578
즌	-15.5781
윽	-15.5782
셜	-15.5783
렘	-15.5784
녁	-15.5785
낭	-15.5786
궤	-15.5787
혁	-15.5788
칵	-15.5789
챙	-15.579
뜩	-15.5791
똘	-15.5792
깜	-15.5793
혜	-15.5794
혐	-15.5795
웠	-15.5796
딜	-15.5797
흡	-15.5798
퀴	-15.5799
쿄	-15.58
딪	-15.5801
틸	-15.5802
븐	-15.5803
쳤	-15.5804
쁨	-15.5805
뱅	-15.5806
큘	-15.5807
쿵	-15.5808
콥	-15.5809
셉	-15.581
럿	-15.5811
랐	-15.5812
룻	-15.5813
픽	-15.5814
촬	-15.5815
붕	-15.5816
썽	-15.5817
뤄	-15.5818
꿔	-15.5819
귄	-15.582
논	-15.5821
첼	-15.5822
핑	-15.5823
흩	-15.5824
엽	-15.5825
옮	-15.5826
젝	-15.5827
숭	-15.5828
섭	-15.5829
흘	-15.583
헨	-15.5831
`	-15.5832
쁜	-15.5833
껏	-15.5834
늑	-15.5835
깝	-15.5836
픔	-15.5837
겐	-15.5838
챔	-15.5839
뀌	-15.584
큼	-15.5841
캡	-15.5842
듭	-15.5843
럭	-15.5844
떻	-15.5845
퓨	-15.5846
멈	-15.5847
낀	-15.5848
렬	-15.5849
켓	-15.585
슴	-15.5851
멤	-15.5852
렸	-15.5853
칙	-15.5854
섹	-15.5855
뢰	-15.5856
첨	-15.5857
염	-15.5858
룡	-15.5859
렐	-15.586
쇄	-15.5861
략	-15.5862
젤	-15.5863
뭉	-15.5864
렵	-15.5865
섯	-15.5866
농	-15.5867
념	-15.5868
렇	-15.5869
몽	-15.587
례	-15.5871
응	-15.5872
엇	-15.5873
량	-15.5874
둥	-15.5875
흔	-15.5876
휩	-15.5877
웅	-15.5878
숙	-15.5879
확	-15.588
갇	-15.5881
끔	-15.5882
앨	-15.5883
탁	-15.5884
득	-15.5885
훔	-15.5886
멸	-15.5887
택	-15.5888
혹	-15.5889
펼	-15.589
획	-15.5891
닌	-15.5892
련	-15.5893
충	-15.5894
협	-15.5895
페	-15.5896
특	-15.5897
습	-15.5898
'	-15.5899
폭	-15.59
쟁	-15.5901
름	-15.5902
*	-15.5903
