<unk>	0
<s>	0
</s>	0
,	-1.78852
,*,*,*,*	-2.44461
,*,	-2.59766
▁	-2.8741
F	-3.04771
T	-3.13798
▁NNG	-3.63448
/	-3.69131
ETM	-4.20521
/*	-4.40036
/*+	-4.45929
VV	-4.55891
+	-4.60857
ct	-4.65192
In	-4.6521
fle	-4.6521
▁VV	-4.69266
,*,*,*	-4.7438
EC	-5.01523
NNG	-5.15841
EF	-5.1849
▁NNP	-5.23601
JKO	-5.24847
▁JKB	-5.28498
C	-5.3245
하	-5.33756
▁EC	-5.34186
행위	-5.40459
▁S	-5.44121
인명	-5.47623
ᆫ	-5.48867
를	-5.56262
▁E	-5.58658
을	-5.64197
이	-5.64701
의	-5.65752
OS	-5.66867
는	-5.68315
▁JX	-5.69317
JKG	-5.75048
부사	-5.75445
▁SF	-5.75661
▁을	-5.76828
▁.	-5.79774
▁의	-5.80211
XSV	-5.8064
▁는	-5.83531
▁XSV	-5.89258
p	-5.91285
nd	-5.91385
ou	-5.91402
,*,*,	-5.91435
om	-5.91468
XSA	-5.99089
JKS	-6.0447
▁ETM	-6.09123
▁MAG	-6.15314
가	-6.17179
에	-6.17614
▁이	-6.20977
성	-6.23636
분	-6.24409
정적사태	-6.25003
|	-6.25656
고	-6.2779
한	-6.30729
장소	-6.31442
▁에	-6.31846
VCP	-6.34287
은	-6.37038
Y	-6.37182
▁XSN	-6.3897
ᆫ다	-6.42998
▁하	-6.45692
▁고	-6.47063
아	-6.47598
▁은	-6.50446
되	-6.53023
▁한	-6.53474
▁MM	-6.54403
,~	-6.54842
VX	-6.55374
들	-6.56511
명사	-6.57679
▁VX	-6.59024
▁NNB	-6.60546
▁XSA	-6.68228
VA	-6.68296
있	-6.68481
▁VA	-6.68741
▁NP	-6.69445
어	-6.71389
▁들	-6.79012
EP	-6.79177
▁가	-6.8044
▁VCP	-6.84873
게	-6.90234
기	-6.92176
R	-6.96682
로	-6.97542
JC	-6.99046
그	-7.02327
지	-7.0239
▁게	-7.06217
다	-7.09075
것	-7.09313
인	-7.12541
▁그	-7.20161
과	-7.20197
와	-7.21177
▁로	-7.21842
에서	-7.22921
으로	-7.23924
시간	-7.26084
ᆯ	-7.30785
▁X	-7.31624
양태부사	-7.31682
▁NNBC	-7.33312
▁ETN	-7.35246
▁에서	-7.35373
▁기	-7.35551
▁으로	-7.35828
▁와	-7.36486
▁과	-7.36814
던	-7.37957
자	-7.42405
▁SN	-7.45136
▁다	-7.46004
한다	-7.49939
▁던	-7.51028
지만	-7.51634
▁되	-7.51982
‘	-7.5614
는데	-7.56452
지명	-7.56774
도	-7.57602
수	-7.58253
었	-7.59386
▁한다	-7.63018
시작	-7.63208
산	-7.63283
▁인	-7.64416
▁는데	-7.68992
장	-7.69699
▁MAJ	-7.71438
에게	-7.71642
▁SS	-7.732
▁’	-7.73311
위하	-7.75054
정도	-7.76361
)	-7.78811
된다	-7.83266
적	-7.84907
SO	-7.85029
▁에게	-7.86133
친구	-7.86226
년	-7.87158
사람	-7.88468
(	-7.89261
L	-7.91003
NNB	-7.91121
▁도	-7.91631
▁지	-7.93461
위해	-7.93473
함께	-7.94742
▁된다	-7.95231
그녀	-7.96826
라는	-7.97023
않	-8.01031
된	-8.01072
만	-8.03076
해	-8.035
▁위해	-8.05261
문	-8.05476
자신	-8.06089
▁어	-8.11375
JX	-8.12773
▁수	-8.1441
▁된	-8.15186
▁적	-8.15903
▁N	-8.16167
사	-8.1651
날	-8.1765
알	-8.18165
만나	-8.18239
▁자신	-8.18459
전	-8.19436
▁..	-8.19554
ETN	-8.22054
사건	-8.22355
하지만	-8.2341
면서	-8.23813
▁!	-8.24493
가족	-8.26229
주	-8.26674
없	-8.271
았	-8.2733
사랑	-8.28035
오	-8.28348
인간	-8.29345
며	-8.3127
까지	-8.31837
▁만	-8.32203
리	-8.32445
모든	-8.34818
▁해	-8.34852
상	-8.36202
대	-8.36359
▁없	-8.38323
▁EP	-8.39839
살	-8.40045
나	-8.41368
일	-8.41845
그리고	-8.42989
스	-8.45026
보	-8.46217
받	-8.46344
세상	-8.48026
▁며	-8.49003
NP	-8.4953
▁자	-8.51713
마을	-8.52609
▁...	-8.54204
그러나	-8.54964
속	-8.55921
▁SE	-8.57028
▁XPN	-8.57548
라	-8.57944
▁알	-8.58863
▁받	-8.59285
아버지	-8.60009
치	-8.60818
▁날	-8.6196
▁아	-8.63058
발견	-8.63618
세계	-8.64258
어느	-8.65984
양	-8.6734
구하	-8.67628
중	-8.67741
▁전	-8.6807
집	-8.68426
남자	-8.68463
시	-8.68567
말	-8.71386
새로운	-8.72617
IC	-8.73282
명	-8.75611
여	-8.75631
두	-8.76225
위기	-8.77138
▁어느	-8.77894
▁일	-8.78502
음	-8.78592
한편	-8.78638
▁세계	-8.79229
죽	-8.79853
할	-8.80563
못하	-8.80652
단	-8.81467
상태변화	-8.834
거대	-8.86266
빠지	-8.87171
찾	-8.87299
모두	-8.8751
▁속	-8.8775
내	-8.87793
▁살	-8.88282
서	-8.90943
나타나	-8.91083
신	-8.91493
다는	-8.92878
는다	-8.93167
▁할	-8.9346
소	-8.9441
당하	-8.94893
도시	-8.95288
비	-8.95912
▁중	-8.96513
떠나	-8.9727
위한	-8.97374
마	-8.97662
차	-8.99769
▁찾	-8.999
간	-9.00325
안	-9.00711
후	-9.00782
시키	-9.01252
라고	-9.01369
죽음	-9.02072
가지	-9.02179
더	-9.03183
버리	-9.03836
아내	-9.03898
원	-9.04062
▁는다	-9.05424
듣	-9.05752
려는	-9.07201
아이	-9.07263
위협	-9.07306
서로	-9.07779
가장	-9.07924
비밀	-9.0794
삶	-9.08092
공격	-9.08094
지키	-9.0944
학교	-9.10784
지구	-9.10966
▁?	-9.10975
▁보	-9.11228
만들	-9.12316
JKB	-9.12672
크	-9.13168
▁두	-9.13517
▁다는	-9.14323
관	-9.14691
요원	-9.16314
상황	-9.16315
▁집	-9.16714
부	-9.17599
▁주	-9.18046
부터	-9.19326
이야기	-9.19355
면	-9.1942
다시	-9.1958
엄마	-9.2066
했	-9.20844
향하	-9.21167
우연히	-9.2159
▁후	-9.21826
결국	-9.22494
마지막	-9.23409
편	-9.23521
▁지구	-9.23852
무	-9.24024
▁명	-9.24375
새롭	-9.24805
그곳	-9.2501
생활	-9.26586
▁비밀	-9.27285
뿐	-9.27634
접속	-9.28118
인해	-9.28883
평화	-9.30062
임무	-9.30082
▁여	-9.30837
없이	-9.30869
▁대	-9.31122
맞서	-9.31367
▁다시	-9.31451
▁아이	-9.31537
위험	-9.31899
작전	-9.32126
길	-9.32249
타	-9.32591
세	-9.3261
갈	-9.32743
계획	-9.33054
순간	-9.33056
운명	-9.33066
살인	-9.3311
정	-9.33114
야	-9.33369
▁나	-9.33495
곳	-9.34248
온	-9.34307
채	-9.34428
▁라	-9.34883
동안	-9.35428
데	-9.35518
보내	-9.35723
앞	-9.36147
박	-9.36943
▁말	-9.37033
▁더	-9.37533
목	-9.37726
여자	-9.37852
로부터	-9.38079
모습	-9.38249
러	-9.38369
때문	-9.3841
딸	-9.38479
돌아가	-9.38785
▁했	-9.39087
점점	-9.39324
아서	-9.39386
다른	-9.39548
번	-9.40103
도움	-9.40428
아들	-9.40538
전설	-9.41568
불	-9.4195
NNP	-9.41959
드	-9.42135
숨	-9.42368
다고	-9.42549
로운	-9.42729
들어가	-9.43196
실	-9.43229
려	-9.43381
선	-9.4396
▁안	-9.43967
발	-9.44145
전쟁	-9.44301
누구	-9.4544
남	-9.45619
감	-9.45705
으며	-9.46084
싶	-9.4717
마침내	-9.4718
사라지	-9.47217
때	-9.47249
나서	-9.47872
진	-9.47981
님	-9.48822
ᄆ	-9.48935
과연	-9.49829
보다	-9.50237
눈	-9.50255
제	-9.50772
보이	-9.51156
대하	-9.51855
처럼	-9.51914
모르	-9.51956
물	-9.52152
살아남	-9.53178
▁죽	-9.53411
으로부터	-9.53445
힘	-9.53652
식	-9.53675
살아가	-9.53804
롭	-9.54341
밤	-9.55045
▁사	-9.55657
겠	-9.55686
느끼	-9.55686
행복	-9.55686
▁위험	-9.55862
같	-9.56215
하나	-9.56495
▁다른	-9.56626
▁오	-9.56937
왕국	-9.56984
그러	-9.57464
▁아들	-9.57712
존재	-9.57785
거	-9.58732
막	-9.58927
공주	-9.58935
MAG	-9.59192
사이	-9.59371
남편	-9.59648
도착	-9.59666
바	-9.59678
손	-9.59696
▁면	-9.59721
반	-9.59799
사실	-9.59904
▁딸	-9.59907
행성	-9.60298
카	-9.61177
걸	-9.61217
생	-9.61306
미국	-9.61953
이후	-9.62013
악당	-9.6225
꿈	-9.62714
죽이	-9.62889
미	-9.62927
파티	-9.62944
등	-9.63023
▁채	-9.63402
뒤	-9.63917
이상	-9.63972
능력	-9.64107
조직	-9.64316
니	-9.64394
▁내	-9.64838
잃	-9.64841
괴물	-9.65006
팀	-9.65604
우주	-9.6561
▁차	-9.65677
아야	-9.65991
심	-9.66172
▁신	-9.66634
▁같	-9.66803
피	-9.67084
부모	-9.67133
벌이	-9.67578
공	-9.67769
어머니	-9.67822
발생	-9.67856
정체	-9.67899
해야	-9.68076
▁힘	-9.68357
유	-9.68452
▁전쟁	-9.68471
▁앞	-9.68493
력	-9.68726
엄청난	-9.69266
아빠	-9.69289
조	-9.69651
탈출	-9.70208
▁사이	-9.7071
인류	-9.71018
▁존재	-9.71189
급	-9.71455
사고	-9.71858
터	-9.71861
최고	-9.71884
▁사실	-9.71887
겪	-9.72218
갑자기	-9.72219
소녀	-9.72588
과거	-9.72657
히	-9.73535
혼란	-9.73728
마음	-9.74041
개	-9.74043
찾아오	-9.74491
이제	-9.74623
돌아오	-9.7526
새	-9.75303
제안	-9.75345
▁온	-9.75632
▁하나	-9.75696
▁꿈	-9.76238
▁이상	-9.76312
숲	-9.76816
방법	-9.76826
▁잃	-9.7692
신비	-9.76974
트	-9.77343
존	-9.77808
동생	-9.7825
뉴욕	-9.78309
미션	-9.78402
어둠	-9.78408
대한	-9.78944
인생	-9.78995
아니	-9.79302
든	-9.79461
▁1	-9.7994
결혼	-9.80004
제이슨	-9.80007
소년	-9.80129
위	-9.8048
건	-9.80618
포	-9.80812
살해	-9.80851
둘	-9.80869
벌어지	-9.81637
평범	-9.81637
결심	-9.81639
계속	-9.81718
경찰	-9.81723
▁조직	-9.8181
동	-9.82051
의문	-9.82293
▁뒤	-9.82597
▁미국	-9.82862
어리	-9.83064
째	-9.83202
준비	-9.83329
▁그러	-9.83455
첫	-9.83458
키	-9.83628
구	-9.83701
나가	-9.83739
▁인류	-9.8386
▁최고	-9.8386
달	-9.83959
돈	-9.8443
게임	-9.84453
▁번	-9.84728
부정	-9.85001
로봇	-9.85083
▁남	-9.85095
화	-9.85128
▁세	-9.8527
란	-9.85498
▁과거	-9.85518
인가	-9.85559
▁막	-9.85798
꿈꾸	-9.85852
군	-9.86005
마법	-9.8617
▁등	-9.86591
▁2	-9.86621
충격	-9.86701
벗어나	-9.86701
스럽	-9.86704
납치	-9.8712
복수	-9.87131
▁소녀	-9.8716
▁이제	-9.87347
대결	-9.87611
파	-9.87686
처하	-9.87772
몸	-9.87963
범죄	-9.88035
▁탈출	-9.88138
일어나	-9.88448
처음	-9.88454
우	-9.88676
어야	-9.88912
기다리	-9.8947
▁스	-9.89544
또	-9.89825
▁밤	-9.89929
되찾	-9.90177
떠난다	-9.90554
:	-9.91126
▁뉴욕	-9.91227
▁대한	-9.91572
▁능력	-9.91656
믿	-9.91829
어떤	-9.92041
려고	-9.92069
가진	-9.92094
▁서	-9.92095
다가	-9.92138
일행	-9.92156
왕	-9.92621
일상	-9.92784
▁곳	-9.92867
▁타	-9.93064
끝	-9.93495
VCN	-9.93793
영화	-9.93796
모	-9.93871
기억	-9.94791
싸우	-9.94816
소식	-9.94872
▁무	-9.95096
숨기	-9.95096
쓰	-9.95647
가운데	-9.95757
몬스터	-9.95757
모험	-9.95782
였	-9.9579
마저	-9.95791
그런데	-9.95792
형사	-9.95905
계	-9.9599
체	-9.9613
빠진다	-9.96135
배	-9.96306
▁시	-9.96436
▁존	-9.96601
▁떠나	-9.96692
의해	-9.97045
▁려	-9.97255
▁게임	-9.9743
▁둘	-9.97553
▁치	-9.9761
마이클	-9.97671
시절	-9.97696
열	-9.97698
여행	-9.97774
섬	-9.97859
향한다	-9.9788
▁마음	-9.98023
▁3	-9.98111
▁VCN	-9.98733
공포	-9.98838
▁불	-9.98855
호	-9.98922
성공	-9.99099
▁팀	-9.99141
뱀파이어	-9.99622
습격	-9.99622
찾아가	-9.99627
살인마	-9.99758
▁또	-10.0025
▁살인	-10.003
전사	-10.0056
▁4	-10.0102
▁단	-10.0118
떨어지	-10.0161
깨닫	-10.0161
▁비	-10.0174
분노	-10.0174
여정	-10.018
르	-10.0201
목숨	-10.0201
줄	-10.0251
▁사고	-10.0258
▁맞서	-10.0301
▁복수	-10.0309
본	-10.0315
여인	-10.0331
▁가진	-10.0334
현실	-10.0364
잠시	-10.0371
미래	-10.0416
▁마	-10.0423
방	-10.044
주인	-10.0449
표현	-10.0467
요정	-10.0468
초	-10.0486
▁시간	-10.0493
종	-10.0504
역시	-10.0572
작	-10.0584
티	-10.0587
▁데	-10.0626
생존	-10.0632
▁보내	-10.0664
학	-10.0685
변하	-10.0701
잡	-10.0702
▁바	-10.0707
버	-10.0751
네	-10.0753
영혼	-10.0783
현장	-10.0784
가능	-10.0814
론	-10.0828
입	-10.0848
못한	-10.085
▁돈	-10.0852
▁기억	-10.089
▁의해	-10.0901
통하	-10.0926
▁’(	-10.093
재	-10.0936
▁납치	-10.0943
I	-10.095
▁손	-10.0963
▁개	-10.0966
유일	-10.0981
소리	-10.0984
외	-10.0989
▁다가	-10.0993
따르	-10.1
▁야	-10.1001
진실	-10.1004
▁끝	-10.1012
왕자	-10.1053
쫓기	-10.1068
▁피	-10.1078
얻	-10.1094
격	-10.1184
거리	-10.1216
▁소년	-10.1218
선택	-10.122
부부	-10.1229
저주	-10.1233
단서	-10.1238
수행	-10.1249
인형	-10.1268
▁정체	-10.1318
▁모험	-10.1323
태어나	-10.1333
바로	-10.1343
▁목숨	-10.1403
친	-10.1449
명령	-10.1449
미스터리	-10.145
제거	-10.1453
즐기	-10.1455
나선다	-10.1461
형	-10.1462
▁때	-10.1488
국	-10.1529
훔치	-10.1561
▁달	-10.1566
▁길	-10.1582
▁공포	-10.1645
▁성공	-10.1655
▁범죄	-10.1672
▁영화	-10.1678
무엇	-10.1678
악마	-10.1683
세력	-10.1687
맨	-10.1689
강력	-10.1696
범인	-10.1704
나라	-10.1712
대신	-10.1714
▁미래	-10.1736
▁믿	-10.1806
행	-10.1815
어디	-10.182
스러운	-10.1914
아름다운	-10.1914
예상	-10.1916
매일	-10.1922
▁제	-10.194
잭	-10.1947
생각	-10.1949
요	-10.1967
ᄂ	-10.1989
위해서	-10.2029
밝히	-10.2035
버린	-10.2044
어린	-10.2051
▁못한	-10.2052
품	-10.2064
될	-10.207
▁몸	-10.2074
▁여행	-10.2075
▁였	-10.2138
담	-10.214
출신	-10.2157
최악	-10.2158
맞	-10.2167
범	-10.2167
그것	-10.2172
총	-10.2179
▁건	-10.2191
파괴	-10.2205
연	-10.221
자리	-10.222
지니	-10.2277
▁왕	-10.2281
▁눈	-10.2287
▁얻	-10.2298
책	-10.2325
질	-10.2326
밖	-10.2328
▁우주	-10.2331
동료	-10.2337
병	-10.2356
린	-10.236
코	-10.2377
낯선	-10.2405
알렉스	-10.2407
마녀	-10.2407
마법사	-10.2429
▁유일	-10.243
▁간	-10.2472
하루	-10.2496
▁’.	-10.2533
▁바로	-10.2541
도록	-10.255
▁반	-10.2579
피하	-10.2593
외계	-10.2597
통해	-10.2607
▁경찰	-10.2614
런	-10.265
찰리	-10.2661
진짜	-10.2661
최강	-10.2661
상태	-10.2661
부르	-10.2663
우주선	-10.2669
생존자	-10.2698
알리	-10.2717
금	-10.2738
관계	-10.274
히어로	-10.2742
을까	-10.275
▁잡	-10.2801
▁음	-10.2818
학생	-10.2822
▁러	-10.2823
시대	-10.2829
▁첫	-10.2875
큰	-10.2881
나오	-10.289
공간	-10.2918
▁결혼	-10.292
부탁	-10.2921
저택	-10.2921
엄청나	-10.2921
혼자	-10.2922
지내	-10.2922
환상	-10.2922
군단	-10.2929
직	-10.2958
만난다	-10.3
쫓	-10.3001
용	-10.3012
달리	-10.3017
젊	-10.3021
▁섬	-10.3023
MM	-10.3027
JKC	-10.3032
간다	-10.3129
▁잭	-10.3146
애	-10.3165
▁될	-10.3192
전직	-10.3208
회	-10.321
고향	-10.3221
▁어린	-10.3247
즈	-10.3255
▁생각	-10.3288
▁강력	-10.3294
함	-10.3302
정부	-10.3331
까	-10.3357
스타	-10.3413
멀	-10.3429
빌	-10.3431
귀	-10.3435
풀	-10.3451
생명	-10.3452
박사	-10.3464
갇히	-10.3466
매력	-10.3468
용의자	-10.3469
맥스	-10.347
일당	-10.3476
저	-10.3488
이끄	-10.3507
외계인	-10.3508
만든	-10.3508
지나	-10.3541
토	-10.3567
갖	-10.3588
보호	-10.3606
할머니	-10.3607
음모	-10.3608
에게서	-10.3625
어서	-10.3643
도중	-10.3664
▁카	-10.3681
많	-10.3703
의하	-10.3715
난	-10.3717
▁조	-10.3721
돕	-10.3749
누군가	-10.375
숨겨진	-10.375
생명체	-10.3752
나누	-10.3752
키우	-10.3753
정체불명	-10.3753
사투	-10.3756
조차	-10.3763
런던	-10.3778
연인	-10.3782
▁맞	-10.3786
▁통해	-10.3797
▁동료	-10.3825
든다	-10.3828
▁파괴	-10.383
대전	-10.3841
천	-10.3859
영	-10.3875
먹	-10.3877
매	-10.3887
이끌	-10.3902
슈퍼	-10.3911
끔찍	-10.3911
테러	-10.3912
과정	-10.3925
통	-10.3925
▁6	-10.3944
▁히어로	-10.3944
▁을까	-10.3954
▁위	-10.3957
▁소	-10.399
느	-10.4006
프랭크	-10.4041
쓸	-10.4041
앤디	-10.4042
청년	-10.4044
작품	-10.4045
토니	-10.4046
최후	-10.4048
불명	-10.4049
거나	-10.4065
특별	-10.4067
내리	-10.4071
추적	-10.4071
임	-10.4079
바다	-10.4086
판	-10.4086
무기	-10.4097
▁버린	-10.4104
민	-10.4109
설	-10.4123
▁쫓	-10.413
놓	-10.4145
하늘	-10.4146
뜨	-10.4191
넣	-10.4191
아름답	-10.4191
따라	-10.4209
비행	-10.4211
만난	-10.4225
엔	-10.4225
레	-10.4237
정신	-10.4245
예	-10.4258
▁리	-10.428
노	-10.4291
▁거	-10.4293
모이	-10.4307
독	-10.4329
▁입	-10.433
▁았	-10.4341
악몽	-10.4342
스스로	-10.4342
무사히	-10.4342
종족	-10.4343
탄생	-10.4345
도망치	-10.4345
사악	-10.4349
사회	-10.4355
실수	-10.4356
다가오	-10.4368
비행기	-10.438
▁큰	-10.4389
▁줄	-10.4392
▁포	-10.4396
점	-10.4399
해서	-10.4411
노리	-10.4412
▁관계	-10.4496
신부	-10.4519
마약	-10.455
쳐	-10.4612
져	-10.4618
펼쳐지	-10.4652
멤버	-10.4652
액션	-10.4652
제임스	-10.4652
할로윈	-10.4652
접근	-10.4652
황제	-10.4653
▁많	-10.4654
점차	-10.4654
상처	-10.4655
교수	-10.4657
군대	-10.4666
▁부	-10.4684
오르	-10.4693
미아	-10.4698
잠	-10.4699
B	-10.4701
왔	-10.4721
절대	-10.4724
루	-10.4727
남기	-10.4739
한다는	-10.4739
유럽	-10.4811
호텔	-10.4812
▁음모	-10.4812
지옥	-10.4816
세우	-10.4817
넘치	-10.4817
고자	-10.4821
장군	-10.4833
최	-10.4837
곧	-10.4887
자기	-10.4937
▁파	-10.4962
스톤	-10.4968
K	-10.4972
주인공	-10.4972
"	-10.4972
서서히	-10.4972
에드워드	-10.4972
놀라운	-10.4972
모으	-10.4973
구출	-10.4973
▁10	-10.4974
구할	-10.4975
노력	-10.4976
고양이	-10.4976
▁박사	-10.4983
나타난다	-10.5013
선수	-10.5015
▁미	-10.5017
▁마법	-10.5031
족	-10.5044
전투	-10.5054
3	-10.5061
▁니	-10.5092
▁슈퍼	-10.511
▁끔찍	-10.5117
게다가	-10.5131
디	-10.5147
수사	-10.515
▁젊	-10.5162
앞두	-10.5163
경	-10.5177
월	-10.5211
법	-10.5215
색	-10.522
피터	-10.5223
▁걸	-10.5231
사냥	-10.5233
훈련	-10.5236
▁발	-10.5247
증	-10.5253
▁특별	-10.5274
▁호	-10.5275
울	-10.5277
프	-10.5282
▁테러	-10.5284
▁아니	-10.5301
멸망	-10.5303
어떻게	-10.5303
클럽	-10.5303
킬러	-10.5303
무자비	-10.5305
아침	-10.5324
지역	-10.534
▁만난	-10.5357
0	-10.5379
칼	-10.5403
영웅	-10.5413
더욱	-10.5413
기계	-10.542
자유	-10.5426
부대	-10.5433
▁화	-10.5468
일으키	-10.5472
▁갖	-10.5475
레이	-10.5492
이미	-10.5492
▁든	-10.5515
다르	-10.5519
▁-	-10.5529
검	-10.5562
씩	-10.5597
권	-10.5599
마주	-10.5605
등장	-10.5606
▁무기	-10.5627
두려움	-10.5645
브루스	-10.5645
호기심	-10.5645
변신	-10.5646
약속	-10.5651
보낸다	-10.5669
▁형	-10.5671
수많	-10.5683
▁배	-10.5705
집단	-10.5708
에릭	-10.5716
참	-10.5726
▁엔	-10.5752
라도	-10.5779
▁빌	-10.5781
들리	-10.58
상상	-10.58
머	-10.5805
수록	-10.5811
깨어나	-10.582
▁7	-10.5822
마주치	-10.5832
걸리	-10.5834
열리	-10.5839
조사	-10.5856
베	-10.5951
▁먹	-10.5955
짓	-10.5957
영국	-10.5964
동물	-10.5967
유령	-10.5968
회사	-10.5969
쇼	-10.5974
▁바다	-10.5982
다음	-10.5996
공룡	-10.5999
나루토	-10.5999
연쇄	-10.5999
현재	-10.5999
요구	-10.6
보안관	-10.6
▁작	-10.6001
물론	-10.6002
시티	-10.6009
로서	-10.602
마치	-10.603
▁간다	-10.6046
술	-10.6052
생기	-10.6061
그날	-10.6078
▁밖	-10.608
▁곧	-10.609
못	-10.6094
릴	-10.6097
▁5	-10.611
▁추적	-10.6148
쪽	-10.6154
꾼	-10.6155
팔	-10.6155
빠진	-10.6156
교	-10.6159
완벽	-10.616
짝	-10.6164
견	-10.6169
남매	-10.6187
▁정부	-10.62
투	-10.6255
▁본	-10.6258
역	-10.6288
이브	-10.629
피해	-10.6291
▁크	-10.6296
▁키	-10.63
▁함	-10.6304
N	-10.6311
이번	-10.6317
인물	-10.6318
또한	-10.6329
삼	-10.6342
대로	-10.6345
빠져	-10.6347
땅	-10.635
깨	-10.6352
그리	-10.6353
희망	-10.6357
바꾸	-10.6365
잇	-10.6366
W	-10.6366
가까스로	-10.6366
대통령	-10.6366
드러내	-10.6366
합류	-10.6366
얼굴	-10.6366
정글	-10.6366
박물관	-10.6366
▁숨	-10.6367
고등학교	-10.6367
비롯	-10.6367
갈등	-10.6368
잭슨	-10.6369
동시	-10.637
퍼지	-10.6371
우정	-10.6372
참여	-10.6377
끝내	-10.6383
곳곳	-10.6385
여러	-10.6399
보안	-10.64
과학자	-10.6407
존스	-10.6408
▁드	-10.6409
아직	-10.6409
용기	-10.642
워	-10.6429
▁피터	-10.6444
인지	-10.6485
▁새	-10.6526
지하	-10.6533
듯	-10.6534
싸	-10.654
허	-10.6545
▁놓	-10.6546
맡	-10.6548
싸움	-10.655
대학	-10.6557
시달리	-10.6563
지금	-10.6569
해리	-10.6587
작가	-10.6597
망	-10.6602
▁더욱	-10.6621
할아버지	-10.6653
▁자리	-10.6692
▁해서	-10.67
▁정신	-10.6702
올	-10.6711
악	-10.6713
▁재	-10.6725
라이언	-10.6746
걷	-10.6746
테러리스트	-10.6747
드디어	-10.6747
요청	-10.6747
록키	-10.6747
악령	-10.6748
연구	-10.6755
크리스마스	-10.676
좋	-10.676
마크	-10.6771
사막	-10.6774
초대	-10.6781
▁나가	-10.6796
차지	-10.68
찾아내	-10.68
호수	-10.681
▁영웅	-10.6815
전문가	-10.6836
인방	-10.684
무장	-10.6848
▁마약	-10.6852
이나	-10.6877
몰	-10.693
▁이미	-10.6948
형제	-10.6971
별	-10.6977
전문	-10.6987
이용	-10.702
▁레이	-10.7029
부자	-10.7032
▁책	-10.7042
이런	-10.7058
▁절대	-10.706
세기	-10.7071
모를	-10.7074
▁주인	-10.7079
▁스타	-10.7086
클	-10.711
▁네	-10.7133
됐	-10.7143
마이크	-10.7143
케빈	-10.7143
노래	-10.7144
국제	-10.7144
레드	-10.7145
환자	-10.7146
돌아온	-10.7149
제이미	-10.715
불구	-10.7155
대회	-10.7158
탄	-10.7164
떠난	-10.7177
목격	-10.7178
부상	-10.7179
국가	-10.7179
쏘	-10.718
경험	-10.7181
찾아온다	-10.7182
병원	-10.7183
어릴	-10.7186
잔인	-10.7188
구해	-10.7188
▁마주	-10.719
대원	-10.7191
기운	-10.7192
▁씩	-10.7199
해결	-10.72
이사	-10.7201
당	-10.7202
츠	-10.7203
사상	-10.7207
▁등장	-10.721
위장	-10.721
이루	-10.7221
전부	-10.7225
강한	-10.7232
▁버	-10.7256
각	-10.7266
극	-10.7289
▁보호	-10.7291
▁빠진	-10.7293
▁노리	-10.7308
너	-10.7325
폭탄	-10.7347
충돌	-10.7347
지능	-10.7364
무리	-10.7374
배우	-10.7379
변	-10.7399
그런	-10.7412
처	-10.745
▁하루	-10.7468
강	-10.7483
미지	-10.7485
P	-10.749
슨	-10.7526
평생	-10.7551
▁따라	-10.7551
▁UN	-10.7554
배트맨	-10.7555
베이비	-10.7555
프레디	-10.7555
절친	-10.7556
순식간	-10.7556
자동차	-10.7556
▁전투	-10.7557
용병	-10.7558
오른다	-10.7558
파커	-10.7558
제이크	-10.7559
토미	-10.756
악명	-10.7566
▁완벽	-10.7573
해당	-10.758
▁원	-10.7582
긴	-10.7597
깊	-10.7598
과학	-10.761
▁달리	-10.7615
옛	-10.7615
▁초	-10.7616
추격	-10.7618
군인	-10.7621
e	-10.7635
▁훈련	-10.7639
최대	-10.7642
상대	-10.7645
청	-10.765
▁생	-10.7675
류	-10.7678
▁계	-10.7678
▁듯	-10.7682
지목	-10.7718
▁풀	-10.7753
바뀌	-10.7763
고민	-10.7771
▁지금	-10.7772
▁희망	-10.7779
▁유령	-10.7797
▁상상	-10.7814
데리	-10.7817
휴가	-10.7835
▁빠져	-10.7842
▁사냥	-10.7843
결	-10.7854
전하	-10.7859
마다	-10.7895
여기	-10.7915
마리	-10.7939
▁영국	-10.7946
▁좋	-10.7969
브라이언	-10.7977
놓이	-10.7979
살아간다	-10.7985
급기야	-10.7985
프로젝트	-10.7985
스티브	-10.7986
녀석	-10.7986
A	-10.7986
교도소	-10.7986
머리	-10.7989
거절	-10.7989
파워	-10.7989
사태	-10.799
각자	-10.7992
선물	-10.7994
명예	-10.7994
이곳	-10.7998
여성	-10.8
시킨다	-10.8009
메	-10.8012
▁생존	-10.8017
없애	-10.802
은퇴	-10.804
벌	-10.8041
지도	-10.8063
먼	-10.8067
▁자유	-10.807
닉	-10.807
당한	-10.8078
샘	-10.808
볼	-10.8088
사진	-10.8094
기회	-10.8096
다니	-10.8106
▁트	-10.8123
▁진	-10.8158
▁크리스마스	-10.8192
구역	-10.8208
▁이용	-10.8212
백	-10.8235
빛	-10.8297
▁떠난	-10.8313
현상	-10.8317
감옥	-10.8318
가문	-10.8318
뜻	-10.8321
통제	-10.8322
정보	-10.8323
▁검	-10.8323
절	-10.8339
▁못	-10.8352
▁돌아온	-10.8359
a	-10.8361
▁맡	-10.8374
▁구해	-10.8384
맞이	-10.8384
▁꾼	-10.8399
씨	-10.8404
테	-10.8428
몰래	-10.843
▁초대	-10.8432
▁특수	-10.8433
곁	-10.8435
수수께끼	-10.8435
앨리스	-10.8435
강아지	-10.8435
낯설	-10.8435
폐허	-10.8435
필요	-10.8435
꼬마	-10.8435
외모	-10.8436
직접	-10.8436
ᄇ니	-10.8436
스미스	-10.8436
손오공	-10.8437
목소리	-10.8437
심바	-10.8437
못했	-10.8445
화려	-10.8447
사용	-10.845
달러	-10.8452
나간다	-10.8476
ᄂ다	-10.8522
▁깊	-10.8523
쥐	-10.8551
▁티	-10.8554
오랜	-10.856
같이	-10.8573
▁맨	-10.8597
▁그런	-10.8614
▁잔인	-10.8623
“	-10.8668
”	-10.8668
드러나	-10.8668
움직이	-10.8668
▁해리	-10.8668
NO	-10.8668
열차	-10.8681
▁열	-10.8689
의식	-10.8699
▁이사	-10.8717
약	-10.8732
톰	-10.8768
준	-10.8775
리더	-10.8776
칸	-10.8806
사라진	-10.8807
폴	-10.8808
실험	-10.8809
쉬	-10.8809
개발	-10.8809
자라	-10.882
잔	-10.8856
▁경험	-10.8857
▁병원	-10.8861
윌	-10.8881
갔	-10.8895
바이러스	-10.8906
신데렐라	-10.8906
아프리카	-10.8906
패밀리	-10.8906
고군분투	-10.8906
우여곡절	-10.8906
빠르	-10.8906
토마스	-10.8906
침공	-10.8906
운영	-10.8907
흑인	-10.8909
투입	-10.8909
장악	-10.8911
대령	-10.8911
온갖	-10.8916
오직	-10.8921
지상	-10.8922
결성	-10.8928
피할	-10.894
▁소리	-10.8941
커	-10.8964
▁피해	-10.9024
라며	-10.9029
▁상	-10.9041
▁임	-10.9045
▁저	-10.9052
암살	-10.9062
이집트	-10.9062
빌리	-10.9068
바람	-10.9069
벤	-10.9072
포기	-10.9072
로버트	-10.9073
전화	-10.9075
▁최대	-10.9087
▁해결	-10.9119
늘	-10.9121
난다	-10.914
차별	-10.9158
고통	-10.9159
▁땅	-10.9164
해진	-10.9173
척	-10.92
▁방	-10.9216
고등	-10.9239
▁선	-10.924
▁왔	-10.9268
▁당한	-10.9272
▁애	-10.9288
▁닉	-10.929
프리	-10.9297
높	-10.9306
반지	-10.9324
실종	-10.933
부활	-10.933
러시아	-10.933
행동	-10.9331
▁수사	-10.9332
시체	-10.9334
기술	-10.9338
▁무리	-10.9346
지배	-10.9349
침	-10.9359
대해	-10.9371
이르	-10.9372
홀	-10.9386
뜨거운	-10.94
캡틴	-10.94
돌아갈	-10.94
쉽	-10.94
아파트	-10.94
휘말리	-10.94
놀랍	-10.94
닥터	-10.94
활동	-10.94
변화	-10.94
친다	-10.94
커플	-10.94
감독	-10.9401
정예	-10.9401
재능	-10.9401
도둑	-10.9401
잠입	-10.9404
부족	-10.9405
▁여성	-10.9406
예수	-10.9408
시민	-10.941
본부	-10.9415
거부	-10.9419
유지	-10.942
일삼	-10.9421
가정	-10.9429
사자	-10.9432
주위	-10.9436
▁법	-10.9441
출	-10.9462
무대	-10.9467
재산	-10.9468
만남	-10.951
알아내	-10.9513
록	-10.9516
착	-10.9522
대상	-10.9537
돌	-10.9542
▁목격	-10.955
성장	-10.9568
V	-10.9573
고대	-10.9578
온다	-10.9583
찍	-10.9585
웃	-10.9598
파트너	-10.96
광	-10.9606
관리	-10.9606
대니	-10.9609
▁형제	-10.9621
패	-10.9626
▁코	-10.9633
얼	-10.9639
꽃	-10.965
놈	-10.9656
받아들이	-10.9656
상어	-10.9663
선생	-10.9665
▁쇼	-10.9671
▁동물	-10.9692
언	-10.9785
▁감옥	-10.979
▁샘	-10.9806
▁기회	-10.9819
짐	-10.982
▁사상	-10.9822
겨	-10.9834
▁상대	-10.9837
▁모	-10.9841
십	-10.9853
▁맞이	-10.9855
살아나	-10.9865
▁쏘	-10.987
치료	-10.9876
의심	-10.988
문제	-10.9882
승	-10.9888
아기	-10.9891
블	-10.9911
12	-10.9915
쌍둥이	-10.9919
잔혹	-10.9919
텍사스	-10.9919
여전히	-10.9919
슈렉	-10.9919
예측	-10.9919
멋진	-10.9919
욕망	-10.9919
빈센트	-10.9919
무시무시	-10.9919
리플리	-10.992
파헤치	-10.992
평소	-10.992
머물	-10.992
물리치	-10.9921
영원히	-10.9922
찾아간다	-10.9922
앞둔	-10.9923
파견	-10.9923
재회	-10.9924
위험천만	-10.9924
조금	-10.9926
사이먼	-10.9927
루크	-10.9927
장난	-10.9927
▁이곳	-10.9927
전혀	-10.9937
대형	-10.9943
죄수	-10.9943
▁사라진	-10.9945
키스	-10.9947
중요	-10.9948
이유	-10.995
운	-10.9955
도전	-10.9957
아무	-10.9958
방해	-10.9959
위대	-10.9963
소속	-10.9965
성격	-10.9966
▁폴	-10.9969
▁총	-10.997
와중	-11
▁톰	-11.0025
강하	-11.0032
대가	-11.0045
데이	-11.0057
야수	-11.0059
락	-11.006
▁윌	-11.009
분위기	-11.0102
찬	-11.0152
멕시코	-11.0163
관심	-11.0164
잘	-11.0164
시골	-11.0164
죄	-11.0167
불리	-11.0173
홀로	-11.0173
인데	-11.018
▁싸움	-11.0182
▁투	-11.0182
아메리카	-11.0183
혀	-11.0185
핵	-11.0187
데려가	-11.0189
흐르	-11.019
꾸미	-11.019
감추	-11.019
▁터	-11.019
▁쓰	-11.0191
부인	-11.0213
밀	-11.0221
버린다	-11.0232
▁칼	-11.0234
브	-11.0243
케	-11.0244
기대	-11.0249
▁대로	-11.0253
▁최	-11.0257
힘들	-11.0264
▁높	-11.0273
끝나	-11.0281
▁로버트	-11.0285
▁난	-11.0287
마리아	-11.0324
▁통제	-11.0328
빈	-11.0376
▁마다	-11.0388
촌	-11.0412
▁대학	-11.0437
캐	-11.0441
몰리	-11.0457
실패	-11.0458
7	-11.0463
위치	-11.0464
합니다	-11.0467
맺	-11.0467
애니메이션	-11.0467
앨빈	-11.0467
오히려	-11.0467
유혹	-11.0467
폭파	-11.0467
프로그램	-11.0467
뛰어난	-11.0467
헌트	-11.0467
스콧	-11.0467
규모	-11.0467
따뜻	-11.0467
괴롭히	-11.0467
잃어버린	-11.0467
혼돈	-11.0467
완전히	-11.0467
동굴	-11.0468
시킬	-11.0468
본능	-11.0469
실체	-11.047
승리	-11.047
빅터	-11.047
후계자	-11.047
데이브	-11.0476
보스	-11.0476
방식	-11.0477
누나	-11.0477
반격	-11.0477
돌보	-11.0478
열정	-11.0479
너무나	-11.0482
자연	-11.0486
아래	-11.0495
▁롭	-11.0496
▁칸	-11.0496
느낀다	-11.0498
군사	-11.0498
▁회사	-11.0507
감지	-11.0511
전체	-11.052
기괴	-11.0525
▁월	-11.053
용의	-11.0534
선장	-11.0534
▁참	-11.0574
▁리더	-11.0583
한때	-11.0587
▁20	-11.06
층	-11.0602
▁귀	-11.0648
제인	-11.0672
▁잠	-11.0694
가난	-11.0698
렌	-11.0716
북	-11.0723
o	-11.0751
희생	-11.0752
준다	-11.0753
도사리	-11.0753
뜨겁	-11.0753
교도	-11.0758
진정	-11.0758
몇	-11.0759
▁프리	-11.0761
천재	-11.0761
역사	-11.0764
▁D	-11.0764
변해	-11.0764
불러	-11.0766
거래	-11.0767
은행	-11.0801
자살	-11.0804
편지	-11.081
▁먼	-11.0822
▁러시아	-11.0833
▁행동	-11.0833
기사	-11.0836
▁벤	-11.0845
버스	-11.0889
▁천	-11.0898
유명	-11.0949
석	-11.0967
낸	-11.0989
답	-11.101
사기	-11.1026
샤	-11.1028
탐정	-11.1037
랜드	-11.1038
쇠	-11.1045
▁거리	-11.1045
ᅥ	-11.1046
원숭이	-11.1047
도미닉	-11.1047
불시착	-11.1047
슬픔	-11.1047
아이언맨	-11.1047
알라딘	-11.1047
뮬란	-11.1047
루이스	-11.1047
저항군	-11.1047
스파이더맨	-11.1047
사라졌	-11.1047
들어오	-11.1048
재앙	-11.1049
당신	-11.1049
그림자	-11.1049
벌인다	-11.105
우디	-11.105
조건	-11.1054
진화	-11.1056
대항	-11.1056
왕위	-11.1061
카터	-11.1061
담시	-11.1061
단체	-11.1064
▁이유	-11.1065
벨	-11.1066
나타난	-11.1068
잊	-11.107
▁고대	-11.1071
오래	-11.1079
여동생	-11.1083
니스	-11.1084
직장	-11.1095
향해	-11.1101
▁외계	-11.1104
▁개발	-11.111
두목	-11.111
▁파트너	-11.1111
▁대니	-11.1114
▁시체	-11.1123
▁부활	-11.1128
▁대해	-11.1137
▁전화	-11.1152
▁오랜	-11.1153
원인	-11.1153
놀라	-11.1158
잠들	-11.1174
관한	-11.1178
철	-11.1183
암	-11.1183
인기	-11.1233
▁8	-11.1282
▁깨	-11.1302
따	-11.1304
순	-11.1326
녀	-11.1334
틀	-11.1336
▁폭발	-11.1343
▁물	-11.1347
멈추	-11.135
낳	-11.135
무너지	-11.135
▁LA	-11.135
주어지	-11.135
동원	-11.1352
▁삼	-11.1355
추	-11.1367
▁우	-11.1375
▁이집트	-11.1376
▁홀로	-11.1379
좀	-11.1385
바라	-11.1389
침입	-11.1389
사장	-11.1391
노예	-11.1393
스파이	-11.1394
하딘	-11.1395
호기	-11.14
여왕	-11.14
▁해진	-11.1401
수호	-11.1402
▁실종	-11.1407
▁아기	-11.1412
탈	-11.1415
의사	-11.142
매기	-11.1442
▁버린다	-11.1443
필	-11.1453
업	-11.1467
▁M	-11.148
▁악	-11.1526
데스	-11.1539
문명	-11.1558
비아	-11.1559
다며	-11.156
직원	-11.1568
▁베	-11.157
복	-11.1593
으로서	-11.1596
▁아무	-11.1617
레이스	-11.1618
래	-11.1621
꾸	-11.1626
옷	-11.1639
객	-11.1641
슬	-11.1641
으나	-11.1653
탐	-11.1653
연합	-11.1662
갇혀	-11.1662
떨어져	-11.1662
▁폭력	-11.1663
규칙	-11.1663
그렇게	-11.1663
낡	-11.1663
반드시	-11.1663
숀	-11.1663
습니다	-11.1663
아나스타샤	-11.1663
어드벤처	-11.1663
어벤져스	-11.1663
워싱턴	-11.1663
쿵푸	-11.1663
팅커벨	-11.1663
파일럿	-11.1663
무언가	-11.1663
탈취	-11.1663
찾아와	-11.1664
장난감	-11.1664
세운다	-11.1666
▁즈	-11.1666
예전	-11.1668
포함	-11.167
슈퍼맨	-11.167
단짝	-11.1672
결과	-11.1674
is	-11.1677
▁위치	-11.1677
주민	-11.1679
심장	-11.1682
치열	-11.1683
예기	-11.1683
테사	-11.1686
미치	-11.1692
일까	-11.1699
사업	-11.1715
▁데이	-11.1715
차원	-11.1721
속도	-11.1734
생일	-11.1734
엘	-11.1734
▁마리	-11.1741
감정	-11.1753
당한다	-11.177
일본	-11.1774
지대	-11.1776
이혼	-11.1784
소원	-11.1788
▁족	-11.1801
거인	-11.1848
▁다니	-11.1871
▁직	-11.1886
▁문제	-11.1889
물리	-11.1933
괴	-11.195
혈	-11.1967
▁변해	-11.1974
▁몇	-11.1975
해진다	-11.1975
환영	-11.1985
▁실패	-11.1997
지켜보	-11.1998
학자	-11.1998
▁멕시코	-11.2016
▁시골	-11.2017
장면	-11.2019
▁레	-11.2025
▁부인	-11.2034
▁짐	-11.2035
다루	-11.2056
밝혀	-11.207
그때	-11.2072
크리스	-11.2073
반대	-11.2076
방문	-11.2076
목적	-11.209
그린	-11.209
치명	-11.2091
▁성장	-11.2094
6	-11.2097
살리	-11.2101
▁부대	-11.2109
이때	-11.2126
창	-11.2137
사망	-11.2152
으려는	-11.2154
▁품	-11.2155
뇌	-11.2155
부하	-11.2168
▁나타난	-11.2211
접	-11.2232
반하	-11.2249
▁군	-11.225
▁인기	-11.2265
힌	-11.2272
▁향해	-11.2291
항	-11.2294
9	-11.2302
나이	-11.2302
욕	-11.2307
▁역사	-11.231
▁천재	-11.2311
풍	-11.2312
갈수록	-11.2316
갱	-11.2317
딴	-11.2318
축구	-11.2318
탐사	-11.2318
깨어난	-11.2318
벤자민	-11.2318
비디오	-11.2318
엘리자베스	-11.2318
컴퓨터	-11.2318
마이어스	-11.2318
무서운	-11.2319
근처	-11.2319
허락	-11.2319
복판	-11.2319
웬디	-11.232
크루즈	-11.232
삼촌	-11.232
노출	-11.232
어쩔	-11.232
외롭	-11.2321
저승	-11.2321
잘못	-11.2321
시드니	-11.2321
현상금	-11.2321
유물	-11.2322
무덤	-11.2323
엘리	-11.2326
누명	-11.2327
지하실	-11.2328
직감	-11.2328
초능력	-11.233
▁잘	-11.2332
▁보스	-11.2334
호크	-11.2335
막히	-11.2337
임신	-11.2338
그렉	-11.2343
전쟁터	-11.2347
화신	-11.2348
병사	-11.2348
케이지	-11.2351
돼지	-11.2355
팀원	-11.2361
▁지배	-11.2369
처한다	-11.2397
고립	-11.2412
▁준	-11.2413
우리	-11.2426
블랙	-11.2428
얼마	-11.2429
나무	-11.2446
▁정보	-11.2483
도심	-11.2497
▁노	-11.2498
자원	-11.2532
려던	-11.2557
5	-11.2565
▁스파이	-11.258
▁연구	-11.2613
▁불러	-11.2655
정의	-11.2659
퍼	-11.2662
휩싸이	-11.2663
운전	-11.2664
근무	-11.2664
교사	-11.2666
헤어지	-11.2669
▁은행	-11.2687
▁기술	-11.271
주장	-11.2721
▁도전	-11.2755
푸	-11.2775
묻	-11.2787
활약	-11.2794
프랑스	-11.2796
▁실험	-11.2798
참석	-11.2799
시켜	-11.2799
강도	-11.2801
향한	-11.2804
불안	-11.2804
▁나오	-11.2808
▁토	-11.2811
▁볼	-11.282
트리	-11.2824
라이	-11.2831
▁진정	-11.2839
쿠	-11.285
이기	-11.2933
▁여왕	-11.2972
▁당한다	-11.2977
폐	-11.298
▁지도	-11.2985
칠	-11.2992
표	-11.2998
탐험	-11.2999
황	-11.3003
▁디	-11.301
팅	-11.3011
학살	-11.3017
i	-11.3017
핀	-11.3017
켄	-11.3018
옆	-11.3019
d	-11.302
스피릿	-11.302
캐릭터	-11.302
펭귄	-11.302
가까운	-11.302
걱정	-11.3021
넘어가	-11.3021
주식회사	-11.3021
헤매	-11.3021
점령	-11.3021
ys	-11.3021
▁MI	-11.3021
오랫동안	-11.3021
환생	-11.3021
트롤	-11.3021
수용소	-11.3022
크리드	-11.3022
회복	-11.3022
크리스탈	-11.3022
케이트	-11.3022
저지르	-11.3022
감행	-11.3023
항상	-11.3023
거칠	-11.3023
열쇠	-11.3023
파이터	-11.3024
필사	-11.3024
소동	-11.3025
초월	-11.3026
천국	-11.3026
종말	-11.3026
배경	-11.3027
순수	-11.3027
재난	-11.3027
하루하루	-11.3027
유전	-11.3028
잡히	-11.3029
▁관심	-11.3029
물건	-11.303
막강	-11.303
반란	-11.3031
지킬	-11.3032
사촌	-11.3032
제국	-11.3033
엘라	-11.3034
국장	-11.3035
함정	-11.3038
조니	-11.3038
rea	-11.3039
스타크	-11.3041
코치	-11.3047
추격전	-11.3047
배후	-11.3048
눈앞	-11.3048
옛날	-11.305
빼앗기	-11.3051
불길	-11.3056
▁올	-11.3061
▁생명	-11.3062
일생	-11.3064
대화	-11.3064
▁치료	-11.3072
▁JK	-11.3077
자매	-11.308
하우스	-11.3087
중심	-11.3088
▁늘	-11.3109
▁척	-11.3121
시도	-11.3122
▁학생	-11.3136
파리	-11.3164
일원	-11.3173
폭풍	-11.3177
겁	-11.3177
넘	-11.3178
졸업	-11.318
만드	-11.3182
배신	-11.3184
결혼식	-11.3188
▁지하	-11.3188
처한	-11.3211
나갈	-11.3225
빼	-11.3237
▁옛	-11.3254
▁밝혀	-11.3271
▁크리스	-11.3279
거기	-11.3281
▁배우	-11.331
▁노예	-11.3311
▁감정	-11.3315
▁소원	-11.3334
▁일본	-11.335
▁오래	-11.3355
▁매	-11.3366
▁유명	-11.3368
다면	-11.3387
서커스	-11.3389
뚫	-11.339
읽	-11.3391
달아나	-11.3391
떠오르	-11.3391
nal	-11.3391
닥치	-11.3391
출전	-11.3395
박물	-11.3395
▁9	-11.3396
끌려가	-11.34
어울리	-11.3413
회장	-11.3429
이끌리	-11.3445
▁권	-11.3463
리스	-11.3478
▁탄	-11.3488
송	-11.3516
인공	-11.3534
내려	-11.3543
린다	-11.3544
플	-11.3549
곤	-11.3569
조종	-11.3569
음악	-11.3571
찾아온	-11.3578
경쟁	-11.3579
연락	-11.3581
떼	-11.3582
훔쳐	-11.3582
캣	-11.3582
너무	-11.3583
람보	-11.3583
털	-11.3586
주변	-11.3587
천만	-11.3597
알려	-11.3601
▁그린	-11.3616
참가	-11.3622
2	-11.3623
경고	-11.3624
전기	-11.3627
▁얼마	-11.3627
▁30	-11.3644
필드	-11.365
지속	-11.3654
구조	-11.3681
▁낸	-11.3683
n	-11.3697
▁좀	-11.3712
▁내리	-11.3719
환	-11.3721
▁버스	-11.3752
▁이루	-11.3759
헬	-11.3763
책임	-11.3764
슈	-11.3766
낮	-11.377
▁런	-11.3771
밴드	-11.3773
강렬	-11.3775
마커스	-11.3775
맥클레인	-11.3775
베테랑	-11.3775
시스템	-11.3775
엉뚱	-11.3775
펠	-11.3775
포켓몬	-11.3775
피노키오	-11.3775
호그와트	-11.3775
히브리	-11.3775
라디오	-11.3775
스토리	-11.3775
어두운	-11.3775
홍콩	-11.3775
돌연변이	-11.3775
타일러	-11.3775
하워드	-11.3775
둘러싼	-11.3775
짜릿	-11.3775
돌아왔	-11.3775
뭐	-11.3775
헌터	-11.3775
험난	-11.3776
킹콩	-11.3776
디에고	-11.3776
승무원	-11.3776
얘기	-11.3776
크리스틴	-11.3776
평온	-11.3776
복제	-11.3776
유인원	-11.3776
언니	-11.3776
제니퍼	-11.3776
케이디	-11.3777
상징	-11.3777
토끼	-11.3777
라이벌	-11.3777
매니저	-11.3777
식당	-11.3777
타고난	-11.3777
서커스단	-11.3777
요새	-11.3777
변호사	-11.3778
독일군	-11.3778
일곱	-11.3778
당시	-11.3779
로리	-11.3779
선언	-11.3779
시리즈	-11.3779
공식	-11.3779
표적	-11.378
먼저	-11.378
역대	-11.378
실제로	-11.378
물체	-11.3781
봉인	-11.3782
마술	-11.3782
최초	-11.3782
버즈	-11.3782
케이시	-11.3783
대립	-11.3783
테드	-11.3784
존슨	-11.3784
제대로	-11.3786
소유	-11.3786
배달	-11.3788
직면	-11.379
이어지	-11.3791
살인범	-11.3791
집착	-11.3792
낸시	-11.3793
부유	-11.3795
멀리	-11.3795
스런	-11.3796
며칠	-11.3798
건물	-11.38
어도	-11.3802
긴장	-11.3803
착한	-11.3804
그리스도	-11.3807
왕비	-11.3817
▁불리	-11.3821
바치	-11.3822
수용	-11.3823
대위	-11.3825
믿음	-11.3828
지도자	-11.3845
제리	-11.3856
이끌려	-11.3883
리온	-11.3899
ᆯ지	-11.3913
지우	-11.3936
▁향한	-11.3942
극한	-11.3959
▁나이	-11.3959
▁가정	-11.3966
태	-11.3974
기이	-11.3985
자크	-11.3989
증거	-11.399
암호	-11.3995
외딴	-11.3995
신경	-11.3996
제작	-11.3998
맘	-11.3999
목표	-11.3999
캠프	-11.3999
▁엘리	-11.4
지켜	-11.4
황금	-11.4002
벨라	-11.4004
감시	-11.401
▁시켜	-11.4011
오해	-11.4024
▁블랙	-11.4044
이웃	-11.4047
▁정의	-11.4051
▁치명	-11.4067
근	-11.4092
수상	-11.41
다리	-11.4108
▁병	-11.4111
신문	-11.4114
▁사망	-11.4116
ᄅ	-11.4131
육	-11.414
굴	-11.416
평	-11.4165
덤	-11.4166
대륙	-11.417
맹	-11.4171
캠	-11.4175
줏	-11.4175
빚	-11.4175
데려오	-11.4175
곡절	-11.4175
가방	-11.4181
조각	-11.4181
▁자연	-11.4186
▁술	-11.4193
소개	-11.4195
▁시도	-11.4196
l	-11.4198
어른	-11.4203
분투	-11.4219
금지	-11.4224
자금	-11.4233
▁테	-11.424
소문	-11.4243
다짐	-11.4259
능	-11.4304
O	-11.4305
취	-11.4312
▁처한	-11.4327
y	-11.4335
친하	-11.435
기자	-11.4358
낼	-11.4372
▁뜻	-11.4376
▁파리	-11.4391
림	-11.4392
이러	-11.4407
콘	-11.4422
▁용	-11.4423
떠돌	-11.4423
쓴	-11.4423
콜	-11.4425
진행	-11.4429
생물	-11.443
▁참석	-11.4431
챔피언	-11.4431
추락	-11.4432
드래곤	-11.4433
▁추격	-11.4437
델	-11.4438
1	-11.4446
더그	-11.4455
▁우리	-11.4461
어인	-11.4494
턴	-11.4539
신세	-11.4543
▁잊	-11.4559
앙	-11.4564
▁브	-11.4569
모자	-11.4578
힐	-11.4582
쌍	-11.4586
청소	-11.459
s	-11.4591
패션	-11.4592
m	-11.4592
순식	-11.4592
뒤흔들	-11.4592
붕괴	-11.4592
샌프란시스코	-11.4592
스페인	-11.4592
웡	-11.4592
제이콥	-11.4592
초콜릿	-11.4592
프레데터	-11.4592
간신히	-11.4592
마피아	-11.4592
즐거운	-11.4592
커다란	-11.4592
즐겁	-11.4592
숨겨져	-11.4592
블루	-11.4593
육체	-11.4593
감춘	-11.4593
콤비	-11.4593
고등학생	-11.4593
공항	-11.4593
국경	-11.4593
처키	-11.4593
실비아	-11.4593
베일리	-11.4593
물려받	-11.4593
승부	-11.4594
꿈꾼다	-11.4594
레이싱	-11.4594
옆집	-11.4594
멋지	-11.4594
덤보	-11.4594
아수라장	-11.4594
발휘	-11.4594
베니스	-11.4595
얼음	-11.4595
압도	-11.4595
외로운	-11.4595
래리	-11.4595
공존	-11.4595
돌입	-11.4596
미녀	-11.4596
짝사랑	-11.4598
발각	-11.4599
데이트	-11.46
겁나	-11.4601
육지	-11.4602
도주	-11.4603
입학	-11.4604
불법	-11.4605
초유	-11.4606
미모	-11.4606
레나	-11.4606
조종사	-11.4607
시저	-11.461
거미	-11.461
동물원	-11.4612
영상	-11.4613
포드	-11.4616
자동	-11.4622
신호	-11.4623
칼라	-11.4623
여학생	-11.4623
힘든	-11.4625
놓치	-11.4627
전역	-11.4633
하얀	-11.4637
바비	-11.4646
들어간다	-11.4648
네오	-11.4651
타임	-11.4656
암살자	-11.4656
▁독	-11.4658
장치	-11.467
▁암살	-11.4686
주목	-11.4688
앤	-11.4688
이티	-11.4695
자체	-11.4699
주의	-11.47
사내	-11.4713
▁지나	-11.472
▁극	-11.4724
▁찾아온	-11.4727
릭	-11.473
터지	-11.4749
괴한	-11.4769
▁범	-11.4776
▁준다	-11.4783
▁너무	-11.4785
령	-11.4791
▁훔쳐	-11.4806
▁캣	-11.4806
▁람보	-11.4806
▁알려	-11.4808
범죄자	-11.4817
그저	-11.482
끌	-11.4822
도니	-11.4823
▁목적	-11.4825
원하	-11.4836
리암	-11.484
S	-11.4849
끊	-11.4854
▁방문	-11.4859
타이	-11.4862
소설	-11.4873
권력	-11.488
라면	-11.4881
떨어진	-11.4882
태어난	-11.4882
토르	-11.4882
연애	-11.4885
축제	-11.4886
결정	-11.4889
내용	-11.489
링	-11.4892
음식	-11.4896
▁여기	-11.4899
▁침입	-11.4908
인질	-11.4912
▁생일	-11.4916
모인	-11.4919
에디	-11.4942
골	-11.4951
▁로리	-11.4973
▁연	-11.4974
▁농장	-11.5002
덕	-11.5004
못한다	-11.5006
▁거래	-11.5007
미국인	-11.5009
낙	-11.5015
둘러싸	-11.5018
엄	-11.5021
탑	-11.5027
궁금	-11.5027
캘리포니아	-11.5027
겨울	-11.5027
환경	-11.5027
친절	-11.5028
빨리	-11.5028
기적	-11.5029
라이트	-11.5031
홀리	-11.5031
항해	-11.5031
건너	-11.5032
깨우	-11.5033
애쓰	-11.5033
조작	-11.504
두뇌	-11.504
유대	-11.504
▁관리	-11.5046
진다	-11.505
사귀	-11.5051
중국	-11.5063
▁팔	-11.5063
더니	-11.5077
t	-11.5082
막내	-11.5086
커지	-11.5092
밖에	-11.51
▁J	-11.5141
▁19	-11.516
▁지켜	-11.5181
▁쉬	-11.5182
▁별	-11.5196
포스	-11.5197
대장	-11.5219
▁온다	-11.5222
▁맘	-11.5223
▁캠프	-11.5223
▁괴	-11.5224
▁결혼식	-11.5227
▁담	-11.5234
▁강	-11.5248
▁떼	-11.5251
▁경고	-11.5253
▁주변	-11.5253
해안	-11.527
자비	-11.5299
둔	-11.531
뛰	-11.5344
펼쳐진다	-11.5362
처참	-11.5362
야생	-11.5363
내린	-11.5365
모세	-11.5365
회의	-11.5366
나선	-11.5374
갑	-11.5394
끼	-11.5398
▁벨	-11.5425
고용	-11.5426
로라	-11.5436
봐	-11.5474
페이스	-11.5474
버트	-11.5474
늦	-11.5475
▁캐	-11.5479
▁100	-11.5479
룸	-11.548
덴	-11.5481
컵	-11.5481
u	-11.5481
멜	-11.5481
거듭나	-11.5481
뉴요커	-11.5481
돔	-11.5481
디즈니	-11.5481
매트릭스	-11.5481
싣	-11.5481
아프가니스탄	-11.5481
에이전트	-11.5481
응징	-11.5481
이렇게	-11.5481
이윽고	-11.5481
캐서린	-11.5481
테일러	-11.5481
포르노	-11.5481
하룻밤	-11.5481
메시지	-11.5481
절체절명	-11.5481
피오나	-11.5481
람세스	-11.5481
할리우드	-11.5481
복싱	-11.5482
탐욕	-11.5482
은신처	-11.5482
캐스퍼	-11.5482
덩치	-11.5482
에리카	-11.5482
자존심	-11.5482
핵폭탄	-11.5482
교통사고	-11.5482
침투	-11.5482
으러	-11.5482
미셸	-11.5482
유능	-11.5482
파라오	-11.5482
울프	-11.5482
교회	-11.5482
행각	-11.5482
겨우	-11.5482
걷잡	-11.5482
아담스	-11.5482
운석	-11.5482
좋아하	-11.5483
출발	-11.5483
제우스	-11.5483
동행	-11.5484
소탕	-11.5484
모델	-11.5484
간호사	-11.5484
시험	-11.5484
새끼	-11.5484
연결	-11.5484
피에르	-11.5484
감금	-11.5484
처리	-11.5487
엘리트	-11.5488
니슨	-11.5488
알려진	-11.549
방학	-11.5491
면접	-11.5491
개월	-11.5494
비극	-11.5494
토드	-11.5494
모피	-11.5495
거친	-11.5495
상금	-11.5495
정치	-11.5498
판단	-11.5499
각기	-11.5504
통과	-11.5505
▁몰리	-11.5506
호러	-11.5506
카드	-11.5509
첫눈	-11.5509
반면	-11.5522
레인	-11.5525
올해	-11.5526
이모	-11.5527
직전	-11.5528
마야	-11.5528
하나님	-11.5529
대학생	-11.553
내부	-11.5559
안내	-11.5559
아도	-11.5563
마일	-11.5599
여신	-11.5602
노인	-11.5603
▁루	-11.5604
그레이스	-11.5607
칸다	-11.5622
놀이	-11.564
애인	-11.5643
라스	-11.5656
▁드래곤	-11.5656
▁15	-11.5663
인연	-11.5669
▁빌리	-11.567
한창	-11.5687
▁목표	-11.5688
▁감시	-11.5688
▁연락	-11.5717
▁신세	-11.5721
▁현상	-11.5723
지난	-11.5724
▁졸업	-11.5739
해도	-11.5745
▁비행	-11.5753
날리	-11.5766
▁프랑스	-11.577
▁불안	-11.5774
▁금지	-11.578
고백	-11.5797
용사	-11.582
드리	-11.5827
놀	-11.583
갓	-11.5854
담당	-11.5856
틈	-11.5859
밥	-11.586
윅	-11.5861
고교	-11.5864
걸린	-11.5865
루시	-11.5866
해변	-11.5867
집안	-11.5883
안전	-11.5894
▁메	-11.5902
▁의사	-11.5908
계기	-11.5911
붙	-11.5915
▁이끌	-11.5922
헤	-11.5934
예술	-11.5936
험	-11.5936
솔	-11.5947
격투	-11.5948
변호	-11.5956
죠	-11.5958
쥬	-11.5958
붉	-11.5958
쓰러지	-11.5958
뛰어들	-11.5958
빨간	-11.5958
완전	-11.5959
구경	-11.5959
질투	-11.5959
정착	-11.5959
현대	-11.596
갖추	-11.596
작업	-11.5962
뛰어나	-11.5963
러브	-11.5964
지원	-11.5964
리그	-11.5964
우여	-11.5966
▁찬	-11.5967
치밀	-11.5968
건네	-11.597
미친	-11.597
누리	-11.5974
밝혀내	-11.5974
완성	-11.5975
꼬이	-11.5976
이거	-11.598
이것	-11.5981
치르	-11.5982
▁십	-11.5989
▁음악	-11.6003
서부	-11.6021
전국	-11.603
▁태어난	-11.6034
▁떨어진	-11.6034
넘기	-11.6038
도와	-11.6048
▁모인	-11.6049
고군	-11.6065
보인다	-11.6079
▁축제	-11.6091
유성	-11.6092
▁바람	-11.6107
▁결정	-11.6112
▁넘	-11.6126
제이	-11.6137
신분	-11.6143
▁추락	-11.6144
▁벨라	-11.6147
말리	-11.6153
▁사업	-11.6157
▁에디	-11.6168
▁황금	-11.6175
한계	-11.6189
▁경쟁	-11.6207
시장	-11.6221
▁못한다	-11.6232
▁활약	-11.6243
▁긴	-11.6267
▁판	-11.6274
▁끊	-11.6279
바탕	-11.6305
인식	-11.631
가상	-11.6319
▁벌	-11.633
휴	-11.6359
행방	-11.6377
퀸	-11.6385
윌리엄	-11.6385
춤	-11.6387
지휘	-11.6387
체포	-11.6388
영원	-11.639
곰	-11.6391
넷	-11.6391
오디	-11.6394
▁희생	-11.6395
돌려	-11.6395
첫날	-11.64
제시	-11.6401
로즈	-11.6403
보물	-11.6403
공장	-11.6418
봉	-11.6429
00	-11.6431
리타	-11.6432
울리	-11.6435
튼	-11.6444
닐	-11.6445
▁견	-11.6445
앉	-11.6446
뒤쫓	-11.6447
텔	-11.6451
바꿀	-11.6453
흐	-11.6454
즉	-11.6456
c	-11.6457
폰	-11.6458
됩니다	-11.6458
뇨	-11.6458
즐긴다	-11.6458
맞닥뜨리	-11.6458
률	-11.6458
냉혹	-11.6458
다이아몬드	-11.6458
다이애나	-11.6458
드라큘라	-11.6458
브래드	-11.6458
사고뭉치	-11.6458
아슬아슬	-11.6458
어려운	-11.6458
얽힌	-11.6458
최첨단	-11.6458
카리스마	-11.6458
티파니	-11.6458
폐쇄	-11.6458
사사건건	-11.6458
스러워	-11.6458
아일랜드	-11.6458
인디아나	-11.6458
나머지	-11.6458
빠른	-11.6458
이벤트	-11.6458
카르텔	-11.6458
ᅡ	-11.6458
로맨스	-11.6458
이루어지	-11.6458
얼떨결	-11.6458
트레이너	-11.6458
일생일대	-11.6458
돌아와	-11.6458
황폐	-11.6458
씨제이	-11.6458
덤블	-11.6458
미이라	-11.6458
유쾌	-11.6458
오두막	-11.6458
▁24	-11.6458
죄책감	-11.6458
물고기	-11.6458
북쪽	-11.6458
크리시	-11.6458
처절	-11.6458
광경	-11.6458
스릴러	-11.6458
반란군	-11.6458
취급	-11.6458
연합군	-11.6458
관찰	-11.6459
삼총사	-11.6459
원정대	-11.6459
제다이	-11.6459
방향	-11.6459
젊은이	-11.646
고고학자	-11.646
갱단	-11.646
직업	-11.646
제압	-11.646
예정	-11.6461
때마침	-11.6461
추방	-11.6461
유력	-11.6462
추구	-11.6462
오빠	-11.6462
외면	-11.6462
시카고	-11.6463
부패	-11.6464
약물	-11.6464
버릴	-11.6464
공부	-11.6465
루피	-11.6466
설리	-11.6466
유전자	-11.6466
볼트	-11.6466
좀처럼	-11.6468
으면서	-11.6468
마음씨	-11.6468
용감	-11.647
무슨	-11.647
난생	-11.6471
대표	-11.6473
간직	-11.6475
납치범	-11.6475
진심	-11.6477
신참	-11.6479
연구소	-11.6479
보석	-11.6479
올리	-11.6479
선발	-11.6479
싸인	-11.648
자랑	-11.6481
마티	-11.6481
본드	-11.6482
귀신	-11.6485
피트	-11.6486
유산	-11.6492
신체	-11.6496
벌어진다	-11.6501
많이	-11.6507
주식	-11.6509
스틱	-11.6512
시선	-11.6512
▁돌	-11.6517
희생자	-11.6523
기차	-11.6523
죽인	-11.6531
마마	-11.6532
선사	-11.6534
니나	-11.6538
떨어진다	-11.6546
해저	-11.6548
하트	-11.655
니아	-11.6554
위성	-11.6568
▁짓	-11.6569
▁모세	-11.6572
분파	-11.6574
청하	-11.6576
▁처참	-11.6585
▁펼쳐진다	-11.6591
에스터	-11.6601
맡기	-11.6603
▁내용	-11.6625
자니	-11.6635
보라	-11.6643
▁앤	-11.6652
▁챔피언	-11.6653
로디	-11.6654
▁암호	-11.6654
본다	-11.6687
무적	-11.669
▁제작	-11.669
노아	-11.6695
▁곤	-11.6707
▁수상	-11.671
해져	-11.6718
하퍼	-11.6727
잡이	-11.6735
개성	-11.6743
▁배신	-11.6748
▁전문	-11.6789
h	-11.6813
상사	-11.6828
가루	-11.6837
▁지난	-11.6846
▁18	-11.6876
검사	-11.6878
묘	-11.6881
누	-11.6889
른	-11.6898
가정부	-11.692
랑	-11.6929
떨	-11.693
벽	-11.6934
들어간	-11.6937
에밀리	-11.6937
빅	-11.6941
고스트	-11.6941
동화	-11.6943
▁암	-11.6944
남긴	-11.6944
웃음	-11.6944
고르	-11.6946
주먹	-11.6947
스카	-11.6949
이별	-11.6949
현	-11.695
뒤집	-11.6954
기업	-11.6956
억	-11.6963
k	-11.6965
E	-11.6973
▁그리	-11.6976
싱	-11.6981
랄	-11.6981
겉	-11.6983
율	-11.6984
▁관련	-11.6984
▁식량	-11.6984
쏟아지	-11.6984
호랑이	-11.6984
갑작스럽	-11.6984
접촉	-11.6984
탈옥	-11.6984
경호	-11.6984
붙잡히	-11.6984
초록	-11.6987
시합	-11.6988
공군	-11.6988
포터	-11.6993
공원	-11.6993
달려가	-11.7001
조지	-11.7006
쫓아내	-11.7018
잃어버	-11.7031
수집	-11.7034
가스	-11.704
보트	-11.7042
유인	-11.7044
취하	-11.7048
해독	-11.7057
구성	-11.7064
▁루시	-11.7081
들키	-11.7081
▁윅	-11.7092
▁걸린	-11.7093
▁영	-11.7106
▁진행	-11.7134
▁끌	-11.7139
▁B	-11.7149
▁토르	-11.715
기록	-11.7152
▁음식	-11.7159
▁연애	-11.716
▁회	-11.7166
모아	-11.7167
이내	-11.7184
▁고용	-11.7189
▁외딴	-11.7223
지시	-11.7242
▁참가	-11.7244
▁모자	-11.7282
혼	-11.7291
로니	-11.7302
▁엘	-11.7315
▁강도	-11.7323
립	-11.7326
가리	-11.7331
▁오르	-11.7363
▁론	-11.7368
프로	-11.7398
졌	-11.741
▁반대	-11.7412
가르	-11.7414
코드	-11.7432
맥	-11.7451
완	-11.7465
고급	-11.7473
지나가	-11.7498
익	-11.7501
끊임없	-11.7503
킹	-11.7508
라곤	-11.752
쌓	-11.7521
벅	-11.7524
션	-11.7526
춘	-11.7527
경계	-11.7527
보낸	-11.7528
묶	-11.7529
동네	-11.753
찰	-11.753
흑	-11.753
돌아간	-11.7531
랜	-11.7532
틴	-11.7533
수녀	-11.7533
헤어	-11.7534
창조	-11.7534
전학	-11.7536
항공	-11.7536
컨	-11.7537
젠	-11.7537
흉	-11.7538
뽑	-11.7539
램	-11.7539
싸워	-11.7539
굿	-11.7539
휩싸인다	-11.7539
렀	-11.7539
갚	-11.7539
귀여운	-11.7539
난쟁이	-11.7539
레스토랑	-11.7539
뻔	-11.7539
사우론	-11.7539
스카우트	-11.7539
익스펜더블	-11.7539
클라크	-11.7539
패트릭	-11.7539
팩	-11.7539
페르시아	-11.7539
흩어지	-11.7539
부딪히	-11.7539
빠뜨리	-11.7539
로렌스	-11.7539
설상가상	-11.7539
니콜라스	-11.7539
미식축구	-11.754
인디언	-11.754
착륙	-11.754
커다랗	-11.754
할로우	-11.754
스패로우	-11.754
홈즈	-11.754
샌디	-11.754
필립	-11.754
자마자	-11.754
살아온	-11.754
랄프	-11.754
인공지능	-11.754
웨인	-11.754
빨려	-11.754
푸른	-11.754
추억	-11.754
업계	-11.754
낸다	-11.754
각국	-11.7541
빌딩	-11.7541
▁17	-11.7541
티몬	-11.7541
후계	-11.7541
동경	-11.7541
용맹	-11.7541
머피	-11.7542
절정	-11.7542
거센	-11.7542
짜리	-11.7542
르네	-11.7542
복서	-11.7542
리사	-11.7542
라이프	-11.7542
총격전	-11.7542
지모도	-11.7542
마주친	-11.7542
일으킨다	-11.7543
▁빈	-11.7543
숨겨	-11.7544
거짓	-11.7545
강요	-11.7545
광대	-11.7545
완수	-11.7545
주니어	-11.7545
외부	-11.7545
특수부대	-11.7545
터너	-11.7545
아무런	-11.7546
그리스	-11.7546
식물	-11.7546
설치	-11.7546
반복	-11.7546
초토	-11.7547
우즈	-11.7547
버스터	-11.7547
린치	-11.7548
팬더	-11.7549
재판	-11.7549
장착	-11.755
발명	-11.755
업자	-11.755
간호	-11.755
데니스	-11.7551
나니아	-11.7551
다가온다	-11.7552
정상	-11.7553
실험실	-11.7553
언제나	-11.7554
장교	-11.7554
헬기	-11.7554
건설	-11.7554
경기	-11.7554
윌리스	-11.7555
연관	-11.7557
거세	-11.7557
안락	-11.7557
심리	-11.7559
세월	-11.7559
미군	-11.756
그루	-11.756
학년	-11.7561
발명가	-11.7561
불행	-11.7563
해킹	-11.7564
구해야	-11.7566
부대원	-11.7572
테리	-11.7573
축하	-11.7575
데니	-11.7577
새로	-11.7577
에리얼	-11.7577
수감	-11.7579
번개	-11.7582
사로잡	-11.7582
나날	-11.7587
거두	-11.7588
사라	-11.7589
경찰관	-11.759
오리	-11.7592
피부	-11.7596
▁A	-11.7597
해커	-11.7598
테스트	-11.7598
▁커	-11.7598
▁윌리엄	-11.7599
일대	-11.7602
r	-11.7603
오공	-11.7606
별장	-11.7606
▁퀸	-11.7606
만류	-11.7607
전통	-11.761
피신	-11.7613
려다	-11.7614
▁영원	-11.7615
▁춤	-11.7617
▁나선	-11.762
▁오디	-11.7621
▁제시	-11.7621
애니	-11.7642
▁틈	-11.7649
착하	-11.7649
대부분	-11.7652
▁밥	-11.7654
가짜	-11.7655
▁집안	-11.7671
▁계기	-11.7682
라마	-11.7683
어요	-11.7683
아담	-11.7686
해군	-11.7687
어린이	-11.7695
보로	-11.7711
이란	-11.7716
사라진다	-11.7722
거의	-11.7727
신나	-11.7744
▁인질	-11.7747
레스	-11.7748
파이	-11.7755
주말	-11.779
상자	-11.7805
조던	-11.7813
산장	-11.7829
로저	-11.7847
해적	-11.7854
주일	-11.7874
할지	-11.7876
지미	-11.788
도리	-11.7912
될지	-11.7917
이탈	-11.7941
할리	-11.7959
퇴	-11.7959
도적	-11.7996
짜	-11.8
풀리	-11.8003
▁에밀리	-11.8028
인사	-11.8034
수도	-11.8044
심해	-11.8059
던지	-11.8067
인도	-11.8071
나간	-11.8097
▁들어간	-11.8102
▁렌	-11.8109
휘	-11.8111
빗	-11.8114
으려	-11.8115
반항	-11.8116
약혼	-11.8121
▁소설	-11.8124
톱	-11.8127
엉망	-11.8128
얽히	-11.8128
덮치	-11.8128
합치	-11.8129
오랫	-11.8129
궁전	-11.813
새벽	-11.8131
총격	-11.8131
꾸리	-11.8132
총각	-11.8133
도우	-11.8137
정면	-11.814
공중	-11.8142
돼	-11.8146
불시	-11.8146
다니엘	-11.8148
모여	-11.8148
싫	-11.8149
탑승	-11.8149
왜	-11.815
피우	-11.815
절망	-11.8151
코너	-11.8152
정복	-11.8152
매튜	-11.8152
크루	-11.8155
8	-11.8159
파크	-11.8161
시계	-11.8161
신입	-11.8166
▁빅	-11.817
무시	-11.8174
▁고스트	-11.8176
▁남긴	-11.8177
빙하	-11.8181
▁스카	-11.8181
▁뒤집	-11.8184
산타	-11.8188
▁담당	-11.8189
▁프로	-11.819
리치	-11.8198
비서	-11.8211
▁체포	-11.8214
대피	-11.8214
▁공장	-11.8214
▁보물	-11.8225
수술	-11.8229
변이	-11.8233
한국	-11.8241
▁로즈	-11.8242
속이	-11.8251
자격	-11.8253
▁해변	-11.8258
▁권력	-11.8268
▁뛰	-11.8274
상하	-11.8289
기관	-11.8294
▁링	-11.8306
먹이	-11.8314
수학	-11.833
▁콘	-11.836
슬리	-11.8397
▁제이	-11.8401
이동	-11.8415
스터	-11.8431
▁구조	-11.8432
▁새로	-11.846
▁나날	-11.8466
▁00	-11.8469
▁몰	-11.8476
▁폭풍	-11.8476
줄리	-11.8491
▁다면	-11.85
룰	-11.8574
그만	-11.8579
▁모아	-11.859
성적	-11.8591
▁휴	-11.8594
개인	-11.8632
명성	-11.8639
생긴	-11.8644
빙	-11.8662
봇	-11.8678
도로	-11.8687
끌리	-11.8694
▁보낸	-11.8694
정하	-11.8697
무한	-11.8698
프레드	-11.8706
웬	-11.871
듀	-11.8712
희	-11.8718
변한	-11.8727
백만	-11.8729
▁그리스	-11.8732
▁죄	-11.8732
▁사라	-11.8734
플레이	-11.8735
설계	-11.8743
벗어난	-11.8744
닥친	-11.8744
▁으려	-11.8747
곡	-11.8748
웰	-11.8748
푼	-11.8749
공학	-11.875
꺼	-11.875
램프	-11.875
챈	-11.875
푹	-11.8751
첩보	-11.8751
깬	-11.8753
속수무책	-11.8753
잎	-11.8753
기상천외	-11.8753
벗	-11.8753
가브리엘	-11.8753
나타났	-11.8753
늙	-11.8753
다큐멘터리	-11.8753
달마시안	-11.8753
리조트	-11.8753
마이애미	-11.8753
베트남	-11.8753
볼드모트	-11.8753
스코틀랜드	-11.8753
스탠리	-11.8753
스트레인지	-11.8753
씬	-11.8753
앨리슨	-11.8753
어려움	-11.8753
업그레이드	-11.8753
옵티머스	-11.8753
좌충우돌	-11.8753
크리스토퍼	-11.8753
킹스맨	-11.8753
트래비스	-11.8753
흩어져	-11.8753
개구리	-11.8753
그토록	-11.8753
몰아넣	-11.8753
그래서	-11.8753
바이킹	-11.8753
아테나	-11.8753
에일리언	-11.8753
엔지니어	-11.8753
컴뱃	-11.8753
누들스	-11.8753
스칼렛	-11.8753
호시탐탐	-11.8753
오토봇	-11.8753
심지어	-11.8753
퍼붓	-11.8753
▁198	-11.8753
뒷	-11.8753
축복	-11.8753
따돌리	-11.8753
광활	-11.8753
머나먼	-11.8753
아가씨	-11.8753
느냐	-11.8753
팬텀	-11.8753
쿠퍼	-11.8753
청혼	-11.8753
리처드	-11.8753
당황	-11.8753
교통	-11.8753
취직	-11.8753
거액	-11.8753
복귀	-11.8753
애완	-11.8753
코끼리	-11.8753
결투	-11.8753
맥퀸	-11.8753
백설	-11.8754
경악	-11.8754
패배	-11.8754
욕심	-11.8754
카메론	-11.8754
뉴스	-11.8754
바쁘	-11.8754
스피드	-11.8754
데이빗	-11.8754
헤더	-11.8754
거짓말	-11.8755
절명	-11.8755
동참	-11.8755
극복	-11.8755
경력	-11.8755
멘토	-11.8755
실마리	-11.8755
최근	-11.8756
국군	-11.8756
경제	-11.8756
귀환	-11.8756
갖춘	-11.8756
퍼시	-11.8756
실증	-11.8756
조용히	-11.8756
콜린	-11.8756
치닫	-11.8756
코퍼	-11.8756
왕궁	-11.8756
포식자	-11.8756
밝혀진다	-11.8757
경비	-11.8757
편집장	-11.8757
저격	-11.8757
슈퍼밴드	-11.8757
권투	-11.8757
위태	-11.8758
공개	-11.8758
치킨	-11.8758
열광	-11.8758
공유	-11.8758
폭풍우	-11.8758
멀티	-11.8758
만났	-11.8759
마틴	-11.8759
증명	-11.8759
귀족	-11.876
말콤	-11.876
커피	-11.876
터프	-11.8761
드류	-11.8761
조커	-11.8762
조쉬	-11.8762
소유자	-11.8763
돌진	-11.8763
타락	-11.8764
남녀	-11.8764
강제	-11.8765
악동	-11.8765
흥분	-11.8765
수호자	-11.8766
빌린	-11.8766
팔려	-11.8766
잠든	-11.8766
선배	-11.8769
교장	-11.8769
리즈	-11.877
폐기	-11.877
보낼	-11.8771
무술	-11.8772
원작	-11.8772
슬로	-11.8772
리노	-11.8773
오늘	-11.8776
스릴	-11.8776
아픈	-11.8777
제외	-11.8777
난무	-11.8778
광기	-11.8778
토안	-11.8779
일어난	-11.8779
박스	-11.8779
남학생	-11.878
실리	-11.8781
사탄	-11.8782
식사	-11.8783
되돌리	-11.8784
주술	-11.8784
소니	-11.8787
스키	-11.8788
무모	-11.8788
오토	-11.8789
▁그루	-11.879
사형	-11.879
영리	-11.8791
투명	-11.8792
노라	-11.8793
쫓아가	-11.8794
바니	-11.8794
오즈	-11.8794
전락	-11.8796
제물	-11.8796
암흑	-11.8797
아이린	-11.88
손님	-11.8801
데드	-11.8802
걸음	-11.8803
▁동화	-11.8805
글	-11.8806
놓여	-11.8809
빼앗	-11.8809
▁구성	-11.8809
우승	-11.8809
지나치	-11.8813
팬	-11.8813
방송	-11.8814
독립	-11.8814
댄	-11.8815
출연	-11.8816
일기	-11.8818
구원	-11.8818
수업	-11.8818
사라져	-11.8818
키워	-11.8819
참전	-11.882
우연	-11.882
티나	-11.8822
연기	-11.8823
독일	-11.8823
멘	-11.8824
괴수	-11.8828
입양	-11.8829
나온	-11.8831
나온다	-11.8834
앞서	-11.8836
▁죽인	-11.8837
▁애니	-11.884
공기	-11.8843
마비	-11.8847
▁조지	-11.8847
못해	-11.8848
소중	-11.885
구한다	-11.8852
친한	-11.8859
태어난다	-11.8865
부리	-11.8867
비명	-11.8874
▁멀	-11.8878
도박	-11.8879
중간	-11.8882
예고	-11.8897
세스	-11.8902
▁져	-11.8906
오더	-11.8906
본인	-11.8907
▁안전	-11.8916
한눈	-11.8917
▁야생	-11.8918
보관	-11.892
돌아온다	-11.8923
로빈	-11.8929
커져	-11.8933
▁쓴	-11.8936
는지	-11.8938
다크	-11.8949
병기	-11.8951
가필드	-11.8957
▁누	-11.8959
내린다	-11.8961
트리스	-11.8968
▁금	-11.897
부풀	-11.8973
▁라이	-11.8986
▁델	-11.8987
수트	-11.9009
그대로	-11.9018
도구	-11.9039
사업가	-11.9042
인격	-11.9045
한다고	-11.9047
▁200	-11.9047
말살	-11.9057
반한다	-11.9062
▁신분	-11.9075
▁이웃	-11.9081
지치	-11.9081
한적	-11.9085
은신	-11.9091
▁빛	-11.9098
들어서	-11.9102
은밀	-11.9107
향	-11.9108
지터	-11.911
에단	-11.917
미로	-11.9171
▁추	-11.9175
빠져들	-11.9181
집사	-11.9205
산업	-11.9212
살상	-11.9249
.	-11.9275
버드	-11.9283
주문	-11.9297
▁돼	-11.9324
▁모여	-11.9333
▁느낀	-11.9345
가두	-11.9349
타인	-11.936
▁크루	-11.9368
▁코너	-11.937
아주	-11.939
적대	-11.9391
▁매튜	-11.9391
궁	-11.9396
연이	-11.9398
▁리치	-11.9402
▁무시	-11.9404
왠	-11.941
활	-11.9411
어쩌	-11.9413
톨	-11.9414
셔	-11.9416
G	-11.9416
밝	-11.9418
렛	-11.9419
쏟	-11.9419
휘두르	-11.9419
맴돌	-11.9419
올라가	-11.9419
▁196	-11.942
▁202	-11.942
교육	-11.942
다스리	-11.942
들이닥치	-11.942
돌연	-11.9421
쫓겨나	-11.9421
나아가	-11.9424
물질	-11.9425
숨막히	-11.9425
맞추	-11.9425
통치	-11.9428
태양	-11.9431
묘지	-11.9431
마디	-11.9431
▁동네	-11.9435
변장	-11.9435
▁정상	-11.9435
파란	-11.9437
달려	-11.9443
▁H	-11.9443
킴	-11.9447
집행	-11.945
거치	-11.9458
중독	-11.9462
남미	-11.9466
총사	-11.947
▁수감	-11.9471
천사	-11.9474
들러	-11.9475
모른	-11.9478
▁주먹	-11.9479
▁기업	-11.9487
거주	-11.9495
총알	-11.9498
친해	-11.9502
▁곰	-11.951
그레이	-11.9517
제일	-11.9521
▁둔	-11.9524
공연	-11.9526
사정	-11.9526
안정	-11.9527
시킨	-11.9527
해병	-11.9528
▁첫날	-11.9528
마침	-11.9528
월드	-11.9529
미스터	-11.953
연방	-11.953
으면	-11.953
깨달	-11.9531
마스터	-11.9532
보도	-11.9535
행크	-11.9535
이탈리아	-11.9537
▁파이	-11.9542
소피	-11.9543
되살리	-11.9548
수영	-11.9555
은둔	-11.9555
가치	-11.9559
되살아나	-11.9562
▁이동	-11.9565
해방	-11.9571
으니	-11.9576
세대	-11.958
하버드	-11.9583
제자	-11.9599
으려고	-11.9612
무어	-11.9637
에르	-11.9637
▁V	-11.9641
메이	-11.9644
▁콜	-11.9647
이민	-11.9655
문화	-11.9662
아이스	-11.967
라라	-11.9673
타고	-11.9686
▁생물	-11.9691
제프	-11.9693
▁기사	-11.9704
로마	-11.9717
▁증거	-11.9735
시기	-11.9794
지진	-11.9803
일가	-11.982
달하	-11.9833
▁츠	-11.9861
아비	-11.9862
▁묻	-11.9876
▁약	-11.988
▁푸	-11.989
끄	-11.9918
자고	-11.9926
조선	-11.9967
▁다리	-11.9974
▁빼앗	-11.9995
영주	-12.0003
첩	-12.0004
on	-12.0004
고치	-12.001
▁일어난	-12.0021
▁팬	-12.0035
▁우연	-12.0055
▁댄	-12.0057
▁사라져	-12.006
▁키워	-12.0061
▁웬	-12.0064
툰	-12.0067
▁소중	-12.0069
당해	-12.0072
두려워	-12.0083
▁왜	-12.0085
▁정복	-12.0106
▁절망	-12.0106
연주	-12.0109
킨	-12.011
압	-12.0115
켜	-12.0119
템	-12.0122
▁커져	-12.0123
개척	-12.0123
딱	-12.0124
찾아간	-12.0126
▁맥	-12.0126
빼앗긴	-12.0126
▁도우	-12.0128
롯	-12.0128
값	-12.013
심판	-12.013
춰	-12.013
결합	-12.0131
펄	-12.0132
에너지	-12.0133
규	-12.0133
좌절	-12.0133
각지	-12.0133
스턴트	-12.0133
릿	-12.0133
묵	-12.0133
좁	-12.0133
U	-12.0134
꼭	-12.0134
일으켜	-12.0134
롤러코스터	-12.0134
슐	-12.0134
퐁	-12.0134
그리피스	-12.0134
나타샤	-12.0134
늑대인간	-12.0134
데이비드	-12.0134
데이비스	-12.0134
드와이트	-12.0134
뛰어넘	-12.0134
리차드	-12.0134
마르쿠스	-12.0134
물러나	-12.0134
바티칸	-12.0134
번번히	-12.0134
셀린느	-12.0134
아스가르드	-12.0134
에제키엘	-12.0134
엑소시즘	-12.0134
엠마뉴엘	-12.0134
인터뷰	-12.0134
저스티스	-12.0134
클레어	-12.0134
터미네이터	-12.0134
프랑켄슈타인	-12.0134
플로리다	-12.0134
헤라클레스	-12.0134
가디언	-12.0134
네트워크	-12.0134
다이아나	-12.0134
스폰지	-12.0134
언젠가	-12.0134
트라우마	-12.0134
나뭇잎	-12.0134
넘나들	-12.0134
갑작스런	-12.0134
몰아치	-12.0134
스프링필드	-12.0134
아마존	-12.0134
크리퍼	-12.0134
프라임	-12.0134
베스트셀러	-12.0134
브라운	-12.0134
어딘가	-12.0134
찾아왔	-12.0134
공통점	-12.0134
바닥	-12.0134
감춰진	-12.0134
불청객	-12.0134
사이보그	-12.0134
구멍	-12.0134
버려진	-12.0134
앵무새	-12.0134
통합	-12.0134
승객	-12.0134
언덕	-12.0134
굶주린	-12.0134
착취	-12.0134
무도회	-12.0134
궁금증	-12.0134
초록색	-12.0134
독재	-12.0134
판도라	-12.0134
북극	-12.0134
쉴드	-12.0134
실제	-12.0134
클락	-12.0134
엄격	-12.0134
불러들이	-12.0134
괴롭힘	-12.0134
수족관	-12.0134
연료	-12.0134
석판	-12.0134
▁벅	-12.0134
표범	-12.0134
루미스	-12.0134
밀매	-12.0134
웨이드	-12.0135
하수구	-12.0135
맘모스	-12.0135
워너	-12.0135
너머	-12.0135
▁22	-12.0135
▁11	-12.0135
오디션	-12.0135
오른	-12.0135
처형	-12.0135
유괴	-12.0135
긴장감	-12.0135
광란	-12.0135
출동	-12.0135
종교	-12.0135
어느덧	-12.0135
코브라	-12.0136
카일라	-12.0136
정반대	-12.0136
악랄	-12.0136
▁벽	-12.0136
보스턴	-12.0136
떠날	-12.0136
가르치	-12.0136
행방불명	-12.0136
총잡이	-12.0136
무료	-12.0137
질수록	-12.0137
줄리안	-12.0137
마일스	-12.0137
달콤	-12.0137
부동산	-12.0137
갈망	-12.0137
견디	-12.0137
핀치	-12.0137
익사	-12.0137
지하철	-12.0137
예감	-12.0138
온라인	-12.0138
드웨인	-12.0138
불태우	-12.0138
탈라	-12.0138
연극	-12.0138
무법자	-12.0138
모탈	-12.0139
크레이	-12.0139
열혈	-12.0139
실행	-12.0139
버티	-12.0139
테디	-12.0139
로드니	-12.0139
크릭	-12.0139
머신	-12.0139
윌슨	-12.014
역할	-12.014
장벽	-12.014
오딘	-12.014
식구	-12.014
처치	-12.014
침대	-12.0141
실화	-12.0141
우울	-12.0141
계약	-12.0141
추진	-12.0141
▁아주	-12.0141
영입	-12.0141
▁킹	-12.0141
설명	-12.0142
범행	-12.0142
드락	-12.0142
호출	-12.0142
증거물	-12.0142
청소년	-12.0143
유타	-12.0143
요일	-12.0143
호프	-12.0143
레지나	-12.0144
도망쳐	-12.0144
야욕	-12.0144
잠자리	-12.0144
상류	-12.0145
파악	-12.0145
사립	-12.0146
노파	-12.0146
드레	-12.0147
불꽃	-12.0148
러너	-12.0148
마블	-12.0148
오로라	-12.0148
지켜야	-12.0148
모호	-12.0149
배회	-12.0149
라이더	-12.0149
웨이	-12.0151
아이콘	-12.0151
▁질	-12.0151
본격	-12.0152
야망	-12.0152
기사단	-12.0152
▁경계	-12.0152
구스	-12.0153
인정받	-12.0153
포트	-12.0153
불허	-12.0153
노린다	-12.0154
제노	-12.0154
코니	-12.0155
질서	-12.0155
시각	-12.0156
알프레드	-12.0157
진구	-12.0157
편집	-12.0157
마음먹	-12.0158
심상	-12.0159
더미	-12.0159
물려	-12.0159
여긴	-12.0159
묘한	-12.016
엔터	-12.016
살육	-12.0161
집결	-12.0163
길거리	-12.0163
세요	-12.0165
▁돌아온다	-12.0166
처지	-12.0166
몰살	-12.0167
덕분	-12.0167
수사관	-12.0167
어떠	-12.0168
호감	-12.0172
세티	-12.0174
질주	-12.0175
엘사	-12.0176
소심	-12.0176
창고	-12.0177
버크	-12.0177
개조	-12.0178
▁진다	-12.0179
선원	-12.018
피카	-12.0182
군중	-12.0183
못할	-12.0185
미안	-12.0185
온몸	-12.0186
레이디	-12.019
자녀	-12.0192
▁떨	-12.0193
피타	-12.0198
레오	-12.0199
코스	-12.0202
원소	-12.0202
무려	-12.0203
전술	-12.0209
만약	-12.0212
자극	-12.0213
시타	-12.0214
불편	-12.0215
칼날	-12.0216
미리	-12.0216
하와이	-12.0217
잡혀	-12.0219
려면	-12.022
▁넷	-12.022
쓴다	-12.0221
수십	-12.0223
인턴	-12.0225
단편	-12.0225
인근	-12.0228
야간	-12.023
터전	-12.0231
장비	-12.0233
데비	-12.0234
내심	-12.0235
장자	-12.0242
접하	-12.0243
카라	-12.0243
만족	-12.0249
입대	-12.0253
주어진	-12.0263
카일	-12.0264
▁모른	-12.0265
해간다	-12.027
SA	-12.0284
어느새	-12.0286
맷	-12.0288
예언	-12.029
리틀	-12.029
밑	-12.0293
언제	-12.0296
조이	-12.0296
강간	-12.0297
댄스	-12.0297
가까워	-12.0298
콰	-12.0298
담긴	-12.0299
셀	-12.03
찰스	-12.03
랭	-12.0301
실력	-12.0304
셋	-12.0304
전해	-12.0305
걸려	-12.0307
별로	-12.0313
시드	-12.032
피해자	-12.0323
마시	-12.0328
도난	-12.033
4	-12.033
살려	-12.0332
▁찍	-12.0338
자파	-12.0339
▁라면	-12.0341
일어난다	-12.0343
저지	-12.0346
프리다	-12.0353
지르	-12.0365
몰린	-12.0369
▁기차	-12.038
기원	-12.0387
날려	-12.0387
▁거미	-12.04
버그	-12.0401
지친	-12.0403
디아	-12.0417
인정	-12.0417
▁떠돌	-12.0436
투어	-12.0438
▁신경	-12.0444
금고	-12.0445
초인	-12.0447
중단	-12.0459
개장	-12.0459
보여	-12.0461
기상	-12.0464
구한	-12.0465
▁털	-12.0484
건지	-12.0485
소수	-12.0486
▁이모	-12.0493
▁놀	-12.0494
해온	-12.0494
▁생긴	-12.0498
▁쥐	-12.0501
이안	-12.0514
장수	-12.0532
대대	-12.0538
손자	-12.0569
주어진다	-12.0579
▁인도	-12.0582
하데스	-12.0594
고위	-12.0613
준다는	-12.0621
포로	-12.0626
살인자	-12.0628
위로	-12.0647
심하	-12.0655
▁나무	-12.0661
크기	-12.0679
이드	-12.0689
의미	-12.0694
▁그레이	-12.0695
수장	-12.0696
▁시킨	-12.0697
축	-12.0717
불과	-12.0742
▁미스터	-12.0754
▁소피	-12.0755
▁행크	-12.0755
장인	-12.0756
▁깨달	-12.0761
▁으면	-12.0763
▁마침	-12.0765
올린	-12.0775
▁마스터	-12.0776
▁으니	-12.0777
▁킴	-12.0781
▁제자	-12.0792
으	-12.0819
▁출연	-12.0826
▁예고	-12.0827
▁다니엘	-12.0853
▁당해	-12.0854
▁라라	-12.0856
뒤덮	-12.0859
고독	-12.0865
▁싫	-12.0871
▁탑승	-12.0873
▁경기	-12.088
주년	-12.089
내기	-12.0891
갖은	-12.0892
흙	-12.09
민간	-12.0901
태우	-12.0901
젖	-12.0901
g	-12.0902
▁운	-12.0903
스노우	-12.0903
▁연습	-12.0903
김	-12.0903
피라미드	-12.0903
찢	-12.0903
가로지르	-12.0903
살아오	-12.0903
들려오	-12.0903
사로잡히	-12.0904
영향	-12.0904
절체	-12.0904
승무	-12.0905
심술	-12.0906
깃들	-12.0906
감각	-12.0906
내려오	-12.0908
잠재	-12.0912
피난	-12.0915
▁수녀	-12.092
미식	-12.0921
정비	-12.0921
극비	-12.0922
유리	-12.093
전환	-12.0938
▁다크	-12.0941
조카	-12.0942
제트	-12.0943
단지	-12.0956
중년	-12.0967
▁201	-12.0971
클로	-12.0984
부두	-12.0988
무도	-12.0993
아프	-12.1002
▁기관	-12.1003
▁지휘	-12.1018
수리	-12.1044
로이드	-12.1056
분열	-12.107
▁갓	-12.1073
er	-12.109
▁주어진	-12.1095
!	-12.1105
▁태	-12.1108
비상	-12.1116
▁어린이	-12.1124
운반	-12.1128
마스크	-12.1129
카메라	-12.1129
즐	-12.113
엠마	-12.113
게릴라	-12.113
수년	-12.1132
다룬	-12.1134
캐리	-12.1136
주도	-12.1137
입장	-12.1138
헤어진	-12.1144
극장	-12.1145
수백	-12.1146
무사	-12.115
로드	-12.1153
매니	-12.1159
나치	-12.1162
놓인	-12.1169
대부	-12.1171
요리	-12.1176
종이	-12.1182
그동안	-12.1212
신기	-12.122
이겨	-12.124
대사	-12.1273
만날	-12.1291
▁De	-12.1291
▁그만	-12.1312
▁겁	-12.1318
망자	-12.1344
돌리	-12.1373
부지	-12.1382
▁잡혀	-12.1393
어기	-12.1436
떠	-12.1442
▁전해	-12.1457
어스	-12.1486
일부	-12.1486
처해	-12.1489
끌려	-12.1507
▁가까워	-12.1545
▁콰	-12.1547
▁찰스	-12.1547
▁담긴	-12.1547
▁시드	-12.1549
▁리틀	-12.1549
▁걸려	-12.155
탕	-12.1572
▁저지	-12.1576
▁글	-12.1582
▁구원	-12.1591
▁일어난다	-12.1592
번지	-12.1601
▁연방	-12.1602
▁이탈리아	-12.1607
▁인정	-12.161
석방	-12.1611
뜬	-12.1614
옥	-12.1625
▁은둔	-12.163
▁멘	-12.1636
▁독일	-12.1654
닥친다	-12.1654
▁독립	-12.1655
▁방송	-12.1656
합	-12.1657
▁룰	-12.167
다가가	-12.1674
냈	-12.1694
픈	-12.1694
▁시기	-12.1696
끈	-12.1713
▁도박	-12.1714
콤	-12.1721
몬	-12.1723
람	-12.1724
텐	-12.1724
닝	-12.1725
정찰	-12.1727
드러낸	-12.1727
도망친	-12.1727
거듭난	-12.1727
저지른	-12.1728
납	-12.1729
롤	-12.1729
장례식	-12.1731
몰려	-12.1731
빨	-12.1732
태평양	-12.1732
센	-12.1732
아수라	-12.1732
랫	-12.1732
럴	-12.1732
놀란	-12.1733
엠	-12.1735
잣	-12.1735
밴	-12.1735
쓰레기	-12.1736
주머니	-12.1736
코미디	-12.1736
꾸러기	-12.1736
랙	-12.1736
밍	-12.1736
씽	-12.1736
아델라	-12.1736
갑작스러운	-12.1736
드러난다	-12.1736
잉글랜드	-12.1736
넘나드	-12.1736
▁뭉친	-12.1736
간달프	-12.1736
개츠비	-12.1736
구스타브	-12.1736
그야말로	-12.1736
도라에몽	-12.1736
드라이버	-12.1736
따돌림	-12.1736
라푼젤	-12.1736
레오나르도	-12.1736
레이놀즈	-12.1736
말썽꾸러기	-12.1736
매버릭	-12.1736
미구엘	-12.1736
브라이스	-12.1736
빅토리아	-12.1736
뿔뿔이	-12.1736
사스케	-12.1736
송두리	-12.1736
스카일러	-12.1736
스테판	-12.1736
스파르타	-12.1736
승승장구	-12.1736
아틀란티스	-12.1736
안젤라	-12.1736
어마어마	-12.1736
열심히	-12.1736
우두머리	-12.1736
울타리	-12.1736
인터넷	-12.1736
일촉즉발	-12.1736
차례차례	-12.1736
카우보이	-12.1736
콘서트	-12.1736
클라이드	-12.1736
페라리	-12.1736
프린스	-12.1736
플래시	-12.1736
헤르미온느	-12.1736
휩싸여	-12.1736
메트로	-12.1736
스크루지	-12.1736
풀려나	-12.1736
고메즈	-12.1736
끈질기	-12.1736
자스민	-12.1736
조나단	-12.1736
세운	-12.1736
캐나다	-12.1736
떠났	-12.1736
아바타	-12.1736
잡아먹	-12.1736
도토리	-12.1736
아이디어	-12.1736
억만장자	-12.1736
살아난	-12.1736
싼	-12.1736
큐브	-12.1736
계승	-12.1736
방사능	-12.1736
돌이킬	-12.1736
떠올리	-12.1736
싱글	-12.1736
들어온다	-12.1736
아폴로	-12.1736
갱스터	-12.1736
구사일생	-12.1736
보금자리	-12.1736
상류층	-12.1736
풋볼	-12.1736
프라이즈	-12.1736
당당히	-12.1736
무참히	-12.1736
블록버스터	-12.1736
공화국	-12.1736
좁혀	-12.1736
녹색	-12.1736
전기톱	-12.1736
믹키	-12.1736
약혼녀	-12.1736
엑스	-12.1736
출현	-12.1737
트리플	-12.1737
▁197	-12.1737
철저	-12.1737
절벽	-12.1737
헐크	-12.1737
밀림	-12.1737
운전기사	-12.1737
이자벨	-12.1737
퍼스트	-12.1737
헤비급	-12.1737
굶주	-12.1737
스턴트맨	-12.1737
외로움	-12.1737
이스트	-12.1737
스트로드	-12.1737
얼룩진	-12.1737
▁14	-12.1737
눈치채	-12.1737
뛰쳐나	-12.1737
착각	-12.1737
도서관	-12.1737
화장실	-12.1737
랜든	-12.1737
주유소	-12.1737
롱크	-12.1737
매료	-12.1737
각각	-12.1737
폐기물	-12.1737
환호	-12.1737
부여받	-12.1737
일어날	-12.1737
골든	-12.1737
가까워진다	-12.1737
앤드류	-12.1738
역경	-12.1738
실현	-12.1738
격돌	-12.1738
외출	-12.1738
예견	-12.1738
결코	-12.1738
듀크	-12.1738
구석	-12.1738
위키드	-12.1738
백작	-12.1738
경비원	-12.1738
월버그	-12.1738
입니다	-12.1738
청소부	-12.1738
순진	-12.1738
인조인간	-12.1738
정거장	-12.1738
애쓴다	-12.1738
투성이	-12.1739
승진	-12.1739
몰려오	-12.1739
엘렌	-12.1739
심각	-12.1739
전면전	-12.1739
동족	-12.1739
듀스	-12.1739
화끈	-12.1739
나쁘	-12.1739
발자국	-12.1739
다아시	-12.1739
계곡	-12.1739
슬리스	-12.174
제레미	-12.174
영광	-12.174
수호신	-12.174
탐내	-12.174
호프만	-12.174
UNA	-12.174
돌변	-12.174
맞선다	-12.174
뒤로하	-12.174
▁개인	-12.174
미세스	-12.174
유모	-12.1741
출소	-12.1741
스티	-12.1741
러셀	-12.1741
증세	-12.1741
사춘기	-12.1741
머무	-12.1741
타노스	-12.1742
고아원	-12.1742
공동	-12.1742
패치	-12.1742
블라	-12.1743
처단	-12.1743
추종	-12.1743
드림	-12.1743
크리스티	-12.1743
초래	-12.1743
발표	-12.1743
은하계	-12.1743
괴롭	-12.1743
모범	-12.1743
취해	-12.1743
달튼	-12.1743
커버	-12.1744
동거	-12.1744
혈전	-12.1744
일기장	-12.1744
데보라	-12.1744
소령	-12.1744
관리국	-12.1744
감동	-12.1745
날아가	-12.1745
마술사	-12.1745
변해간다	-12.1746
틈타	-12.1746
재벌	-12.1746
▁쌓	-12.1746
리링	-12.1747
정보국	-12.1747
불능	-12.1747
뒤늦	-12.1747
왕따	-12.1747
이어받	-12.1747
각오	-12.1747
신혼	-12.1748
결전	-12.1748
책임자	-12.1748
코난	-12.1748
실려	-12.1749
베티	-12.1749
이모부	-12.1749
루카	-12.1749
돌아간다	-12.1749
미술	-12.175
빌라도	-12.175
구마	-12.175
비추	-12.175
들인다	-12.175
무죄	-12.175
호머	-12.1751
오스카	-12.1751
병동	-12.1751
최종	-12.1751
경찰청	-12.1752
레건	-12.1753
솔로	-12.1754
행사	-12.1754
남겨	-12.1754
착수	-12.1754
커크	-12.1755
발레	-12.1755
격리	-12.1756
학대	-12.1756
우드	-12.1756
루시안	-12.1756
부분	-12.1757
마주친다	-12.1757
리처	-12.1757
해리건	-12.1758
품바	-12.1758
십자가	-12.1758
진학	-12.1759
개최	-12.176
남극	-12.176
팔리	-12.1763
오브	-12.1764
서쪽	-12.1765
니모	-12.1766
십자	-12.1767
스파이더	-12.1767
명탐정	-12.1767
백인	-12.1768
윌리엄스	-12.1769
캐시	-12.177
▁전학	-12.1771
구조대	-12.1771
용서	-12.1771
빛나	-12.1772
노스	-12.1772
술집	-12.1772
온통	-12.1773
부화	-12.1773
케이	-12.1773
마친	-12.1776
시공간	-12.1776
윌리	-12.1777
빌려	-12.1778
알린다	-12.1781
산모	-12.1782
남작	-12.1783
바위	-12.1784
내쫓	-12.1785
해골	-12.1786
▁로마	-12.1786
모시	-12.1786
다양	-12.1786
안느	-12.1787
제공	-12.1787
둘째	-12.1787
불화	-12.1787
자취	-12.1787
말린	-12.1792
끊임없이	-12.1792
랭던	-12.1793
따분	-12.1794
분석	-12.1795
가동	-12.1797
무공	-12.18
베일	-12.1801
보루	-12.1803
자꾸	-12.1804
아니타	-12.1804
고릴라	-12.1806
분리	-12.1807
로움	-12.1807
모스	-12.1808
오버	-12.1809
신화	-12.181
도끼	-12.181
드라고	-12.181
백성	-12.1814
왕관	-12.1815
야채	-12.1817
여우	-12.1819
젊음	-12.1821
문서	-12.1821
여전사	-12.1823
코리	-12.1828
함대	-12.1834
수락	-12.1838
마약상	-12.1845
수관	-12.1846
빌보	-12.1846
도망	-12.1852
비치	-12.1853
여유	-12.1853
오반	-12.1854
마더	-12.1858
수천	-12.186
침입자	-12.1862
그림	-12.1865
트레이	-12.1866
싸운다	-12.1868
마신	-12.1872
남성	-12.1875
발전	-12.189
벌인	-12.1892
시신	-12.1893
지배자	-12.1898
의료	-12.1909
바보	-12.192
오크	-12.1925
뜻밖에	-12.1927
지워	-12.193
▁의미	-12.1936
수배	-12.1937
전면	-12.1938
구분	-12.1943
양자	-12.1944
어색	-12.1945
사상자	-12.1957
해체	-12.1963
지쳐	-12.1965
끝날	-12.1969
로워	-12.1981
막대	-12.1983
생산	-12.1984
아라	-12.1986
데이지	-12.1991
대비	-12.2
레지	-12.2006
▁낼	-12.2015
보원	-12.2016
속편	-12.2017
누가	-12.202
뜻밖	-12.2026
벌어진	-12.2031
숨긴	-12.2034
콩	-12.2035
센트	-12.2035
겟	-12.2035
▁300	-12.2038
글리	-12.2039
메리	-12.2041
파피	-12.2042
입수	-12.2043
제니	-12.2045
전시	-12.2072
지방	-12.2078
상관	-12.2086
아트	-12.2089
비밀리	-12.2093
리라는	-12.2094
소장	-12.2096
그린다	-12.2099
행하	-12.2099
악어	-12.21
집중	-12.2108
차사	-12.2123
▁이것	-12.2128
들린	-12.2137
사살	-12.2145
달린	-12.2159
고객	-12.2164
지식	-12.2164
▁조종	-12.2184
이송	-12.2214
차장	-12.2255
고생	-12.2259
기후	-12.2266
하녀	-12.2269
▁케이	-12.2277
▁AI	-12.233
▁놓인	-12.2342
따라가	-12.2359
▁수백	-12.2363
▁로드	-12.2374
▁마스크	-12.2379
▁카메라	-12.2379
▁캐리	-12.2382
▁엠마	-12.2383
▁헤어진	-12.2384
▁다룬	-12.2387
▁매니	-12.2394
가영	-12.2408
플로	-12.2408
▁도로	-12.2419
▁언제	-12.242
▁나치	-12.2421
▁실력	-12.2442
▁댄스	-12.2445
▁이겨	-12.2449
▁공연	-12.2452
▁플	-12.2453
에선	-12.2466
▁우승	-12.2498
▁월드	-12.2502
로키	-12.2509
움	-12.2529
고쳐	-12.2564
▁50	-12.257
빠	-12.2594
꼬	-12.2606
해치	-12.2607
바닷	-12.262
수단	-12.2629
슬러	-12.2633
국민	-12.2636
자란	-12.2638
닥	-12.2638
냉	-12.264
뱃	-12.2643
겸	-12.2644
똑	-12.2644
앗	-12.2645
끌어들이	-12.2645
알아차리	-12.2645
혈액	-12.2645
가져오	-12.2645
혼혈	-12.2646
희귀	-12.2646
베스트	-12.2646
찾아보	-12.2646
합동	-12.2646
알아보	-12.2647
언론	-12.2647
동창	-12.2647
영업	-12.2649
외국	-12.2649
벌레	-12.2649
바라보	-12.2652
넘버	-12.2653
과제	-12.2654
무법	-12.2654
초청	-12.2655
불리우	-12.2658
긴급	-12.2658
외치	-12.2662
빠져나가	-12.2664
서클	-12.2668
도망가	-12.2669
우선	-12.267
상담	-12.2676
▁k	-12.2678
추리	-12.2682
수송	-12.2684
유사	-12.2684
개미	-12.2692
날아오	-12.27
아끼	-12.2709
두려워하	-12.271
그러다	-12.2712
▁웃음	-12.2717
자국	-12.2719
자존	-12.272
토이	-12.2726
사이드	-12.2736
차려	-12.2739
화장	-12.2781
▁행방	-12.2797
금기	-12.2807
대기	-12.2813
고요	-12.283
서기	-12.2852
경영	-12.2872
천하	-12.2883
에린	-12.2885
▁릭	-12.2898
만화	-12.2905
남부	-12.2929
조한	-12.2934
조엘	-12.2948
부산	-12.3004
부수	-12.3014
▁윌리	-12.3017
라드	-12.3025
남겨진	-12.3029
합쳐	-12.3032
소행	-12.3032
▁수천	-12.3033
조용	-12.3036
신디	-12.304
사원	-12.3043
깊이	-12.3047
다치	-12.3061
도도	-12.3063
모의	-12.3069
▁~	-12.3073
신고	-12.3078
▁뜻밖	-12.3093
▁NA	-12.3118
가공	-12.3132
방어	-12.3154
or	-12.3175
프레	-12.3191
▁숨긴	-12.3212
▁벌어진	-12.3215
▁메리	-12.3216
나와	-12.3246
끊이	-12.327
의존	-12.3283
가죽	-12.3286
ie	-12.329
▁상관	-12.3291
▁센트	-12.3294
▁겟	-12.3295
▁콩	-12.3295
▁파피	-12.3296
▁글리	-12.3298
▁제니	-12.3299
▁구한	-12.333
▁암흑	-12.3341
▁맷	-12.3344
▁랭	-12.3345
▁비밀리	-12.3349
▁운반	-12.336
▁예언	-12.336
▁게릴라	-12.3364
▁극장	-12.337
▁셋	-12.3402
▁달린	-12.3402
▁셀	-12.3406
▁메이	-12.3415
▁강간	-12.3423
▁밑	-12.3423
▁마시	-12.343
들으며	-12.344
전수	-12.3462
딘	-12.3484
▁나온	-12.3491
우스	-12.3504
▁트리스	-12.3508
써	-12.352
키는	-12.3521
▁빙하	-12.3524
고심	-12.3527
렉	-12.3561
▁갇힌	-12.3567
쁘	-12.3579
쫓겨	-12.3598
홍	-12.3608
똑같	-12.3608
냐	-12.362
흥	-12.3625
컬	-12.3632
녹	-12.3634
이루어진	-12.3636
사로잡힌	-12.3636
닫	-12.3637
유태	-12.3638
롱	-12.364
뉴	-12.3641
좌	-12.3641
놀림	-12.3642
넌	-12.3642
윈	-12.3643
얼룩	-12.3643
측	-12.3643
우먼	-12.3643
샌	-12.3644
태평	-12.3644
쉴	-12.3644
풋	-12.3645
스펙터	-12.3645
햄	-12.3645
꾸민다	-12.3645
데려간다	-12.3645
서비스	-12.3645
휘말려	-12.3645
전대미문	-12.3645
다람쥐	-12.3645
HAL	-12.3645
▁폭행	-12.3645
글로리아	-12.3645
다이버전트	-12.3645
디자이너	-12.3645
룸메이트	-12.3645
마르그리트	-12.3645
뮤지컬	-12.3645
미치광이	-12.3645
미켈란젤로	-12.3645
발레리나	-12.3645
버틀러	-12.3645
블러드	-12.3645
블레이드	-12.3645
서바이벌	-12.3645
스콜피온	-12.3645
스펜서	-12.3645
실베스터	-12.3645
아닌가	-12.3645
앤더슨	-12.3645
엉덩이	-12.3645
오페라	-12.3645
올림픽	-12.3645
웨스트	-12.3645
제페토	-12.3645
카트리나	-12.3645
콜롬비아	-12.3645
클래식	-12.3645
킴벌리	-12.3645
테레사	-12.3645
테오도르	-12.3645
트랭크	-12.3645
특공대	-12.3645
펠릭스	-12.3645
포세이돈	-12.3645
프랭키	-12.3645
프로테우스	-12.3645
플린트	-12.3645
필라델피아	-12.3645
해롤드	-12.3645
나탈리	-12.3645
돌아다니	-12.3645
돌아올	-12.3645
되돌릴	-12.3645
레시피	-12.3645
리무진	-12.3645
마놀로	-12.3645
마다가스카	-12.3645
마테오	-12.3645
메가마인드	-12.3645
비루스	-12.3645
비올라	-12.3645
스크린	-12.3645
스파키	-12.3645
스필만	-12.3645
아나킨	-12.3645
아드리안	-12.3645
아저씨	-12.3645
앤드리아	-12.3645
찾아볼	-12.3645
크로노스	-12.3645
파우더	-12.3645
호아킨	-12.3645
프라이드	-12.3645
기나긴	-12.3645
목걸이	-12.3645
얼떨	-12.3645
에블린	-12.3645
조여오	-12.3645
크로우	-12.3645
테이프	-12.3645
헐리우드	-12.3645
장동수	-12.3645
벗어날	-12.3645
붙잡	-12.3645
어려워	-12.3645
무서워	-12.3645
에메트	-12.3645
날카로운	-12.3645
커리어	-12.3645
파란만장	-12.3645
하이에나	-12.3645
호크룩스	-12.3645
일어났	-12.3645
폭주족	-12.3645
휩쓸려	-12.3645
랗	-12.3645
콜럼버스	-12.3645
데려와	-12.3645
어딘지	-12.3645
라일리	-12.3645
의기투합	-12.3645
그라바	-12.3646
이끌린	-12.3646
잠수함	-12.3646
단숨에	-12.3646
고질라	-12.3646
창립	-12.3646
통쾌	-12.3646
보여준다	-12.3646
붙잡혀	-12.3646
레너드	-12.3646
가르침	-12.3646
이른다	-12.3646
취업	-12.3646
교활	-12.3646
숨겨둔	-12.3646
신시아	-12.3646
에이리언	-12.3646
애완견	-12.3646
교황	-12.3646
활용	-12.3646
사무실	-12.3646
뉴트	-12.3646
루이자	-12.3646
카를로스	-12.3646
클레이	-12.3646
레오네	-12.3646
모은다	-12.3646
헤쳐	-12.3646
죄책	-12.3646
표류	-12.3646
들어갔	-12.3646
블록	-12.3646
젠코	-12.3646
탐닉	-12.3646
잠재우	-12.3646
백악관	-12.3646
마르타	-12.3646
순결	-12.3646
처녀	-12.3646
도무지	-12.3646
퍼디	-12.3646
피닉스	-12.3646
올리버	-12.3646
워렌	-12.3646
압력	-12.3646
전시물	-12.3646
출몰	-12.3646
평행	-12.3646
애플렉	-12.3646
로드릭	-12.3647
패션계	-12.3647
쿨스	-12.3647
맞닥뜨린다	-12.3647
적대감	-12.3647
회계사	-12.3647
금요일	-12.3647
타깃	-12.3647
앙심	-12.3647
블랙펄	-12.3647
매들린	-12.3647
패티	-12.3647
▁16	-12.3647
꼬여	-12.3647
의미심장	-12.3647
티아나	-12.3647
허용	-12.3647
퍼피	-12.3647
급속도	-12.3647
순조	-12.3648
야영장	-12.3648
석유	-12.3648
돌봐	-12.3648
꺼내	-12.3648
브로디	-12.3648
탐사선	-12.3648
방탕	-12.3648
지켜낼	-12.3648
창시자	-12.3648
들어갈	-12.3648
월레스	-12.3648
해적단	-12.3648
손가락	-12.3648
퇴치	-12.3649
밀러	-12.3649
가까이	-12.3649
침실	-12.3649
노동	-12.3649
즉시	-12.3649
발리안	-12.3649
궁리	-12.3649
북부	-12.3649
통째	-12.3649
포럴	-12.3649
피터팬	-12.3649
찰나	-12.365
구애	-12.365
세이지	-12.365
숫자	-12.365
군림	-12.365
모욕	-12.365
실망	-12.365
국왕	-12.365
크리스찬	-12.365
예거	-12.365
버튼	-12.365
애덤	-12.365
판타지	-12.3651
엘프	-12.3651
모래	-12.3651
태국	-12.3651
열린다	-12.3651
부푼	-12.3651
정통	-12.3652
캐리건	-12.3652
총동원	-12.3652
잠겨	-12.3652
데이먼	-12.3652
팔머	-12.3652
탐사대	-12.3653
신문사	-12.3653
매달리	-12.3653
그레이트	-12.3653
호송	-12.3653
행세	-12.3653
교내	-12.3654
결말	-12.3654
캐런	-12.3654
부동	-12.3654
드레스	-12.3654
발굴	-12.3654
매디	-12.3654
운동	-12.3654
자칭	-12.3654
철없	-12.3655
터커	-12.3655
창문	-12.3656
거듭난다	-12.3656
정우	-12.3656
원주민	-12.3656
리넷	-12.3656
매직	-12.3657
수송기	-12.3657
당일	-12.3657
여고생	-12.3657
괴력	-12.3657
생쥐	-12.3657
앤트	-12.3657
여긴다	-12.3658
포식	-12.3658
퀸카	-12.3658
딱지	-12.3659
어쩌다	-12.3659
동부	-12.3659
조언	-12.3659
조짐	-12.3659
신랑	-12.366
총애	-12.366
제시카	-12.3661
정식	-12.3661
노르	-12.3661
바바라	-12.3661
혼인	-12.3661
지훈	-12.3661
스페이스	-12.3661
역전	-12.3662
운전사	-12.3662
접수	-12.3662
증오	-12.3662
커드	-12.3663
약혼자	-12.3663
나희	-12.3663
채굴	-12.3663
금발	-12.3664
비틀	-12.3664
입증	-12.3665
서래	-12.3665
레미	-12.3665
오드리	-12.3665
생애	-12.3666
영감	-12.3666
비운	-12.3666
거북이	-12.3667
슈퍼스타	-12.3667
도로시	-12.3667
니노	-12.3668
거쳐	-12.3668
반쪽	-12.3668
원정	-12.3668
치료제	-12.3668
뒤바뀌	-12.3668
월트	-12.3669
파즈	-12.3669
그레이시	-12.3669
말레나	-12.3669
레니	-12.3669
타잔	-12.367
백수	-12.367
정원	-12.3671
재미	-12.3671
힌다	-12.3672
줄리아	-12.3672
계모	-12.3672
매번	-12.3673
귀등	-12.3673
반항아	-12.3674
미행	-12.3674
화재	-12.3674
거침없이	-12.3675
생계	-12.3675
행크스	-12.3675
이웃집	-12.3675
마땅	-12.3675
덮친	-12.3676
사냥개	-12.3676
서처	-12.3676
도대체	-12.3676
사나이	-12.3676
스톰	-12.3677
선보이	-12.3677
조국	-12.3677
부품	-12.3677
에이스	-12.3678
작동	-12.368
모처럼	-12.3681
호화	-12.3682
구사	-12.3682
스칼	-12.3683
엔조	-12.3684
입구	-12.3685
아이돌	-12.3685
비난	-12.3685
소재	-12.3685
빠져드	-12.3686
위조	-12.3686
포키	-12.3686
생생	-12.3687
화물	-12.3688
새미	-12.3688
시설	-12.3689
무기력	-12.3689
합의	-12.369
토비	-12.3691
비우	-12.3691
나갔	-12.3692
엔진	-12.3692
비범	-12.3692
모세스	-12.3694
미니	-12.3694
모면	-12.3694
위력	-12.3695
정리	-12.3697
베스	-12.3697
지냈	-12.3697
신임	-12.3697
내놓	-12.3698
모른다는	-12.3698
능가	-12.37
아레스	-12.3702
상공	-12.3706
신병	-12.3706
엘리스	-12.3706
상심	-12.3706
사이버	-12.3708
탐험가	-12.3709
탈출구	-12.3712
스파이스	-12.3712
나왔	-12.3715
벽장	-12.3715
여느	-12.3716
상실	-12.3716
야심	-12.3716
왕실	-12.3718
아니면	-12.3718
나영	-12.3718
반려	-12.372
주디	-12.3722
미소	-12.3725
붙이	-12.3725
여행길	-12.3727
모집	-12.3727
할수록	-12.3728
분출	-12.3728
영문	-12.373
사이트	-12.373
대런	-12.3732
거스	-12.3733
미스	-12.3734
열중	-12.3735
원더	-12.3736
치유	-12.3738
투사	-12.374
손길	-12.374
적힌	-12.374
오두	-12.3742
집요	-12.3745
놓인다	-12.3745
키라	-12.3749
할까	-12.3751
총상	-12.3752
가세	-12.3754
빙하기	-12.3756
간부	-12.3756
남다른	-12.3757
해온다	-12.3759
수석	-12.376
들이닥친	-12.376
경찰서	-12.3763
오랜만	-12.3766
참가자	-12.3768
대해서	-12.3768
▁낸다	-12.3768
자처	-12.377
부럽	-12.3771
시온	-12.3772
그웬	-12.3774
조명	-12.3774
매년	-12.3774
성경	-12.3774
방주	-12.3775
신선	-12.3783
증가	-12.3783
보유	-12.3787
들떠	-12.379
적극	-12.3802
상속	-12.3807
가축	-12.3808
불사	-12.3808
사제	-12.381
눈치	-12.3817
개시	-12.382
생사	-12.3821
이룬	-12.3826
모인다	-12.3832
기술자	-12.3836
파사	-12.3847
차리	-12.3847
관리인	-12.3855
귀도	-12.3862
우수	-12.3862
전달	-12.3877
해외	-12.3887
알란	-12.3893
데일	-12.3893
변한다	-12.3894
전개	-12.3901
목격자	-12.3903
토와	-12.3905
기밀	-12.3906
오후	-12.3907
전력	-12.3912
함장	-12.3919
탄지	-12.3922
심한	-12.3929
지독	-12.393
사소	-12.3934
지영	-12.3936
반해	-12.3944
에바	-12.3948
릴리	-12.3957
아론	-12.3964
세리	-12.3971
들르	-12.3982
왕년	-12.3991
인조	-12.4001
파도	-12.401
더치	-12.4022
불만	-12.403
원수	-12.4032
an	-12.4047
트라	-12.4078
총기	-12.4091
▁소행	-12.4106
그레	-12.4127
로져	-12.4134
가출	-12.4136
제도	-12.4148
후보	-12.4158
고야	-12.4166
▁산다	-12.4169
ᆫ다면	-12.4176
고철	-12.419
간수	-12.4194
일단	-12.4206
레아	-12.4208
▁남겨진	-12.4214
▁25	-12.4224
▁대부	-12.425
▁자란	-12.4261
▁합쳐	-12.429
리드	-12.4294
▁조용	-12.4295
보살	-12.4296
▁신디	-12.4302
마지	-12.4319
▁남부	-12.4319
▁즐	-12.4331
나사	-12.4335
드루	-12.4357
리자	-12.4381
모른다	-12.4398
수면	-12.4399
건다	-12.4408
아부	-12.4427
살대	-12.4455
다급	-12.4476
라미	-12.4493
삭	-12.45
리지	-12.4619
어라	-12.4657
▁21	-12.4704
부랑	-12.4737
싹	-12.4746
철학	-12.4752
동업	-12.4752
께	-12.4754
유언	-12.4754
띄	-12.4756
스포츠	-12.4756
벼	-12.4756
붓	-12.4756
울트론	-12.4756
거느리	-12.4756
▁194	-12.4757
출근	-12.4757
증언	-12.4758
겨루	-12.4758
익히	-12.4758
각색	-12.4758
녹음	-12.4758
헤치	-12.4758
트레	-12.4758
근거	-12.4758
힘겹	-12.4759
셀러	-12.476
갓난	-12.4761
끼치	-12.4761
공통	-12.4761
청부	-12.4762
달라지	-12.4765
결단	-12.4765
실버	-12.4765
통신	-12.4768
타운	-12.4769
남다르	-12.477
모함	-12.477
누비	-12.4773
바르	-12.4775
테크	-12.4775
노란	-12.4776
설상	-12.4776
리브	-12.4778
낙인	-12.4779
반신	-12.4781
감마	-12.4784
시청	-12.4788
캐내	-12.4791
모자라	-12.4794
전전	-12.4803
심사	-12.4804
관중	-12.4806
치우	-12.4808
베리	-12.481
언어	-12.4813
거물	-12.4816
!!	-12.4817
귀중	-12.483
수족	-12.4836
전날	-12.4844
재단	-12.4848
계시	-12.4854
사각	-12.486
불타	-12.4864
지모	-12.4866
본성	-12.4869
끊기	-12.4877
ᄅ까	-12.4886
자루	-12.4892
해나	-12.4911
라니	-12.4912
배리	-12.4922
돌이	-12.4927
라인	-12.493
단기	-12.4951
▁80	-12.4953
화성	-12.4981
해상	-12.4983
라자	-12.502
리코	-12.5028
전선	-12.5033
화산	-12.5034
사명	-12.5053
전장	-12.5103
IM	-12.5161
취한	-12.518
누이	-12.5211
스테이	-12.5302
b	-12.5333
애스	-12.5363
듯이	-12.5378
제한	-12.5391
eb	-12.5393
he	-12.5396
NA	-12.5399
XSN	-12.5427
한테	-12.5434
연장	-12.5455
단의	-12.547
약하	-12.5484
버거	-12.5542
생긴다	-12.56
니카	-12.5666
리안	-12.5708
무게	-12.5734
료	-12.5734
룬	-12.5767
매트	-12.5779
싸운	-12.5809
리오	-12.5862
틱	-12.5867
스트로	-12.5872
마고	-12.5899
킬	-12.5958
웨	-12.5961
거침없	-12.5969
울려	-12.5972
렉스	-12.599
리포터	-12.5994
널	-12.5994
정사	-12.5995
윤	-12.5996
넬	-12.5996
찾아낸	-12.5997
쓰러진	-12.5998
달라진	-12.5998
일으킨	-12.5998
▁’!	-12.5999
묻힌	-12.6
징	-12.6
톤	-12.6
딩	-12.6001
꿀	-12.6002
약탈	-12.6002
럼	-12.6003
찌르	-12.6003
미스테리	-12.6004
식민	-12.6004
랩	-12.6004
쾌	-12.6004
밀려	-12.6005
잉	-12.6005
촉	-12.6005
EO	-12.6005
슬링	-12.6005
낯	-12.6005
캔	-12.6005
발타자	-12.6006
졸	-12.6006
미사일	-12.6006
다닌다	-12.6006
무찔러	-12.6006
쏟아져	-12.6006
▁스티븐	-12.6006
감쪽같이	-12.6006
고슴도치	-12.6006
곤도르	-12.6006
그렇지만	-12.6006
근근이	-12.6006
글래스	-12.6006
글로벌	-12.6006
기븐스	-12.6006
넘쳐나	-12.6006
뉴올리언스	-12.6006
뉴올리언즈	-12.6006
디셉티콘	-12.6006
디지털	-12.6006
라파엘	-12.6006
럭셔리	-12.6006
레오니다스	-12.6006
마운틴	-12.6006
마찬가지	-12.6006
마틸다	-12.6006
망가져	-12.6006
모비우스	-12.6006
무너진	-12.6006
바라쿠다	-12.6006
뱅크스	-12.6006
벌어졌	-12.6006
불가사의	-12.6006
브랜치	-12.6006
브렌트	-12.6006
브리트니	-12.6006
비커스	-12.6006
사뮤엘	-12.6006
산티노	-12.6006
세드릭	-12.6006
소스케	-12.6006
슈미트	-12.6006
스나이퍼	-12.6006
스마우그	-12.6006
스머프	-12.6006
스웨거	-12.6006
스카이워커	-12.6006
스케일	-12.6006
스테픈	-12.6006
스튜디오	-12.6006
스틸러	-12.6006
시애틀	-12.6006
아티스트	-12.6006
알레한드로	-12.6006
애지중지	-12.6006
어김없이	-12.6006
에스페란자	-12.6006
에이프릴	-12.6006
에피소드	-12.6006
엘도라도	-12.6006
엠마누엘	-12.6006
예루살렘	-12.6006
오비완	-12.6006
오아시스	-12.6006
오코넬	-12.6006
올라타	-12.6006
와이어트	-12.6006
움직일	-12.6006
유니콘	-12.6006
저스틴	-12.6006
정확히	-12.6006
종지부	-12.6006
쥬라기	-12.6006
질렌할	-12.6006
충성심	-12.6006
컨버터	-12.6006
코스텔로	-12.6006
쿠스코	-12.6006
크라켄	-12.6006
크립톤	-12.6006
클리포드	-12.6006
템페스트	-12.6006
트랜스포머	-12.6006
티격태격	-12.6006
파라다이스	-12.6006
팔레스타인	-12.6006
패러디	-12.6006
패리쉬	-12.6006
페루치오	-12.6006
페르디난드	-12.6006
페르세우스	-12.6006
페스티벌	-12.6006
포레스트	-12.6006
폴란드	-12.6006
프로그래머	-12.6006
프로스트	-12.6006
하이브리드	-12.6006
헤이우드	-12.6006
히긴스	-12.6006
늘어놓	-12.6006
레전드	-12.6006
모조리	-12.6006
바네사	-12.6006
받아들여	-12.6006
산드라	-12.6006
소말리아	-12.6006
인터폴	-12.6006
정신병자	-12.6006
집어삼키	-12.6006
피콜로	-12.6006
기숙사	-12.6006
마가렛	-12.6006
비비안	-12.6006
뒤집어쓰	-12.6006
얽혀	-12.6006
코카인	-12.6006
소매치기	-12.6006
태어났	-12.6006
보우만	-12.6006
자유자재	-12.6006
피아노	-12.6006
휘말린	-12.6006
가라앉	-12.6006
와트니	-12.6006
끈질긴	-12.6006
노르웨이	-12.6006
반가운	-12.6006
보름달	-12.6006
씽씽	-12.6006
지날수록	-12.6006
샌들러	-12.6006
세인트	-12.6006
손아귀	-12.6007
미카엘	-12.6007
백만장자	-12.6007
체이스	-12.6007
치히로	-12.6007
흉측	-12.6007
관광객	-12.6007
네이든	-12.6007
균열	-12.6007
멍청	-12.6007
억압	-12.6007
블레이크	-12.6007
기다린다	-12.6007
다가올수록	-12.6007
닥칠	-12.6007
밝힐	-12.6007
이슬라	-12.6007
셰프	-12.6007
아쿠아	-12.6007
외곽	-12.6007
ig	-12.6007
덩어리	-12.6007
세일즈맨	-12.6007
취향	-12.6007
미니언	-12.6007
붙잡힌	-12.6007
슬픈	-12.6007
촉망	-12.6007
교황청	-12.6007
이즈마	-12.6007
후타로	-12.6007
주머니쥐	-12.6007
컨트롤	-12.6007
퍼틴	-12.6007
레옹	-12.6007
봉황	-12.6007
테크노	-12.6007
▁Mr	-12.6007
시추선	-12.6007
퇴출	-12.6007
비키니	-12.6007
갈림길	-12.6007
브로즈	-12.6007
로빈슨	-12.6007
오른팔	-12.6007
아지트	-12.6007
어수선	-12.6007
로알드	-12.6007
젠슨	-12.6007
트레버	-12.6007
미용실	-12.6007
머글	-12.6007
리드맨	-12.6007
합병	-12.6007
탐탐	-12.6007
엑스맨	-12.6007
형무소	-12.6007
였음을	-12.6007
억울	-12.6007
가만히	-12.6007
날아온	-12.6007
팔찌	-12.6007
타이탄	-12.6007
떠돈	-12.6007
여기저기	-12.6007
교환	-12.6007
상냥	-12.6007
현금	-12.6007
울린다	-12.6007
철저히	-12.6007
사령관	-12.6007
추측	-12.6007
태양계	-12.6007
돌고래	-12.6007
바닷물	-12.6007
▁48	-12.6007
퍼져	-12.6007
클레이드	-12.6007
패닉	-12.6008
관료	-12.6008
러윈	-12.6008
샤워	-12.6008
쿠노	-12.6008
출처	-12.6008
▁28	-12.6008
동맹	-12.6008
초토화	-12.6008
은밀히	-12.6008
혈통	-12.6008
모니카	-12.6008
유희	-12.6008
현란	-12.6008
샹치	-12.6008
끌려온	-12.6008
에스더	-12.6008
합세	-12.6008
마지못해	-12.6008
드리우	-12.6008
매춘	-12.6008
신디케이트	-12.6008
가상현실	-12.6008
레슬링	-12.6008
살려야	-12.6008
솔트	-12.6008
놀랄	-12.6008
캐롤라	-12.6008
피비린내	-12.6008
예약	-12.6008
동영상	-12.6008
인공섬	-12.6008
플릭	-12.6008
써서	-12.6008
부작용	-12.6008
블랙우드	-12.6008
링컨	-12.6008
불사신	-12.6008
끝났	-12.6008
강압	-12.6008
싸워야	-12.6009
패거리	-12.6009
증권	-12.6009
얼룩말	-12.6009
오로지	-12.6009
숨겨온	-12.6009
윌라드	-12.6009
괴짜	-12.6009
거둔다	-12.6009
트랩	-12.6009
유대감	-12.6009
태풍	-12.6009
막내딸	-12.6009
쿠바	-12.6009
트레이시	-12.6009
토템	-12.6009
생화학	-12.6009
뱃속	-12.6009
생물학자	-12.6009
가치관	-12.6009
걸려온다	-12.6009
스티치	-12.6009
각종	-12.6009
젠더	-12.6009
총책임자	-12.6009
경연	-12.6009
소꿉친구	-12.6009
교외	-12.601
유죄	-12.601
철거	-12.601
무찌르	-12.601
미콜라	-12.601
풍선	-12.601
곧이어	-12.601
수도원	-12.601
출생	-12.601
천외	-12.601
롤리	-12.601
순박	-12.601
레스터	-12.601
알아낸다	-12.601
냉전	-12.6011
따른다	-12.6011
드로이드	-12.6011
심슨	-12.6011
승선	-12.6011
풍부	-12.6011
경우	-12.6011
업무	-12.6011
황무지	-12.6011
연맹	-12.6011
키아라	-12.6011
반갑	-12.6011
휴먼	-12.6011
우현	-12.6011
마비스	-12.6011
작곡	-12.6011
챈스	-12.6011
기차역	-12.6011
재결합	-12.6011
악덕	-12.6011
거슬러	-12.6011
강탈	-12.6011
공급	-12.6011
통화	-12.6011
왕좌	-12.6011
강철	-12.6011
희대	-12.6012
보살피	-12.6012
알려준다	-12.6012
켄신	-12.6012
립스	-12.6012
혈안	-12.6012
감당	-12.6012
제라드	-12.6012
정처	-12.6012
교감	-12.6012
커츠	-12.6012
교실	-12.6013
요란	-12.6013
헤나	-12.6013
달아난다	-12.6013
퇴사	-12.6013
몇몇	-12.6013
당했	-12.6013
구입	-12.6013
약점	-12.6013
색다른	-12.6014
부랑자	-12.6014
몸값	-12.6014
암울	-12.6014
편견	-12.6014
라이즈	-12.6014
저항	-12.6014
퍼스	-12.6014
전과자	-12.6014
버림	-12.6014
방황	-12.6014
미묘	-12.6015
소향	-12.6015
떠도	-12.6015
피톨	-12.6015
거미줄	-12.6015
쓰러진다	-12.6015
경관	-12.6015
망가지	-12.6016
체력	-12.6016
라우라	-12.6016
형태	-12.6016
식민지	-12.6016
에드가	-12.6016
밀라	-12.6016
수배자	-12.6016
망신	-12.6016
빈자리	-12.6016
멀린	-12.6017
당할	-12.6017
니콜	-12.6017
팀플레이	-12.6017
오싹	-12.6017
키팅	-12.6017
판매	-12.6017
구미	-12.6017
선교사	-12.6017
무책	-12.6017
유태인	-12.6017
따라다니	-12.6017
데려다	-12.6017
별난	-12.6017
급히	-12.6017
연루	-12.6018
독재자	-12.6018
개척자	-12.6018
크리스천	-12.6018
바른	-12.6018
필주	-12.6018
정작	-12.6018
파이트	-12.6018
맥심	-12.6019
맥피	-12.6019
조수아	-12.6019
그레그	-12.6019
브린	-12.6019
부근	-12.6019
저마다	-12.6019
추위	-12.6019
미운	-12.6019
감돈	-12.6019
금방	-12.6019
해리슨	-12.6019
차림	-12.602
원래	-12.602
끝낼	-12.602
정화	-12.602
지켜줄	-12.602
달라스	-12.602
구박	-12.6021
계절	-12.6021
라이조	-12.6021
손잡고	-12.6021
동정	-12.6021
권총	-12.6022
주술사	-12.6022
칸토	-12.6022
라몬	-12.6022
마칠	-12.6023
누드	-12.6024
스팅	-12.6024
포착	-12.6024
드리스	-12.6024
머나	-12.6024
악행	-12.6024
느라	-12.6024
궁지	-12.6025
빈민가	-12.6026
나이키	-12.6026
끝낸	-12.6026
떨치	-12.6026
손녀	-12.6026
묶인	-12.6026
또래	-12.6026
요양	-12.6026
장래	-12.6026
추정	-12.6027
사형수	-12.6027
어찌	-12.6027
미츠	-12.6027
코스타	-12.6027
연달	-12.6028
배신감	-12.6028
매우	-12.6029
영생	-12.6029
원망	-12.6029
떠들	-12.603
세워	-12.603
불안감	-12.603
제약	-12.603
호시	-12.603
오닐	-12.6031
말랑	-12.6031
별거	-12.6031
빠져버린	-12.6031
견제	-12.6031
단순	-12.6031
눈빛	-12.6031
달빛	-12.6031
들어와	-12.6031
심비	-12.6032
네트	-12.6032
소닉	-12.6032
건강	-12.6032
둘러싸인	-12.6032
모티	-12.6033
광산	-12.6033
될수록	-12.6033
출산	-12.6033
남북	-12.6033
따라나선다	-12.6034
거울	-12.6034
미코	-12.6034
지켜온	-12.6034
외톨이	-12.6034
방위	-12.6034
야생마	-12.6035
조디	-12.6035
메타	-12.6035
터키	-12.6035
임모	-12.6035
비록	-12.6035
강박	-12.6035
약간	-12.6036
부호	-12.6036
종일	-12.6036
소통	-12.6037
당장	-12.6037
해리포터	-12.6037
바닷가	-12.6038
히어로즈	-12.6038
걸까	-12.6038
구속	-12.6038
자홍	-12.6038
책임지	-12.6039
카레	-12.6039
초호	-12.6039
남몰래	-12.604
단절	-12.604
보험	-12.6041
당도	-12.6041
스승	-12.6042
바디	-12.6043
콜라	-12.6043
청한다	-12.6043
파격	-12.6043
개스톤	-12.6043
놀리	-12.6044
서울	-12.6045
메간	-12.6046
선포	-12.6046
존경	-12.6046
희한	-12.6047
상상력	-12.6047
미키	-12.6048
마귀	-12.6048
어울려	-12.6048
남쪽	-12.6049
베타	-12.6049
마르	-12.6049
따로	-12.605
소린	-12.605
월러	-12.605
비법	-12.6051
스프	-12.6051
화학	-12.6052
초등	-12.6054
똑같이	-12.6055
우타	-12.6055
대답	-12.6056
브라	-12.6056
채워	-12.6056
선거	-12.6056
번영	-12.6058
애정	-12.6059
극단	-12.6059
보복	-12.6059
패기	-12.606
시점	-12.606
금치	-12.6061
공사	-12.6062
개입	-12.6062
레이크	-12.6062
개방	-12.6063
대출	-12.6063
마리온	-12.6065
첫째	-12.6067
열세	-12.6067
직후	-12.6068
함선	-12.6069
심문	-12.6069
여배우	-12.6071
내민	-12.6073
마구	-12.6075
채용	-12.6075
강력반	-12.6076
대처	-12.6076
기도서	-12.6077
면회	-12.6079
쫓겨난	-12.608
라이브	-12.6081
목사	-12.6082
내려가	-12.6083
연속	-12.6083
아라곤	-12.6084
듀이	-12.6084
바트	-12.6084
코소	-12.6085
속출	-12.6085
로써	-12.6085
전복	-12.6086
얼마나	-12.6087
형편	-12.6089
새엄마	-12.6091
사설	-12.6092
발목	-12.6093
타피	-12.6093
복수심	-12.6094
연일	-12.6094
파편	-12.6096
높이	-12.6096
키운다	-12.6097
엘리오	-12.6097
눈물	-12.6097
루오	-12.6098
주유	-12.6098
화면	-12.6098
생일날	-12.6099
반감	-12.61
레이서	-12.61
아이즈	-12.6101
질문	-12.6101
대대로	-12.6102
남동생	-12.6103
요다	-12.6104
폴라	-12.6105
태도	-12.6106
잠수	-12.6106
무력	-12.6106
갇힌다	-12.6106
주피터	-12.6106
시위	-12.6107
갖가지	-12.6109
지낸다	-12.6112
등등	-12.6115
강해	-12.6116
시터	-12.6117
대체	-12.6118
관심사	-12.6119
파차	-12.612
해답	-12.6122
수백만	-12.6124
대담	-12.6124
수퍼	-12.6128
서막	-12.6131
조안	-12.6134
채피	-12.6139
주요	-12.6143
재치	-12.6145
세실	-12.6146
중학생	-12.6147
권력자	-12.6147
에스텔라	-12.6151
모리	-12.6153
오트	-12.6161
스타일	-12.6167
니다	-12.6171
회수	-12.6176
주체	-12.6179
수잔	-12.6188
카말	-12.6188
죽인다	-12.6192
호스	-12.6195
가석방	-12.6203
몸집	-12.6208
줄스	-12.6208
전학생	-12.6209
불신	-12.6209
버전	-12.6209
초사	-12.6211
메인	-12.6211
레이저	-12.6215
달라	-12.6216
진주	-12.6217
미나	-12.6218
해리스	-12.6223
자영	-12.6224
독자	-12.6227
주니	-12.6231
만점	-12.6233
호주	-12.6235
로리타	-12.6241
무단	-12.6243
피치	-12.6243
전작	-12.6245
다운	-12.6245
한탕	-12.6246
나마	-12.6247
발리	-12.6251
조상	-12.6253
무명	-12.6257
분방	-12.6264
수색	-12.6266
사생활	-12.6276
강인	-12.6277
차마	-12.6278
자행	-12.6283
전우	-12.6289
개발자	-12.6289
발사	-12.6293
목적지	-12.6299
드문	-12.6306
속수	-12.6316
잠자	-12.6317
기절	-12.632
인내	-12.6323
아무리	-12.6329
M	-12.633
나비	-12.6331
대면	-12.6334
새기	-12.6338
내려간	-12.6338
반사	-12.6341
앞집	-12.6345
바오	-12.6349
클론	-12.6355
시속	-12.636
업체	-12.6367
고래	-12.637
이집트인	-12.6377
대학교	-12.6379
탄로	-12.638
베인	-12.6384
토하	-12.6387
가면	-12.6392
꾼다	-12.6404
수입	-12.6408
원자	-12.6409
져온	-12.6415
알바	-12.6416
해든	-12.642
형수	-12.6425
도서	-12.6425
보호자	-12.6427
▁60	-12.6442
먼지	-12.6443
~	-12.6446
▁40	-12.6448
비전	-12.6455
던져	-12.6472
스타인	-12.6473
적군	-12.6475
뜬다	-12.6502
영국인	-12.6524
자식	-12.6534
아포	-12.6538
반장	-12.654
목성	-12.6541
관계자	-12.6547
분야	-12.6552
대중	-12.6554
앞날	-12.6567
대치	-12.6577
집시	-12.6579
끝장	-12.6594
문자	-12.6616
기력	-12.6628
단장	-12.6645
전원	-12.6657
팀장	-12.6666
전투기	-12.6667
메가	-12.6669
적진	-12.667
기린	-12.6701
기병	-12.6719
일지	-12.6728
론가	-12.677
고조	-12.6782
피자	-12.6786
레슬리	-12.6789
re	-12.6816
악한	-12.685
부를	-12.6857
제의	-12.6863
도발	-12.6888
오만	-12.6895
걸로	-12.6906
어제	-12.6914
원로	-12.6926
능력자	-12.6931
중상	-12.6943
다면서	-12.6953
유로	-12.6984
▁195	-12.6987
섞여	-12.6992
라우	-12.7002
티아	-12.701
만장	-12.7019
기우	-12.7024
상인	-12.7036
선보인	-12.7088
te	-12.7107
총성	-12.7138
로건	-12.7245
럽	-12.7249
해양	-12.7275
가담	-12.7316
선고	-12.7345
기생	-12.7347
덮	-12.7384
▁Jo	-12.7411
빈민	-12.7417
망치	-12.7421
백악	-12.7424
숫	-12.7429
꿉	-12.7433
롤러	-12.7433
앵무	-12.7435
뱀	-12.7435
생겨나	-12.7435
틀어지	-12.7435
갈라지	-12.7435
날카롭	-12.7435
어지럽히	-12.7435
뉴멕시코	-12.7435
버지니아	-12.7435
핸드	-12.7435
▁99	-12.7436
타이틀	-12.7436
알아채	-12.7436
올라오	-12.7436
투합	-12.7436
싫어하	-12.7436
나뭇	-12.7436
슬프	-12.7436
쳐들어오	-12.7437
유랑	-12.7437
쑥대	-12.7437
코스터	-12.7437
복종	-12.7437
회오리	-12.7438
따위	-12.7438
불청	-12.7441
극악	-12.7441
관광	-12.7442
짐승	-12.7443
양복	-12.7444
하울	-12.7448
틀리	-12.7448
끌어내	-12.7448
사령	-12.7451
박히	-12.7454
나이트	-12.7456
권위	-12.7458
상당	-12.7464
밀수	-12.7465
구명	-12.7465
에이미	-12.7467
사슬	-12.7468
과감	-12.7471
털리	-12.7472
휴대	-12.7472
모터	-12.7473
포위	-12.7475
다정	-12.7498
그걸	-12.7504
제어	-12.7507
최소	-12.7507
뒤덮이	-12.7508
채우	-12.7513
만능	-12.752
유년	-12.7521
비행사	-12.7522
사무	-12.7532
손목	-12.7553
가락	-12.7556
외인	-12.7556
원시	-12.7566
부양	-12.7589
수중	-12.7598
형성	-12.7615
재해	-12.7619
화제	-12.7619
수준	-12.7623
보장	-12.7636
간첩	-12.769
성형	-12.7717
일급	-12.7734
지망	-12.7742
피살	-12.7743
깨지	-12.7747
다투	-12.7754
하임	-12.7768
기간	-12.781
보수	-12.7835
자주	-12.7876
안기	-12.7882
수거	-12.7917
주소	-12.7925
연다	-12.7933
시사	-12.7939
전과	-12.7963
고모	-12.8039
▁500	-12.804
리언	-12.8043
도라	-12.8069
지령	-12.8098
오인	-12.8188
사전	-12.8243
다소	-12.8246
지라	-12.8274
her	-12.8315
다발	-12.839
ra	-12.8399
ia	-12.8444
-	-12.8517
MAJ	-12.8522
타키	-12.8581
이론	-12.8582
본의	-12.8693
들뜬	-12.8708
고난	-12.8844
터널	-12.8873
호이	-12.8882
스텔라	-12.8909
얀	-12.8911
나기	-12.8984
키운	-12.8999
니까	-12.9007
외톨	-12.9065
겹	-12.9069
억만	-12.9078
거북	-12.908
륙	-12.9087
켈	-12.9088
리키	-12.9089
쿨	-12.9092
멋	-12.9092
올라간	-12.9092
달아난	-12.9093
쑥	-12.9094
꼽	-12.9094
심리학	-12.9096
들어선	-12.9097
섞	-12.9097
셰	-12.9099
종결	-12.9099
믹	-12.9099
스트리트	-12.91
샹	-12.91
가져다	-12.91
소꿉	-12.91
플렉	-12.91
왈	-12.9101
멍	-12.9101
고고학	-12.9101
텀	-12.9101
뮤	-12.9101
이어진	-12.9101
꾀	-12.9101
사춘	-12.9101
홈	-12.9101
컴	-12.9101
캘	-12.9101
f	-12.9101
가벼운	-12.9102
배운다	-12.9102
건넨다	-12.9102
끌어들여	-12.9102
무너져	-12.9102
즐거워	-12.9102
풀려난	-12.9102
배심원	-12.9102
시달린다	-12.9102
어울릴	-12.9102
올라온	-12.9102
이루어져	-12.9102
뛰어든	-12.9102
뷰	-12.9102
갑작스레	-12.9102
겁쟁이	-12.9102
결혼기념일	-12.9102
골칫거리	-12.9102
골칫덩어리	-12.9102
광저우	-12.9102
근근히	-12.9102
나이트메어	-12.9102
녹스빌	-12.9102
느닷없이	-12.9102
도나텔로	-12.9102
디스트릭트	-12.9102
디트로이트	-12.9102
라스베가스	-12.9102
라스베이거스	-12.9102
라퓨타	-12.9102
리메이크	-12.9102
막시무스	-12.9102
맥팔레인	-12.9102
모스크바	-12.9102
무르익	-12.9102
뮤지션	-12.9102
미얀마	-12.9102
바깥세상	-12.9102
바람둥이	-12.9102
바스티안	-12.9102
범블비	-12.9102
베킨세일	-12.9102
보디가드	-12.9102
불량배	-12.9102
브래들리	-12.9102
브루노	-12.9102
브릭스턴	-12.9102
블라디미르	-12.9102
블론디	-12.9102
사일런트	-12.9102
샤이닝	-12.9102
서슴없이	-12.9102
센티넬	-12.9102
스네이크	-12.9102
시즈쿠	-12.9102
실베스타	-12.9102
싹쓸이	-12.9102
아드리앙	-12.9102
아득히	-12.9102
아르바이트	-12.9102
아마추어	-12.9102
알래스카	-12.9102
알렉산드로	-12.9102
알카트라즈	-12.9102
어리둥절	-12.9102
에드먼드	-12.9102
에르네스토	-12.9102
에메랄드	-12.9102
엑스칼리버	-12.9102
오케스트라	-12.9102
오필리아	-12.9102
움직인	-12.9102
움직임	-12.9102
웨이언스	-12.9102
유난히	-12.9102
유유히	-12.9102
으스스	-12.9102
이곳저곳	-12.9102
익스프레스	-12.9102
인셉션	-12.9102
인크레더블	-12.9102
일루미나티	-12.9102
임파서블	-12.9102
자이언트	-12.9102
전지전능	-12.9102
정태석	-12.9102
즐거움	-12.9102
천신만고	-12.9102
침략자	-12.9102
카멜리아	-12.9102
카운티	-12.9102
캐롤	-12.9102
캐스피언	-12.9102
캘러웨이	-12.9102
코렐라	-12.9102
코스트너	-12.9102
코요미	-12.9102
콘래드	-12.9102
클리프	-12.9102
토너먼트	-12.9102
토렌스	-12.9102
트위디	-12.9102
파키스탄	-12.9102
페르디타	-12.9102
펜	-12.9102
펠프스	-12.9102
프란시스	-12.9102
프랜차이즈	-12.9102
프로듀서	-12.9102
프로페셔널	-12.9102
플라잉	-12.9102
플레처	-12.9102
플렛처	-12.9102
필리핀	-12.9102
허니문	-12.9102
헤네시	-12.9102
헬리콥터	-12.9102
혼비백산	-12.9102
홀연히	-12.9102
확실히	-12.9102
흘러가	-12.9102
흩어진	-12.9102
히나타	-12.9102
도미니카	-12.9102
라운드	-12.9102
로맨틱	-12.9102
리본군	-12.9102
마히토	-12.9102
모니터	-12.9102
무방비	-12.9102
무심코	-12.9102
미디안	-12.9102
배긴스	-12.9102
불면증	-12.9102
사나운	-12.9102
스니드	-12.9102
스캔들	-12.9102
싸이렌	-12.9102
아놀드	-12.9102
아비게일	-12.9102
아케이드	-12.9102
알퐁스	-12.9102
오스틴	-12.9102
요한슨	-12.9102
우르스	-12.9102
우술라	-12.9102
자메이카	-12.9102
자물쇠	-12.9102
천방지축	-12.9102
치카노	-12.9102
캄캄	-12.9102
크로스컨트리	-12.9102
파치노	-12.9102
후유증	-12.9102
흥미진진	-12.9102
달마티아	-12.9102
로웨나	-12.9102
몰아친	-12.9102
밝힌다	-12.9102
보너스	-12.9102
붙인다	-12.9102
야쿠자	-12.9102
우크라	-12.9102
졸지에	-12.9102
쥬만지	-12.9102
테두리	-12.9102
다프네	-12.9102
도미노	-12.9102
도저히	-12.9102
로버츠	-12.9102
매그니	-12.9102
미들랜드	-12.9102
비스트	-12.9102
스위스	-12.9102
스프링	-12.9102
파인즈	-12.9102
포크스	-12.9102
고블린	-12.9102
넨	-12.9102
라모나	-12.9102
미디어	-12.9102
알리시아	-12.9102
알프스	-12.9102
요즘	-12.9102
유부남	-12.9102
찌른	-12.9102
카지노	-12.9102
킬리언	-12.9102
타투인	-12.9102
테마파크	-12.9102
힘겨운	-12.9102
강대국	-12.9102
눈부시	-12.9102
다행히	-12.9102
사사키	-12.9102
웨딩	-12.9102
인신매매	-12.9102
코넬리우스	-12.9102
타마라	-12.9102
엉망진창	-12.9102
조나스	-12.9102
핸드폰	-12.9102
차크라	-12.9102
햄버거	-12.9102
극악무도	-12.9102
불러들여	-12.9102
안간힘	-12.9102
괴로워한다	-12.9102
뉴잉글랜드	-12.9102
두려운	-12.9102
드니로	-12.9102
마르셀	-12.9102
베를린	-12.9102
불어넣	-12.9102
새겨진	-12.9102
아름다움	-12.9102
외동딸	-12.9102
죽여야	-12.9102
질풍노도	-12.9102
쓰여진	-12.9102
아비규환	-12.9102
본거지	-12.9102
트랜스포터	-12.9102
끈끈	-12.9102
중개업자	-12.9102
클로딘	-12.9102
슈레더	-12.9102
시로우	-12.9102
알아챈	-12.9102
꼭대기	-12.9102
꽃다발	-12.9102
발신자	-12.9102
신정수	-12.9102
휴대폰	-12.9102
규합	-12.9102
기다려온	-12.9102
빠졌	-12.9102
몬테카를로	-12.9102
사무라이	-12.9102
황급히	-12.9102
시니어	-12.9102
잔꾀	-12.9102
균형	-12.9102
나눈다	-12.9102
네이트	-12.9102
컴백	-12.9102
키드먼	-12.9102
하느님	-12.9102
호가드	-12.9102
깃든	-12.9102
골탕	-12.9102
세이디	-12.9102
액체	-12.9102
품평회	-12.9102
화이트	-12.9102
산타클로스	-12.9102
베이더	-12.9102
빠트리	-12.9102
젠틀맨	-12.9102
따윈	-12.9102
장난꾸러기	-12.9102
찌질	-12.9102
놀이공원	-12.9102
포위망	-12.9102
흐른	-12.9102
다국적	-12.9102
황궁	-12.9102
덩달	-12.9102
랜턴	-12.9102
애꾸눈	-12.9102
캔디	-12.9102
띄워	-12.9102
매디슨	-12.9102
헬싱	-12.9102
기착지	-12.9102
골룸	-12.9102
떠밀려	-12.9102
일찍이	-12.9102
남겨둔	-12.9102
게스트	-12.9102
발보아	-12.9102
힐링	-12.9102
네이비	-12.9102
와일드	-12.9102
페이스트리	-12.9102
떠맡	-12.9102
펄먼	-12.9102
부두교	-12.9102
올리비아	-12.9102
호스맨	-12.9102
▁199	-12.9102
내려진다	-12.9102
궁극	-12.9102
셔츠	-12.9102
페이스북	-12.9102
합법	-12.9102
종료	-12.9102
굴욕	-12.9102
소외감	-12.9102
번번이	-12.9102
캠벨	-12.9102
청춘	-12.9102
들려주	-12.9102
냉담	-12.9102
피난민	-12.9102
물리칠	-12.9102
세이야	-12.9102
길러진	-12.9102
와이파이	-12.9102
폐업	-12.9102
헬렌	-12.9102
부잣집	-12.9102
콜럼	-12.9102
멜먼	-12.9103
왈드	-12.9103
맥베인	-12.9103
원자력	-12.9103
랜디	-12.9103
모가도	-12.9103
외로워	-12.9103
프로모터	-12.9103
분수대	-12.9103
시리아	-12.9103
황홀	-12.9103
머릿속	-12.9103
답답	-12.9103
애완용	-12.9103
센트럴	-12.9103
가르쳐	-12.9103
바쳐야	-12.9103
웰런	-12.9103
유치원	-12.9103
보라색	-12.9103
공동체	-12.9103
스포츠카	-12.9103
아르고	-12.9103
아카데미상	-12.9103
윈터	-12.9103
황당	-12.9103
흥미	-12.9103
▁193	-12.9103
세워진	-12.9103
승승	-12.9103
몰려든	-12.9103
던져진	-12.9103
삭제	-12.9103
코넬리	-12.9103
사명감	-12.9103
센터	-12.9103
레나토	-12.9103
혼재	-12.9103
트루스	-12.9103
가까워질수록	-12.9103
널리	-12.9103
자연재해	-12.9103
내려놓	-12.9103
마냥	-12.9103
정비공	-12.9103
안기부	-12.9103
에이모스	-12.9103
물리쳐	-12.9103
슈즈	-12.9103
거추장	-12.9103
딴판	-12.9103
당사자	-12.9103
침몰	-12.9103
주성치	-12.9103
냉정	-12.9103
처벌	-12.9104
벌써	-12.9104
체험	-12.9104
워커	-12.9104
민병	-12.9104
호킨스	-12.9104
애널리	-12.9104
추천	-12.9104
그리움	-12.9104
추궁	-12.9104
IO	-12.9104
교류	-12.9104
도가니	-12.9104
피난길	-12.9104
압박	-12.9104
왜가리	-12.9104
덴트	-12.9104
웰드	-12.9104
꺼려	-12.9104
동떨어진	-12.9104
징집	-12.9104
학창	-12.9104
질투심	-12.9104
액수	-12.9104
동태	-12.9104
가로막	-12.9104
겸비	-12.9104
행운	-12.9104
텐더	-12.9104
싸울	-12.9104
가져다주	-12.9104
친밀	-12.9104
둔갑	-12.9104
어쩌면	-12.9105
심취	-12.9105
용납	-12.9105
가로채	-12.9105
겉모습	-12.9105
독수리	-12.9105
환심	-12.9105
출입	-12.9105
젖소	-12.9105
잇따라	-12.9105
조안나	-12.9105
▁Cra	-12.9105
엘로디	-12.9105
잠재력	-12.9105
돌려보내	-12.9105
공황	-12.9105
트로이	-12.9105
금기시	-12.9105
발명품	-12.9105
맴도	-12.9105
욕조	-12.9105
통증	-12.9105
케이블	-12.9105
글렌	-12.9105
아만다	-12.9105
▁27	-12.9105
메이커	-12.9105
남부러울	-12.9105
겁탈	-12.9106
예민	-12.9106
출구	-12.9106
정령	-12.9106
표식	-12.9106
바닷속	-12.9106
대장정	-12.9106
유색인	-12.9106
힐데	-12.9106
찍힌	-12.9106
잘생긴	-12.9106
경호원	-12.9106
맹세	-12.9106
황실	-12.9106
외교	-12.9106
태운	-12.9106
길들이	-12.9106
르망	-12.9106
▁Ra	-12.9106
헤비	-12.9106
머론	-12.9106
몬테로	-12.9106
브레인	-12.9106
황야	-12.9106
꾸려	-12.9107
목욕	-12.9107
강림	-12.9107
박힌	-12.9107
그리곤	-12.9107
놓아주	-12.9107
낙원	-12.9107
백조	-12.9107
조력자	-12.9107
익명	-12.9107
박탈	-12.9107
묶여	-12.9107
표면	-12.9107
베른	-12.9107
모셔	-12.9107
디제이	-12.9107
연령	-12.9107
동쪽	-12.9107
핵전쟁	-12.9107
받아들인다	-12.9107
절반	-12.9107
끌려오	-12.9107
워크	-12.9108
감돌	-12.9108
감출	-12.9108
극비리	-12.9108
앙신	-12.9108
배닝	-12.9108
구루	-12.9108
바넬	-12.9108
진흙	-12.9108
넘어간	-12.9108
화합	-12.9108
동유럽	-12.9108
하버드대	-12.9108
해병대	-12.9108
더치맨	-12.9108
진압	-12.9109
호크아이	-12.9109
외형	-12.9109
절대절명	-12.9109
간병인	-12.9109
누워	-12.9109
교도관	-12.9109
빼내	-12.9109
소냐	-12.9109
인질극	-12.9109
유언장	-12.9109
조합	-12.9109
떨쳐	-12.9109
파이프	-12.9109
양육	-12.911
유엔	-12.911
손놀림	-12.911
기원전	-12.911
신분증	-12.911
허드	-12.911
끊긴	-12.911
끼리	-12.911
맞춰	-12.911
드래곤볼	-12.911
순서	-12.911
으라는	-12.911
크리스티나	-12.911
웃음거리	-12.911
맡긴	-12.9111
재현	-12.9111
좀도둑	-12.9111
외우	-12.9111
대홍수	-12.9111
마시모	-12.9111
삭스	-12.9111
연출	-12.9111
려왔	-12.9111
정권	-12.9111
시험대	-12.9112
유품	-12.9112
동작	-12.9112
이어진다	-12.9112
장례식장	-12.9112
난항	-12.9112
키튼	-12.9112
잠옷	-12.9112
원시인	-12.9112
라켈	-12.9112
셋째	-12.9112
반물질	-12.9113
철학자	-12.9113
질색	-12.9113
노동자	-12.9113
코브	-12.9113
유학	-12.9113
영역	-12.9113
먼데이	-12.9113
환대	-12.9113
술탄	-12.9113
발현	-12.9113
동업자	-12.9114
쿠나	-12.9114
실린	-12.9114
찾아낸다	-12.9114
검객	-12.9114
쉬프	-12.9114
독차지	-12.9114
코프	-12.9115
이시다	-12.9115
리디아	-12.9115
터틀	-12.9115
마시바	-12.9115
뒤집히	-12.9115
선풍	-12.9115
크레인	-12.9115
근사	-12.9115
정책	-12.9115
장본인	-12.9115
공화	-12.9115
원령	-12.9116
마리너	-12.9116
왜군	-12.9116
질린	-12.9116
영토	-12.9116
눈보라	-12.9117
마니아	-12.9117
메론	-12.9117
밀스	-12.9117
체제	-12.9117
합쳐야	-12.9117
잠긴	-12.9117
설계도	-12.9117
톰슨	-12.9117
메린	-12.9117
사로잡힌다	-12.9117
탈주	-12.9118
첩자	-12.9118
계층	-12.9118
루저	-12.9118
깨워	-12.9118
더우먼	-12.9118
애절	-12.9118
본업	-12.9118
녹지	-12.9118
돌격	-12.9118
엘르	-12.9118
외딴섬	-12.9118
산맥	-12.9119
사우스	-12.9119
거주자	-12.9119
그루트	-12.9119
상관없이	-12.9119
콜터	-12.9119
디노	-12.912
코츠	-12.912
교양	-12.912
설계자	-12.912
노신부	-12.912
허치	-12.912
자라나	-12.912
이민자	-12.912
이겨야	-12.912
엘리즈	-12.912
워치	-12.912
드러낸다	-12.912
끈다	-12.9121
에이바	-12.9121
소굴	-12.9121
차세대	-12.9121
민간인	-12.9121
더스티	-12.9122
진출	-12.9122
카라스	-12.9122
소환	-12.9122
니암	-12.9122
갈구	-12.9122
창조자	-12.9122
첫날밤	-12.9122
거주민	-12.9123
메모	-12.9123
정거	-12.9123
별나	-12.9123
손잡	-12.9123
니브	-12.9123
검술	-12.9124
열망	-12.9124
코울	-12.9124
정찰기	-12.9124
휴식	-12.9124
보컬	-12.9124
처참히	-12.9124
치른	-12.9124
도우러	-12.9124
그냥	-12.9124
타피아	-12.9125
네임	-12.9125
악질	-12.9125
재미있	-12.9125
개척지	-12.9125
뒤바꾸	-12.9125
러쉬	-12.9125
크레이그	-12.9125
물색	-12.9126
달래	-12.9126
모이라	-12.9127
다가갈수록	-12.9127
안내자	-12.9127
우애	-12.9127
왠지	-12.9127
벗어난다	-12.9127
작별	-12.9128
밤낮	-12.9128
부랑아	-12.9128
담배	-12.9128
모임	-12.9128
레이프	-12.9128
칼린	-12.9128
배너	-12.9128
잔해	-12.9128
오웬	-12.9128
쇼코	-12.913
지났	-12.913
끝나갈	-12.913
진술	-12.913
배워	-12.913
교전	-12.9131
코린	-12.9131
대지진	-12.9131
토모	-12.9131
코코	-12.9131
수녀원	-12.9131
운전수	-12.9132
쇼맨	-12.9132
오션	-12.9132
모린	-12.9132
준우	-12.9132
본색	-12.9133
극심	-12.9133
보금	-12.9133
생지옥	-12.9133
포악	-12.9133
상대방	-12.9133
몰려들	-12.9134
현지	-12.9134
무녀	-12.9134
스퍼	-12.9135
사이퍼	-12.9135
마샤	-12.9135
신대륙	-12.9136
판타	-12.9136
악화	-12.9136
네즈	-12.9136
바늘	-12.9136
팬서	-12.9137
본토	-12.9138
입국	-12.9138
구두	-12.9138
중독자	-12.9138
보웬	-12.9138
했으나	-12.9139
간절	-12.9139
플레이어	-12.9139
쌓여	-12.9139
벌목	-12.9139
품위	-12.914
드영	-12.9141
난파	-12.9141
격투기	-12.9141
천진	-12.9142
소망	-12.9142
맞설	-12.9143
...	-12.9143
위독	-12.9143
원천	-12.9143
구치	-12.9143
간츠	-12.9143
진범	-12.9144
비바람	-12.9144
장강	-12.9144
어린이집	-12.9145
시켜야	-12.9145
다가올	-12.9145
곧바로	-12.9145
연발	-12.9145
폴터	-12.9146
왕족	-12.9146
네버	-12.9146
합성	-12.9146
포즈	-12.9146
케이스	-12.9147
청산	-12.9147
과감히	-12.9147
빈더	-12.9147
두드리	-12.9148
단테	-12.9148
박차	-12.9148
상경	-12.9148
부임	-12.9148
바짝	-12.9149
될까	-12.9149
서약	-12.9149
살인극	-12.9149
유명세	-12.9149
주교	-12.9149
코트	-12.9149
진입	-12.9149
연구실	-12.915
무당	-12.915
번성	-12.9151
마음대로	-12.9151
키티	-12.9151
계왕	-12.9151
에이치	-12.9152
손잡이	-12.9152
빠져든	-12.9152
달라도	-12.9154
방사	-12.9154
잠식	-12.9154
원형	-12.9154
걸친	-12.9155
바쳐	-12.9155
카린	-12.9155
강도단	-12.9156
반정부	-12.9156
복지	-12.9157
완벽히	-12.9157
비교	-12.9157
잭맨	-12.9157
져간다	-12.9157
등교	-12.9157
입히	-12.9157
우물	-12.9158
노타	-12.9158
금서	-12.9158
신약	-12.9159
소용	-12.9159
대접	-12.9159
중령	-12.916
전투력	-12.916
라우리	-12.9161
혈기	-12.9161
재건	-12.9161
최선	-12.9162
중앙	-12.9162
크루스	-12.9162
생포	-12.9162
소질	-12.9163
안겨	-12.9163
다가간다	-12.9163
마루	-12.9164
레비	-12.9164
대장인	-12.9164
단검	-12.9164
행적	-12.9166
루비	-12.9166
오언	-12.9166
편할	-12.9166
말린다	-12.9167
재력	-12.9167
신청	-12.9167
바로잡	-12.9167
파파	-12.9167
번져	-12.9168
버니	-12.9169
음직	-12.9169
카르	-12.9169
강력계	-12.9169
호위	-12.917
휴일	-12.917
무천	-12.917
반티	-12.9172
비토	-12.9173
정보원	-12.9174
재생	-12.9174
건조	-12.9174
유령선	-12.9175
방불	-12.9175
연구원	-12.9177
우편	-12.9177
조우	-12.9177
발동	-12.9178
천부	-12.9178
내릴	-12.9178
신경전	-12.9178
별명	-12.9179
오브라이언	-12.918
마코	-12.918
풀러	-12.9181
레더	-12.9181
상위	-12.9181
신검	-12.9182
조위	-12.9182
날뛰	-12.9182
위트	-12.9183
온난	-12.9183
입력	-12.9183
저편	-12.9185
예술가	-12.9186
형식	-12.9186
장르	-12.9189
니타	-12.919
건달	-12.919
아킴	-12.919
마키	-12.919
세포	-12.919
미카	-12.9191
키드	-12.9192
밤거리	-12.9192
해안가	-12.9194
남친	-12.9195
활약상	-12.9196
증인	-12.9196
스즈	-12.9197
배려	-12.9198
쪽지	-12.9198
감사	-12.9199
레이번	-12.9199
기치	-12.9199
맞선	-12.9202
농장주	-12.9202
리호	-12.9203
카카	-12.9204
나올	-12.9204
괴상	-12.9205
장구	-12.9206
애비	-12.9209
수익	-12.9209
빙의	-12.9209
마왕	-12.9211
호온	-12.9211
시종	-12.9212
발발	-12.9212
시초	-12.9213
폐가	-12.9215
단계	-12.9215
경기장	-12.9216
예지	-12.9217
오천	-12.9218
지킴	-12.9218
토라	-12.922
마트	-12.922
대디	-12.9222
공포물	-12.9226
제자리	-12.9226
북한	-12.9226
통로	-12.9227
따라서	-12.9228
단란	-12.9228
일약	-12.9229
볼일	-12.923
소진	-12.9231
해파리	-12.9232
우승자	-12.9232
힘쓰	-12.9232
범상	-12.9233
밤새	-12.9233
저명	-12.9234
가리키	-12.9234
우라	-12.9234
술사	-12.9235
다시금	-12.9236
마력	-12.9239
세트	-12.9239
막아서	-12.9239
스모	-12.924
자연사	-12.9242
제드	-12.9243
후빌	-12.9243
임시	-12.9244
광고	-12.9245
때려	-12.9249
시카	-12.9249
조직력	-12.9249
남겨진다	-12.9249
수소문	-12.9249
기옥	-12.9252
안티	-12.9254
눈길	-12.9256
다가온	-12.9257
코라	-12.9257
일어서	-12.9257
제타	-12.9259
방치	-12.9263
날씨	-12.9264
숨긴다	-12.9264
호소	-12.9264
대책	-12.9264
메리다	-12.9264
미시	-12.9266
끝없이	-12.9267
내키	-12.9268
전처	-12.9269
다이안	-12.9269
마리오	-12.927
진단	-12.927
매사	-12.9272
정장	-12.9275
반크	-12.9281
하나하나	-12.9286
성당	-12.9287
문신	-12.9288
지낼	-12.9289
일족	-12.9289
주로	-12.9292
군주	-12.9295
나호	-12.9301
수사망	-12.9303
노만	-12.9306
아렌	-12.9313
안개	-12.9315
주입	-12.9315
진행자	-12.9319
자청	-12.932
나우	-12.9325
동기	-12.9334
이터널	-12.9339
둔다	-12.9342
되돌려	-12.9343
원치	-12.9344
기묘	-12.9344
부여	-12.9345
메이어	-12.9345
다시피	-12.9349
일자리	-12.9353
으려다	-12.9354
아톰	-12.9361
지낸	-12.9362
호보	-12.9364
이아고	-12.9372
형상	-12.9377
방문자	-12.9377
강자	-12.9381
파일	-12.9382
지촌	-12.9384
나미	-12.9386
밤비	-12.9389
마소	-12.9391
ol	-12.9391
소집	-12.9397
후손	-12.9399
매수	-12.9407
수세기	-12.9407
전격	-12.9408
더불	-12.941
기능	-12.9411
도전장	-12.942
결의	-12.9421
수상자	-12.9433
크리	-12.944
여기자	-12.944
반스	-12.9449
저기	-12.9451
더없이	-12.9451
이삭	-12.9452
시내	-12.9458
자질	-12.9464
등대	-12.947
속마음	-12.9471
입사	-12.9473
지점	-12.9474
마중	-12.9478
새해	-12.9479
제대	-12.9499
가졌	-12.9503
사부	-12.9505
한데	-12.9518
집채	-12.952
암흑가	-12.9521
무전	-12.9525
물리학	-12.9534
투자	-12.954
개리	-12.9545
무이	-12.9546
나부	-12.9549
반전	-12.9553
세라	-12.9554
주차	-12.9557
단속	-12.9561
소행성	-12.9567
날개	-12.9583
악과	-12.9589
지루	-12.9591
하이드	-12.9597
에밀리아	-12.9604
기르	-12.9609
아무것	-12.962
신세계	-12.9662
파장	-12.9669
상해	-12.967
한바탕	-12.9672
인디	-12.9676
일정	-12.9685
귀인	-12.9702
지병	-12.9717
주간	-12.973
해피	-12.9759
이룰	-12.9762
도입	-12.9773
소설가	-12.9788
미용	-12.9793
50	-12.9817
가업	-12.982
조수	-12.9822
건장	-12.9842
전편	-12.9858
코로	-12.9863
해제	-12.9876
고쿠	-12.9909
해선	-12.9918
신전	-12.9931
음악가	-12.9941
내전	-12.9947
진과	-12.9949
속내	-12.9953
도달	-12.9958
고뇌	-12.9958
자정	-12.9977
열기	-13.0016
자신감	-13.0024
문제아	-13.0032
학원	-13.0044
여행자	-13.0059
나나	-13.0061
강가	-13.0063
초기	-13.0073
한층	-13.0081
다친	-13.0082
진정한	-13.0102
라오	-13.0102
진지	-13.0104
도피	-13.0106
전신	-13.0109
재기	-13.0131
일명	-13.015
위해선	-13.0164
모모	-13.0182
과외	-13.0185
나날이	-13.0187
새로이	-13.0187
인구	-13.0198
하객	-13.0208
게토	-13.0209
일시	-13.0225
서장	-13.0231
하필	-13.0245
사병	-13.0246
에버스	-13.0278
소화	-13.0337
이래	-13.0338
at	-13.0394
▁90	-13.0397
참고	-13.041
릴라	-13.0437
조로	-13.0443
우주인	-13.0455
명문	-13.0482
SS	-13.0518
XPN	-13.0522
로열	-13.054
J	-13.0541
게티	-13.056
날라	-13.0594
괴이	-13.0599
귀가	-13.0619
as	-13.0632
강의	-13.0688
기존	-13.0714
밀리	-13.0828
한판	-13.0843
도비	-13.1046
찌	-13.1065
벼락	-13.1081
곱	-13.1086
NG	-13.1099
서두르	-13.1102
바구니	-13.1102
뚱뚱	-13.1102
▁Ken	-13.1102
쓸어버리	-13.1102
팔아넘기	-13.1102
if	-13.1102
고달프	-13.1102
부러지	-13.1102
미워하	-13.1102
ic	-13.1102
젠틀	-13.1102
슬럼	-13.1102
man	-13.1102
쫓아오	-13.1102
룩스	-13.1102
컨트리	-13.1102
홍수	-13.1102
순찰	-13.1102
겨누	-13.1102
다구요	-13.1103
곡예	-13.1103
띄우	-13.1103
몰아가	-13.1103
닫히	-13.1103
숨어들	-13.1103
탈영	-13.1104
아시아	-13.1106
점프	-13.1106
유혈	-13.1106
인공물	-13.1106
현관	-13.1106
설레	-13.1107
회계	-13.1107
창시	-13.1108
고장나	-13.1109
바닥나	-13.1109
넘어서	-13.1109
야영	-13.1111
유예	-13.1112
잠복	-13.1112
당부	-13.1114
탄탄	-13.1114
수명	-13.1116
벨트	-13.1117
화폐	-13.1118
방패	-13.1118
디디	-13.1119
가진다	-13.112
데이터	-13.114
간병	-13.1141
냐고	-13.1146
공포증	-13.1148
조력	-13.1152
소외	-13.1154
유치	-13.1155
휴양	-13.1156
무역	-13.1158
타오르	-13.1164
기발	-13.1165
조르	-13.1169
조개	-13.1192
▁Dr	-13.1209
수완	-13.1212
미문	-13.1214
놓친	-13.1215
으로써	-13.1224
비키	-13.1229
기쁘	-13.1231
내리치	-13.1235
송신	-13.124
피서	-13.1248
원주	-13.1267
소리치	-13.1283
모여들	-13.133
다가서	-13.1351
고국	-13.1368
▁Po	-13.137
고담	-13.1376
부치	-13.1394
대서	-13.1482
살피	-13.1501
▁180	-13.1557
잡혀가	-13.1587
th	-13.1654
불린	-13.1662
뒤섞	-13.1782
앤드	-13.1978
중개	-13.2002
▁Ba	-13.2005
빼돌	-13.2046
수정	-13.2227
기척	-13.2278
사이클	-13.2986
?	-13.3008
lo	-13.3015
결사	-13.3213
티타	-13.3396
리얼	-13.3477
났	-13.3527
탈리아	-13.3544
훈	-13.3554
둠	-13.3563
칭	-13.3565
제정	-13.3565
감히	-13.3566
망쳐	-13.3567
둑	-13.3569
노린	-13.3571
핸	-13.3585
쩌	-13.3589
괴롭힌	-13.3593
쫓아간	-13.3593
알아낸	-13.3593
받아들인	-13.3594
따른	-13.3594
mb	-13.3595
맴	-13.3595
부러울	-13.3596
쩍	-13.3597
롬	-13.3597
셸	-13.3597
룩	-13.3598
헐	-13.3598
덩	-13.3599
퍼진	-13.3599
헌	-13.3599
굶	-13.3599
뭇	-13.3599
엑	-13.3599
에스텔	-13.36
피비린	-13.36
브룩	-13.3601
황무	-13.3601
걱	-13.3601
패드	-13.3601
튜	-13.3601
세일즈	-13.3601
곽	-13.3601
스패로	-13.3601
엉	-13.3601
랍	-13.3601
큐	-13.3601
동고동락	-13.3602
부러워	-13.3602
어설픈	-13.3602
파헤친다	-13.3602
헤맨다	-13.3602
헤엄쳐	-13.3602
넘긴다	-13.3602
누빈다	-13.3602
캄	-13.3602
떨어뜨린	-13.3602
망망대해	-13.3602
무미건조	-13.3602
변두리	-13.3602
쓰러져	-13.3602
아름다워	-13.3602
옥수수	-13.3602
올라탄다	-13.3602
위조지폐	-13.3602
줄행랑	-13.3602
책임져야	-13.3602
등대지기	-13.3602
호숫가	-13.3602
돌아갔	-13.3602
빠뜨린	-13.3602
서둘러	-13.3602
뿔	-13.3602
살아났	-13.3602
요하네스	-13.3602
all	-13.3602
lar	-13.3602
▁페번시	-13.3602
가톨릭	-13.3602
개구쟁이	-13.3602
고스란히	-13.3602
공무원	-13.3602
김승기	-13.3602
꽃미남	-13.3602
나폴레옹	-13.3602
남달랐	-13.3602
노랫소리	-13.3602
노르망디	-13.3602
놀러갔	-13.3602
닥쳐올	-13.3602
대공습	-13.3602
데려온다	-13.3602
데이비슨	-13.3602
데자뷰	-13.3602
디카프리오	-13.3602
딜레마	-13.3602
떠올린다	-13.3602
떨어졌	-13.3602
뛰어드	-13.3602
뜨거웠	-13.3602
라스푸틴	-13.3602
라플란드	-13.3602
래드클리프	-13.3602
레골라스	-13.3602
레베카	-13.3602
레티시아	-13.3602
로맨티스트	-13.3602
록산느	-13.3602
루벤스타인	-13.3602
루이지애나	-13.3602
루즈벨트	-13.3602
룬드그렌	-13.3602
리얼리티	-13.3602
마드리갈	-13.3602
마드리드	-13.3602
마스코트	-13.3602
맥시멀	-13.3602
맥커너히	-13.3602
맥컬리	-13.3602
맹렬히	-13.3602
멋쟁이	-13.3602
메리웨더	-13.3602
메릴랜드	-13.3602
메피스토	-13.3602
메피스토펠레스	-13.3602
모랄레스	-13.3602
모조품	-13.3602
무너뜨리	-13.3602
물러난다	-13.3602
미시시피	-13.3602
바르보사	-13.3602
바르샤바	-13.3602
바퀴벌레	-13.3602
박스오피스	-13.3602
버라이어티	-13.3602
베리모어	-13.3602
베오울프	-13.3602
벨레로폰	-13.3602
보잘것없	-13.3602
볼드윈	-13.3602
부스러기	-13.3602
불태워	-13.3602
브라우닝	-13.3602
브래너	-13.3602
브래트	-13.3602
브롤린	-13.3602
블레이즈	-13.3602
비즈니스	-13.3602
비칸데르	-13.3602
빈틈없	-13.3602
빠뜨려	-13.3602
빠트린	-13.3602
삼합회	-13.3602
샌드맨	-13.3602
샹크스	-13.3602
세일럼	-13.3602
소울메이트	-13.3602
속삭인다	-13.3602
쇼트케이크	-13.3602
순순히	-13.3602
슈나이더	-13.3602
슈베르트	-13.3602
슈왈제네거	-13.3602
슈퍼마켓	-13.3602
슈퍼플라이	-13.3602
스케줄	-13.3602
스코필드	-13.3602
스태덤	-13.3602
스털링	-13.3602
스테파노	-13.3602
스테파니	-13.3602
스토커	-13.3602
스튜어트	-13.3602
스트레스	-13.3602
스트롱	-13.3602
슬레이드	-13.3602
슬로바키아	-13.3602
시끌벅적	-13.3602
시뮬레이션	-13.3602
시시각각	-13.3602
신성모독	-13.3602
심부름	-13.3602
쓰러질	-13.3602
쓰러트리	-13.3602
아메리칸	-13.3602
아브라함	-13.3602
아웃사이더	-13.3602
아즈텍	-13.3602
안타깝	-13.3602
알렉산더	-13.3602
알베르토	-13.3602
알츠하이머	-13.3602
애나벨	-13.3602
애프터	-13.3602
앤서니	-13.3602
얼어붙	-13.3602
얽매이	-13.3602
엇갈리	-13.3602
에스메랄다	-13.3602
엘리베이터	-13.3602
오리엔트	-13.3602
오리지널	-13.3602
오컬트	-13.3602
올드먼	-13.3602
올림포스	-13.3602
요리조리	-13.3602
요세프	-13.3602
요츠바	-13.3602
위더스푼	-13.3602
윌리암스	-13.3602
유니버스	-13.3602
유토피아	-13.3602
음담패설	-13.3602
이구아노돈	-13.3602
이리저리	-13.3602
이스라엘	-13.3602
이스탄불	-13.3602
이야말로	-13.3602
인디펜던스	-13.3602
인피니티	-13.3602
일망타진	-13.3602
일으킬	-13.3602
잊혀졌	-13.3602
잡동사니	-13.3602
재클린	-13.3602
저널리스트	-13.3602
전염병	-13.3602
제럴드	-13.3602
제멋대로	-13.3602
죠슈아	-13.3602
짝달싹	-13.3602
찢어질	-13.3602
천천히	-13.3602
체르노빌	-13.3602
첼리오스	-13.3602
촬영차	-13.3602
친일파	-13.3602
카델리니	-13.3602
카츠모토	-13.3602
카츠키	-13.3602
카타콤	-13.3602
카펠라	-13.3602
칼립소	-13.3602
캄보디아	-13.3602
커티스	-13.3602
컨퍼런스	-13.3602
케네디	-13.3602
케네스	-13.3602
콘스탄틴	-13.3602
콘티넨탈	-13.3602
퀴디치	-13.3602
크로프트	-13.3602
크롬웰	-13.3602
크리스토프	-13.3602
크세르크세스	-13.3602
클라이맥스	-13.3602
클랜시	-13.3602
탈레반	-13.3602
테렌스	-13.3602
텍	-13.3602
통행증	-13.3602
트라볼타	-13.3602
트란실바니아	-13.3602
트랙터	-13.3602
파시스트	-13.3602
파운데이션	-13.3602
패트리샤	-13.3602
팩스턴	-13.3602
팬케이크	-13.3602
퍼부으	-13.3602
퍼포먼스	-13.3602
페레즈	-13.3602
펙	-13.3602
펜타곤	-13.3602
펼쳐질까	-13.3602
포카혼타스	-13.3602
프랑수아	-13.3602
프로그래밍	-13.3602
프로메테우스	-13.3602
프로페서	-13.3602
프린즈	-13.3602
플래너	-13.3602
피아니스트	-13.3602
합창단	-13.3602
허덕이	-13.3602
허수아비	-13.3602
허큘리스	-13.3602
헨릭슨	-13.3602
헬레네	-13.3602
히드라	-13.3602
히틀러	-13.3602
가져올	-13.3602
글로버	-13.3602
기회주의자	-13.3602
도널드	-13.3602
뒤집어쓴	-13.3602
뛰어다니	-13.3602
뜬금없	-13.3602
무작정	-13.3602
미라벨	-13.3602
미라즈	-13.3602
베어울프	-13.3602
브렌다	-13.3602
사교계	-13.3602
사이코패스	-13.3602
사이프리드	-13.3602
사츠키	-13.3602
사쿠라	-13.3602
산산조각	-13.3602
삼지창	-13.3602
상급생	-13.3602
셀리나	-13.3602
소림사	-13.3602
스며든	-13.3602
스쿠비	-13.3602
아랑곳	-13.3602
아슬란	-13.3602
알렉사	-13.3602
알코올	-13.3602
야유회	-13.3602
엘비스	-13.3602
위노나	-13.3602
재스민	-13.3602
재커리	-13.3602
제스처	-13.3602
추기경	-13.3602
캐스트	-13.3602
크라운	-13.3602
키리토	-13.3602
키메라	-13.3602
타케시	-13.3602
털어놓	-13.3602
테이텀	-13.3602
파라즈	-13.3602
호루스	-13.3602
호타카	-13.3602
넘어선	-13.3602
단조로운	-13.3602
마타타	-13.3602
박살내	-13.3602
불치병	-13.3602
비춘다	-13.3602
스러울	-13.3602
아이언스	-13.3602
안테나	-13.3602
알카디	-13.3602
애리조	-13.3602
오라클	-13.3602
올로프	-13.3602
쫓겨났	-13.3602
투리스모	-13.3602
나일강	-13.3602
내다볼	-13.3602
메두사	-13.3602
물러날	-13.3602
미어캣	-13.3602
부추기	-13.3602
암파로	-13.3602
에저튼	-13.3602
점박이	-13.3602
차우더	-13.3602
키무라	-13.3602
깨어났	-13.3602
나무늘보	-13.3602
네이션	-13.3602
닥쳐오	-13.3602
대물림	-13.3602
떨어뜨리	-13.3602
백화점	-13.3602
빠트릴	-13.3602
빼어난	-13.3602
생필품	-13.3602
세르게이	-13.3602
시끄러운	-13.3602
시끄럽	-13.3602
식료품	-13.3602
신용카드	-13.3602
아닐까	-13.3602
아이스크림	-13.3602
안토니오	-13.3602
애드리안	-13.3602
애드리언	-13.3602
옥토퍼스	-13.3602
유목민	-13.3602
윤곽	-13.3602
일거수일투족	-13.3602
조슈아	-13.3602
채리티	-13.3602
천진난만	-13.3602
철조망	-13.3602
토착민	-13.3602
한결같이	-13.3602
헤로인	-13.3602
흥겨운	-13.3602
cho	-13.3602
도노반	-13.3602
러팔로	-13.3602
마카오	-13.3602
무용단	-13.3602
수르트	-13.3602
안드레아	-13.3602
양탄자	-13.3602
일그러진	-13.3602
쾌락주의	-13.3602
나타내	-13.3602
넘어온	-13.3602
때려치우	-13.3602
마갈리	-13.3602
소용돌이	-13.3602
알리바이	-13.3602
은근히	-13.3602
휴게소	-13.3602
눈부신	-13.3602
다녀오	-13.3602
부조리	-13.3602
비지니스	-13.3602
솔깃	-13.3602
피어슨	-13.3602
겨냥	-13.3602
과잉보호	-13.3602
급작스런	-13.3602
길들여진	-13.3602
독립기념일	-13.3602
돌기둥	-13.3602
무로마치	-13.3602
무일푼	-13.3602
미란다	-13.3602
세탁소	-13.3602
스트로베리	-13.3602
시행착오	-13.3602
아바돈	-13.3602
얀센	-13.3602
염라대왕	-13.3602
저질렀	-13.3602
종횡무진	-13.3602
주정뱅이	-13.3602
짜여진	-13.3602
초특급	-13.3602
타고났	-13.3602
타임캡슐	-13.3602
털북숭이	-13.3602
트로트	-13.3602
평균	-13.3602
해수욕장	-13.3602
내세울	-13.3602
엉킨	-13.3602
지질학자	-13.3602
천문학	-13.3602
골고다	-13.3602
누군지	-13.3602
대장장이	-13.3602
임산부	-13.3602
흑사병	-13.3602
대마초	-13.3602
들려준	-13.3602
앵그리	-13.3602
에테르	-13.3602
오사카	-13.3602
이즐리	-13.3602
튜링	-13.3602
다우니	-13.3602
부턴가	-13.3602
에프론	-13.3602
카르멘	-13.3602
풋풋	-13.3602
브라이드	-13.3602
여대생	-13.3602
양로원	-13.3602
해빙기	-13.3602
똑똑	-13.3602
맨하탄	-13.3602
불어난	-13.3602
숨어든	-13.3602
견습생	-13.3602
기절초풍	-13.3602
기호학	-13.3602
뒷골목	-13.3602
촬영장	-13.3602
하운드	-13.3602
활화산	-13.3602
흘러나온다	-13.3602
기울여	-13.3602
뉴포트	-13.3602
밀입국	-13.3602
솔로몬	-13.3602
완료	-13.3602
이츠키	-13.3602
전속력	-13.3602
찰톤	-13.3602
태어날	-13.3602
트레이닝	-13.3602
함부로	-13.3602
가면라이더	-13.3602
눈치챈	-13.3602
받아들일	-13.3602
피서객	-13.3602
이정표	-13.3602
ley	-13.3602
서사시	-13.3602
아델라이드	-13.3602
호스텔	-13.3602
베로나	-13.3602
트루먼	-13.3602
야지드	-13.3602
주파수	-13.3602
타이타닉	-13.3602
ine	-13.3602
걸어온	-13.3602
골딩	-13.3602
굿윈	-13.3602
굿이어	-13.3602
쾌락	-13.3602
구두쇠	-13.3602
딱딱	-13.3602
멜라니	-13.3602
잉태	-13.3602
종지기	-13.3602
클루니	-13.3602
노하우	-13.3602
대수롭	-13.3602
찾아다니	-13.3602
캘빈	-13.3602
덴햄	-13.3602
랩퍼	-13.3602
사무엘	-13.3602
징표	-13.3602
룸서비스	-13.3602
자전거	-13.3602
타락천사	-13.3602
도날드	-13.3602
쿠삭	-13.3602
하누만	-13.3602
규율	-13.3602
스즈메	-13.3602
핵미사일	-13.3602
훈족	-13.3602
라이트닝	-13.3602
깨어날	-13.3602
뮤츠	-13.3602
빈털터리	-13.3602
자만심	-13.3602
ann	-13.3602
첫인상	-13.3602
헤롯	-13.3602
헤어졌	-13.3602
광산촌	-13.3602
끌로드	-13.3602
살아왔	-13.3602
살핀다	-13.3602
위원회	-13.3602
퇴짜	-13.3602
타이밍	-13.3602
흉악범	-13.3602
출판	-13.3602
틴틴	-13.3602
도망칠	-13.3602
ree	-13.3602
종업원	-13.3602
디자인	-13.3602
연합함대	-13.3602
고메스	-13.3602
양육권	-13.3602
성주신	-13.3602
가타카	-13.3602
냉철	-13.3602
미시족	-13.3602
내다보	-13.3602
마도사	-13.3602
그리하여	-13.3602
꾀임	-13.3602
다락방	-13.3602
마코토	-13.3602
아더스	-13.3602
업로드	-13.3602
테크닉	-13.3602
라르고	-13.3602
유리창	-13.3602
뮤직	-13.3602
여우원숭이	-13.3602
합친다	-13.3602
혼령	-13.3602
나키아	-13.3602
맴돈	-13.3602
일반인	-13.3602
건전지	-13.3602
코미디언	-13.3602
가려진	-13.3602
기동대	-13.3602
넘어와	-13.3602
한가운데서	-13.3602
급격히	-13.3602
날아간다	-13.3602
퇴폐	-13.3602
스펙터클	-13.3602
실버라도	-13.3602
의무병	-13.3602
배관공	-13.3602
축출	-13.3602
정화통	-13.3602
탈주범	-13.3602
익힌	-13.3602
오대수	-13.3602
하여금	-13.3602
때려잡	-13.3602
미나토	-13.3602
크리티	-13.3602
고른다	-13.3602
침묵	-13.3602
탈퇴	-13.3602
고분고분	-13.3602
빨강	-13.3602
▁189	-13.3602
금액	-13.3602
듀브	-13.3602
패셔	-13.3602
투모로우	-13.3602
흑기사	-13.3602
홍루	-13.3602
이디스	-13.3603
앙헬	-13.3603
헬레나	-13.3603
모하비	-13.3603
쓰인다	-13.3603
압류	-13.3603
인더스	-13.3603
흉악	-13.3603
가려내	-13.3603
할리데이	-13.3603
맹활약	-13.3603
프랫	-13.3603
가르친다	-13.3603
수상쩍	-13.3603
활강	-13.3603
소개팅	-13.3603
쳐들어온다	-13.3603
갑옷	-13.3603
수도승	-13.3603
찾아나서	-13.3603
간절히	-13.3603
리처드슨	-13.3603
발타자르	-13.3603
id	-13.3603
머셋	-13.3603
꾸린다	-13.3603
너희	-13.3603
봉착	-13.3603
쓰레기통	-13.3603
먹인다	-13.3603
옥토	-13.3603
스며들	-13.3603
백억	-13.3603
기꺼이	-13.3603
동맹군	-13.3603
스테이섬	-13.3603
요리점	-13.3603
상당히	-13.3603
이력서	-13.3603
빠질	-13.3603
홀리데이	-13.3603
발표회	-13.3603
아도니스	-13.3603
방위군	-13.3603
별칭	-13.3603
루돌프	-13.3603
경희	-13.3603
쿠니스	-13.3603
헤메	-13.3603
이네스	-13.3603
뛰어가	-13.3603
살아갈	-13.3603
캔트	-13.3603
le	-13.3603
굴착	-13.3603
즉각	-13.3603
창녀	-13.3603
사들여	-13.3603
달려간다	-13.3603
단순히	-13.3603
셸비	-13.3603
거북선	-13.3603
교묘	-13.3603
난데없	-13.3603
짜증	-13.3603
꺼져	-13.3603
패리스	-13.3603
탐낸	-13.3603
합격	-13.3603
헌신	-13.3603
헤어져	-13.3603
포옹	-13.3603
풍운	-13.3603
종합	-13.3603
토랜스	-13.3603
톱스타	-13.3603
트리쉬	-13.3603
으론	-13.3603
출혈	-13.3603
설립	-13.3603
빼돌려	-13.3603
사만다	-13.3603
경솔	-13.3603
지저분	-13.3603
냉동	-13.3603
이치카	-13.3603
헤스톤	-13.3603
십자군	-13.3604
늦잠	-13.3604
촉발	-13.3604
쾌감	-13.3604
삭막	-13.3604
es	-13.3604
레인져	-13.3604
불사조	-13.3604
시에나	-13.3604
밑바닥	-13.3604
쇠약	-13.3604
전장터	-13.3604
난장이	-13.3604
다든지	-13.3604
다리우스	-13.3604
플랫	-13.3604
겨울잠	-13.3604
몬트	-13.3604
가로막히	-13.3604
도적질	-13.3604
국립	-13.3604
핵실험	-13.3604
퇴학	-13.3604
순탄	-13.3604
합심	-13.3604
유무죄	-13.3604
모욕감	-13.3604
화물선	-13.3604
소문난	-13.3604
복역	-13.3604
윈드	-13.3604
매춘부	-13.3604
풍경	-13.3604
이중생활	-13.3604
기울이	-13.3604
다이얼	-13.3604
잉크	-13.3604
언변	-13.3604
의사소통	-13.3604
헐리	-13.3604
래디	-13.3604
추진력	-13.3604
헤일리	-13.3604
당당	-13.3604
사무소	-13.3604
셔터	-13.3604
욕설	-13.3605
까칠	-13.3605
잔당	-13.3605
결백	-13.3605
월스트리트	-13.3605
스키터	-13.3605
뚫린	-13.3605
최상위	-13.3605
역부족	-13.3605
싸늘	-13.3605
이라크	-13.3605
메뉴	-13.3605
구현	-13.3605
출판사	-13.3605
취재	-13.3605
패권	-13.3605
관측	-13.3605
일부러	-13.3605
결별	-13.3605
다이너	-13.3605
부정부패	-13.3605
끝장내	-13.3605
변변	-13.3605
도망갈	-13.3605
불행히	-13.3605
월드컵	-13.3605
통역사	-13.3605
흉터	-13.3605
코믹	-13.3605
좌절감	-13.3605
흑조	-13.3605
풍요	-13.3605
끼우	-13.3605
핵무기	-13.3605
도살자	-13.3605
망각	-13.3605
샌더	-13.3605
틀린	-13.3605
하이킹	-13.3605
모과이	-13.3605
지휘봉	-13.3605
넬리	-13.3605
플레이보이	-13.3605
밀회	-13.3605
백색	-13.3605
네이던	-13.3605
퇴물	-13.3606
약혼식	-13.3606
골동	-13.3606
바리새인	-13.3606
브룩스	-13.3606
부쩍	-13.3606
따돌린다	-13.3606
완전체	-13.3606
육군	-13.3606
동림	-13.3606
쫓아낸다	-13.3606
격추	-13.3606
놀이터	-13.3606
칼럼	-13.3606
민병대	-13.3606
대서사	-13.3606
일리아	-13.3606
맥아담스	-13.3606
셰리	-13.3606
켈리	-13.3606
복잡	-13.3606
앤소니	-13.3606
스테이시	-13.3606
재스퍼	-13.3606
결판	-13.3606
속상한	-13.3606
대사관	-13.3606
홀린	-13.3606
해독제	-13.3606
끼니	-13.3606
살아날	-13.3606
크리스티안	-13.3606
낙심	-13.3606
제롬	-13.3606
공권력	-13.3606
떠안	-13.3606
쿠파	-13.3606
유모차	-13.3606
심령	-13.3606
슈트	-13.3606
맥콜	-13.3606
향했	-13.3606
게이츠	-13.3606
쿠키	-13.3606
불러들인다	-13.3606
머레이	-13.3606
배꼽	-13.3607
발전소	-13.3607
매달린	-13.3607
대접전	-13.3607
자금력	-13.3607
가져가	-13.3607
정립	-13.3607
으라고	-13.3607
자유분방	-13.3607
항구	-13.3607
켄트	-13.3607
코프사	-13.3607
친척	-13.3607
넬스	-13.3607
훈장	-13.3607
레슬러	-13.3607
이방인	-13.3607
킨더	-13.3607
에너지원	-13.3607
정비소	-13.3607
데비안	-13.3607
복구	-13.3607
밀려나	-13.3607
교토	-13.3607
힌트	-13.3607
석우	-13.3607
게이머	-13.3607
멘데스	-13.3607
파고들	-13.3607
항공편	-13.3607
갈림	-13.3607
속임수	-13.3607
경매	-13.3608
알려졌	-13.3608
애써	-13.3608
유창	-13.3608
하이퍼	-13.3608
백방	-13.3608
축구팀	-13.3608
봐야	-13.3608
밀려오	-13.3608
영춘	-13.3608
킨스	-13.3608
미스테리오	-13.3608
결론	-13.3608
덕목	-13.3608
검투사	-13.3608
탑승객	-13.3608
엔딩	-13.3608
작용	-13.3608
노이드	-13.3608
토요일	-13.3608
래피	-13.3608
친형제	-13.3608
커진다	-13.3608
걸음마	-13.3608
매달려	-13.3608
홍보	-13.3608
유치장	-13.3608
밝혀낸다	-13.3608
뒤로한	-13.3608
푹신	-13.3608
퇴마	-13.3608
동반자	-13.3608
근데	-13.3608
재소자	-13.3609
크롤러	-13.3609
상실감	-13.3609
뇌물	-13.3609
눈꼽	-13.3609
상륙	-13.3609
메이슨	-13.3609
타이타	-13.3609
건너편	-13.3609
윌버그	-13.3609
바라바	-13.3609
유전학	-13.3609
지하보도	-13.3609
퍼드	-13.3609
홀트	-13.3609
드라이브	-13.3609
드레이크	-13.3609
바나나	-13.3609
월요일	-13.3609
내려야	-13.3609
핵심	-13.3609
데일리	-13.3609
루시퍼	-13.3609
크리스텔	-13.3609
유일무이	-13.3609
욕실	-13.3609
브룸	-13.3609
수하물	-13.3609
불타오르	-13.3609
루카스	-13.3609
디컨	-13.361
떠보	-13.361
급성장	-13.361
동결	-13.361
잡아가	-13.361
추천장	-13.361
춤추	-13.361
청동	-13.361
앙크	-13.361
지점장	-13.361
귀향	-13.361
도로변	-13.361
욕정	-13.361
망가진	-13.361
팀워크	-13.361
배넌	-13.361
국토	-13.361
불쑥	-13.361
예외	-13.361
추운	-13.361
그리핀	-13.361
구워	-13.3611
예방	-13.3611
결정짓	-13.3611
그럴싸한	-13.3611
낙마	-13.3611
급변	-13.3611
생고생	-13.3611
현명	-13.3611
밀실	-13.3611
급부상	-13.3611
브리스	-13.3611
베넷	-13.3611
ᅥ야	-13.3611
독거미	-13.3611
쫓아간다	-13.3611
괴롭힌다	-13.3611
팅크	-13.3611
금괴	-13.3611
랜스	-13.3611
단세포	-13.3611
그린필드	-13.3611
복무	-13.3611
홍해	-13.3612
광선	-13.3612
빈촌	-13.3612
종용	-13.3612
몰락	-13.3612
워터	-13.3612
사칭	-13.3612
퍼진다	-13.3612
해서웨이	-13.3612
캐슬	-13.3612
빠져나온	-13.3612
조롱	-13.3612
파피용	-13.3612
붙여	-13.3612
챔피언십	-13.3612
메이저	-13.3612
공허	-13.3612
아이패드	-13.3612
허공	-13.3612
종결자	-13.3612
조이스	-13.3612
룰루	-13.3612
메탈	-13.3612
선교	-13.3612
공교	-13.3612
광야	-13.3613
싫증	-13.3613
강해진다	-13.3613
꽃길	-13.3613
쿠차	-13.3613
유머	-13.3613
비밀결사	-13.3613
미노스	-13.3613
도박판	-13.3613
심리학자	-13.3613
황소	-13.3613
재활	-13.3613
업원	-13.3613
트램프	-13.3613
강간범	-13.3613
로저스	-13.3614
헤일	-13.3614
스마트	-13.3614
스쿨	-13.3614
절박	-13.3614
브랜드	-13.3614
리로이	-13.3614
토르메	-13.3614
금광	-13.3614
그지없	-13.3614
추악	-13.3614
감탄	-13.3614
방랑	-13.3614
모텔	-13.3614
막달라	-13.3614
유독	-13.3614
휴머	-13.3615
감싸	-13.3615
마스크맨	-13.3615
카메라맨	-13.3615
우림	-13.3615
골라	-13.3615
첩보전	-13.3615
브록	-13.3616
매복	-13.3616
반납	-13.3616
포트만	-13.3616
용암	-13.3616
재혼	-13.3616
위압	-13.3616
데미스	-13.3616
동요	-13.3616
데렉	-13.3616
점거	-13.3616
미궁	-13.3616
공급자	-13.3616
약탈자	-13.3616
따내	-13.3616
러스티	-13.3616
파웰	-13.3616
들어선다	-13.3616
구형	-13.3616
슈치	-13.3616
올라간다	-13.3616
맡긴다	-13.3616
표시	-13.3617
증발	-13.3617
쿠시	-13.3617
터진다	-13.3617
요트	-13.3617
단기간	-13.3617
정교	-13.3617
호빗	-13.3617
흐리	-13.3617
담겨	-13.3617
헬라	-13.3617
변했	-13.3617
지지자	-13.3617
모태	-13.3617
지켜본다	-13.3617
악녀	-13.3617
연대기	-13.3617
생이별	-13.3617
체계	-13.3618
핸들	-13.3618
여신상	-13.3618
발걸음	-13.3618
전화벨	-13.3618
돌려주	-13.3618
채널	-13.3618
위스키	-13.3618
항공사	-13.3618
공범	-13.3618
위빙	-13.3618
급격	-13.3618
시추	-13.3618
독약	-13.3618
돌프	-13.3618
미도리	-13.3618
음식점	-13.3619
까진	-13.3619
피어스	-13.3619
원맥	-13.3619
사라질	-13.3619
구체	-13.3619
봉사	-13.3619
포춘	-13.3619
글러	-13.362
학급	-13.362
당원	-13.362
수도사	-13.362
대주교	-13.362
엘레	-13.362
교관	-13.362
육상	-13.362
보유자	-13.362
대니얼	-13.362
모범수	-13.3621
식품	-13.3621
우랜드	-13.3621
태초	-13.3621
책가방	-13.3621
동반	-13.3621
칼빈	-13.3621
이웃나라	-13.3621
경영자	-13.3622
안전거리	-13.3622
뜻대로	-13.3622
올슨	-13.3622
데미안	-13.3622
남태평양	-13.3622
니르	-13.3622
달라진다	-13.3622
거닐	-13.3622
알려져	-13.3622
체조	-13.3622
백악기	-13.3622
맞붙	-13.3622
키취	-13.3622
유체	-13.3622
정직	-13.3623
노먼	-13.3623
동포	-13.3623
사들이	-13.3623
부활절	-13.3623
엔필드	-13.3623
지켜본	-13.3623
미끼	-13.3623
윤지	-13.3623
건졌	-13.3623
모리스	-13.3624
카튼	-13.3624
급파	-13.3624
비디아	-13.3624
리버티	-13.3624
묻힌다	-13.3624
레너	-13.3625
영영	-13.3625
주먹왕	-13.3625
삼류	-13.3625
벽화	-13.3625
레슨	-13.3625
미리암	-13.3625
영매	-13.3625
앞세운	-13.3625
위엄	-13.3625
맡겨	-13.3626
향수	-13.3626
크레나	-13.3626
상속인	-13.3626
계승자	-13.3626
채닝	-13.3627
격정	-13.3627
망할	-13.3627
아찔	-13.3627
어이없	-13.3627
설원	-13.3627
형무	-13.3627
저격수	-13.3627
호쿠	-13.3627
이루어진다	-13.3627
약체	-13.3627
방출	-13.3628
참극	-13.3628
심판자	-13.3628
패스	-13.3628
독점	-13.3628
즐길	-13.3628
신들린	-13.3628
개봉	-13.3628
발송	-13.3629
독설	-13.3629
설마	-13.3629
예비	-13.3629
공조	-13.3629
날벼락	-13.3629
강연	-13.3629
닉슨	-13.3629
회담	-13.3629
공공	-13.363
집행자	-13.363
구제	-13.363
진샤	-13.363
친했	-13.363
배필	-13.363
소매	-13.363
정열	-13.3631
선출	-13.3631
혼수	-13.3631
함락	-13.3631
제이든	-13.3631
태생	-13.3631
족족	-13.3631
연회	-13.3631
밀주	-13.3632
군견	-13.3632
슬러그	-13.3632
마른	-13.3632
올까	-13.3632
놀란다	-13.3633
접해	-13.3633
악독	-13.3633
메종	-13.3633
장갑	-13.3633
도망친다	-13.3633
착오	-13.3633
저지른다	-13.3633
견학	-13.3634
탐문	-13.3634
뒤덮인	-13.3634
오픈	-13.3634
잡힌	-13.3635
곤란	-13.3635
구야	-13.3635
스티그	-13.3635
퀸터	-13.3635
진척	-13.3635
삼키	-13.3635
새침	-13.3636
버벌	-13.3636
벌였	-13.3636
뒤바꿀	-13.3636
이끌린다	-13.3636
서른	-13.3636
강호	-13.3637
대국민	-13.3637
프라	-13.3637
봐도	-13.3637
피곤	-13.3637
프랑스군	-13.3637
라텐	-13.3637
공학자	-13.3638
빼앗긴다	-13.3638
체크	-13.3638
끈기	-13.3638
급박	-13.3638
불쌍	-13.3639
누님	-13.3639
프리즈	-13.3639
모여드	-13.3639
찬란	-13.3639
피폐	-13.3639
바넘	-13.3639
집행인	-13.3639
국내	-13.364
였으나	-13.364
스완	-13.364
총독	-13.364
푸드	-13.364
불평	-13.364
대부호	-13.364
카렌	-13.364
등장인물	-13.364
종마	-13.3641
형벌	-13.3641
검증	-13.3641
검색	-13.3641
바쿠	-13.3641
리콜	-13.3641
동면	-13.3641
심정	-13.3641
방울	-13.3641
태세	-13.3641
심야	-13.3641
빼앗길	-13.3641
치맨	-13.3641
무능	-13.3641
공세	-13.3641
빗과	-13.3641
트레드	-13.3642
강화	-13.3642
아이템	-13.3642
실감	-13.3642
육도	-13.3642
편히	-13.3643
라킨	-13.3644
무슈	-13.3644
투병	-13.3645
연계	-13.3645
섬광	-13.3645
물레	-13.3645
마리네	-13.3645
생물체	-13.3645
숨결	-13.3645
루키	-13.3645
모난	-13.3645
따라왔	-13.3646
지겹	-13.3646
트루	-13.3646
점보	-13.3646
지휘관	-13.3646
일본군	-13.3646
중학	-13.3646
버디	-13.3647
복장	-13.3648
졸업반	-13.3648
통보	-13.3648
옷장	-13.3648
파탄	-13.3648
매체	-13.3648
애런	-13.3648
완다	-13.3649
주축	-13.3649
해결책	-13.3649
두리틀	-13.3649
회심	-13.3649
상승	-13.365
네루	-13.365
모금	-13.365
품종	-13.3651
청해	-13.3651
경험담	-13.3651
저질	-13.3651
루터	-13.3651
경주	-13.3651
주차장	-13.3651
바브	-13.3652
거처	-13.3652
실세	-13.3653
채취	-13.3653
런스	-13.3653
난입	-13.3654
루니	-13.3654
접한다	-13.3655
번창	-13.3655
부류	-13.3655
신앙	-13.3655
후퇴	-13.3655
노화	-13.3655
철수	-13.3655
질려	-13.3656
입술	-13.3656
섬너	-13.3656
공안	-13.3656
하수인	-13.3657
모형	-13.3657
수억만	-13.3657
일린	-13.3657
비싸	-13.3657
진영	-13.3657
무조건	-13.3657
밝혀진	-13.3657
안내인	-13.3658
네빌	-13.3658
바토	-13.3658
강물	-13.3658
비랜드	-13.3658
피쉬	-13.3659
보내온다	-13.3659
발짝	-13.3659
크릴	-13.3659
투모	-13.3659
불운	-13.3659
왜소	-13.3659
기술력	-13.366
중국인	-13.366
반평생	-13.366
피닉	-13.3661
진저	-13.3661
버질	-13.3662
무전기	-13.3662
병력	-13.3662
영화배우	-13.3662
금세	-13.3664
걸쳐	-13.3664
막혀	-13.3664
키즈	-13.3664
깨달음	-13.3664
제츠	-13.3664
힐다	-13.3665
온순	-13.3665
끝난다	-13.3665
나앉	-13.3665
무얼	-13.3665
무패	-13.3666
치좀	-13.3666
숨통	-13.3666
명봉	-13.3666
남아메리카	-13.3666
원점	-13.3667
휴비	-13.3667
베터	-13.3667
쓰였	-13.3667
월든	-13.3668
동양	-13.3668
사토르	-13.3668
노미	-13.3669
별다른	-13.3669
승자	-13.3669
베니	-13.3669
사이렌	-13.3669
폭발물	-13.3669
진담	-13.367
왕권	-13.367
난동	-13.367
해치우	-13.367
불씨	-13.367
진품	-13.367
만삭	-13.3671
총구	-13.3672
서키스	-13.3672
원귀	-13.3672
노바	-13.3672
치명타	-13.3673
월터	-13.3673
진나라	-13.3674
독실	-13.3674
동료애	-13.3675
매진	-13.3675
파병	-13.3675
몰아내	-13.3675
버진	-13.3676
벅시	-13.3676
여태	-13.3676
조난	-13.3676
파코	-13.3676
위용	-13.3678
모건	-13.3679
카토	-13.368
불명예	-13.368
아이리스	-13.368
입담	-13.368
나태	-13.3681
엔초	-13.3681
피울	-13.3682
카즈	-13.3683
타당	-13.3683
네모	-13.3683
끝난	-13.3683
총력	-13.3684
등극	-13.3684
상점	-13.3685
재배	-13.3685
간디	-13.3686
꿈결	-13.3687
생체	-13.3687
코피	-13.3687
사이코	-13.3688
매정	-13.3688
시체실	-13.3688
행해	-13.3688
거행	-13.3689
계란	-13.3689
드론	-13.3691
타워	-13.3691
소피나	-13.3692
벨마	-13.3693
조직망	-13.3693
플리	-13.3693
대소동	-13.3694
무참	-13.3695
간판	-13.3695
월남	-13.3695
난감	-13.3696
놀스	-13.3696
포티	-13.3697
비참	-13.3697
미르	-13.3698
진군	-13.3699
몰두	-13.3699
알아주	-13.3699
사샤	-13.3699
도리안	-13.37
반담	-13.37
발작	-13.3701
코너스	-13.3701
검거	-13.3701
부친	-13.3701
계급	-13.3701
폴러	-13.3702
경찰국	-13.3702
무루	-13.3704
소버린	-13.3707
우박	-13.3709
신변	-13.371
무예	-13.371
애드	-13.3711
키트	-13.3711
은행원	-13.3711
살림	-13.3712
명석	-13.3712
겁주	-13.3713
토크	-13.3713
우세	-13.3713
노크	-13.3713
밤하늘	-13.3713
난세	-13.3714
집필	-13.3714
무토	-13.3716
포우	-13.3716
오커	-13.3717
법정	-13.3717
든든	-13.3717
저러	-13.3717
사유지	-13.3717
치프	-13.3718
다니엘스	-13.3718
개국	-13.3718
내몰	-13.3718
맨발	-13.3719
사냥감	-13.3719
전해져	-13.372
빌미	-13.3722
배관	-13.3723
애타	-13.3723
바친	-13.3724
연대	-13.3724
거구	-13.3724
추대	-13.3725
발달	-13.3725
서판	-13.3725
만프레드	-13.3726
고액	-13.3728
재소	-13.3728
군부	-13.3728
마린	-13.3729
물정	-13.3729
알제이	-13.3729
토마	-13.3729
잘리	-13.373
일환	-13.3731
노마	-13.3732
미터	-13.3733
독단	-13.3734
선실	-13.3735
금속	-13.3736
난관	-13.3737
시빌	-13.3737
세금	-13.3738
원조	-13.3738
따라야	-13.3738
쇼크	-13.374
진진	-13.3741
전근	-13.3742
반군	-13.3742
선박	-13.3744
축제일	-13.3745
회사원	-13.3745
데본	-13.3746
선정	-13.3746
벨라스	-13.3747
속옷	-13.3747
소파	-13.3747
파괴력	-13.3748
조심	-13.3753
병명	-13.3755
파이만	-13.3755
소포	-13.3757
말싸움	-13.3757
치하루	-13.3758
법원	-13.3758
숨진	-13.3758
위반	-13.3758
우마	-13.3759
말투	-13.376
위원	-13.376
공연장	-13.3763
카니	-13.3763
간파	-13.3763
투신	-13.3764
일탈	-13.3765
임원	-13.3765
속임	-13.3769
도망자	-13.3769
명망	-13.3772
딸린	-13.3772
서재	-13.3772
배정	-13.3773
죽임	-13.3773
사경	-13.3775
수립	-13.3775
사법	-13.3775
괴리	-13.3775
세르	-13.3776
주류	-13.3777
화목	-13.3777
불우	-13.3778
모험심	-13.3781
대릴	-13.3782
맨더	-13.3782
기업체	-13.3783
다이어	-13.3784
해낼	-13.3784
기억력	-13.3785
면담	-13.3785
거실	-13.3787
힘입	-13.3788
파리스	-13.3789
여주인공	-13.379
소카	-13.3791
독보	-13.3792
비파	-13.3793
예언자	-13.3794
금전	-13.3794
따라간	-13.3794
암호문	-13.38
부려	-13.3803
독살	-13.3804
투시	-13.3806
영화제	-13.381
살벌	-13.3811
조정	-13.3811
였으며	-13.3811
내외	-13.3811
나노	-13.3812
후예	-13.3813
비트	-13.3814
수갑	-13.3815
살결	-13.3816
나설	-13.3816
마법부	-13.3818
후임	-13.3818
직속	-13.382
늘리	-13.3821
노예주	-13.3823
비급	-13.3825
치군	-13.3828
글자	-13.383
마리나	-13.3831
병상	-13.3831
구원자	-13.3831
치달	-13.3835
피드	-13.3836
면모	-13.3838
추장	-13.3838
시트	-13.384
맷과	-13.3843
손발	-13.3843
자란다	-13.3843
계단	-13.3846
폴스	-13.3853
매주	-13.3854
입원	-13.3857
투스	-13.3857
집회	-13.3858
끌림	-13.3859
다툰	-13.3861
주토	-13.3862
안주인	-13.3862
막막	-13.3863
명품	-13.3866
주저	-13.3868
프로도	-13.3871
내동	-13.3875
불려	-13.3878
지갑	-13.3882
실종사건	-13.3884
천상	-13.3886
도취	-13.3888
만찬	-13.3888
인맥	-13.3888
월리	-13.3889
여종	-13.3889
미신	-13.3893
투리	-13.3893
지골	-13.3894
주연	-13.3896
전망	-13.3896
주코	-13.3899
보병	-13.3899
통해서	-13.39
대재	-13.3904
살점	-13.3905
법대	-13.3908
수사대	-13.3908
으려던	-13.3912
담당자	-13.392
결혼식장	-13.3926
약자	-13.3927
존재감	-13.3938
일임	-13.3941
대모	-13.3946
배치	-13.3951
주방	-13.3954
보티	-13.3957
해류	-13.3959
대학살	-13.396
자각	-13.3967
안심	-13.3972
보르	-13.3973
다락	-13.3978
바후	-13.398
개비	-13.3988
속국	-13.3989
일병	-13.3993
조치	-13.4028
중계	-13.4038
다림	-13.404
일격	-13.4042
일방	-13.4071
중위	-13.4105
전방	-13.4131
중력	-13.4164
까요	-13.442
ter	-13.4435
니퍼	-13.4476
마지못	-13.4597
59	-13.4684
테이트	-13.5285
▁Do	-13.5422
ay	-13.5503
it	-13.5752
X	-13.6357
’	-13.6358
D	-13.636
액	-13.6752
se	-13.6759
찔	-13.69
깃	-13.6914
몬테	-13.6926
아카데미	-13.6932
균	-13.6934
어지럽	-13.6934
머릿	-13.6935
들여다보	-13.6935
크로스	-13.6935
밀어내	-13.6935
▁Chris	-13.6935
▁Daniel	-13.6935
▁Mar	-13.6935
▁Will	-13.6935
▁페투니아	-13.6935
네안데르탈	-13.6935
억누르	-13.6935
KG	-13.6935
▁Char	-13.6935
깨뜨리	-13.6935
벗겨지	-13.6935
괴로워하	-13.6935
까다롭	-13.6935
곤두박질	-13.6935
ell	-13.6935
레위니옹	-13.6935
오클라호마	-13.6935
끼어들	-13.6935
돌아보	-13.6935
tre	-13.6935
접어들	-13.6935
도려내	-13.6935
부서지	-13.6935
날아다니	-13.6935
카를로	-13.6935
ank	-13.6936
ob	-13.6936
규환	-13.6936
활기차	-13.6936
ru	-13.6936
ur	-13.6936
트랜스	-13.6936
han	-13.6936
ag	-13.6936
늦추	-13.6936
ey	-13.6937
싹트	-13.6937
▁101	-13.6938
~!	-13.6938
부잣	-13.6939
품평	-13.6939
애꾸	-13.6939
질풍	-13.694
뽑히	-13.694
암벽	-13.6941
써내	-13.6941
놀래	-13.6942
물들이	-13.6943
유색	-13.6944
매매	-13.6945
진창	-13.6945
클로스	-13.6948
연금	-13.6969
못생기	-13.6972
방귀	-13.6985
떠밀	-13.7402
ast	-13.7833
냥	-14.1841
니엘스	-14.1869
쩔	-14.1896
떤	-14.1897
그럴싸	-14.1915
덧	-14.1919
얘	-14.1925
따돌린	-14.1926
쫓아낸	-14.1926
바리새	-14.1926
맞닥뜨린	-14.1926
옹	-14.193
비린내	-14.1931
욱	-14.1933
모로우	-14.1933
지른다	-14.1933
앵	-14.1934
털터리	-14.1934
얽	-14.1934
닷	-14.1934
뮬	-14.1934
ain	-14.1935
가로질러야	-14.1935
그럴듯한	-14.1935
그럼에도	-14.1935
당긴다	-14.1935
동갑내기	-14.1935
동질감	-14.1935
뒤엉켜	-14.1935
드리운다	-14.1935
밀어낸다	-14.1935
배워야지	-14.1935
백발백중	-14.1935
쌍심지	-14.1935
얽히고설킨	-14.1935
일어선다	-14.1935
체육관	-14.1935
콧방귀	-14.1935
겨눈다	-14.1935
제설차	-14.1935
존엄사	-14.1935
범법자	-14.1935
부른다	-14.1935
감싼다	-14.1935
건드린다	-14.1935
고색창연	-14.1935
극저온	-14.1935
깨트린	-14.1935
들립니다	-14.1935
들여다본다	-14.1935
매긴다면	-14.1935
무너뜨린다	-14.1935
서두른다	-14.1935
쏟아진다	-14.1935
쓸어버릴	-14.1935
알아차린다	-14.1935
천덕꾸러기	-14.1935
탐색기	-14.1935
피범벅	-14.1935
카운트	-14.1935
끌어들인다	-14.1935
떨기나무	-14.1935
뚱	-14.1935
머문다는	-14.1935
물러설	-14.1935
미룬다	-14.1935
붙들려	-14.1935
자랄수록	-14.1935
rrig	-14.1935
명중률	-14.1935
버팀목	-14.1935
부순다	-14.1935
새긴다	-14.1935
안식처	-14.1935
부러진	-14.1935
전자화폐	-14.1935
alk	-14.1935
ation	-14.1935
inc	-14.1935
lyn	-14.1935
▁Josh	-14.1935
가리봉동	-14.1935
가에타노	-14.1935
간곡히	-14.1935
갈라놓	-14.1935
감춰왔	-14.1935
감춰져	-14.1935
강경책	-14.1935
겉치레	-14.1935
겟세마니	-14.1935
결벽증	-14.1935
경외심	-14.1935
곤살레스	-14.1935
골드러시	-14.1935
골드버그	-14.1935
골드브럼	-14.1935
골드블럼	-14.1935
골짜기	-14.1935
공공연히	-14.1935
교향악단	-14.1935
구덩이	-14.1935
구즈만	-14.1935
국유림	-14.1935
굴러떨어지	-14.1935
귀갓길	-14.1935
그덕거리	-14.1935
그레이브스	-14.1935
그린블랫	-14.1935
그제서야	-14.1935
금은보화	-14.1935
기울어지	-14.1935
길가메시	-14.1935
길들여져	-14.1935
꺼림직	-14.1935
꿈틀거리	-14.1935
끌어당기	-14.1935
끼어든	-14.1935
끼워져	-14.1935
나이아가라	-14.1935
낙인찍혀	-14.1935
너구리	-14.1935
넘사벽	-14.1935
네레우스	-14.1935
네페르타리	-14.1935
노스캐롤라이나	-14.1935
노틸러스	-14.1935
녹아내리	-14.1935
놀려도	-14.1935
눈여겨보	-14.1935
달가워하	-14.1935
당나귀	-14.1935
당연히	-14.1935
더군다나	-14.1935
더글라스	-14.1935
덤벼라	-14.1935
덩그러니	-14.1935
덩케르크	-14.1935
덮칠지	-14.1935
데미갓	-14.1935
데블린	-14.1935
도브레브	-14.1935
도쿠가와	-14.1935
돌립니다	-14.1935
동남아시아	-14.1935
동키콩	-14.1935
두근거림	-14.1935
둘러봐도	-14.1935
뒤뚱거리	-14.1935
뒤죽박죽	-14.1935
듀리프	-14.1935
드라마틱	-14.1935
드러냈	-14.1935
드러먼드	-14.1935
드립니다	-14.1935
멕	-14.1935
펭	-14.1935
H	-15.138
낌	-15.1792
v	-15.1793
옵	-15.1794
썬	-15.1795
릇	-15.1796
둡	-15.1797
헝	-15.1798
탠	-15.1799
뭔	-15.18
룹	-15.1801
됩	-15.1802
뀐	-15.1803
껴	-15.1804
겼	-15.1805
%	-15.1806
칫	-15.1807
뿌	-15.1808
깥	-15.1809
횡	-15.181
팽	-15.1811
즌	-15.1812
윽	-15.1813
셜	-15.1814
렘	-15.1815
녁	-15.1816
낭	-15.1817
궤	-15.1818
혁	-15.1819
칵	-15.182
챙	-15.1821
뜩	-15.1822
똘	-15.1823
깜	-15.1824
혜	-15.1825
혐	-15.1826
웠	-15.1827
딜	-15.1828
흡	-15.1829
퀴	-15.183
쿄	-15.1831
딪	-15.1832
틸	-15.1833
븐	-15.1834
쳤	-15.1835
쁨	-15.1836
뱅	-15.1837
큘	-15.1838
쿵	-15.1839
콥	-15.184
셉	-15.1841
럿	-15.1842
랐	-15.1843
룻	-15.1844
픽	-15.1845
촬	-15.1846
붕	-15.1847
썽	-15.1848
뤄	-15.1849
꿔	-15.185
ᄇ	-15.1851
귄	-15.1851
논	-15.1852
첼	-15.1853
핑	-15.1854
흩	-15.1855
엽	-15.1856
옮	-15.1857
젝	-15.1858
숭	-15.1859
섭	-15.186
흘	-15.1861
헨	-15.1862
`	-15.1863
쁜	-15.1864
껏	-15.1865
늑	-15.1866
깝	-15.1867
픔	-15.1868
겐	-15.1869
챔	-15.187
뀌	-15.1871
큼	-15.1872
캡	-15.1873
듭	-15.1874
럭	-15.1875
떻	-15.1876
퓨	-15.1877
멈	-15.1878
낀	-15.1879
렬	-15.188
켓	-15.1881
슴	-15.1882
멤	-15.1883
렸	-15.1884
칙	-15.1885
섹	-15.1886
뢰	-15.1887
첨	-15.1888
염	-15.1889
룡	-15.189
렐	-15.1891
쇄	-15.1892
략	-15.1893
젤	-15.1894
뭉	-15.1895
렵	-15.1896
섯	-15.1897
농	-15.1898
념	-15.1899
렇	-15.19
몽	-15.1901
례	-15.1902
응	-15.1903
엇	-15.1904
량	-15.1905
둥	-15.1906
흔	-15.1907
휩	-15.1908
웅	-15.1909
숙	-15.191
확	-15.1911
갇	-15.1912
끔	-15.1913
앨	-15.1914
탁	-15.1915
득	-15.1916
훔	-15.1917
멸	-15.1918
택	-15.1919
혹	-15.192
펼	-15.1921
획	-15.1922
닌	-15.1923
련	-15.1924
충	-15.1925
협	-15.1926
페	-15.1927
특	-15.1928
콧	-15.1928
습	-15.1929
'	-15.193
폭	-15.1931
쟁	-15.1932
름	-15.1933
*	-15.1934
즘	-15.1934
