<unk>	0
<s>	0
</s>	0
,	-1.7924
,*,*,*,*	-2.44919
,*,	-2.5997
▁	-2.87844
F	-3.05106
T	-3.14317
▁NNG	-3.64156
/	-3.69359
ETM	-4.20631
/*	-4.40319
/*+	-4.46107
VV	-4.57017
+	-4.60938
ct	-4.65335
In	-4.65353
fle	-4.65353
▁VV	-4.7032
,*,*,*	-4.74948
EC	-5.01738
NNG	-5.16735
EF	-5.18754
JKO	-5.25163
▁NNP	-5.25367
▁JKB	-5.28034
하	-5.33026
C	-5.33145
▁EC	-5.34241
행위	-5.41367
▁S	-5.4467
ᆫ	-5.4886
인명	-5.49533
를	-5.56671
▁E	-5.59334
이	-5.61579
을	-5.64747
의	-5.65829
OS	-5.67522
▁JX	-5.68095
는	-5.6867
JKG	-5.75233
▁SF	-5.76265
부사	-5.76693
▁을	-5.7736
XSV	-5.79312
▁.	-5.80311
▁의	-5.80813
▁는	-5.84017
▁XSV	-5.87881
p	-5.9209
nd	-5.9219
ou	-5.92206
,*,*,	-5.9224
om	-5.92273
XSA	-5.97529
JKS	-6.04196
▁ETM	-6.09704
가	-6.15834
▁MAG	-6.16528
에	-6.16588
▁이	-6.20089
성	-6.23235
분	-6.24687
고	-6.25302
정적사태	-6.26147
|	-6.26804
한	-6.2978
▁에	-6.31295
장소	-6.32528
VCP	-6.32882
▁XSN	-6.36737
은	-6.37361
Y	-6.37719
ᆫ다	-6.43443
아	-6.44778
▁하	-6.45672
▁고	-6.46647
▁은	-6.50733
되	-6.53372
▁한	-6.53809
들	-6.55505
VX	-6.56226
▁MM	-6.57176
,~	-6.57701
▁VX	-6.59627
명사	-6.60498
▁NNB	-6.62404
▁XSA	-6.66956
어	-6.67257
VA	-6.6881
▁VA	-6.68978
있	-6.69019
▁NP	-6.69654
▁들	-6.79233
EP	-6.79413
▁가	-6.79564
▁VCP	-6.83311
기	-6.8402
게	-6.90016
로	-6.92149
지	-6.94647
R	-6.9765
다	-6.97962
JC	-6.98559
그	-7.00976
인	-7.06354
▁게	-7.06587
것	-7.09042
과	-7.17857
▁그	-7.19432
▁로	-7.20993
와	-7.21248
에서	-7.23484
으로	-7.24277
시간	-7.27254
자	-7.29558
ᆯ	-7.30513
▁X	-7.32297
양태부사	-7.32355
▁기	-7.34129
▁NNBC	-7.34449
▁ETN	-7.35297
▁에서	-7.35905
▁으로	-7.36189
▁와	-7.37027
▁과	-7.37121
던	-7.37828
▁다	-7.45294
▁SN	-7.45673
도	-7.47692
한다	-7.4879
수	-7.50079
지만	-7.51367
▁던	-7.51577
▁되	-7.52046
장	-7.55457
‘	-7.56678
는데	-7.57104
지명	-7.57665
었	-7.59924
▁인	-7.62506
▁한다	-7.6338
시작	-7.63748
산	-7.65799
▁는데	-7.69613
▁MAJ	-7.72076
에게	-7.72201
▁SS	-7.73762
▁’	-7.73849
위하	-7.75717
정도	-7.77754
)	-7.79349
적	-7.82094
된다	-7.83827
SO	-7.85538
▁도	-7.85879
년	-7.86368
▁에게	-7.86626
친구	-7.86765
사람	-7.89006
▁지	-7.89728
(	-7.89799
L	-7.91541
NNB	-7.93114
만	-7.93125
위해	-7.93634
해	-7.95177
함께	-7.9528
▁된다	-7.95761
문	-7.96483
그녀	-7.97368
라는	-7.97615
사	-7.99742
않	-8.01298
된	-8.01607
리	-8.01787
▁위해	-8.05422
전	-8.05672
자신	-8.06054
JX	-8.08146
주	-8.08149
스	-8.09237
▁어	-8.09345
▁수	-8.11502
날	-8.1447
▁적	-8.15252
▁된	-8.15705
알	-8.16845
오	-8.17569
▁N	-8.17791
▁자신	-8.1845
ETN	-8.19303
만나	-8.19462
▁..	-8.20091
나	-8.21573
사건	-8.22246
면서	-8.23132
대	-8.23287
하지만	-8.24326
▁!	-8.25057
상	-8.25882
가족	-8.26788
없	-8.26901
았	-8.27831
일	-8.28182
사랑	-8.28574
▁만	-8.29651
인간	-8.29924
며	-8.31225
▁해	-8.32059
까지	-8.32379
살	-8.35037
모든	-8.35358
치	-8.35531
라	-8.35636
▁없	-8.38887
▁EP	-8.39299
보	-8.39376
속	-8.4284
그리고	-8.43534
받	-8.46005
▁자	-8.48081
세상	-8.48577
▁며	-8.49337
시	-8.49613
NP	-8.50085
마을	-8.53344
▁...	-8.54751
▁아	-8.54887
그러나	-8.55515
▁알	-8.57329
▁SE	-8.57566
중	-8.58199
▁XPN	-8.59765
▁받	-8.59861
아버지	-8.60058
▁날	-8.60511
양	-8.61183
세계	-8.63343
▁전	-8.63427
발견	-8.64157
집	-8.64305
어느	-8.64635
명	-8.66741
소	-8.67402
서	-8.67407
여	-8.68382
구하	-8.6879
남자	-8.6904
단	-8.69299
말	-8.7018
▁일	-8.71888
내	-8.71979
마	-8.72425
두	-8.73144
새로운	-8.73156
음	-8.75747
▁어느	-8.76505
할	-8.76751
신	-8.76904
원	-8.77659
위기	-8.77743
비	-8.77898
죽	-8.78493
한편	-8.79285
▁세계	-8.79838
IC	-8.80736
못하	-8.81214
▁속	-8.83881
상태변화	-8.84556
안	-8.85766
▁살	-8.86367
거대	-8.86822
모두	-8.87418
찾	-8.8751
빠지	-8.87709
간	-8.87855
차	-8.89393
크	-8.90353
부	-8.91522
나타나	-8.91955
다는	-8.92043
더	-8.92628
▁할	-8.93508
는다	-8.93965
▁중	-8.95033
정	-8.95714
후	-8.96234
도시	-8.96665
당하	-8.96887
떠나	-8.97819
위한	-8.9802
▁찾	-9.00079
라고	-9.00938
시키	-9.01804
관	-9.01992
무	-9.02129
죽음	-9.02615
가지	-9.03191
JKB	-9.03239
아내	-9.03443
버리	-9.04397
▁주	-9.04796
▁는다	-9.06194
공	-9.06436
▁보	-9.06607
아이	-9.06707
야	-9.06749
듣	-9.07064
서로	-9.0762
려는	-9.07717
위협	-9.07843
진	-9.08176
비밀	-9.08498
러	-9.08544
삶	-9.08629
공격	-9.08634
가장	-9.09229
면	-9.09735
지키	-9.1005
감	-9.10546
세	-9.10629
타	-9.1091
▁?	-9.11182
학교	-9.1131
지구	-9.1155
▁두	-9.12656
편	-9.12672
드	-9.13752
▁집	-9.13813
선	-9.14225
▁다는	-9.15401
유	-9.1572
했	-9.15879
부터	-9.1635
상황	-9.16855
요원	-9.16855
제	-9.1741
바	-9.17524
미	-9.18053
트	-9.1822
▁후	-9.18754
발	-9.19414
▁나	-9.19813
▁명	-9.19845
이야기	-9.19894
다시	-9.20176
박	-9.21156
엄마	-9.21195
려	-9.21367
향하	-9.21728
실	-9.22123
우연히	-9.22129
▁대	-9.22263
결국	-9.23033
데	-9.23281
마지막	-9.23946
▁지구	-9.24387
갈	-9.24554
새롭	-9.25343
그곳	-9.25561
길	-9.26623
생활	-9.27109
뿐	-9.27217
NNP	-9.27304
▁비밀	-9.27526
없이	-9.27635
▁여	-9.27932
목	-9.28264
채	-9.28746
불	-9.28783
▁아이	-9.28815
파	-9.29148
온	-9.29414
인해	-9.29638
동	-9.29817
평화	-9.306
접속	-9.30604
임무	-9.30628
반	-9.31674
▁다시	-9.31954
위험	-9.3245
작전	-9.32677
▁라	-9.32738
히	-9.32909
맞서	-9.32979
물	-9.33557
계획	-9.33592
순간	-9.33595
운명	-9.33598
살인	-9.33679
피	-9.33731
곳	-9.34198
앞	-9.35036
보내	-9.35161
▁더	-9.35242
▁말	-9.35568
구	-9.35819
니	-9.36227
카	-9.3637
동안	-9.36489
번	-9.36687
심	-9.36798
조	-9.37157
터	-9.3735
남	-9.37444
딸	-9.37899
숨	-9.38233
다른	-9.38426
여자	-9.38524
거	-9.38579
로부터	-9.38664
▁안	-9.38703
모습	-9.38787
때문	-9.38965
돌아가	-9.39323
아서	-9.39472
점점	-9.39863
급	-9.39868
▁했	-9.39963
▁사	-9.40184
력	-9.40413
도움	-9.40981
아들	-9.41181
다고	-9.41874
전설	-9.42142
로운	-9.42313
님	-9.43042
으며	-9.43232
들어가	-9.43735
생	-9.44639
전쟁	-9.4485
막	-9.4589
누구	-9.4598
▁오	-9.46248
식	-9.46605
눈	-9.47624
싶	-9.47707
마침내	-9.4771
때	-9.47755
사라지	-9.47759
보이	-9.48388
걸	-9.49106
보다	-9.49806
ᄆ	-9.50067
나서	-9.50249
과연	-9.50484
키	-9.50506
▁죽	-9.51569
처럼	-9.52443
우	-9.5261
대하	-9.52654
힘	-9.52872
살아남	-9.53715
으로부터	-9.54013
밤	-9.54266
살아가	-9.54342
사이	-9.54864
롭	-9.54872
위	-9.55971
겠	-9.56223
느끼	-9.56224
행복	-9.56225
▁위험	-9.56382
▁다른	-9.56609
같	-9.56758
존재	-9.56979
개	-9.57001
등	-9.57227
▁면	-9.57313
손	-9.57379
왕국	-9.57529
그러	-9.58028
하나	-9.58077
▁아들	-9.58294
행성	-9.58701
군	-9.5894
만들	-9.5907
▁딸	-9.59234
▁내	-9.59281
공주	-9.59501
▁채	-9.59664
MAG	-9.59747
남편	-9.602
도착	-9.60232
노	-9.60464
사실	-9.60471
모	-9.6048
체	-9.60782
새	-9.61481
▁신	-9.61518
뒤	-9.61574
팀	-9.61815
꿈	-9.61834
방	-9.6223
미국	-9.62506
악당	-9.62793
이후	-9.62817
화	-9.62866
조직	-9.63428
포	-9.63466
파티	-9.63501
죽이	-9.63612
우주	-9.64123
능력	-9.6465
달	-9.64707
든	-9.648
르	-9.65355
잃	-9.65412
이상	-9.65448
괴물	-9.6555
론	-9.65849
부모	-9.66278
▁차	-9.66354
호	-9.66489
아야	-9.66639
린	-9.66683
▁앞	-9.66959
▁같	-9.67231
▁사이	-9.67356
▁힘	-9.67569
티	-9.67724
벌이	-9.68218
어머니	-9.68359
발생	-9.68408
해야	-9.68409
정체	-9.68456
▁전쟁	-9.68968
엄청난	-9.69804
아빠	-9.69829
마음	-9.7005
▁존재	-9.70406
탈출	-9.70754
건	-9.71145
인류	-9.71584
살해	-9.72136
▁시	-9.72173
란	-9.72374
존	-9.72387
▁사실	-9.72412
사고	-9.726
겪	-9.72755
갑자기	-9.72756
소녀	-9.73138
▁무	-9.73164
최고	-9.73225
▁온	-9.73527
계	-9.7359
병	-9.73805
과거	-9.74031
토	-9.74135
혼란	-9.74266
▁바	-9.74865
찾아오	-9.75029
▁꿈	-9.75321
질	-9.75453
돌아오	-9.75798
제안	-9.75927
이제	-9.76186
▁스	-9.76784
외	-9.7693
▁하나	-9.77083
숲	-9.77354
방법	-9.77369
▁잃	-9.77441
신비	-9.77556
▁이상	-9.77675
친	-9.78048
금	-9.78627
▁비	-9.78725
대한	-9.78756
동생	-9.78785
뉴욕	-9.78861
미션	-9.78941
어둠	-9.78946
인생	-9.79668
아니	-9.79911
▁불	-9.80011
▁남	-9.80064
▁뒤	-9.80073
▁세	-9.8028
경찰	-9.80528
결혼	-9.80543
제이슨	-9.80548
소년	-9.80672
▁조직	-9.80791
입	-9.80808
배	-9.80887
▁1	-9.80927
담	-9.81156
둘	-9.8142
▁막	-9.81428
▁번	-9.82007
재	-9.82024
다가	-9.8209
벌어지	-9.82174
평범	-9.82175
결심	-9.8218
계속	-9.82282
였	-9.83224
▁미국	-9.83336
어리	-9.83472
▁등	-9.83499
요	-9.83727
준비	-9.83873
부정	-9.83873
▁그러	-9.83901
▁서	-9.83923
첫	-9.84007
▁인류	-9.8439
나가	-9.8448
열	-9.84582
째	-9.84583
마법	-9.8491
모르	-9.84919
돈	-9.8493
종	-9.84939
게임	-9.85029
난	-9.85125
본	-9.85128
▁최고	-9.85174
네	-9.85813
형	-9.85998
초	-9.86466
국	-9.86645
인가	-9.8685
▁과거	-9.86866
▁2	-9.87007
▁마	-9.87179
충격	-9.87238
벗어나	-9.87239
스럽	-9.87242
▁단	-9.87248
꿈꾸	-9.87256
왕	-9.8746
가진	-9.875
몸	-9.87588
학	-9.87664
납치	-9.87672
▁소녀	-9.87682
복수	-9.87697
대결	-9.88196
처하	-9.88338
범죄	-9.88557
▁탈출	-9.88631
영화	-9.88655
격	-9.88669
▁밤	-9.88767
▁이제	-9.88813
일어나	-9.88986
처음	-9.88993
▁타	-9.89235
어야	-9.89612
기다리	-9.90098
끝	-9.90184
또	-9.90375
경	-9.90595
되찾	-9.90721
매	-9.90879
떠난다	-9.91131
▁대한	-9.91278
▁치	-9.91579
:	-9.91664
▁뉴욕	-9.91748
▁능력	-9.92109
쓰	-9.92247
믿	-9.92378
▁곳	-9.92564
어떤	-9.92579
려고	-9.92633
일행	-9.92741
섬	-9.93337
일상	-9.93479
코	-9.93626
줄	-9.93683
연	-9.93783
행	-9.94038
루	-9.94157
버	-9.94172
모험	-9.94341
VCN	-9.94344
기억	-9.94362
거리	-9.94415
저	-9.95175
여행	-9.9534
싸우	-9.95356
소식	-9.95431
숨기	-9.95681
작	-9.95773
▁제	-9.95826
▁데	-9.95905
몬스터	-9.96294
그런데	-9.96334
마저	-9.96357
로봇	-9.96494
빠진다	-9.96717
▁떠나	-9.97208
가운데	-9.97246
▁존	-9.97387
▁피	-9.9743
의해	-9.97802
잡	-9.97942
▁게임	-9.97974
▁둘	-9.98075
마이클	-9.98208
시절	-9.9825
향한다	-9.98447
▁3	-9.98633
▁마음	-9.98838
▁VCN	-9.99255
형사	-9.99384
공포	-9.99397
품	-9.99405
▁팀	-9.99864
레	-9.99946
뱀파이어	-10.0016
습격	-10.0016
떨어지	-10.0016
찾아가	-10.0017
살인마	-10.0034
▁살인	-10.0071
주인	-10.0072
▁또	-10.0074
점	-10.0076
성공	-10.0092
전사	-10.0138
▁개	-10.0152
▁4	-10.0163
예	-10.0166
▁다가	-10.0185
깨닫	-10.0215
여정	-10.0244
분노	-10.0244
즈	-10.0253
목숨	-10.0257
판	-10.0282
▁가진	-10.0292
▁반	-10.0314
▁사고	-10.0316
요정	-10.0318
▁맞서	-10.0341
맨	-10.0355
▁복수	-10.0359
여인	-10.0407
현실	-10.0418
잠시	-10.0426
▁려	-10.0434
설	-10.0462
미래	-10.0472
프	-10.0486
용	-10.0505
표현	-10.0521
▁보내	-10.0526
▁시간	-10.0563
의문	-10.0606
역시	-10.0627
▁끝	-10.0648
▁손	-10.0651
임	-10.0655
생존	-10.0686
멀	-10.0726
소리	-10.0741
변하	-10.0768
독	-10.0774
▁만들	-10.0786
영혼	-10.0837
현장	-10.0839
▁기억	-10.0847
나라	-10.0885
가능	-10.0889
귀	-10.0902
못한	-10.0905
▁돈	-10.091
회	-10.093
따르	-10.0945
까	-10.0948
▁야	-10.0949
▁의해	-10.0972
▁’(	-10.0984
통하	-10.0991
▁납치	-10.0995
영	-10.0998
I	-10.1004
총	-10.1006
얻	-10.1033
유일	-10.1039
진실	-10.1062
왕자	-10.1116
쫓기	-10.1134
애	-10.1143
디	-10.1165
▁모험	-10.1172
바로	-10.1172
결	-10.1207
몰	-10.1245
▁정체	-10.1258
선택	-10.1274
▁소년	-10.1276
부부	-10.129
저주	-10.1293
단서	-10.1301
수행	-10.1313
통	-10.1318
▁영화	-10.1324
인형	-10.134
빌	-10.1375
태어나	-10.1387
▁때	-10.1419
▁목숨	-10.1455
맞	-10.1469
런	-10.1486
▁카	-10.1487
미스터리	-10.1501
즐기	-10.1504
명령	-10.1504
제거	-10.1511
나선다	-10.1517
든다	-10.1571
범	-10.1591
▁길	-10.1592
버린	-10.1598
책	-10.1613
무엇	-10.1615
▁건	-10.1635
당	-10.1655
▁간	-10.1685
▁공포	-10.1695
▁달	-10.17
▁범죄	-10.1719
워	-10.1725
악마	-10.1739
세력	-10.1744
강력	-10.1751
범인	-10.1761
대신	-10.1778
▁미래	-10.1788
▁였	-10.1817
▁성공	-10.1818
▁여행	-10.1844
망	-10.1855
▁믿	-10.1858
어디	-10.1887
ᄂ	-10.1928
츠	-10.1954
▁부	-10.1966
스러운	-10.1968
아름다운	-10.1968
예상	-10.1971
매일	-10.1983
강	-10.1987
▁눈	-10.1999
잭	-10.2002
생각	-10.2003
▁몸	-10.2011
▁위	-10.2029
파괴	-10.2032
▁미	-10.2047
하루	-10.2064
푸	-10.2088
밝히	-10.2089
▁못한	-10.2103
▁왕	-10.2113
위해서	-10.2115
▁우주	-10.212
될	-10.2125
▁소	-10.213
동료	-10.2131
어린	-10.2131
쳐	-10.2133
지니	-10.2134
▁조	-10.2158
증	-10.2172
직	-10.2174
울	-10.2189
출신	-10.2212
최악	-10.2212
▁리	-10.2214
▁얻	-10.2233
그것	-10.2249
JKC	-10.2283
자리	-10.2291
간다	-10.234
쫓	-10.237
져	-10.238
▁경찰	-10.2427
통해	-10.244
머	-10.2441
낯선	-10.2459
알렉스	-10.2461
마녀	-10.2462
조차	-10.2475
▁섬	-10.2478
▁유일	-10.2483
마법사	-10.2488
▁잡	-10.253
▁’.	-10.2586
도록	-10.2606
▁바로	-10.2612
외계	-10.2652
피하	-10.2697
을까	-10.2703
투	-10.2704
▁파	-10.2706
찰리	-10.2714
진짜	-10.2715
상태	-10.2718
부르	-10.2719
우주선	-10.2726
생존자	-10.2757
운	-10.276
교	-10.2763
약	-10.2767
함	-10.2785
▁거	-10.2787
알리	-10.2792
관계	-10.2795
히어로	-10.2797
큰	-10.2798
▁음	-10.2813
학생	-10.2865
시대	-10.2899
▁첫	-10.2926
나오	-10.2951
공간	-10.2972
▁결혼	-10.2973
부탁	-10.2975
저택	-10.2975
엄청나	-10.2975
환상	-10.2976
혼자	-10.2977
군단	-10.2986
지내	-10.3007
색	-10.3026
▁어린	-10.3032
법	-10.3055
달리	-10.3073
젊	-10.3076
스타	-10.3178
▁러	-10.3179
▁잭	-10.3197
혀	-10.3235
정부	-10.3236
▁될	-10.3236
쓸	-10.3244
천	-10.3256
민	-10.3258
전직	-10.3265
놓	-10.3293
고향	-10.3297
▁입	-10.3312
참	-10.3339
▁생각	-10.3341
▁강력	-10.3343
변	-10.3369
할머니	-10.3381
느	-10.3481
▁쫓	-10.3485
따라	-10.3492
베	-10.3496
풀	-10.3503
왔	-10.3505
엔	-10.3508
생명	-10.3509
MM	-10.3517
갇히	-10.352
맥스	-10.3522
박사	-10.3522
매력	-10.3525
일당	-10.354
무기	-10.3555
이끄	-10.3562
외계인	-10.3565
내리	-10.3568
▁포	-10.3576
▁맞	-10.3593
▁통해	-10.3595
▁발	-10.3599
▁동료	-10.3611
족	-10.3616
지나	-10.3618
먹	-10.3625
하늘	-10.3635
▁파괴	-10.3636
갖	-10.3643
보호	-10.366
슈퍼	-10.3661
음모	-10.3664
▁호	-10.3685
에게서	-10.3724
어서	-10.3736
도중	-10.3754
많	-10.3756
최	-10.3765
월	-10.379
누군가	-10.3803
돕	-10.3803
숨겨진	-10.3803
생명체	-10.3806
나누	-10.3807
키우	-10.3809
사투	-10.3815
토니	-10.3828
런던	-10.3831
청	-10.3861
연인	-10.3862
역	-10.387
의하	-10.3872
▁을까	-10.3905
대전	-10.392
이끌	-10.3926
허	-10.3938
뜨	-10.3948
넣	-10.3948
▁니	-10.395
비행	-10.3954
끔찍	-10.3966
테러	-10.3967
▁히어로	-10.3995
▁6	-10.4013
▁줄	-10.4055
태	-10.4061
과정	-10.4063
해서	-10.4094
프랭크	-10.4095
앤디	-10.4096
최강	-10.4098
청년	-10.4099
작품	-10.4099
정체불명	-10.4099
최후	-10.4104
불명	-10.412
특별	-10.4122
추적	-10.4125
거나	-10.413
바다	-10.4154
▁배	-10.4162
▁버린	-10.4193
류	-10.4197
만난다	-10.4197
풍	-10.4238
아름답	-10.4245
견	-10.4263
밖	-10.4266
만난	-10.4282
권	-10.4284
정신	-10.4287
▁큰	-10.4298
▁진	-10.4342
슨	-10.437
악몽	-10.4396
스스로	-10.4396
무사히	-10.4396
펼치	-10.4396
종족	-10.4397
탄생	-10.44
사악	-10.4406
검	-10.4408
주인공	-10.4411
사회	-10.4411
모이	-10.4414
실수	-10.4415
▁았	-10.4426
비행기	-10.4438
절대	-10.4451
릴	-10.4466
노리	-10.4491
광	-10.4525
싸	-10.4539
▁관계	-10.4541
K	-10.455
괴	-10.4556
이미	-10.4558
▁10	-10.4558
잠	-10.4579
신부	-10.4583
벌	-10.4585
▁걸	-10.4588
레이	-10.46
마약	-10.4606
▁재	-10.4685
▁많	-10.4696
멤버	-10.4706
제임스	-10.4706
액션	-10.4706
할로윈	-10.4706
접근	-10.4706
황제	-10.4707
펼쳐지	-10.4707
점차	-10.4708
상처	-10.471
교수	-10.4713
군대	-10.4726
오르	-10.4755
B	-10.4767
▁마법	-10.4787
한다는	-10.4796
남기	-10.4806
테	-10.481
미아	-10.482
술	-10.4832
너	-10.4844
쪽	-10.4846
짝	-10.4849
▁슈퍼	-10.4856
수사	-10.4859
유럽	-10.4864
▁음모	-10.4865
모으	-10.4865
호텔	-10.4866
지옥	-10.4869
넘치	-10.4873
세우	-10.4874
장군	-10.4895
별	-10.4911
탄	-10.4929
사냥	-10.4941
곧	-10.4942
▁형	-10.4962
복	-10.497
힌	-10.4994
▁엔	-10.5008
폐	-10.5012
스톤	-10.5022
"	-10.5026
서서히	-10.5026
에드워드	-10.5026
놀라운	-10.5026
노력	-10.5028
용의자	-10.503
고양이	-10.503
구할	-10.5031
▁박사	-10.5035
▁크	-10.5048
악	-10.5059
올	-10.506
다가오	-10.5062
나타난다	-10.5071
선수	-10.5087
칼	-10.5099
▁화	-10.511
전투	-10.511
자기	-10.5113
3	-10.5117
▁숨	-10.5129
고자	-10.5154
패	-10.5166
▁끔찍	-10.517
게다가	-10.5203
▁젊	-10.5213
▁원	-10.5218
앞두	-10.5218
삼	-10.527
피터	-10.5277
훈련	-10.5289
등장	-10.5303
▁특별	-10.5326
렌	-10.5328
▁테러	-10.5337
빛	-10.5345
▁아니	-10.5351
멸망	-10.5357
어떻게	-10.5357
클럽	-10.5357
킬러	-10.5357
구출	-10.5358
무자비	-10.5359
극	-10.5378
0	-10.5381
아침	-10.5383
보낸다	-10.5386
▁만난	-10.5403
지역	-10.5406
▁든	-10.5441
각	-10.5463
쇼	-10.5468
영웅	-10.5468
더욱	-10.5468
백	-10.5469
▁빌	-10.5473
수록	-10.5475
부대	-10.5493
자유	-10.5494
기계	-10.5509
찍	-10.5526
일으키	-10.5526
▁갖	-10.5526
▁새	-10.5553
못	-10.5579
▁-	-10.5583
절	-10.5597
생기	-10.56
대로	-10.5641
씩	-10.565
마주	-10.5667
회사	-10.5669
상상	-10.5675
출	-10.5675
인물	-10.5679
두려움	-10.5699
브루스	-10.5699
호기심	-10.5699
변신	-10.5701
약속	-10.5702
클	-10.5705
▁무기	-10.572
▁버	-10.5737
수많	-10.5738
다르	-10.5772
집단	-10.5773
짓	-10.5826
팔	-10.5827
싸움	-10.5839
형제	-10.5844
라도	-10.5858
쥐	-10.5871
깨어나	-10.5874
▁7	-10.5877
도망치	-10.5882
마주치	-10.5889
걸리	-10.5894
열리	-10.5902
조사	-10.5927
▁네	-10.5929
들리	-10.5953
락	-10.598
밀	-10.599
▁키	-10.6001
▁5	-10.6003
꾼	-10.6019
영국	-10.6019
▁함	-10.602
유령	-10.6023
동물	-10.6024
▁먹	-10.6025
세기	-10.603
▁바다	-10.6042
V	-10.6052
나루토	-10.6053
연쇄	-10.6053
현재	-10.6053
보안관	-10.6054
요구	-10.6054
물론	-10.6059
다음	-10.6071
▁정부	-10.6084
마치	-10.6101
만든	-10.612
레드	-10.6124
▁곧	-10.6142
▁작	-10.6146
P	-10.6168
그날	-10.6169
▁간다	-10.6178
▁모	-10.6185
로서	-10.6189
인기	-10.6192
▁추적	-10.6203
깨	-10.6203
맡	-10.6207
빠진	-10.6211
완벽	-10.6215
좋	-10.6215
그리	-10.623
남매	-10.6246
▁본	-10.6249
처	-10.6322
▁상	-10.6332
피해	-10.6353
▁드	-10.6353
대학	-10.6365
N	-10.6368
이브	-10.6386
긴	-10.6386
또한	-10.6387
빠져	-10.6402
땅	-10.6404
▁해서	-10.6406
이번	-10.641
희망	-10.6412
W	-10.642
가까스로	-10.642
대통령	-10.642
드러내	-10.642
얼굴	-10.642
합류	-10.642
바꾸	-10.642
박물관	-10.642
고등학교	-10.642
정글	-10.6421
비롯	-10.6421
갈등	-10.6422
잭슨	-10.6424
동시	-10.6427
퍼지	-10.6428
우정	-10.6432
참여	-10.6433
곳곳	-10.6439
시티	-10.6439
끝내	-10.644
과학자	-10.6461
보안	-10.6461
부상	-10.6466
여러	-10.6467
아직	-10.647
▁따라	-10.6476
▁생	-10.6476
존스	-10.648
용기	-10.6491
▁피터	-10.6496
▁초	-10.6533
▁티	-10.6537
겨	-10.6554
▁놓	-10.6581
듯	-10.6588
배우	-10.6604
난다	-10.6605
잇	-10.6608
▁계	-10.6612
쏘	-10.6613
시달리	-10.6618
척	-10.6619
e	-10.6625
지금	-10.6634
래	-10.6642
작가	-10.6657
해리	-10.6657
▁더욱	-10.6673
인지	-10.67
할아버지	-10.6708
▁절대	-10.6743
▁정신	-10.6754
▁자리	-10.6757
지하	-10.6761
▁트	-10.6765
▁책	-10.6776
낼	-10.6782
a	-10.6791
필	-10.6792
추	-10.6799
라이언	-10.68
걷	-10.68
테러리스트	-10.6801
드디어	-10.6801
평생	-10.6801
록키	-10.6801
요청	-10.6801
악령	-10.6802
연구	-10.6811
경험	-10.6815
크리스마스	-10.6815
이나	-10.6819
해결	-10.6821
사막	-10.6837
마크	-10.6837
초대	-10.6841
찾아내	-10.6854
▁나가	-10.6859
ᄂ다	-10.6866
▁영웅	-10.6867
차지	-10.6882
호수	-10.6884
▁등장	-10.6891
전문가	-10.6891
마리	-10.6894
▁이미	-10.6901
▁마약	-10.6902
▁투	-10.6922
▁레이	-10.693
무장	-10.6947
인방	-10.6949
메	-10.6966
▁검	-10.6991
전하	-10.7028
전문	-10.7052
이용	-10.7093
부자	-10.7129
케	-10.7159
▁스타	-10.7164
이런	-10.7166
승	-10.717
▁선	-10.7173
홀	-10.7183
▁주인	-10.7184
블	-10.7186
됐	-10.7197
마이크	-10.7197
노래	-10.7197
국제	-10.7199
오른다	-10.72
환자	-10.7201
돌아온	-10.7203
토미	-10.7206
제이미	-10.721
대회	-10.7218
불구	-10.7219
떠난	-10.7231
목격	-10.7234
닉	-10.7235
▁마주	-10.7239
병원	-10.724
찾아온다	-10.7241
잔인	-10.7245
국가	-10.7247
어릴	-10.7249
▁씩	-10.7254
모를	-10.7259
대원	-10.7267
사상	-10.7271
위장	-10.7291
기운	-10.7302
이루	-10.731
전부	-10.7312
플	-10.7332
▁빠진	-10.7336
▁보호	-10.7339
▁노리	-10.7342
퍼	-10.7352
이사	-10.7357
강한	-10.7377
▁난	-10.7381
여기	-10.7383
밖에	-10.7385
폭탄	-10.7401
충돌	-10.7401
명예	-10.7402
온다	-10.7403
▁저	-10.7409
지능	-10.7431
무리	-10.7435
먼	-10.744
폴	-10.7451
톰	-10.7452
구해	-10.7467
그런	-10.747
쿠	-10.7483
▁사냥	-10.7503
▁강	-10.7526
웃	-10.7549
잔	-10.7557
침	-10.7563
▁하루	-10.7577
씨	-10.7583
빈	-10.7597
맥	-10.7599
▁전투	-10.76
샤	-10.7602
▁UN	-10.7608
배트맨	-10.7609
베이비	-10.7609
프레디	-10.7609
절친	-10.761
순식간	-10.761
자동차	-10.761
파커	-10.7613
용병	-10.7614
제이크	-10.7617
미지	-10.7622
▁완벽	-10.7622
악명	-10.7623
브	-10.7641
깊	-10.7653
해당	-10.7655
▁달리	-10.7668
추격	-10.7669
옛	-10.767
과학	-10.7677
착	-10.7684
▁훈련	-10.7694
최대	-10.7699
늘	-10.7702
상대	-10.7707
▁듯	-10.7726
▁풀	-10.7796
지목	-10.7797
층	-10.7819
▁방	-10.7825
▁지금	-10.7828
▁희망	-10.7831
기사	-10.7835
▁좋	-10.7843
▁유령	-10.7846
고민	-10.7852
▁상상	-10.7878
▁열	-10.7878
▁빠져	-10.7888
뜻	-10.7896
데리	-10.7897
▁애	-10.7901
휴가	-10.7903
▁총	-10.7918
림	-10.7922
▁맨	-10.7936
▁모르	-10.7979
▁못	-10.7982
▁영국	-10.7993
▁맡	-10.8
갔	-10.8027
브라이언	-10.803
살아간다	-10.8039
스티브	-10.8039
프로젝트	-10.8039
급기야	-10.8039
녀석	-10.8039
A	-10.804
교도소	-10.8041
거절	-10.8044
시킨다	-10.8045
머리	-10.8045
놓이	-10.8047
파워	-10.8047
커	-10.8047
각자	-10.8048
선물	-10.8052
사태	-10.8054
▁생존	-10.8061
여성	-10.8066
없애	-10.8081
벨	-10.8102
▁자유	-10.8127
볼	-10.8129
쉬	-10.8129
군인	-10.8131
칸	-10.8132
샘	-10.8135
당한	-10.8148
기회	-10.8157
▁코	-10.8157
에릭	-10.8159
지도	-10.8163
다니	-10.817
사진	-10.8203
마다	-10.8206
▁꾼	-10.823
순	-10.8241
▁크리스마스	-10.8244
북	-10.825
꽃	-10.8255
프리	-10.8257
핵	-10.826
구역	-10.8263
▁이용	-10.8275
이곳	-10.8296
돌	-10.83
나무	-10.8315
▁법	-10.8316
▁연	-10.8333
▁떠난	-10.8356
바람	-10.8356
낸	-10.8363
현상	-10.8368
찬	-10.8369
감옥	-10.8373
통제	-10.8375
정보	-10.8384
업	-10.841
▁돌아온	-10.841
석	-10.8418
리더	-10.8443
맞이	-10.8446
▁월	-10.8451
▁경험	-10.8471
얼	-10.8476
욕	-10.8478
몰래	-10.8483
겁	-10.8485
▁초대	-10.8486
▁특수	-10.8486
랜드	-10.8488
곁	-10.8489
수수께끼	-10.8489
앨리스	-10.8489
낯설	-10.8489
강아지	-10.8489
케빈	-10.8489
꼬마	-10.8489
필요	-10.8489
직접	-10.849
손오공	-10.8491
외모	-10.8491
목소리	-10.8491
ᄇ니	-10.8491
스미스	-10.8492
심바	-10.8493
▁임	-10.8495
부족	-10.8496
못했	-10.85
화려	-10.8505
사용	-10.8512
달러	-10.8512
나간다	-10.8535
유지	-10.8541
창	-10.8546
▁깊	-10.8564
오랜	-10.8615
▁소리	-10.8616
접	-10.8642
▁구해	-10.8651
놀	-10.8655
같이	-10.866
▁그런	-10.8668
성장	-10.867
▁잔인	-10.8675
육	-10.8693
▁밖	-10.8701
▁해결	-10.8709
콜	-10.8713
묻	-10.8721
“	-10.8721
”	-10.8721
드러나	-10.8721
움직이	-10.8721
▁해리	-10.8721
NO	-10.8722
신경	-10.8734
열차	-10.8738
▁매	-10.8753
준	-10.8821
▁이사	-10.883
의식	-10.8841
▁최	-10.8857
사라진	-10.8862
실험	-10.8864
개발	-10.8865
벤	-10.8866
부활	-10.8867
실종	-10.8869
시체	-10.8873
기술	-10.8876
▁병원	-10.8914
▁수사	-10.8916
자라	-10.8925
촌	-10.8946
뇌	-10.8949
털	-10.8956
바이러스	-10.8959
신데렐라	-10.8959
토마스	-10.8959
아프리카	-10.8959
우여곡절	-10.8959
패밀리	-10.8959
고군분투	-10.896
빠르	-10.896
폐허	-10.896
운영	-10.896
침공	-10.8961
흑인	-10.8964
투입	-10.8966
장악	-10.8967
대령	-10.8969
온갖	-10.897
윌	-10.897
오직	-10.8979
▁우	-10.8998
피할	-10.9002
결성	-10.9002
키스	-10.9005
▁쇼	-10.9032
지상	-10.9056
록	-10.9057
▁피해	-10.9064
은퇴	-10.9093
라며	-10.9093
▁폴	-10.911
암살	-10.9117
이집트	-10.9117
빌리	-10.9124
잘	-10.9125
전화	-10.9133
근	-10.9137
문제	-10.9142
▁최대	-10.9143
포기	-10.9161
따	-10.9164
대해	-10.9173
언	-10.9174
틀	-10.9184
다리	-10.9189
o	-10.9202
아메리카	-10.9203
차별	-10.9214
▁땅	-10.9216
아무	-10.9226
능	-10.926
고통	-10.9294
해진	-10.9299
고등	-10.9301
▁베	-10.9311
▁당한	-10.9323
짐	-10.9325
높	-10.936
엘	-10.9364
생물	-10.9368
러시아	-10.9386
행동	-10.9388
▁닉	-10.9398
▁귀	-10.9398
대니	-10.9398
▁무리	-10.9403
지배	-10.941
진다	-10.9434
벽	-10.9439
반지	-10.9443
옷	-10.9451
뜨거운	-10.9453
캡틴	-10.9453
돌아갈	-10.9453
쉽	-10.9453
아파트	-10.9453
놀랍	-10.9453
휘말리	-10.9453
닥터	-10.9454
활동	-10.9454
변화	-10.9454
증거	-10.9454
커플	-10.9454
▁왔	-10.9455
감독	-10.9456
재능	-10.9456
정예	-10.9457
잠입	-10.9459
▁여성	-10.9464
시민	-10.9467
예수	-10.9467
본부	-10.9474
거부	-10.9483
주위	-10.9508
재산	-10.9536
무대	-10.9551
알아내	-10.957
만남	-10.9578
사자	-10.9582
데이	-10.9583
▁목격	-10.9594
대상	-10.9622
이르	-10.9639
캐	-10.9647
▁참	-10.9655
파트너	-10.9656
역사	-10.9668
관리	-10.9669
꾸	-10.9669
고대	-10.9678
골	-10.968
▁쏘	-10.9703
is	-10.9709
▁물	-10.971
놈	-10.971
받아들이	-10.971
대가	-10.9713
부인	-10.9721
선생	-10.9723
▁동물	-10.974
탈	-10.974
취	-10.9746
암	-10.9746
▁형제	-10.9759
바라	-10.9769
상어	-10.9777
▁칼	-10.9778
▁쓰	-10.9779
▁감옥	-10.9842
마리아	-10.9853
▁샘	-10.9858
▁레	-10.9861
▁사상	-10.987
▁기회	-10.9874
이유	-10.9877
제이	-10.988
십	-10.9886
▁상대	-10.9887
▁D	-10.9902
▁맞이	-10.9912
살아나	-10.9919
치료	-10.9931
슬	-10.9948
불리	-10.9948
진정	-10.9949
탐	-10.9965
글	-10.9967
슈	-10.9972
리플리	-10.9973
쌍둥이	-10.9973
잔혹	-10.9973
텍사스	-10.9973
여전히	-10.9973
슈렉	-10.9973
예측	-10.9973
무시무시	-10.9973
멋진	-10.9973
욕망	-10.9973
빈센트	-10.9973
떠돌	-10.9974
파헤치	-10.9974
평소	-10.9974
머물	-10.9975
물리치	-10.9976
찾아간다	-10.9976
도둑	-10.9977
영원히	-10.9977
위험천만	-10.9978
앞둔	-10.9978
조종	-10.9979
파견	-10.998
재회	-10.998
사이먼	-10.9981
조건	-10.9987
조금	-10.9987
루크	-10.9988
장난	-10.9988
▁사라진	-10.9989
12	-10.999
죄수	-10.9999
일삼	-11.0001
대형	-11.0008
전혀	-11.0011
중요	-11.0016
방해	-11.0026
성격	-11.0033
위대	-11.0033
소속	-11.0038
▁윌	-11.0046
▁프리	-11.0049
아기	-11.0049
▁회사	-11.0064
▁토	-11.0065
철	-11.0076
객	-11.0082
거미	-11.0085
퇴	-11.0087
가정	-11.0092
와중	-11.0117
▁대학	-11.0121
야수	-11.0136
분위기	-11.0155
▁마다	-11.0156
녀	-11.0158
▁톰	-11.0162
강하	-11.0184
▁군	-11.0195
죄	-11.0199
멕시코	-11.0218
시골	-11.022
관심	-11.0221
좀	-11.0224
버스	-11.0226
홀로	-11.0232
혈	-11.0234
▁이곳	-11.0236
떨	-11.024
ᅥ	-11.0243
데려가	-11.0243
흐르	-11.0244
꾸미	-11.0244
감추	-11.0245
의심	-11.0256
지휘	-11.0263
은행	-11.0269
인데	-11.0277
라면	-11.0278
▁악	-11.0286
버린다	-11.0293
▁싸움	-11.0298
▁칸	-11.0302
▁높	-11.0317
전체	-11.0322
힘들	-11.0326
끝나	-11.0344
▁삼	-11.0355
▁통제	-11.0383
▁대로	-11.0385
▁마리	-11.039
끼	-11.0436
기대	-11.0455
리스	-11.0457
▁잠	-11.0466
항	-11.0477
칠	-11.0491
황	-11.0503
실패	-11.0514
7	-11.0516
으나	-11.0516
몰리	-11.0516
갑	-11.0517
쇠	-11.0518
켄	-11.0519
갓	-11.052
맺	-11.0521
벅	-11.0521
애니메이션	-11.0521
앨빈	-11.0521
오히려	-11.0521
프로그램	-11.0521
뛰어난	-11.0521
합니다	-11.0521
따뜻	-11.0521
괴롭히	-11.0521
규모	-11.0521
잃어버린	-11.0521
헌트	-11.0521
혼돈	-11.0521
완전히	-11.0521
동굴	-11.0522
스콧	-11.0522
로버트	-11.0522
시킬	-11.0522
위치	-11.0523
본능	-11.0524
후계자	-11.0524
빅터	-11.0525
실체	-11.0525
승리	-11.0526
▁독	-11.0528
데이브	-11.0531
방식	-11.0533
누나	-11.0535
돌보	-11.0535
반격	-11.0536
너무나	-11.0539
열정	-11.054
자연	-11.0549
▁롭	-11.055
느낀다	-11.0555
군사	-11.0567
아래	-11.057
니스	-11.0582
감지	-11.0589
선장	-11.0622
▁먼	-11.0626
낸다	-11.063
▁벤	-11.0631
▁부활	-11.0632
▁시체	-11.0634
기괴	-11.0643
▁리더	-11.0662
▁20	-11.0683
기차	-11.0733
현	-11.078
헤	-11.0784
준다	-11.0797
냉	-11.0801
ys	-11.0806
희생	-11.0806
▁폭발	-11.0807
도사리	-11.0807
뜨겁	-11.0807
곤	-11.0813
거래	-11.0813
몇	-11.0814
rea	-11.0815
천재	-11.0816
교도	-11.0816
노예	-11.0816
불러	-11.0822
변해	-11.0823
송	-11.0833
놀라	-11.0837
편지	-11.0875
▁아무	-11.0883
▁러시아	-11.0885
▁행동	-11.0885
▁대니	-11.0888
자살	-11.0901
▁대해	-11.0909
가난	-11.0912
▁실종	-11.092
▁올	-11.0955
▁터	-11.0962
▁이유	-11.1009
직원	-11.1012
령	-11.1042
유명	-11.1048
킴	-11.1056
답	-11.1062
▁깨	-11.1068
킹	-11.1074
표	-11.1077
보스	-11.1078
킨	-11.1086
탐정	-11.1091
봉	-11.1091
넷	-11.1092
▁거리	-11.1093
평	-11.1095
버트	-11.1097
▁족	-11.1098
졌	-11.1099
nal	-11.11
룰	-11.11
원숭이	-11.1101
도미닉	-11.1101
슬픔	-11.1101
아이언맨	-11.1101
알라딘	-11.1101
뮬란	-11.1101
불시착	-11.1101
루이스	-11.1101
스파이더맨	-11.1101
저항군	-11.1101
축구	-11.1101
사라졌	-11.1101
들어오	-11.1102
다니엘	-11.1102
그림자	-11.1103
재앙	-11.1104
벌인다	-11.1104
당신	-11.1105
▁천	-11.1105
우디	-11.1107
대항	-11.1113
진화	-11.1117
왕위	-11.1119
담시	-11.1121
나타난	-11.1122
잊	-11.1125
카터	-11.1125
넘	-11.1128
단체	-11.1129
오래	-11.1131
9	-11.1134
여동생	-11.1139
▁외계	-11.115
▁개발	-11.1155
직장	-11.1159
▁고대	-11.116
▁파트너	-11.1163
향해	-11.1167
두목	-11.1172
일본	-11.1174
▁문제	-11.12
▁오랜	-11.1202
▁전화	-11.1206
한때	-11.1227
잠들	-11.1232
사기	-11.1238
관한	-11.1253
원인	-11.1253
▁루	-11.127
이모	-11.1296
▁8	-11.1347
환	-11.1362
멈추	-11.1404
k	-11.1404
낳	-11.1404
무너지	-11.1404
▁LA	-11.1404
친다	-11.1404
주어지	-11.1404
동원	-11.1411
▁이집트	-11.1423
▁홀로	-11.1431
침입	-11.1444
밝혀	-11.1449
하딘	-11.1449
스파이	-11.1449
▁해진	-11.145
▁직	-11.1455
여왕	-11.1456
호기	-11.1474
치명	-11.1476
수호	-11.1482
▁버린다	-11.1497
린다	-11.1507
▁아기	-11.1509
용의	-11.1518
▁JK	-11.1527
▁M	-11.1531
사장	-11.1543
전학	-11.1548
매기	-11.156
▁디	-11.1587
다며	-11.1632
데스	-11.1634
메이	-11.1663
레이스	-11.1686
완	-11.1689
도전	-11.1692
앙	-11.1696
가문	-11.1701
헬	-11.1705
팅	-11.1707
징	-11.1709
봐	-11.1715
싫	-11.1716
무언가	-11.1716
▁폭력	-11.1716
규칙	-11.1716
그렇게	-11.1716
낡	-11.1716
반드시	-11.1716
숀	-11.1716
습니다	-11.1716
아나스타샤	-11.1716
어드벤처	-11.1716
어벤져스	-11.1716
워싱턴	-11.1716
팅커벨	-11.1716
파일럿	-11.1716
떨어져	-11.1716
탈취	-11.1716
연합	-11.1717
암흑	-11.1717
찾아와	-11.1717
장난감	-11.1718
경계	-11.1718
세운다	-11.1721
구원	-11.1723
깨달	-11.1724
포함	-11.1725
슈퍼맨	-11.1725
예전	-11.1726
단짝	-11.1729
▁위치	-11.1732
▁로버트	-11.1734
결과	-11.1738
주민	-11.1738
치열	-11.1743
소동	-11.1745
소피	-11.1748
심장	-11.1748
테사	-11.175
예기	-11.1751
비아	-11.1756
문명	-11.1759
일까	-11.1767
미치	-11.1771
사업	-11.1771
생일	-11.1793
차원	-11.1794
으로서	-11.1805
▁데이	-11.1808
▁잘	-11.1815
감정	-11.1817
그린	-11.1818
▁즈	-11.1831
당한다	-11.1837
소원	-11.186
속도	-11.1876
이혼	-11.1896
▁품	-11.1912
i	-11.1919
▁다니	-11.1936
▁병	-11.1951
거인	-11.1953
른	-11.1958
라이	-11.1979
5	-11.1996
붙	-11.2
잡혀	-11.2013
▁변해	-11.2026
▁몇	-11.2027
낙	-11.2028
엄	-11.2037
운전	-11.2037
제인	-11.2037
y	-11.2039
뚫	-11.2039
환영	-11.2039
닥치	-11.2039
행방	-11.2041
▁실패	-11.2049
지켜보	-11.2056
▁멕시코	-11.2069
▁시골	-11.207
경기	-11.2073
수녀	-11.2073
장면	-11.2082
▁진정	-11.2091
t	-11.2095
트리	-11.2096
▁기술	-11.2118
▁은행	-11.2123
프랑스	-11.2124
해진다	-11.2125
▁짐	-11.2126
크리스	-11.2128
그때	-11.2131
▁부인	-11.2133
6	-11.2134
반대	-11.2138
방문	-11.2138
목적	-11.2148
내려	-11.2155
다루	-11.2163
▁부대	-11.217
립	-11.2186
이때	-11.22
▁성장	-11.222
살리	-11.2224
으려는	-11.2229
▁보스	-11.223
사망	-11.2235
필드	-11.225
▁나타난	-11.2254
릭	-11.2277
전기	-11.2288
지대	-11.2294
둔	-11.2317
▁향해	-11.2343
물리	-11.2347
다면	-11.2353
▁천재	-11.2363
텔	-11.2367
핀	-11.2369
갈수록	-11.2369
쌓	-11.237
갱	-11.237
딴	-11.2371
탑승	-11.2372
쌍	-11.2372
엘리자베스	-11.2372
컴퓨터	-11.2372
펠	-11.2372
깨어난	-11.2372
마이어스	-11.2372
벤자민	-11.2372
비디오	-11.2372
근처	-11.2373
탐사	-11.2373
허락	-11.2373
시드니	-11.2373
복판	-11.2373
노출	-11.2374
웬디	-11.2374
어쩔	-11.2374
웃음	-11.2374
크루즈	-11.2374
삼촌	-11.2375
잘못	-11.2375
외롭	-11.2375
저승	-11.2376
현상금	-11.2377
무덤	-11.2378
교사	-11.2378
돌려	-11.2378
유물	-11.2379
케이지	-11.2381
리틀	-11.2381
누명	-11.2383
지하실	-11.2384
초능력	-11.2385
직감	-11.2386
임신	-11.2398
호크	-11.2399
학자	-11.2401
막히	-11.2403
그렉	-11.2408
화신	-11.2409
돼지	-11.2412
전쟁터	-11.2413
▁지배	-11.2416
병사	-11.242
니다	-11.2428
팀원	-11.2428
▁역사	-11.2435
공연	-11.2456
처한다	-11.246
반하	-11.2465
▁준	-11.2469
졸업	-11.2482
블랙	-11.2484
얼마	-11.2485
의뢰	-11.2485
음악	-11.2486
지켜	-11.2486
결혼식	-11.2487
우리	-11.2489
강도	-11.2495
▁정보	-11.2529
고립	-11.2532
부하	-11.2559
려던	-11.2593
▁늘	-11.2598
▁스파이	-11.2623
도심	-11.263
스키	-11.2632
학살	-11.2635
유전	-11.2637
▁용	-11.2638
▁밝혀	-11.2648
의사	-11.2653
▁연구	-11.2655
랑	-11.266
자원	-11.2669
파리	-11.2672
덕	-11.2695
▁노예	-11.2707
랜	-11.2711
▁불러	-11.2711
빗	-11.2716
휩싸이	-11.2717
출연	-11.2718
근무	-11.2719
헤어지	-11.2723
▁일본	-11.2724
▁버스	-11.2751
엘리	-11.2755
▁테	-11.2775
예고	-11.2786
소문	-11.2804
자금	-11.2828
정의	-11.2829
▁실험	-11.2848
활약	-11.285
참석	-11.2854
시켜	-11.2854
▁나오	-11.2861
불안	-11.2862
향한	-11.2865
물체	-11.2866
가방	-11.2867
어린이	-11.2871
▁볼	-11.2887
▁제이	-11.2901
주장	-11.291
▁브	-11.2973
해안	-11.2974
기관	-11.298
인공	-11.299
봇	-11.2998
개인	-11.301
▁여왕	-11.3024
빙	-11.3025
도박	-11.303
▁당한다	-11.3031
▁지도	-11.3052
탐험	-11.3052
즐	-11.3063
활	-11.3067
플레이	-11.307
옆	-11.3072
힐	-11.3073
으면	-11.3073
멘	-11.3073
d	-11.3073
미스터	-11.3074
u	-11.3074
시킨	-11.3074
가까운	-11.3074
스피릿	-11.3074
캐릭터	-11.3074
콰	-11.3074
펭귄	-11.3074
맷	-11.3074
무서운	-11.3074
걱정	-11.3074
주식회사	-11.3074
▁MI	-11.3075
점령	-11.3075
오랫동안	-11.3075
헤매	-11.3075
예언	-11.3075
환생	-11.3075
트롤	-11.3075
크리드	-11.3075
저지르	-11.3076
▁관심	-11.3076
크리스탈	-11.3076
수용소	-11.3076
독립	-11.3076
행크	-11.3076
회복	-11.3077
방송	-11.3077
열쇠	-11.3077
항상	-11.3078
마스터	-11.3078
거칠	-11.3078
감행	-11.3079
마침	-11.3079
파이터	-11.3079
필사	-11.3081
초월	-11.3081
하루하루	-11.3081
천국	-11.3081
종말	-11.3081
순수	-11.3083
지킬	-11.3086
물건	-11.3086
재난	-11.3087
잡히	-11.3087
배경	-11.3087
반란	-11.309
사촌	-11.3091
막강	-11.3092
레나	-11.3095
국장	-11.3096
제국	-11.3097
스타크	-11.31
함정	-11.3101
조니	-11.3103
눈앞	-11.3104
추격전	-11.3104
옛날	-11.3105
▁생명	-11.3107
배후	-11.3108
독일	-11.3109
빼앗기	-11.3112
으니	-11.3114
코치	-11.3115
트리스	-11.3118
불길	-11.312
▁치료	-11.3121
일생	-11.3131
대화	-11.3136
하우스	-11.3142
중심	-11.3168
끌	-11.3171
자매	-11.3178
시도	-11.3188
▁학생	-11.3209
암호	-11.3237
배신	-11.3241
권력	-11.3243
▁내리	-11.3246
토르	-11.3249
1	-11.3251
s	-11.3258
처한	-11.327
벨라	-11.3284
지우	-11.3284
일원	-11.3289
만드	-11.3299
나갈	-11.3299
▁지하	-11.3301
▁옛	-11.3305
▁그린	-11.3318
리암	-11.3319
▁크리스	-11.3328
빼	-11.3334
리타	-11.3349
이기	-11.335
다크	-11.336
▁감정	-11.3367
제자	-11.3368
타이	-11.3371
▁소원	-11.3391
▁치명	-11.3398
▁유명	-11.341
거기	-11.3413
▁오래	-11.3414
▁척	-11.3419
굴	-11.3426
솔	-11.3433
▁배우	-11.3437
맹	-11.3438
우승	-11.3441
서커스	-11.3443
캠	-11.3444
읽	-11.3445
달아나	-11.3445
넘어가	-11.3445
떠오르	-11.3445
예술	-11.3446
격투	-11.3446
박물	-11.3451
출전	-11.3451
건너	-11.3452
끌려가	-11.3454
연방	-11.3456
▁별	-11.3457
라라	-11.3461
어울리	-11.3468
이탈리아	-11.3474
빙하	-11.3485
회장	-11.3497
중국	-11.3498
이끌리	-11.3504
▁불리	-11.3514
▁9	-11.3534
당해	-11.3566
n	-11.358
혼	-11.3584
천만	-11.3606
2	-11.362
찾아온	-11.3632
델	-11.3635
떼	-11.3637
연락	-11.3637
캣	-11.3638
캠프	-11.3638
람보	-11.3639
너무	-11.3639
소설	-11.364
주변	-11.3646
▁지켜	-11.3659
알려	-11.3661
▁얼마	-11.3675
▁뜻	-11.3689
참가	-11.369
이웃	-11.3698
대장	-11.3699
▁권	-11.3702
경고	-11.372
▁30	-11.3726
구조	-11.3759
주어진	-11.3761
▁낸	-11.3779
▁탄	-11.3786
책임	-11.3818
튼	-11.3819
닐	-11.3819
▁파리	-11.382
낮	-11.3823
밴드	-11.3827
흐	-11.3828
ᄅ	-11.3829
가까워	-11.3829
뭐	-11.3829
▁훔쳐	-11.3829
둘러싼	-11.3829
맥클레인	-11.3829
베테랑	-11.3829
시스템	-11.3829
엉뚱	-11.3829
포켓몬	-11.3829
피노키오	-11.3829
호그와트	-11.3829
히브리	-11.3829
돌아왔	-11.3829
라디오	-11.3829
마커스	-11.3829
스토리	-11.3829
어두운	-11.3829
타일러	-11.3829
짜릿	-11.3829
홍콩	-11.3829
돌연변이	-11.3829
지속	-11.3829
킹콩	-11.3829
제니퍼	-11.3829
타고난	-11.3829
케이디	-11.383
매니저	-11.383
험난	-11.383
디에고	-11.383
얘기	-11.383
독일군	-11.383
엠마	-11.383
승무원	-11.383
크리스틴	-11.383
케이트	-11.383
유인원	-11.383
평온	-11.383
언니	-11.3831
서커스단	-11.3831
라이벌	-11.3831
찰스	-11.3831
바탕	-11.3832
복제	-11.3832
식당	-11.3832
변호사	-11.3832
토끼	-11.3832
담긴	-11.3832
요새	-11.3832
일곱	-11.3833
선언	-11.3834
실제로	-11.3834
시리즈	-11.3834
표적	-11.3835
상징	-11.3835
먼저	-11.3836
당시	-11.3836
역대	-11.3836
공식	-11.3837
최초	-11.3838
마술	-11.3838
버즈	-11.384
봉인	-11.3841
제대로	-11.3841
멀리	-11.3841
존슨	-11.3842
테드	-11.3843
대립	-11.3843
직면	-11.3846
▁이루	-11.3846
살인범	-11.3846
▁좀	-11.3846
월드	-11.3847
배달	-11.3848
집착	-11.385
낸시	-11.3852
엘라	-11.3852
항공	-11.3853
스런	-11.3858
걸려	-11.3858
며칠	-11.3859
소유	-11.3859
건물	-11.3861
긴장	-11.3862
착한	-11.3864
그리스도	-11.3864
부유	-11.3872
왕비	-11.3881
믿음	-11.3883
케이	-11.3884
놀이	-11.3891
수용	-11.3895
시드	-11.3899
대위	-11.39
나온	-11.3902
지도자	-11.3909
앤	-11.3913
바치	-11.3915
안내	-11.3925
향	-11.3932
파이	-11.394
이끌려	-11.3941
그레이	-11.3944
여신	-11.3958
리온	-11.3962
제리	-11.3972
▁향한	-11.3985
▁여기	-11.3991
▁도전	-11.4002
▁술	-11.4002
어도	-11.4007
일어난다	-11.4009
ᆯ지	-11.4013
▁벨	-11.4029
극한	-11.4036
저지	-11.4039
주의	-11.4043
링	-11.4048
외딴	-11.4051
맘	-11.4054
목표	-11.4054
제작	-11.4056
황금	-11.4058
▁시켜	-11.4061
나이	-11.4066
이것	-11.4067
축제	-11.4069
감시	-11.4073
▁극	-11.4082
▁블랙	-11.4096
금지	-11.4102
▁정의	-11.4103
자크	-11.4116
시기	-11.4118
▁런	-11.4121
오해	-11.4133
도로	-11.416
수상	-11.4178
▁사망	-11.418
묘	-11.4195
몬	-11.4215
덤	-11.4218
늦	-11.4223
로리	-11.4223
대륙	-11.4225
언제	-11.4228
빚	-11.4229
줏	-11.4229
데려오	-11.4229
곡절	-11.4229
▁자연	-11.4233
실력	-11.4237
조각	-11.4237
댄스	-11.4246
▁시도	-11.4246
소개	-11.4259
그만	-11.4272
어른	-11.4276
분투	-11.4291
이러	-11.431
다짐	-11.432
▁처한	-11.4369
l	-11.4394
▁돌	-11.4397
자란	-11.4406
▁가정	-11.4418
인정	-11.4424
▁엘리	-11.4427
신문	-11.4428
누	-11.4428
기자	-11.4433
끊	-11.4454
로마	-11.4454
O	-11.446
인도	-11.4471
콘	-11.4473
쓴	-11.4476
▁참석	-11.4483
친하	-11.4484
챔피언	-11.4486
진행	-11.4487
추락	-11.4488
드래곤	-11.4488
틈	-11.4491
▁추격	-11.4492
▁범	-11.4498
▁결혼식	-11.4511
▁괴	-11.4514
▁우리	-11.4515
더그	-11.4548
기이	-11.4566
합	-11.4583
신세	-11.4587
턴	-11.4591
▁잊	-11.4611
랭	-11.4639
셀	-11.464
삭	-11.4641
완전	-11.4645
셋	-11.4645
카메라	-11.4645
마스크	-11.4645
패션	-11.4645
흉	-11.4645
m	-11.4645
멜	-11.4646
청소	-11.4646
밑	-11.4646
폰	-11.4646
앉	-11.4646
샌프란시스코	-11.4646
스페인	-11.4646
웡	-11.4646
초콜릿	-11.4646
프레데터	-11.4646
간신히	-11.4646
뒤흔들	-11.4646
즐거운	-11.4646
커다란	-11.4646
마피아	-11.4646
하워드	-11.4646
순식	-11.4646
숨겨져	-11.4646
즐겁	-11.4646
고등학생	-11.4646
콤비	-11.4647
블루	-11.4647
감춘	-11.4647
육체	-11.4647
물려받	-11.4647
실비아	-11.4647
베일리	-11.4647
처키	-11.4648
꿈꾼다	-11.4648
바꿀	-11.4648
공항	-11.4648
뒤덮	-11.4648
옆집	-11.4648
케이시	-11.4648
레이싱	-11.4648
덤보	-11.4648
국경	-11.4648
아수라장	-11.4648
승부	-11.4649
베니스	-11.4649
얼음	-11.4649
시험	-11.4649
발휘	-11.4649
멋지	-11.465
외로운	-11.465
겁나	-11.4651
압도	-11.4651
조종사	-11.4651
돌입	-11.4652
공존	-11.4652
짝사랑	-11.4653
미녀	-11.4653
래리	-11.4653
발각	-11.4656
부패	-11.4657
헤어진	-11.4658
데이트	-11.466
입학	-11.4663
육지	-11.4664
불법	-11.4665
타임	-11.4666
다룬	-11.4672
동물원	-11.4672
초유	-11.4672
강간	-11.4673
영상	-11.4673
미모	-11.4674
캐리	-11.4679
여학생	-11.4679
시저	-11.468
포드	-11.4682
걸음	-11.4683
▁엘	-11.4684
힘든	-11.4685
칼라	-11.4686
신호	-11.4692
하얀	-11.4692
놓치	-11.4692
어인	-11.4702
전역	-11.4703
자동	-11.4704
들어간다	-11.4708
암살자	-11.4718
네오	-11.4721
수백	-11.4724
▁암살	-11.473
바비	-11.4738
매니	-11.4746
마시	-11.4759
장치	-11.4763
▁지나	-11.4763
모자	-11.4768
주목	-11.4768
▁찾아온	-11.477
r	-11.4774
구한	-11.4791
라스	-11.4795
▁메	-11.4796
자체	-11.4809
사내	-11.4813
본다	-11.482
▁너무	-11.4832
터지	-11.4834
놓인	-11.484
레인	-11.4848
▁캣	-11.4858
▁람보	-11.4858
▁캠프	-11.4858
▁알려	-11.4859
나치	-11.4869
▁찬	-11.487
▁목적	-11.487
괴한	-11.4872
▁바람	-11.4883
~	-11.4884
떠	-11.4888
범죄자	-11.49
▁방문	-11.4904
S	-11.4908
휴	-11.4919
떨어진	-11.4936
태어난	-11.4936
▁음악	-11.4939
▁졸업	-11.4939
▁의뢰	-11.4942
연애	-11.4942
담당	-11.4942
결정	-11.4947
내용	-11.4948
음식	-11.4952
▁침입	-11.4952
모여	-11.4961
▁프랑스	-11.4966
▁생일	-11.4968
해져	-11.498
안전	-11.4983
그저	-11.4987
인질	-11.4988
모인	-11.4993
홍	-11.5053
험	-11.5056
못한다	-11.5068
둘러싸	-11.5072
▁거래	-11.5073
싱	-11.5078
탑	-11.508
캘리포니아	-11.5081
붉	-11.5081
궁금	-11.5081
겨울	-11.5081
환경	-11.5081
친절	-11.5082
빨리	-11.5083
운반	-11.5084
항해	-11.5086
▁온다	-11.5087
라이트	-11.5088
홀리	-11.5088
애쓰	-11.5088
깨우	-11.5089
미국인	-11.509
▁관리	-11.5092
이별	-11.5098
조작	-11.5098
게릴라	-11.5099
두뇌	-11.51
▁캐	-11.5107
유대	-11.5107
드리	-11.5108
사귀	-11.5119
▁19	-11.5124
집행	-11.5126
극장	-11.5145
이겨	-11.5147
더니	-11.515
커지	-11.5153
막내	-11.5155
▁팔	-11.5163
해독	-11.5175
원하	-11.5178
기적	-11.5206
가리	-11.5224
소행	-11.5262
포스	-11.5263
▁맘	-11.5275
▁축제	-11.5275
은둔	-11.5276
▁J	-11.529
대부	-11.5295
로드	-11.5298
▁떼	-11.5303
▁경고	-11.5304
▁끌	-11.5306
▁주변	-11.5307
▁담	-11.532
▁벨라	-11.5366
▁빈	-11.5368
윌리	-11.5374
▁로리	-11.5385
▁벌	-11.5386
뛰	-11.5392
짜	-11.5403
▁영	-11.5416
퀸	-11.5417
처참	-11.5417
야생	-11.5421
모세	-11.5423
펼쳐진다	-11.5425
자비	-11.5427
▁견	-11.5432
내린	-11.5437
수천	-11.5463
회의	-11.5486
고용	-11.5503
▁100	-11.5511
압	-11.5515
뜻밖	-11.5517
춘	-11.5524
흑	-11.5525
벌어진	-11.5526
페이스	-11.5526
곡	-11.5529
즉	-11.5533
숨긴	-11.5533
룸	-11.5533
덴	-11.5534
센트	-11.5535
콩	-11.5535
컵	-11.5535
▁경쟁	-11.5535
겟	-11.5535
뉴요커	-11.5535
돔	-11.5535
디즈니	-11.5535
률	-11.5535
매트릭스	-11.5535
싣	-11.5535
아프가니스탄	-11.5535
이렇게	-11.5535
이윽고	-11.5535
최첨단	-11.5535
캐서린	-11.5535
테일러	-11.5535
포르노	-11.5535
하룻밤	-11.5535
메시지	-11.5535
파라오	-11.5535
거듭나	-11.5535
람세스	-11.5535
피오나	-11.5535
할리우드	-11.5535
피에르	-11.5535
절체절명	-11.5535
은신처	-11.5535
캐스퍼	-11.5535
복싱	-11.5535
탐욕	-11.5535
핵폭탄	-11.5536
교통사고	-11.5536
자존심	-11.5536
에리카	-11.5536
헌터	-11.5536
덩치	-11.5536
운석	-11.5536
침투	-11.5536
▁15	-11.5536
으러	-11.5536
걷잡	-11.5536
행각	-11.5536
좋아하	-11.5537
블린	-11.5537
교회	-11.5537
미셸	-11.5537
울프	-11.5537
겨우	-11.5537
유능	-11.5537
아담스	-11.5537
제우스	-11.5538
출발	-11.5538
소탕	-11.5538
간호사	-11.5538
모델	-11.5539
동행	-11.554
새끼	-11.554
글리	-11.5541
감금	-11.5542
버릴	-11.5543
처리	-11.5544
연결	-11.5544
니슨	-11.5546
엘리트	-11.5547
알려진	-11.5548
방학	-11.5549
면접	-11.555
개월	-11.5551
비극	-11.5553
이어지	-11.5555
▁몰리	-11.5557
판단	-11.5557
웨이	-11.5558
거친	-11.5558
토드	-11.5559
모피	-11.5561
상금	-11.5562
첫눈	-11.5564
불행	-11.5565
각기	-11.5565
메리	-11.5565
정치	-11.5567
통과	-11.5567
파피	-11.5572
호러	-11.5576
스틱	-11.5578
카드	-11.558
제니	-11.5583
하나님	-11.5585
직전	-11.5591
대학생	-11.5591
반면	-11.5592
상관	-11.5595
올해	-11.5595
노인	-11.5596
마야	-11.561
도리	-11.5613
▁이끌	-11.563
내부	-11.5645
그레이스	-11.5653
▁회	-11.5658
칸다	-11.5697
마일	-11.5698
▁드래곤	-11.5709
▁빌리	-11.5709
▁나이	-11.5712
▁신세	-11.5725
애인	-11.5737
▁목표	-11.574
▁금지	-11.574
▁감시	-11.574
▁연락	-11.5769
아도	-11.5771
▁현상	-11.5781
▁준다	-11.5787
▁쉬	-11.5793
▁쿠	-11.5794
▁암호	-11.5799
인연	-11.5803
로디	-11.5815
▁불안	-11.5825
지난	-11.5828
한창	-11.5832
▁끊	-11.5841
▁비행	-11.5841
용사	-11.5847
비밀리	-11.5869
달린	-11.587
밥	-11.5916
윅	-11.5917
팬	-11.5918
걸린	-11.5923
주먹	-11.5924
날리	-11.5925
해변	-11.5927
오디	-11.5929
나선	-11.5943
집안	-11.5943
고백	-11.5965
해도	-11.5965
▁곤	-11.5982
계기	-11.5985
억	-11.5988
새로	-11.5991
약혼	-11.6005
나날	-11.6005
랄	-11.6009
변호	-11.601
겉	-11.601
릿	-11.6011
쥬	-11.6011
뽑	-11.6011
쓰러지	-11.6011
ᅡ	-11.6011
뛰어들	-11.6011
빨간	-11.6012
질투	-11.6013
정착	-11.6014
갖추	-11.6015
현대	-11.6016
구경	-11.6016
뛰어나	-11.6017
작업	-11.6017
러브	-11.6021
우여	-11.6025
건네	-11.6028
치밀	-11.603
꼬이	-11.6031
밝혀내	-11.6032
미친	-11.6037
누리	-11.6037
잃어버	-11.6041
완성	-11.6042
치르	-11.6053
▁십	-11.6075
▁태어난	-11.6077
▁떨어진	-11.6077
보인다	-11.6081
고교	-11.6092
▁모인	-11.6099
넘기	-11.6101
서부	-11.6104
전국	-11.6116
이거	-11.6146
하트	-11.615
고군	-11.6158
지원	-11.6158
▁결정	-11.6165
리그	-11.6171
상사	-11.618
▁추락	-11.6197
▁사업	-11.6207
▁황금	-11.6227
수도	-11.6229
유성	-11.6241
신분	-11.6246
도와	-11.6259
말리	-11.628
▁못한다	-11.629
▁활약	-11.6292
h	-11.632
▁넘	-11.6337
▁추	-11.6356
프로	-11.636
시장	-11.6393
인식	-11.64
잡이	-11.6413
한계	-11.6424
곰	-11.6439
▁희생	-11.6439
윌리엄	-11.644
춤	-11.6442
체포	-11.6446
영원	-11.6449
첫날	-11.6456
스카	-11.6461
보물	-11.6464
제시	-11.6466
익	-11.647
픈	-11.6477
▁긴	-11.6485
남부	-11.6493
프레드	-11.6493
울리	-11.6494
남겨진	-11.6502
뒤쫓	-11.6502
이동	-11.6508
공장	-11.6509
웰	-11.651
합쳐	-11.6511
램	-11.6511
c	-11.6511
어려운	-11.6511
다이아몬드	-11.6511
다이애나	-11.6511
드라큘라	-11.6511
맞닥뜨리	-11.6511
브래드	-11.6511
스러워	-11.6511
아슬아슬	-11.6511
죠	-11.6511
즐긴다	-11.6511
카리스마	-11.6511
티파니	-11.6511
팩	-11.6511
푹	-11.6511
아일랜드	-11.6511
얽힌	-11.6511
인디아나	-11.6511
뇨	-11.6511
사사건건	-11.6511
렀	-11.6511
카르텔	-11.6511
크리시	-11.6511
나머지	-11.6511
빠른	-11.6511
사고뭉치	-11.6511
이루어지	-11.6511
로맨스	-11.6511
접촉	-11.6511
일생일대	-11.6511
트레이너	-11.6512
돌아와	-11.6512
얼떨결	-11.6512
덤블	-11.6512
▁24	-11.6512
미이라	-11.6512
씨제이	-11.6512
램프	-11.6512
오두막	-11.6512
황폐	-11.6512
죄책감	-11.6512
물고기	-11.6512
북쪽	-11.6512
처절	-11.6512
유쾌	-11.6512
스릴러	-11.6512
반란군	-11.6512
관찰	-11.6512
연합군	-11.6512
삼총사	-11.6513
원정대	-11.6513
첩보	-11.6513
취급	-11.6513
광경	-11.6513
젊은이	-11.6513
제다이	-11.6513
고고학자	-11.6514
갱단	-11.6514
방향	-11.6515
약물	-11.6515
직업	-11.6515
으면서	-11.6516
오빠	-11.6517
제압	-11.6517
때마침	-11.6517
가상	-11.6518
예정	-11.6518
외면	-11.6519
추방	-11.6519
유력	-11.6521
좀처럼	-11.6522
추구	-11.6522
벌어진다	-11.6522
유전자	-11.6522
마음씨	-11.6523
저격	-11.6525
볼트	-11.6527
설리	-11.6528
공부	-11.6529
루피	-11.653
납치범	-11.653
조용	-11.6531
대표	-11.6531
간직	-11.6532
용감	-11.6532
무슨	-11.6534
난생	-11.6534
연구소	-11.6539
에디	-11.654
신참	-11.654
보석	-11.654
싸인	-11.654
본드	-11.6545
신디	-11.6546
올리	-11.6547
선발	-11.6547
귀신	-11.6548
진심	-11.6548
자랑	-11.6549
마티	-11.6553
테리	-11.6557
▁그리	-11.6561
니나	-11.6566
로즈	-11.6568
유산	-11.6569
신체	-11.657
피트	-11.6571
주식	-11.6577
희생자	-11.6585
죽인	-11.6588
▁암	-11.6589
많이	-11.6596
니아	-11.6598
시선	-11.6604
취하	-11.6609
떨어진다	-11.661
▁모세	-11.6617
마마	-11.6629
선사	-11.663
▁처참	-11.6634
▁퀸	-11.6635
노아	-11.6637
▁짓	-11.6642
▁펼쳐진다	-11.6643
에스터	-11.6666
맡기	-11.6675
▁내용	-11.6678
청하	-11.6688
▁챔피언	-11.6705
분파	-11.6718
▁제작	-11.6742
위성	-11.6751
보라	-11.6754
자니	-11.6762
▁수상	-11.6764
▁소설	-11.6774
▁앤	-11.6781
▁배신	-11.6798
무적	-11.6812
▁전문	-11.6848
▁강도	-11.6865
개성	-11.6878
▁둔	-11.6879
도망	-11.6888
도니	-11.6905
기업	-11.6906
으	-11.6917
로라	-11.6922
로저	-11.6926
▁지난	-11.6933
검사	-11.6944
▁18	-11.6954
공학	-11.6955
▁휴	-11.6956
하퍼	-11.6979
으려	-11.6985
들어간	-11.6991
왜	-11.6994
휘	-11.6995
빅	-11.6996
고스트	-11.6997
코너	-11.6998
남긴	-11.6999
동화	-11.7003
에밀리	-11.701
뒤집	-11.701
궁	-11.7015
E	-11.7034
셔	-11.7034
규	-11.7037
율	-11.7038
호랑이	-11.7038
▁관련	-11.7038
▁식량	-11.7038
쏟아지	-11.7038
갑작스럽	-11.7038
탈옥	-11.7038
붙잡히	-11.7038
초록	-11.7042
시합	-11.7047
공군	-11.7047
아주	-11.7052
초토	-11.7053
포터	-11.7054
달려가	-11.7055
00	-11.7057
공원	-11.7059
▁나선	-11.707
쫓아내	-11.7074
조지	-11.7094
수집	-11.7111
NA	-11.7112
▁윅	-11.7144
▁판	-11.7146
유인	-11.7147
▁걸린	-11.7147
▁오디	-11.7147
가르	-11.7154
가루	-11.7158
▁새로	-11.7171
▁진행	-11.7178
▁나날	-11.7179
구성	-11.72
▁프로	-11.7204
모아	-11.7207
고르	-11.7209
▁음식	-11.721
▁담당	-11.7212
▁연애	-11.7212
기록	-11.7218
▁틈	-11.723
이드	-11.7242
이티	-11.7252
▁고용	-11.7261
리즈	-11.7271
▁외딴	-11.7274
▁누	-11.7278
▁참가	-11.7293
▁토르	-11.7328
들키	-11.7357
▁오르	-11.7405
▁모자	-11.7437
▁반대	-11.7466
코드	-11.749
리치	-11.7493
지시	-11.7502
써	-11.7535
심리	-11.7547
듀	-11.755
끊임없	-11.7555
지나가	-11.7568
▁A	-11.7573
빼앗	-11.7575
라곤	-11.7577
션	-11.7577
찰	-11.7581
묶	-11.7582
뜬	-11.7583
돌아간	-11.7584
보낸	-11.7584
틴	-11.7585
▁폭풍	-11.7587
창조	-11.7588
동네	-11.7589
닝	-11.759
컨	-11.759
G	-11.759
젠	-11.7591
템	-11.7591
헤어	-11.7592
굿	-11.7593
휩싸인다	-11.7593
갚	-11.7593
귀여운	-11.7593
난쟁이	-11.7593
레스토랑	-11.7593
부딪히	-11.7593
뻔	-11.7593
스카우트	-11.7593
익스펜더블	-11.7593
클라크	-11.7593
패트릭	-11.7593
페르시아	-11.7593
사우론	-11.7593
인디언	-11.7593
툰	-11.7593
빠뜨리	-11.7593
흩어지	-11.7593
니콜라스	-11.7593
이벤트	-11.7593
커다랗	-11.7593
로렌스	-11.7593
설상가상	-11.7593
착륙	-11.7593
할로우	-11.7593
홈즈	-11.7593
스패로우	-11.7593
미식축구	-11.7593
좌절	-11.7593
살아온	-11.7593
샌디	-11.7594
싸워	-11.7594
자마자	-11.7594
인공지능	-11.7594
필립	-11.7594
랄프	-11.7594
픽시	-11.7594
푸른	-11.7594
빨려	-11.7594
▁17	-11.7594
빌딩	-11.7594
추억	-11.7594
업계	-11.7595
몰려	-11.7595
각국	-11.7595
빼앗긴	-11.7595
용맹	-11.7596
거센	-11.7596
지모도	-11.7596
후계	-11.7596
총격전	-11.7596
웨인	-11.7597
언제나	-11.7597
티몬	-11.7597
일으킨다	-11.7597
머피	-11.7597
짜리	-11.7597
르네	-11.7598
절정	-11.7598
라이프	-11.7598
심판	-11.7598
주니어	-11.7599
특수부대	-11.7599
동경	-11.7599
복서	-11.7599
거짓	-11.76
마주친	-11.76
윌리스	-11.7601
숨겨	-11.7601
아무런	-11.7601
터너	-11.7602
식물	-11.7602
에너지	-11.7603
광대	-11.7603
외부	-11.7603
완수	-11.7603
시카고	-11.7604
조쉬	-11.7604
버스터	-11.7605
버티	-11.7605
팬더	-11.7606
설치	-11.7606
나니아	-11.7607
우즈	-11.7607
데니스	-11.7607
추진	-11.7607
장착	-11.7608
강요	-11.7608
그리스	-11.7609
업자	-11.761
실험실	-11.761
반복	-11.7611
간호	-11.7611
재판	-11.7611
린치	-11.7612
헬기	-11.7613
노스	-11.7614
발명	-11.7615
발명가	-11.7615
건설	-11.7616
장교	-11.7617
세월	-11.7618
학년	-11.7619
거세	-11.762
안락	-11.7622
정상	-11.7625
대부분	-11.7627
연관	-11.7627
구해야	-11.7629
포트	-11.7631
미군	-11.7632
▁의사	-11.7632
부대원	-11.7636
그루	-11.7639
▁으려	-11.7641
축하	-11.7641
▁윌리엄	-11.7642
해킹	-11.7643
번개	-11.7645
데니	-11.7648
리노	-11.7648
사로잡	-11.7651
경찰관	-11.7652
미안	-11.7653
거두	-11.7654
테스트	-11.7659
리사	-11.7659
해커	-11.766
오토	-11.7661
수감	-11.7662
▁영원	-11.7665
▁춤	-11.7669
사라	-11.7675
▁제시	-11.7676
▁스카	-11.7679
피부	-11.7681
전통	-11.7692
만류	-11.7694
피신	-11.7695
데비	-11.7698
디아	-11.77
이내	-11.7704
▁밥	-11.7707
애니	-11.7714
▁집안	-11.7727
착하	-11.7728
오공	-11.7734
▁계기	-11.774
오리	-11.7741
해저	-11.7748
▁커	-11.7758
일대	-11.7762
▁에디	-11.7767
려다	-11.7767
▁모여	-11.777
보로	-11.7785
해군	-11.7794
사라진다	-11.7797
어요	-11.7807
▁인질	-11.7814
▁안전	-11.7816
레스	-11.7816
아담	-11.7824
▁B	-11.7844
신나	-11.7855
가스	-11.7859
주말	-11.7888
산장	-11.7922
상하	-11.7925
고급	-11.7927
조던	-11.7928
▁이웃	-11.7931
할지	-11.7934
상자	-11.7962
축	-11.7982
50	-11.7991
될지	-11.8002
주일	-11.8037
거의	-11.8045
움	-11.8062
조이	-11.8065
이탈	-11.8073
전해	-11.8074
풀리	-11.8085
심해	-11.8103
도적	-11.8119
가정부	-11.8129
▁들어간	-11.8147
지미	-11.815
켜	-11.8165
논	-11.8174
냐	-11.8176
톱	-11.8181
렛	-11.8181
쏟	-11.8181
Q	-11.8181
얽히	-11.8182
엉망	-11.8182
덮치	-11.8183
오랫	-11.8183
데이빗	-11.8184
경호	-11.8184
합치	-11.8185
궁전	-11.8185
총격	-11.8187
총각	-11.8188
새벽	-11.8188
꾸리	-11.8189
나간	-11.8198
돼	-11.8201
정면	-11.8201
절망	-11.8207
매튜	-11.8208
불시	-11.8208
정비	-11.8208
정복	-11.8211
공중	-11.8211
던지	-11.8213
크루	-11.8214
8	-11.8217
▁빅	-11.822
피우	-11.822
▁고스트	-11.8228
▁코너	-11.8228
▁남긴	-11.823
시계	-11.8234
▁뒤집	-11.8235
신입	-11.8236
파크	-11.8241
무시	-11.8241
▁에밀리	-11.8241
도우	-11.8245
산타	-11.8254
라마	-11.8254
총알	-11.8265
▁체포	-11.8265
▁공장	-11.8267
전장	-11.8275
▁보물	-11.828
▁팬	-11.8281
수술	-11.83
▁로즈	-11.8308
▁주먹	-11.831
대피	-11.8313
비서	-11.8314
▁해변	-11.8314
▁뛰	-11.8335
변이	-11.8346
자격	-11.8352
수학	-11.8366
먹이	-11.8391
일기	-11.8391
인사	-11.8416
▁콘	-11.8418
의미	-11.8441
▁권력	-11.8443
▁링	-11.8444
▁00	-11.8459
연기	-11.8478
▁구조	-11.8479
아이스	-11.8513
로니	-11.8518
한국	-11.8546
슬리	-11.8563
스터	-11.8583
대사	-11.8588
▁파이	-11.8626
▁릭	-11.8631
일부	-11.8635
아비	-11.8653
▁모아	-11.8673
줄리	-11.8674
▁다면	-11.868
생긴	-11.8687
성적	-11.8687
▁보낸	-11.8741
끌리	-11.8756
클로	-11.8756
▁빼앗	-11.8758
웬	-11.8763
희	-11.8768
▁그리스	-11.8785
백만	-11.8786
▁사라	-11.8788
끈	-11.8793
벗어난	-11.8796
설계	-11.8797
닥친	-11.8797
넬	-11.88
널	-11.8801
푼	-11.8802
납	-11.8802
꺼	-11.8803
챈	-11.8803
윈	-11.8804
텐	-11.8805
g	-11.8806
나타났	-11.8806
깬	-11.8806
뒷	-11.8806
잎	-11.8806
늙	-11.8806
다큐멘터리	-11.8806
달마시안	-11.8806
마이애미	-11.8806
몰아넣	-11.8806
벗	-11.8806
베트남	-11.8806
볼드모트	-11.8806
스코틀랜드	-11.8806
스탠리	-11.8806
스트레인지	-11.8806
씬	-11.8806
앨리슨	-11.8806
업그레이드	-11.8806
옵티머스	-11.8806
좌충우돌	-11.8806
크리스토퍼	-11.8806
킹스맨	-11.8806
트래비스	-11.8806
그토록	-11.8806
리조트	-11.8806
어려움	-11.8806
에이전트	-11.8806
호시탐탐	-11.8806
개구리	-11.8806
그래서	-11.8806
슐	-11.8806
엔지니어	-11.8806
컴뱃	-11.8806
아테나	-11.8806
흩어져	-11.8806
누들스	-11.8806
바이킹	-11.8806
속수무책	-11.8806
스칼렛	-11.8806
기상천외	-11.8807
▁198	-11.8807
머나먼	-11.8807
오토봇	-11.8807
심지어	-11.8807
퍼붓	-11.8807
따돌리	-11.8807
아가씨	-11.8807
저지른	-11.8807
팬텀	-11.8807
맥퀸	-11.8807
축복	-11.8807
느냐	-11.8807
리처드	-11.8807
광활	-11.8807
청혼	-11.8807
코끼리	-11.8807
당황	-11.8807
취직	-11.8807
멘토	-11.8808
태평양	-11.8808
조용히	-11.8808
교통	-11.8808
카메론	-11.8808
거액	-11.8808
백설	-11.8808
복귀	-11.8808
놀란	-11.8808
콜린	-11.8808
뉴스	-11.8808
거짓말	-11.8808
경악	-11.8808
결투	-11.8809
애완	-11.8809
패배	-11.8809
욕심	-11.8809
변한	-11.8809
스피드	-11.8809
바쁘	-11.8809
헤더	-11.8809
밝혀진다	-11.881
실마리	-11.881
쿠퍼	-11.881
밀려	-11.881
갖춘	-11.881
멀티	-11.881
절명	-11.881
치닫	-11.881
포식자	-11.8811
귀환	-11.8811
동참	-11.8811
왕궁	-11.8811
편집장	-11.8811
슈퍼밴드	-11.8811
극복	-11.8812
국군	-11.8812
최근	-11.8812
실증	-11.8812
만났	-11.8813
경력	-11.8813
퍼시	-11.8813
권투	-11.8813
말콤	-11.8814
마틴	-11.8814
코퍼	-11.8814
폭풍우	-11.8814
경제	-11.8814
계승	-11.8814
크리스티	-11.8815
증명	-11.8816
귀족	-11.8816
경비	-11.8816
열광	-11.8817
유모	-11.8817
커피	-11.8817
무죄	-11.8817
소유자	-11.8818
공개	-11.8818
세운	-11.8818
흥분	-11.8819
조커	-11.8819
드류	-11.882
남녀	-11.8821
모범	-11.8821
터프	-11.8821
수호자	-11.8821
치킨	-11.8822
잠든	-11.8823
팔려	-11.8823
위태	-11.8824
공유	-11.8824
명성	-11.8824
다가온다	-11.8825
타락	-11.8825
돌진	-11.8826
루카	-11.883
노라	-11.883
악동	-11.883
슬로	-11.8831
선배	-11.8831
▁죄	-11.8832
발레	-11.8832
빌린	-11.8832
교장	-11.8833
무술	-11.8833
원작	-11.8834
남학생	-11.8836
오늘	-11.8837
되돌리	-11.8837
강제	-11.884
스릴	-11.8841
식사	-11.8845
주술	-11.8848
쫓아가	-11.8848
폐기	-11.8849
아픈	-11.8849
보낼	-11.8849
▁왜	-11.885
사탄	-11.885
토안	-11.885
난무	-11.8851
제외	-11.8851
박스	-11.8852
광기	-11.8852
!	-11.8853
실리	-11.8854
일어난	-11.8856
▁동화	-11.8857
나온다	-11.8859
▁그루	-11.886
▁구성	-11.8862
소니	-11.8863
투명	-11.8867
놓여	-11.8867
사형	-11.8868
영리	-11.8869
오즈	-11.8869
무모	-11.887
댄	-11.8871
사라져	-11.8873
제물	-11.8875
전락	-11.8877
키워	-11.8877
우연	-11.8877
데드	-11.888
바니	-11.8885
루시	-11.8886
레오	-11.8888
구한다	-11.8892
참전	-11.8894
아이린	-11.8895
▁죽인	-11.8899
수업	-11.89
▁애니	-11.89
입양	-11.89
지나치	-11.8903
▁렌	-11.8909
별장	-11.891
괴수	-11.8911
▁조지	-11.8912
티나	-11.8915
어스	-11.8915
못해	-11.8915
앞서	-11.8915
소중	-11.892
태어난다	-11.8932
마비	-11.8944
친한	-11.8961
드레	-11.8965
▁야생	-11.8967
발전	-11.897
비명	-11.8973
가짜	-11.898
▁쓴	-11.8981
돌아온다	-11.8982
중간	-11.8983
공기	-11.8989
커져	-11.899
본인	-11.8996
오더	-11.8998
부리	-11.9007
보관	-11.9008
한눈	-11.9011
내린다	-11.9024
부풀	-11.9026
세스	-11.904
로빈	-11.9042
가필드	-11.9044
정하	-11.9046
버그	-11.9053
무한	-11.908
▁200	-11.9085
그대로	-11.9097
병기	-11.9098
사업가	-11.91
▁라이	-11.9116
▁전해	-11.9128
▁델	-11.913
말살	-11.9133
▁신분	-11.9134
들어서	-11.9156
해적	-11.9156
고생	-11.9175
차장	-11.9183
인격	-11.9194
반한다	-11.9203
이란	-11.9204
빠져들	-11.9241
지치	-11.9256
산업	-11.9264
수트	-11.9277
들린	-11.9292
도구	-11.9303
장인	-11.9326
지터	-11.9328
은밀	-11.9343
버드	-11.9351
.	-11.9355
집사	-11.9359
▁돼	-11.937
살상	-11.9373
▁느낀	-11.939
▁기업	-11.9391
▁크루	-11.9411
an	-11.9419
미로	-11.9426
망자	-11.9426
할리	-11.9431
▁매튜	-11.9444
올린	-11.9451
▁무시	-11.9462
왠	-11.9463
반항	-11.9464
어쩌	-11.9465
쁘	-11.9466
빨	-11.9467
톨	-11.9467
슬러	-11.947
밝	-11.9472
휘두르	-11.9473
맴돌	-11.9473
올라가	-11.9473
▁196	-11.9473
▁202	-11.9473
다스리	-11.9474
교육	-11.9474
쫓겨나	-11.9475
돌연	-11.9476
국민	-11.9476
나아가	-11.9478
숨막히	-11.948
가두	-11.948
태양	-11.9481
맞추	-11.9483
▁동네	-11.9486
▁정상	-11.9487
물질	-11.9487
통치	-11.9488
묘지	-11.949
마디	-11.9495
▁H	-11.9497
주문	-11.9498
변장	-11.95
파란	-11.9502
타인	-11.9508
달려	-11.9509
▁리치	-11.9517
거치	-11.9533
반신	-11.9533
모른	-11.9534
미스	-11.9535
천사	-11.9538
적대	-11.9538
중독	-11.954
▁수감	-11.954
총사	-11.9544
남미	-11.955
대기	-11.9554
▁곰	-11.9572
▁첫날	-11.958
거주	-11.9585
에단	-11.9596
제일	-11.9601
되살리	-11.9602
되살아나	-11.9615
드라	-11.9625
친해	-11.9625
하버드	-11.9638
보트	-11.9639
안정	-11.9643
사정	-11.9659
경영	-11.9666
수영	-11.9669
세대	-11.9676
문화	-11.9677
으려고	-11.9695
보도	-11.9717
해방	-11.9718
들러	-11.973
제프	-11.9785
무사	-11.9793
▁일어난	-11.9802
타고	-11.9812
이민	-11.9826
강의	-11.9862
연이	-11.9898
끄	-11.9967
무어	-11.9973
on	-11.9981
달하	-12.0005
조선	-12.0016
가치	-12.0053
영주	-12.0053
첩	-12.0067
▁댄	-12.0083
지진	-12.0084
▁루시	-12.0101
▁우연	-12.0105
렉	-12.0107
▁사라져	-12.0112
▁키워	-12.0113
▁웬	-12.0115
▁소중	-12.0124
두려워	-12.0137
웨	-12.0141
▁절망	-12.0158
▁정복	-12.0158
▁커져	-12.0169
망치	-12.0171
람	-12.0173
컬	-12.0174
개척	-12.0177
딱	-12.0177
찾아간	-12.0178
롯	-12.0181
값	-12.0183
럴	-12.0184
춰	-12.0184
각지	-12.0184
일가	-12.0184
결합	-12.0185
헌	-12.0186
쾌	-12.0186
측	-12.0186
엠	-12.0186
펄	-12.0186
샌	-12.0187
스턴트	-12.0187
좁	-12.0187
묵	-12.0187
U	-12.0187
감춰진	-12.0187
꼭	-12.0187
갑작스런	-12.0187
어딘가	-12.0187
윤	-12.0187
퐁	-12.0187
그리피스	-12.0187
나타샤	-12.0187
늑대인간	-12.0187
데이비드	-12.0187
드와이트	-12.0187
뛰어넘	-12.0187
마르쿠스	-12.0187
바티칸	-12.0187
버려진	-12.0187
번번히	-12.0187
셀린느	-12.0187
아스가르드	-12.0187
에제키엘	-12.0187
엑소시즘	-12.0187
엠마뉴엘	-12.0187
인터뷰	-12.0187
저스티스	-12.0187
크리퍼	-12.0187
클레어	-12.0187
터미네이터	-12.0187
트라우마	-12.0187
프라임	-12.0187
프랑켄슈타인	-12.0187
플로리다	-12.0187
헤라클레스	-12.0187
가디언	-12.0187
네트워크	-12.0187
다이아나	-12.0187
데이비스	-12.0187
리차드	-12.0187
스폰지	-12.0187
언젠가	-12.0187
나뭇잎	-12.0187
싼	-12.0187
판도라	-12.0187
넘나들	-12.0187
에일리언	-12.0187
몰아치	-12.0187
물러나	-12.0187
일으켜	-12.0187
롤러코스터	-12.0187
베스트셀러	-12.0187
스프링필드	-12.0187
아마존	-12.0187
불청객	-12.0187
찾아왔	-12.0187
브라운	-12.0188
사이보그	-12.0188
공통점	-12.0188
구멍	-12.0188
언덕	-12.0188
앵무새	-12.0188
무도회	-12.0188
초록색	-12.0188
굶주린	-12.0188
승객	-12.0188
착취	-12.0188
궁금증	-12.0188
행방불명	-12.0188
통합	-12.0188
괴롭힘	-12.0188
불러들이	-12.0188
쉴드	-12.0188
수족관	-12.0188
북극	-12.0188
표범	-12.0188
맘모스	-12.0188
▁22	-12.0188
오디션	-12.0188
클락	-12.0188
▁11	-12.0189
엄격	-12.0189
바닥	-12.0189
이루어진	-12.0189
석판	-12.0189
로드니	-12.0189
하수구	-12.0189
연료	-12.0189
너머	-12.0189
노린다	-12.0189
워너	-12.0189
웨이드	-12.0189
루미스	-12.0189
밀매	-12.019
처형	-12.019
긴장감	-12.019
코브라	-12.019
카일라	-12.019
보스턴	-12.019
살아난	-12.019
질수록	-12.019
악랄	-12.019
증거물	-12.019
광란	-12.019
정반대	-12.019
종교	-12.019
부동산	-12.0191
총잡이	-12.0191
가르치	-12.0191
달콤	-12.0191
출동	-12.0191
인정받	-12.0191
지하철	-12.0192
줄리안	-12.0192
온라인	-12.0192
드웨인	-12.0192
무료	-12.0192
불태우	-12.0192
마일스	-12.0192
떠날	-12.0192
유괴	-12.0192
익사	-12.0192
핀치	-12.0193
무법자	-12.0193
독재	-12.0193
갈망	-12.0194
견디	-12.0194
기사단	-12.0194
열혈	-12.0194
탈라	-12.0194
오딘	-12.0195
실제	-12.0195
모탈	-12.0196
실행	-12.0196
역할	-12.0196
모욕	-12.0196
윌슨	-12.0196
예감	-12.0196
오른	-12.0196
메트로	-12.0196
크릭	-12.0196
크레이	-12.0197
머신	-12.0197
처치	-12.0197
연극	-12.0197
침대	-12.0197
테디	-12.0197
청소년	-12.0197
취해	-12.0198
노파	-12.0198
범행	-12.0198
실화	-12.0198
잠자리	-12.0199
식구	-12.0199
▁도우	-12.0199
영입	-12.0199
들인다	-12.0199
설명	-12.02
레지나	-12.0201
우울	-12.0201
드락	-12.0202
오로라	-12.0202
호출	-12.0203
계약	-12.0203
장벽	-12.0203
몰살	-12.0204
야욕	-12.0204
질서	-12.0204
아이콘	-12.0205
요일	-12.0205
라이더	-12.0205
파악	-12.0206
상류	-12.0207
유타	-12.0207
불꽃	-12.0207
러너	-12.0207
호프	-12.0209
배회	-12.021
지켜야	-12.021
마블	-12.0211
본격	-12.0211
미리	-12.0211
사립	-12.0212
마음먹	-12.0213
편집	-12.0215
알프레드	-12.0217
모호	-12.0217
불허	-12.0218
질주	-12.0218
여긴	-12.0219
야망	-12.0219
코니	-12.0221
시각	-12.0221
연주	-12.0221
▁돌아온다	-12.0222
묘한	-12.0222
길거리	-12.0223
심상	-12.0225
물려	-12.0226
엔터	-12.0227
처지	-12.0227
수사관	-12.0228
화물	-12.0229
더미	-12.0229
덕분	-12.023
구스	-12.0232
살육	-12.0236
세요	-12.0236
온몸	-12.0242
진구	-12.0242
못할	-12.0243
집결	-12.0246
제노	-12.0248
손님	-12.0249
엘사	-12.0251
창고	-12.0251
버크	-12.0251
세티	-12.0252
호감	-12.0253
개조	-12.0255
군중	-12.0256
어떠	-12.0257
자녀	-12.0259
소심	-12.026
레이디	-12.0261
피카	-12.0261
상실	-12.0262
선원	-12.0267
붙이	-12.0273
하와이	-12.0274
칼날	-12.0276
전술	-12.0278
수십	-12.0281
려면	-12.0282
인턴	-12.0282
피타	-12.0282
쓴다	-12.0284
자극	-12.029
불편	-12.0295
무려	-12.0296
내심	-12.0299
원소	-12.0301
단편	-12.0304
야간	-12.0304
코스	-12.0305
터전	-12.031
시타	-12.0312
▁모른	-12.0312
모스	-12.0313
주어진다	-12.0317
장비	-12.0325
만족	-12.0326
몰린	-12.0332
SA	-12.0337
만약	-12.0338
해간다	-12.0342
입대	-12.0344
접하	-12.0347
장자	-12.035
카라	-12.0355
어느새	-12.0365
▁아주	-12.0368
카일	-12.0371
금고	-12.0373
4	-12.0374
보유	-12.0384
그레	-12.0394
피해자	-12.0403
데일	-12.0412
살려	-12.0438
프리다	-12.0452
고치	-12.0502
날려	-12.051
지르	-12.0539
보여	-12.0548
▁생긴	-12.0552
초인	-12.0569
중단	-12.0569
해온	-12.057
자파	-12.0574
건지	-12.0592
지친	-12.0593
개장	-12.0602
투어	-12.0624
준다는	-12.0636
하데스	-12.0648
소수	-12.0657
기상	-12.0658
대대	-12.0688
장수	-12.069
손자	-12.0701
기원	-12.0745
살인자	-12.0749
포로	-12.0769
위로	-12.0843
이끌린	-12.0857
크기	-12.0884
심하	-12.0905
불과	-12.0932
갖은	-12.0947
흙	-12.0953
젖	-12.0955
태우	-12.0955
민간	-12.0956
김	-12.0957
찢	-12.0957
피라미드	-12.0957
잣	-12.0957
스노우	-12.0957
가로지르	-12.0957
살아오	-12.0957
들려오	-12.0957
사로잡히	-12.0958
영향	-12.0959
깃들	-12.096
절체	-12.096
승무	-12.096
심술	-12.0961
▁201	-12.0962
감각	-12.0962
내려오	-12.0964
잠재	-12.0969
피난	-12.0982
극비	-12.0983
미식	-12.0986
고위	-12.0994
전환	-12.1005
▁진다	-12.1017
조카	-12.1018
유리	-12.102
제트	-12.1049
중년	-12.1056
내기	-12.1065
부두	-12.1071
주년	-12.1071
무도	-12.1083
스테이	-12.1108
로이드	-12.112
수장	-12.1121
아프	-12.1125
분열	-12.1149
단지	-12.1206
수년	-12.1238
비상	-12.1252
고독	-12.1256
er	-12.1264
입장	-12.1267
그동안	-12.1271
▁De	-12.1276
요리	-12.1292
치우	-12.1307
종이	-12.1318
단기	-12.1358
신기	-12.1364
수리	-12.1427
만날	-12.1432
처해	-12.144
주도	-12.147
돌리	-12.1544
끌려	-12.1561
탕	-12.1621
부지	-12.1623
석방	-12.1665
옥	-12.1672
닥친다	-12.1716
번지	-12.1734
냈	-12.1745
밀리	-12.1759
콤	-12.1775
녹	-12.1778
켈	-12.1779
싹	-12.178
드러낸	-12.178
거듭난	-12.178
정찰	-12.178
롤	-12.1781
롱	-12.1784
센	-12.1784
장례식	-12.1784
아수라	-12.1785
랫	-12.1785
좌	-12.1786
넌	-12.1786
밴	-12.1789
쩍	-12.1789
촉	-12.1789
쓰레기	-12.179
엉	-12.179
잉	-12.179
주머니	-12.179
랙	-12.179
붓	-12.179
코미디	-12.179
밍	-12.179
씽	-12.179
꾸러기	-12.179
아델라	-12.179
잉글랜드	-12.179
간달프	-12.179
개츠비	-12.179
구스타브	-12.179
그야말로	-12.179
넘나드	-12.179
당당히	-12.179
도라에몽	-12.179
드라이버	-12.179
드러난다	-12.179
따돌림	-12.179
라푼젤	-12.179
레오나르도	-12.179
레이놀즈	-12.179
말썽꾸러기	-12.179
매버릭	-12.179
무참히	-12.179
미구엘	-12.179
방사능	-12.179
브라이스	-12.179
빅토리아	-12.179
뿔뿔이	-12.179
송두리	-12.179
스카일러	-12.179
스테판	-12.179
스파르타	-12.179
아틀란티스	-12.179
안젤라	-12.179
어마어마	-12.179
열심히	-12.179
우두머리	-12.179
울타리	-12.179
일촉즉발	-12.179
차례차례	-12.179
카우보이	-12.179
콘서트	-12.179
클라이드	-12.179
페라리	-12.179
프린스	-12.179
플래시	-12.179
헤르미온느	-12.179
돌이킬	-12.179
떠났	-12.179
사스케	-12.179
스크루지	-12.179
인터넷	-12.179
끈질기	-12.179
고메즈	-12.179
부여받	-12.179
조나단	-12.179
갑작스러운	-12.179
승승장구	-12.179
잡아먹	-12.179
풀려나	-12.179
자스민	-12.179
캐나다	-12.179
억만장자	-12.179
아바타	-12.179
펼친다	-12.179
휩싸여	-12.179
아이디어	-12.179
큐브	-12.179
미스테리	-12.179
들어온다	-12.179
구사일생	-12.179
아폴로	-12.179
떠올리	-12.179
풋볼	-12.179
갱스터	-12.179
도서관	-12.179
블록버스터	-12.179
보금자리	-12.179
전기톱	-12.179
공화국	-12.179
프라이즈	-12.179
▁197	-12.179
상류층	-12.179
싱글	-12.179
가까워진다	-12.179
녹색	-12.179
약혼녀	-12.179
믹키	-12.179
헤비급	-12.179
굶주	-12.179
좁혀	-12.179
스턴트맨	-12.1791
외로움	-12.1791
운전기사	-12.1791
트리플	-12.1791
철저	-12.1791
▁14	-12.1791
퍼스트	-12.1791
스트로드	-12.1791
출현	-12.1791
눈치채	-12.1791
헐크	-12.1791
뛰쳐나	-12.1791
절벽	-12.1791
얼룩진	-12.1791
화장실	-12.1791
묻힌	-12.1791
밀림	-12.1791
착각	-12.1791
약탈	-12.1791
주유소	-12.1791
일어날	-12.1791
앤드류	-12.1791
이스트	-12.1791
폐기물	-12.1791
각각	-12.1791
롱크	-12.1791
엑스	-12.1792
랜든	-12.1792
신뢰	-12.1792
환호	-12.1792
매료	-12.1792
위키드	-12.1792
격돌	-12.1792
듀크	-12.1792
터널	-12.1792
경비원	-12.1792
골든	-12.1792
인조인간	-12.1792
백작	-12.1792
정거장	-12.1793
예견	-12.1793
애쓴다	-12.1793
월버그	-12.1793
청소부	-12.1793
외출	-12.1793
실현	-12.1793
역경	-12.1793
전면전	-12.1793
구석	-12.1793
투성이	-12.1793
매춘	-12.1794
발자국	-12.1794
결코	-12.1794
다아시	-12.1794
UNA	-12.1794
이모부	-12.1794
화끈	-12.1794
호프만	-12.1794
몰려오	-12.1794
심각	-12.1794
제레미	-12.1794
순진	-12.1795
수호신	-12.1795
뒤로하	-12.1795
맞선다	-12.1795
듀스	-12.1795
슬리스	-12.1795
승진	-12.1795
사춘기	-12.1795
탐내	-12.1795
나쁘	-12.1796
동족	-12.1796
엘렌	-12.1796
미세스	-12.1796
메트	-12.1797
돌변	-12.1797
영광	-12.1797
고아원	-12.1798
증세	-12.1798
처단	-12.1798
노르	-12.1799
머무	-12.1799
커버	-12.1799
출소	-12.1799
러셀	-12.1799
타노스	-12.1799
데보라	-12.1799
입니다	-12.1799
괴롭	-12.1799
날아가	-12.1799
달튼	-12.1799
일기장	-12.18
발표	-12.18
변해간다	-12.18
블라	-12.18
혈전	-12.18
추종	-12.1801
관리국	-12.1801
이어받	-12.1802
초래	-12.1802
뒤늦	-12.1802
패치	-12.1803
마술사	-12.1803
틈타	-12.1803
랭던	-12.1803
책임자	-12.1803
다가가	-12.1803
드림	-12.1804
왕따	-12.1804
정보국	-12.1804
빌라도	-12.1804
빛나	-12.1804
돌아간다	-12.1805
리링	-12.1805
각오	-12.1805
소령	-12.1805
동거	-12.1805
오스카	-12.1807
루시안	-12.1807
신혼	-12.1808
재벌	-12.1808
공급	-12.1809
실려	-12.181
공동	-12.181
감동	-12.181
도망쳐	-12.1811
불능	-12.1811
최종	-12.1811
마주친다	-12.1811
미술	-12.1811
십자가	-12.1812
경찰청	-12.1813
착수	-12.1813
솔로	-12.1814
해리건	-12.1814
코난	-12.1814
베티	-12.1814
레건	-12.1814
커크	-12.1814
호머	-12.1815
결전	-12.1816
남겨	-12.1816
비추	-12.1816
학대	-12.1818
행사	-12.1818
구마	-12.1818
개최	-12.182
남극	-12.1821
리처	-12.1821
명탐정	-12.1823
격리	-12.1823
은신	-12.1824
병동	-12.1824
스파이더	-12.1824
품바	-12.1825
팔리	-12.1826
십자	-12.1827
서쪽	-12.1827
우드	-12.1828
진학	-12.1829
술집	-12.183
구조대	-12.183
오브	-12.1831
캐시	-12.1834
백인	-12.1835
뜻밖에	-12.1836
윌리엄스	-12.1838
니모	-12.1839
온통	-12.184
둘째	-12.184
시공간	-12.1841
달라진	-12.1844
용서	-12.1844
빌려	-12.1845
남작	-12.1845
내쫓	-12.1846
알린다	-12.1847
안느	-12.1848
끊임없이	-12.1848
부화	-12.185
산모	-12.1854
미니	-12.1854
아니타	-12.1855
베스	-12.1857
고릴라	-12.1859
마친	-12.1861
따분	-12.1861
불화	-12.1867
분석	-12.1867
모시	-12.1875
젊음	-12.1877
자취	-12.1877
해골	-12.1877
바위	-12.1878
자꾸	-12.1878
여전사	-12.1881
야채	-12.1882
왕관	-12.1883
베일	-12.1884
오버	-12.1885
신화	-12.1889
백성	-12.1895
드라고	-12.1897
말린	-12.1898
도망친	-12.19
거스	-12.1902
로움	-12.1903
함대	-12.1906
보루	-12.1909
문서	-12.1909
마약상	-12.1911
제공	-12.1912
여우	-12.1915
빌보	-12.1915
도끼	-12.1919
싸운다	-12.1924
침입자	-12.1933
트레이	-12.1933
무공	-12.1938
코리	-12.1939
에리얼	-12.1949
수락	-12.1952
마더	-12.1956
오반	-12.1965
지배자	-12.1973
인근	-12.198
상속	-12.1982
벌인	-12.1982
마신	-12.1983
여유	-12.1999
다양	-12.2003
의료	-12.2013
시신	-12.2021
▁300	-12.2025
남성	-12.2031
전면	-12.2031
부분	-12.2034
수배	-12.2037
끝날	-12.2041
사상자	-12.2041
양자	-12.2042
그림	-12.2045
별로	-12.2055
오크	-12.2055
어색	-12.2061
데이지	-12.2067
생산	-12.2068
플로	-12.2076
막대	-12.209
지쳐	-12.21
지워	-12.2114
속편	-12.212
해체	-12.2125
구분	-12.2128
누가	-12.2137
b	-12.2138
대비	-12.2142
레지	-12.2167
입수	-12.2173
보원	-12.2173
로워	-12.2186
리안	-12.2194
집중	-12.2215
전시	-12.2223
악어	-12.2223
그린다	-12.2231
끝장	-12.2245
트라	-12.2248
리라는	-12.2253
차사	-12.2262
행하	-12.2269
지식	-12.2273
사살	-12.2297
고객	-12.2308
소장	-12.2314
아라	-12.2324
지방	-12.2347
▁AI	-12.2397
기후	-12.2406
하녀	-12.2411
가동	-12.2434
아트	-12.2449
이송	-12.2449
업체	-12.2483
따라가	-12.2485
손잡	-12.2485
해치	-12.2538
부호	-12.2539
나사	-12.2567
리자	-12.2592
빠	-12.2643
꼬	-12.2658
리언	-12.2669
바닷	-12.2673
이안	-12.2687
닥	-12.2689
숫	-12.2692
께	-12.2696
뱃	-12.2697
겸	-12.2697
똑	-12.2698
벼	-12.2699
앗	-12.2699
알아차리	-12.2699
끌어들이	-12.2699
혈액	-12.2699
가져오	-12.2699
백악	-12.2699
혼혈	-12.2699
찾아보	-12.27
희귀	-12.27
들이닥치	-12.27
베스트	-12.27
롤러	-12.27
알아보	-12.2701
합동	-12.2701
언론	-12.2702
동창	-12.2703
영업	-12.2704
외국	-12.2706
벌레	-12.2707
바라보	-12.2708
넘버	-12.2708
무법	-12.2715
초청	-12.2716
누비	-12.2716
긴급	-12.2717
불리우	-12.2717
빠져나가	-12.2718
낙인	-12.2725
리브	-12.2726
외치	-12.2728
서클	-12.2729
날아오	-12.2734
도망가	-12.2739
우선	-12.2745
가영	-12.2749
상담	-12.2753
수송	-12.2756
두려워하	-12.2765
추리	-12.2768
유사	-12.2777
개미	-12.278
자존	-12.2788
아끼	-12.281
자국	-12.281
금기	-12.2817
차려	-12.282
사이드	-12.2827
수관	-12.2849
수단	-12.285
사무	-12.2858
고쳐	-12.2872
화장	-12.2875
그러다	-12.2881
천하	-12.2912
비치	-12.2914
조엘	-12.2986
라자	-12.2996
과제	-12.3036
만화	-12.3039
부산	-12.3146
원수	-12.3151
깊이	-12.3152
서기	-12.3155
라드	-12.3186
사원	-12.3207
re	-12.3209
부수	-12.3219
토이	-12.3254
조한	-12.3261
나와	-12.3275
신고	-12.3301
ie	-12.3315
방어	-12.3351
or	-12.3352
괴력	-12.3362
고요	-12.3371
끊이	-12.3375
가죽	-12.3404
룬	-12.341
료	-12.3418
다치	-12.3501
프레	-12.3509
딘	-12.3536
리얼	-12.354
들으며	-12.3547
라미	-12.3573
도도	-12.3592
우스	-12.3613
모의	-12.3644
쫓겨	-12.3648
똑같	-12.3661
니카	-12.3667
칭	-12.3671
흥	-12.3678
멋	-12.3688
륙	-12.3688
사로잡힌	-12.3689
닫	-12.369
뉴	-12.3693
겹	-12.3694
놀림	-12.3695
쿨	-12.3696
얼룩	-12.3696
캔	-12.3697
유태	-12.3698
쉴	-12.3698
태평	-12.3698
셰	-12.3699
풋	-12.3699
스펙터	-12.3699
휩쓸려	-12.3699
햄	-12.3699
어딘지	-12.3699
어려워	-12.3699
무서워	-12.3699
서비스	-12.3699
HAL	-12.3699
돌아올	-12.3699
벗어날	-12.3699
글로리아	-12.3699
꾸민다	-12.3699
다람쥐	-12.3699
다이버전트	-12.3699
뒤바뀌	-12.3699
디자이너	-12.3699
레너드	-12.3699
룸메이트	-12.3699
마르그리트	-12.3699
메가마인드	-12.3699
뮤지컬	-12.3699
미치광이	-12.3699
미켈란젤로	-12.3699
발레리나	-12.3699
버틀러	-12.3699
블러드	-12.3699
블레이드	-12.3699
서바이벌	-12.3699
스콜피온	-12.3699
스펜서	-12.3699
실베스터	-12.3699
앤더슨	-12.3699
엉덩이	-12.3699
오페라	-12.3699
올림픽	-12.3699
웨스트	-12.3699
전대미문	-12.3699
제페토	-12.3699
카를로스	-12.3699
콜롬비아	-12.3699
클래식	-12.3699
킴벌리	-12.3699
테오도르	-12.3699
트랭크	-12.3699
특공대	-12.3699
펠릭스	-12.3699
포세이돈	-12.3699
프라이드	-12.3699
프랭키	-12.3699
프로테우스	-12.3699
플린트	-12.3699
필라델피아	-12.3699
헐리우드	-12.3699
데려간다	-12.3699
돌아다니	-12.3699
되돌릴	-12.3699
레시피	-12.3699
마테오	-12.3699
비올라	-12.3699
스파키	-12.3699
아저씨	-12.3699
앤드리아	-12.3699
일어났	-12.3699
카트리나	-12.3699
크로노스	-12.3699
테레사	-12.3699
파우더	-12.3699
피닉스	-12.3699
해롤드	-12.3699
나탈리	-12.3699
붙잡	-12.3699
비루스	-12.3699
스크린	-12.3699
스필만	-12.3699
아드리안	-12.3699
호아킨	-12.3699
날카로운	-12.3699
리무진	-12.3699
마놀로	-12.3699
파란만장	-12.3699
아나킨	-12.3699
조여오	-12.3699
장동수	-12.3699
크로우	-12.3699
기나긴	-12.3699
테이프	-12.3699
랗	-12.3699
폭주족	-12.3699
휘말려	-12.3699
커리어	-12.3699
하이에나	-12.3699
콜럼버스	-12.3699
목걸이	-12.3699
손가락	-12.3699
호크룩스	-12.3699
찾아볼	-12.3699
도토리	-12.3699
보여준다	-12.3699
데려와	-12.3699
라일리	-12.3699
숨겨둔	-12.3699
티아나	-12.3699
의기투합	-12.3699
잠수함	-12.3699
단숨에	-12.3699
로드릭	-12.3699
의미심장	-12.3699
얼떨	-12.3699
죄책	-12.3699
그라바	-12.3699
가르침	-12.37
고질라	-12.37
애완견	-12.37
통쾌	-12.37
신시아	-12.37
창립	-12.37
이른다	-12.37
클레이	-12.37
들어갔	-12.37
이자벨	-12.37
에이리언	-12.37
취업	-12.37
금요일	-12.37
레오네	-12.37
탐닉	-12.37
마르타	-12.37
붙잡혀	-12.37
젠코	-12.37
처녀	-12.37
우먼	-12.37
잠재우	-12.37
교활	-12.37
블록	-12.37
올리버	-12.37
교황	-12.37
뉴트	-12.37
루이자	-12.37
표류	-12.37
모은다	-12.37
도무지	-12.37
사무실	-12.37
전시물	-12.37
활용	-12.37
애플렉	-12.37
헤쳐	-12.37
백악관	-12.37
올라간	-12.37
맞닥뜨린다	-12.3701
패션계	-12.3701
캐리건	-12.3701
타깃	-12.3701
블랙펄	-12.3701
회계사	-12.3701
캐롤라	-12.3701
평행	-12.3701
▁16	-12.3701
압력	-12.3701
꼬여	-12.3701
순결	-12.3701
적대감	-12.3701
퍼디	-12.3701
워렌	-12.3702
출몰	-12.3702
야영장	-12.3702
그레이트	-12.3702
급속도	-12.3702
꺼내	-12.3702
앙심	-12.3702
브로디	-12.3702
쿨스	-12.3702
허용	-12.3702
방탕	-12.3702
해적단	-12.3702
들어갈	-12.3702
창시자	-12.3702
탐사선	-12.3703
매들린	-12.3703
들어선	-12.3703
태국	-12.3703
월레스	-12.3703
돌봐	-12.3703
순조	-12.3703
패티	-12.3703
가까이	-12.3704
퍼피	-12.3704
민병	-12.3704
즉시	-12.3704
석유	-12.3704
찰나	-12.3704
통째	-12.3704
침실	-12.3704
포럴	-12.3704
세이지	-12.3704
종결	-12.3704
피터팬	-12.3704
그레이시	-12.3705
발리안	-12.3705
크리스찬	-12.3705
판타지	-12.3705
애덤	-12.3705
계곡	-12.3705
국왕	-12.3706
북부	-12.3706
지켜낼	-12.3706
궁리	-12.3706
밀러	-12.3706
추천	-12.3706
도로시	-12.3706
데이먼	-12.3707
운동	-12.3707
버튼	-12.3707
숫자	-12.3707
노동	-12.3707
부푼	-12.3707
총동원	-12.3707
억만	-12.3707
열린다	-12.3707
구애	-12.3708
탐사대	-12.3708
신문사	-12.3708
실망	-12.3708
행크스	-12.3708
예거	-12.3708
퇴치	-12.3708
잠겨	-12.3709
팔머	-12.3709
캐런	-12.3709
철없	-12.371
군림	-12.371
발굴	-12.371
터커	-12.371
드레스	-12.371
엘프	-12.3711
거듭난다	-12.3711
맡긴	-12.3711
매달리	-12.3711
수송기	-12.3712
정통	-12.3712
호송	-12.3712
행세	-12.3712
모래	-12.3713
원주민	-12.3713
교내	-12.3713
여긴다	-12.3713
금발	-12.3713
딱지	-12.3713
어쩌다	-12.3714
운전사	-12.3714
포식	-12.3715
창문	-12.3716
결말	-12.3716
여고생	-12.3716
조짐	-12.3717
생쥐	-12.3717
약혼자	-12.3717
퀸카	-12.3717
조언	-12.3718
매직	-12.3719
스페이스	-12.3719
나희	-12.3719
코프	-12.3719
채굴	-12.372
매디	-12.372
앤트	-12.3721
제시카	-12.3721
총애	-12.3721
거북이	-12.3721
벽장	-12.3722
정우	-12.3722
슈퍼스타	-12.3722
커드	-12.3722
신랑	-12.3723
놓인다	-12.3723
당일	-12.3723
역전	-12.3723
오드리	-12.3723
리넷	-12.3723
정식	-12.3724
혼인	-12.3724
부동	-12.3724
증오	-12.3724
반항아	-12.3725
접수	-12.3725
바바라	-12.3725
자칭	-12.3726
줄리아	-12.3727
말레나	-12.3727
생애	-12.3728
비틀	-12.3728
덮친	-12.3729
타잔	-12.3729
동부	-12.3729
거침없이	-12.3729
입증	-12.373
빙하기	-12.373
치료제	-12.3731
사나이	-12.3731
도대체	-12.3732
반쪽	-12.3732
귀등	-12.3734
거쳐	-12.3734
영감	-12.3734
지훈	-12.3734
백수	-12.3735
마땅	-12.3736
서래	-12.3736
사냥개	-12.3737
서처	-12.3738
레니	-12.3741
화재	-12.3741
생계	-12.3741
선보이	-12.3742
주교	-12.3743
파즈	-12.3743
스톰	-12.3743
레미	-12.3743
계모	-12.3743
매번	-12.3745
원정	-12.3745
아이돌	-12.3746
정원	-12.3748
스칼	-12.3748
에이스	-12.3749
세포	-12.3749
모처럼	-12.3749
월트	-12.375
미행	-12.375
부품	-12.3751
술사	-12.3751
조국	-12.3752
무기력	-12.3752
모른다는	-12.3752
대접	-12.3753
빠져드	-12.3753
지냈	-12.3754
비운	-12.3754
호화	-12.3755
생생	-12.3756
나갔	-12.3758
니노	-12.3759
작동	-12.3759
내놓	-12.3761
비범	-12.3761
아레스	-12.3762
포키	-12.3762
재미	-12.3762
탐험가	-12.3764
소재	-12.3766
위조	-12.3768
모세스	-12.3768
구사	-12.377
입구	-12.3772
가브리엘	-12.3773
새미	-12.3774
사이버	-12.3774
모면	-12.3776
엔진	-12.3776
등등	-12.3777
신임	-12.3777
토비	-12.3778
시설	-12.3778
여느	-12.3778
비우	-12.3779
위력	-12.3779
아니면	-12.378
비난	-12.3782
엘리스	-12.3784
할수록	-12.3785
키는	-12.3785
여행길	-12.3788
전수	-12.3789
합의	-12.379
나왔	-12.3791
왕실	-12.3791
능가	-12.3793
스파이스	-12.3795
상심	-12.3796
달라	-12.3801
야심	-12.3801
정리	-12.3802
손길	-12.3804
들이닥친	-12.3806
신병	-12.3807
시카	-12.3807
탈출구	-12.3807
마트	-12.3807
열중	-12.3808
대런	-12.3809
영문	-12.3809
오두	-12.3811
반려	-12.3816
나영	-12.3817
남다른	-12.3819
모집	-12.382
분출	-12.3822
원더	-12.3827
그웬	-12.3829
상공	-12.3831
주디	-12.3832
오랜만	-12.3833
할까	-12.3834
참가자	-12.3838
총상	-12.3841
키라	-12.3845
해온다	-12.3846
집요	-12.3847
대해서	-12.3848
자처	-12.385
심리학	-12.3852
경찰서	-12.3854
수석	-12.3854
사이트	-12.3856
투사	-12.3856
간부	-12.3857
미소	-12.3865
조명	-12.3873
치유	-12.3878
방주	-12.3891
증가	-12.3891
적극	-12.3891
신선	-12.3896
적힌	-12.39
매년	-12.3903
모인다	-12.3907
가축	-12.3921
관리인	-12.3923
부럽	-12.3923
불사	-12.3927
눈치	-12.3928
기술자	-12.393
이룬	-12.3931
개시	-12.3933
생사	-12.3938
성경	-12.3944
올수록	-12.3966
사제	-12.3968
귀도	-12.3978
바디	-12.3979
들떠	-12.3981
차리	-12.3983
알란	-12.3987
목격자	-12.3992
전달	-12.3998
오후	-12.4007
변한다	-12.4007
탄지	-12.401
우수	-12.4021
전개	-12.4023
다운	-12.4025
함장	-12.4026
파사	-12.4031
바보	-12.4042
해외	-12.405
왕년	-12.4057
토와	-12.4074
도주	-12.4076
키나	-12.408
전력	-12.4081
심한	-12.4088
반해	-12.4111
기밀	-12.4112
지영	-12.4123
지독	-12.4134
릴리	-12.4141
사소	-12.4143
들르	-12.4176
고심	-12.4177
세리	-12.4178
인조	-12.4198
더치	-12.4202
불만	-12.4207
아론	-12.4217
가공	-12.4237
파도	-12.4258
가세	-12.4264
후보	-12.4269
총기	-12.4274
고철	-12.4331
로져	-12.4349
간수	-12.4352
종일	-12.436
일단	-12.4392
보살	-12.442
제도	-12.442
가출	-12.4441
레아	-12.4459
모른다	-12.446
트레	-12.4462
리드	-12.4549
▁25	-12.4551
수면	-12.4572
의존	-12.4576
드루	-12.4596
건다	-12.46
모리	-12.4646
살대	-12.465
마지	-12.4707
라인	-12.4716
▁21	-12.4755
덮	-12.477
아부	-12.4791
부랑	-12.4793
철학	-12.4805
동업	-12.4808
띄	-12.4809
스포츠	-12.4809
유언	-12.481
뱀	-12.481
울트론	-12.481
거느리	-12.481
찔	-12.481
▁194	-12.481
벼락	-12.4811
출근	-12.4811
ᄅ까	-12.4811
증언	-12.4812
익히	-12.4812
녹음	-12.4812
갓난	-12.4812
각색	-12.4813
겨루	-12.4813
셀러	-12.4813
근거	-12.4814
힘겹	-12.4815
헤치	-12.4816
끼치	-12.482
노란	-12.4821
달라지	-12.4821
청부	-12.4822
공통	-12.4822
실버	-12.4823
남다르	-12.4824
통신	-12.4827
결단	-12.4829
모함	-12.483
테크	-12.4839
타운	-12.484
설상	-12.4841
바르	-12.4849
캐내	-12.4854
모자라	-12.4858
감마	-12.486
고야	-12.4862
시청	-12.4868
관중	-12.4873
언어	-12.4874
다급	-12.4882
!!	-12.4885
심사	-12.4887
거물	-12.4896
베리	-12.4902
귀중	-12.4905
수족	-12.4907
에바	-12.4914
재단	-12.4939
끊기	-12.4948
계시	-12.4948
▁80	-12.4954
사각	-12.4956
불타	-12.4969
지모	-12.4983
본성	-12.4989
돌이	-12.501
라니	-12.5018
전날	-12.5023
자루	-12.5057
배리	-12.507
해병	-12.5091
화산	-12.5107
전전	-12.512
화성	-12.5179
사명	-12.5197
IM	-12.5198
전선	-12.5205
리코	-12.5217
해나	-12.5275
누이	-12.5371
로키	-12.5429
연장	-12.5471
취한	-12.5477
애스	-12.5479
XSN	-12.5482
듯이	-12.5488
he	-12.5495
eb	-12.5551
타키	-12.5616
버거	-12.5668
생긴다	-12.5676
한테	-12.578
싸운	-12.5861
스트로	-12.5912
틱	-12.594
니까	-12.5941
매트	-12.6004
킬	-12.6008
훈	-12.6015
거침없	-12.6022
무게	-12.6024
울려	-12.6029
렉스	-12.6046
펼쳐	-12.6049
찾아낸	-12.605
쓰러진	-12.605
일으킨	-12.6051
리포터	-12.6051
▁’!	-12.6051
톤	-12.6053
딩	-12.6054
꿀	-12.6055
셸	-12.6056
룩	-12.6056
랩	-12.6057
찌르	-12.6057
엑	-12.6057
럼	-12.6057
식민	-12.6058
낯	-12.6059
슬링	-12.6059
헐	-12.6059
EO	-12.6059
핸	-12.6059
발타자	-12.606
캘	-12.606
졸	-12.606
미사일	-12.606
움직일	-12.606
무너진	-12.606
펜	-12.606
갇힌다	-12.606
갈림길	-12.606
감쪽같이	-12.606
고슴도치	-12.606
근근이	-12.606
글래스	-12.606
글로벌	-12.606
기븐스	-12.606
끈질긴	-12.606
넘쳐나	-12.606
뉴올리언스	-12.606
뉴올리언즈	-12.606
디셉티콘	-12.606
라파엘	-12.606
럭셔리	-12.606
레오니다스	-12.606
롬	-12.606
마운틴	-12.606
마찬가지	-12.606
마틸다	-12.606
망가져	-12.606
모비우스	-12.606
무찔러	-12.606
바라쿠다	-12.606
뱅크스	-12.606
벌어졌	-12.606
보름달	-12.606
불가사의	-12.606
브랜치	-12.606
브렌트	-12.606
브리트니	-12.606
사뮤엘	-12.606
산티노	-12.606
세드릭	-12.606
슈미트	-12.606
스나이퍼	-12.606
스마우그	-12.606
스머프	-12.606
스웨거	-12.606
스카이워커	-12.606
스테픈	-12.606
스튜디오	-12.606
스틸러	-12.606
시애틀	-12.606
시추선	-12.606
쏟아져	-12.606
아티스트	-12.606
알레한드로	-12.606
애지중지	-12.606
어김없이	-12.606
에스페란자	-12.606
에피소드	-12.606
엘도라도	-12.606
엠마누엘	-12.606
예루살렘	-12.606
오비완	-12.606
오아시스	-12.606
오코넬	-12.606
유니콘	-12.606
저스틴	-12.606
정확히	-12.606
쥬라기	-12.606
질렌할	-12.606
충성심	-12.606
컨버터	-12.606
코스텔로	-12.606
쿠스코	-12.606
크라켄	-12.606
크립톤	-12.606
클리포드	-12.606
태어났	-12.606
템페스트	-12.606
트랜스포머	-12.606
티격태격	-12.606
파라다이스	-12.606
팔레스타인	-12.606
패러디	-12.606
패리쉬	-12.606
페루치오	-12.606
페르디난드	-12.606
페르세우스	-12.606
페스티벌	-12.606
포레스트	-12.606
폴란드	-12.606
프로그래머	-12.606
프로스트	-12.606
하이브리드	-12.606
헤이우드	-12.606
히긴스	-12.606
거둔다	-12.606
곤도르	-12.606
늘어놓	-12.606
디지털	-12.606
마다가스카	-12.606
비커스	-12.606
비키니	-12.606
소스케	-12.606
스케일	-12.606
와이어트	-12.606
집어삼키	-12.606
레전드	-12.606
마가렛	-12.606
모조리	-12.606
소말리아	-12.606
인터폴	-12.606
피콜로	-12.606
뒤집어쓰	-12.606
바네사	-12.606
부작용	-12.606
비비안	-12.606
소매치기	-12.606
스티치	-12.606
종지부	-12.606
황무지	-12.606
기숙사	-12.606
여기저기	-12.606
자유자재	-12.606
코카인	-12.606
거추장	-12.606
정신병자	-12.606
씽씽	-12.606
보우만	-12.606
지날수록	-12.606
가라앉	-12.606
받아들여	-12.606
형무소	-12.606
얽혀	-12.606
샌들러	-12.606
미카엘	-12.606
반가운	-12.606
휘말린	-12.606
노르웨이	-12.606
백만장자	-12.606
세인트	-12.606
손아귀	-12.606
와트니	-12.606
피아노	-12.606
균열	-12.606
치히로	-12.606
흉측	-12.606
네이든	-12.606
체이스	-12.606
닥칠	-12.606
세일즈맨	-12.606
관광객	-12.606
멍청	-12.606
블레이크	-12.606
밝힐	-12.606
이슬라	-12.606
미니언	-12.606
억압	-12.606
외곽	-12.606
ig	-12.606
컨트롤	-12.606
기다린다	-12.606
신디케이트	-12.606
아쿠아	-12.6061
후타로	-12.6061
붙잡힌	-12.6061
te	-12.6061
덩어리	-12.6061
슬픈	-12.6061
교황청	-12.6061
주머니쥐	-12.6061
▁Mr	-12.6061
괴롭힌	-12.6061
이즈마	-12.6061
퍼틴	-12.6061
놀랄	-12.6061
리드맨	-12.6061
브로즈	-12.6061
오른팔	-12.6061
셰프	-12.6061
취향	-12.6061
촉망	-12.6061
트레버	-12.6061
로빈슨	-12.6061
였음을	-12.6061
걸려온다	-12.6061
엑스맨	-12.6061
로알드	-12.6061
젠슨	-12.6061
팔찌	-12.6061
봉황	-12.6061
어수선	-12.6061
미용실	-12.6061
생물학자	-12.6061
테크노	-12.6061
왈드	-12.6061
피비린내	-12.6061
날아온	-12.6061
플릭	-12.6061
탐탐	-12.6061
레옹	-12.6061
아지트	-12.6061
상냥	-12.6061
▁48	-12.6061
억울	-12.6061
조수아	-12.6061
보살피	-12.6061
사령관	-12.6061
가만히	-12.6061
돌고래	-12.6061
태양계	-12.6061
▁28	-12.6061
타이탄	-12.6061
퇴출	-12.6061
바닷물	-12.6062
클레이드	-12.6062
철저히	-12.6062
끌려온	-12.6062
기차역	-12.6062
교환	-12.6062
울린다	-12.6062
관료	-12.6062
가상현실	-12.6062
떠돈	-12.6062
마지못해	-12.6062
샹치	-12.6062
블랙우드	-12.6062
링컨	-12.6062
머글	-12.6062
패닉	-12.6062
합병	-12.6062
출처	-12.6062
추측	-12.6062
은밀히	-12.6062
인공섬	-12.6062
혈통	-12.6062
끝났	-12.6062
레슬링	-12.6062
불사신	-12.6062
얼룩말	-12.6062
살려야	-12.6062
숨겨온	-12.6062
유희	-12.6062
에스더	-12.6062
드리우	-12.6063
모니카	-12.6063
윌라드	-12.6063
러윈	-12.6063
퍼져	-12.6063
샤워	-12.6063
거미줄	-12.6063
동맹	-12.6063
막내딸	-12.6063
현금	-12.6063
태풍	-12.6063
싸워야	-12.6063
오로지	-12.6063
현란	-12.6063
소꿉친구	-12.6063
동영상	-12.6063
생화학	-12.6063
전과자	-12.6063
뱃속	-12.6063
젠더	-12.6063
트레이시	-12.6063
트랩	-12.6064
증권	-12.6064
유대감	-12.6064
가치관	-12.6064
곧이어	-12.6064
총책임자	-12.6064
합세	-12.6064
솔트	-12.6064
괴짜	-12.6064
패거리	-12.6064
무찌르	-12.6064
써서	-12.6064
철거	-12.6065
각종	-12.6065
케이드	-12.6065
미콜라	-12.6065
따른다	-12.6065
드로이드	-12.6065
알아낸다	-12.6065
예약	-12.6065
약점	-12.6065
키아라	-12.6065
토템	-12.6065
알려준다	-12.6065
클론	-12.6065
수도원	-12.6065
롤리	-12.6065
유죄	-12.6066
맥심	-12.6066
레스터	-12.6066
휴먼	-12.6066
희대	-12.6066
재결합	-12.6066
맥피	-12.6066
천외	-12.6066
왕좌	-12.6066
교외	-12.6066
순박	-12.6066
출생	-12.6067
작곡	-12.6067
강압	-12.6067
챈스	-12.6067
마비스	-12.6067
몇몇	-12.6067
악덕	-12.6067
달아난다	-12.6067
몸값	-12.6067
혈안	-12.6067
업무	-12.6068
승선	-12.6068
제라드	-12.6068
경연	-12.6068
켄신	-12.6068
심슨	-12.6068
거슬러	-12.6068
연맹	-12.6068
통화	-12.6068
부랑자	-12.6068
멀린	-12.6069
색다른	-12.6069
콜라	-12.607
반갑	-12.607
산드라	-12.607
정처	-12.607
쓰러진다	-12.607
요란	-12.607
풍선	-12.607
라우라	-12.607
편견	-12.607
식민지	-12.607
피톨	-12.6071
라이즈	-12.6071
커츠	-12.6071
교실	-12.6071
암울	-12.6071
수배자	-12.6071
경우	-12.6072
강철	-12.6072
유태인	-12.6072
저항	-12.6072
금방	-12.6072
우현	-12.6072
강탈	-12.6072
떨치	-12.6072
교감	-12.6072
따라다니	-12.6072
크리스천	-12.6073
풍부	-12.6073
빈자리	-12.6073
방황	-12.6073
선교사	-12.6073
립스	-12.6073
당했	-12.6073
개척자	-12.6073
에드가	-12.6073
데려다	-12.6073
독재자	-12.6073
헤나	-12.6073
키팅	-12.6074
감당	-12.6074
은하계	-12.6074
망가지	-12.6075
구입	-12.6075
무책	-12.6075
미묘	-12.6075
약간	-12.6075
냉전	-12.6076
저마다	-12.6076
오싹	-12.6076
체력	-12.6078
퇴사	-12.6078
권총	-12.6078
달라스	-12.6078
소향	-12.6078
버림	-12.6078
지켜줄	-12.6078
해리슨	-12.6078
그레그	-12.6078
떠도	-12.6078
밀라	-12.6078
팀플레이	-12.6079
망신	-12.6079
감돈	-12.6079
당할	-12.6079
판매	-12.6079
정작	-12.6079
경관	-12.6079
퍼스	-12.608
빈민가	-12.608
놀리	-12.608
라이조	-12.6081
어찌	-12.6081
묶인	-12.6081
니콜	-12.6082
별난	-12.6082
계절	-12.6082
필주	-12.6083
추위	-12.6083
뜬다	-12.6083
쿠노	-12.6083
사형수	-12.6083
급히	-12.6083
나이키	-12.6083
포착	-12.6083
손녀	-12.6084
느라	-12.6084
파이트	-12.6085
궁지	-12.6085
스팅	-12.6085
빠져버린	-12.6086
마칠	-12.6086
주술사	-12.6086
코스타	-12.6086
정화	-12.6086
악행	-12.6086
들어와	-12.6087
브린	-12.6087
드리스	-12.6087
부근	-12.6087
끝낸	-12.6087
바른	-12.6087
구박	-12.6087
둘러싸인	-12.6087
차림	-12.6088
될수록	-12.6088
누드	-12.6088
구미	-12.6088
손잡고	-12.6088
외톨이	-12.6089
원래	-12.6089
형태	-12.6089
정사	-12.6089
따라나선다	-12.609
머나	-12.609
칸토	-12.609
네즈	-12.6091
배신감	-12.6091
끝낼	-12.6091
쫓아간	-12.6092
해리포터	-12.6092
연루	-12.6092
바닷가	-12.6092
영생	-12.6092
또래	-12.6093
불안감	-12.6094
지켜온	-12.6094
눈빛	-12.6095
달빛	-12.6095
소닉	-12.6095
책임지	-12.6095
쿠바	-12.6095
오닐	-12.6095
별거	-12.6096
남몰래	-12.6096
야생마	-12.6096
남북	-12.6097
동정	-12.6097
미운	-12.6098
견제	-12.6098
말랑	-12.6098
비록	-12.6098
출산	-12.6099
장래	-12.6099
단순	-12.6099
배워	-12.6099
메타	-12.61
보험	-12.61
호시	-12.6101
희한	-12.6101
금치	-12.6101
개스톤	-12.6101
심비	-12.6101
추정	-12.6102
세워	-12.6102
히어로즈	-12.6102
어울려	-12.6103
연달	-12.6103
광산	-12.6103
걸까	-12.6104
이웃집	-12.6104
터키	-12.6105
거울	-12.6105
방위	-12.6105
공사	-12.6106
코르	-12.6106
떠들	-12.6106
임모	-12.6106
원망	-12.6107
건강	-12.6108
매우	-12.611
똑같이	-12.611
메간	-12.6111
미츠	-12.6111
소통	-12.6111
남쪽	-12.6111
단절	-12.6112
조디	-12.6112
네트	-12.6112
초호	-12.6113
미코	-12.6113
태도	-12.6114
대답	-12.6115
상상력	-12.6115
모티	-12.6115
청한다	-12.6115
따로	-12.6117
제약	-12.6117
초등	-12.6118
스승	-12.6119
구속	-12.6119
첫째	-12.612
서울	-12.6121
카레	-12.6122
선포	-12.6123
당장	-12.6124
질문	-12.6124
파격	-12.6126
마귀	-12.6126
베타	-12.6126
화학	-12.6127
극단	-12.6127
직후	-12.6127
당도	-12.6129
강박	-12.6129
비법	-12.6129
마리온	-12.613
월러	-12.6132
번영	-12.6133
레이크	-12.6134
엔조	-12.6134
브라	-12.6134
여배우	-12.6134
존경	-12.6135
마르	-12.6137
선거	-12.614
내민	-12.614
자홍	-12.6141
라이브	-12.6141
미키	-12.6141
개입	-12.6141
아라곤	-12.6142
우타	-12.6143
열세	-12.6143
수백만	-12.6143
채워	-12.6144
쫓겨난	-12.6145
함선	-12.6147
대처	-12.6147
키운다	-12.615
애정	-12.6151
내려가	-12.6151
듀이	-12.6151
패기	-12.6152
대출	-12.6153
강력반	-12.6153
심문	-12.6153
채용	-12.6155
새엄마	-12.6155
면회	-12.6156
생일날	-12.6156
엘리오	-12.6156
개방	-12.6158
얼마나	-12.6159
목사	-12.6159
소린	-12.616
갖가지	-12.6162
남동생	-12.6163
형편	-12.6164
시점	-12.6166
보복	-12.6169
스프	-12.617
잠수	-12.617
화면	-12.617
대대로	-12.6173
발목	-12.6174
눈물	-12.6174
주피터	-12.6176
복수심	-12.6178
해답	-12.618
비토	-12.618
코소	-12.6183
속출	-12.6183
레이서	-12.6184
로써	-12.6185
아이즈	-12.6191
높이	-12.6193
관심사	-12.6194
폴라	-12.6195
마구	-12.6196
타피	-12.6199
파편	-12.62
연속	-12.6205
중학생	-12.6205
사설	-12.6206
에스텔라	-12.6206
서막	-12.622
루오	-12.6221
권력자	-12.6224
시위	-12.6224
전복	-12.6225
무력	-12.6227
반감	-12.6228
연일	-12.6228
파차	-12.6236
조안	-12.6241
주유	-12.6243
스타일	-12.6244
세실	-12.6249
채피	-12.6252
대담	-12.6255
시터	-12.6255
대체	-12.6256
바트	-12.6257
가석방	-12.6259
죽인다	-12.6266
지낸다	-12.6268
전학생	-12.6269
몸집	-12.6273
시온	-12.6275
수잔	-12.6277
수퍼	-12.6278
모라	-12.6278
회수	-12.628
재치	-12.6281
카말	-12.6287
주요	-12.6288
강해	-12.6299
한탕	-12.6303
메인	-12.6306
레이저	-12.6309
버전	-12.6333
초사	-12.6336
전작	-12.6343
불신	-12.6343
주체	-12.6345
줄스	-12.6362
오트	-12.6367
해리스	-12.6368
목적지	-12.6377
사생활	-12.6378
개발자	-12.6381
자영	-12.6384
호스	-12.6386
호주	-12.6394
조상	-12.6395
무단	-12.6399
수색	-12.6399
무명	-12.6408
주니	-12.6409
M	-12.6414
▁60	-12.6418
잠자	-12.6419
차마	-12.6419
나마	-12.6419
앞집	-12.6421
▁40	-12.6421
진주	-12.6422
미나	-12.6422
피치	-12.6422
만점	-12.6423
드문	-12.6424
독자	-12.6428
자행	-12.6443
내려간	-12.6443
아무리	-12.6445
발리	-12.6451
이집트인	-12.6455
대면	-12.6463
발사	-12.6464
탄로	-12.6469
대학교	-12.6477
전우	-12.6488
기절	-12.6491
꾼다	-12.6506
나비	-12.6511
보호자	-12.6538
먼지	-12.6547
스타인	-12.6552
반사	-12.656
해든	-12.6565
시속	-12.6567
베인	-12.6568
형수	-12.6568
레슬리	-12.6592
바오	-12.6603
수입	-12.6606
영국인	-12.6612
져온	-12.6628
강인	-12.663
고래	-12.665
앞날	-12.665
던져	-12.6662
관계자	-12.6673
자식	-12.6678
알바	-12.6682
비전	-12.6704
대중	-12.6731
as	-12.6746
집시	-12.6774
전투기	-12.6778
메가	-12.682
팀장	-12.6826
한데	-12.6826
대치	-12.6869
?	-12.691
전원	-12.6957
악한	-12.7037
섞여	-12.7038
적진	-12.7069
화제	-12.71
능력자	-12.7105
피자	-12.7106
중상	-12.7133
럽	-12.7164
기병	-12.7272
도발	-12.7286
선보인	-12.7302
▁Jo	-12.7307
▁195	-12.734
기린	-12.7342
브룩	-12.7453
로건	-12.7458
빈민	-12.7472
액	-12.7477
▁스티븐	-12.7485
꿉	-12.7486
앵무	-12.7488
로버츠	-12.7489
생겨나	-12.7489
올라타	-12.7489
올라오	-12.7489
날카롭	-12.7489
틀어지	-12.7489
갈라지	-12.7489
뉴멕시코	-12.7489
버지니아	-12.7489
싫어하	-12.7489
어지럽히	-12.7489
▁99	-12.7489
알아채	-12.7489
캠벨	-12.7489
타이틀	-12.749
핸드	-12.749
나뭇	-12.749
쳐들어오	-12.7491
쑥대	-12.7491
슬프	-12.7491
코스터	-12.7492
투합	-12.7492
회오리	-12.7492
따위	-12.7493
놓아주	-12.7494
유랑	-12.7494
복종	-12.7494
극악	-12.7497
짐승	-12.7499
불청	-12.7499
톰슨	-12.75
관광	-12.7502
끌어내	-12.7502
양복	-12.7507
당부	-12.7508
화폐	-12.751
틀리	-12.7511
털리	-12.7511
방패	-12.7511
니브	-12.7514
라우	-12.7515
사령	-12.7518
권위	-12.7519
공포증	-12.7521
나이트	-12.7521
박히	-12.7522
기우	-12.7531
사슬	-12.7535
밀수	-12.7539
휴대	-12.7539
구명	-12.7543
포위	-12.7547
상당	-12.7549
▁500	-12.7554
모터	-12.7564
조르	-12.7574
비행사	-12.7593
최소	-12.7597
채우	-12.7604
손목	-12.7624
수준	-12.7685
원시	-12.7695
부양	-12.7701
간첩	-12.7723
재해	-12.7739
깨지	-12.7835
th	-12.7859
피살	-12.7871
일급	-12.7935
ra	-12.7942
다투	-12.7959
지망	-12.8001
시종	-12.8301
her	-12.8418
-	-12.8573
MAJ	-12.8578
ia	-12.8694
다가올	-12.8777
ol	-12.8903
스텔라	-12.8961
얀	-12.8962
브리엘	-12.9029
키운	-12.9079
외톨	-12.9118
망쳐	-12.912
둑	-12.912
...	-12.9122
망친	-12.9123
펼쳐진	-12.9129
곱	-12.9138
거북	-12.9141
달아난	-12.9146
쑥	-12.9146
꼽	-12.9147
섞	-12.9151
덩	-12.9152
믹	-12.9152
펼	-12.9153
샹	-12.9153
스트리트	-12.9153
플렉	-12.9154
가져다	-12.9154
멍	-12.9154
왈	-12.9154
뮤	-12.9155
텀	-12.9155
꾀	-12.9155
캐롤	-12.9155
몬테카를로	-12.9155
소꿉	-12.9155
홈	-12.9155
산타클로스	-12.9155
컴	-12.9155
큐	-12.9155
f	-12.9155
결혼기념일	-12.9155
트랜스포터	-12.9155
겁쟁이	-12.9155
바깥세상	-12.9155
가벼운	-12.9155
쓰여진	-12.9155
코넬리	-12.9155
싹쓸이	-12.9155
엉망진창	-12.9155
움직인	-12.9155
이곳저곳	-12.9155
풀려난	-12.9155
어울릴	-12.9155
자물쇠	-12.9155
붙인다	-12.9155
사나운	-12.9155
갑작스레	-12.9155
광저우	-12.9155
괴로워한다	-12.9155
근근히	-12.9155
나이트메어	-12.9155
녹스빌	-12.9155
느닷없이	-12.9155
도나텔로	-12.9155
디스트릭트	-12.9155
디트로이트	-12.9155
라스베가스	-12.9155
라스베이거스	-12.9155
라퓨타	-12.9155
막시무스	-12.9155
맥팔레인	-12.9155
모스크바	-12.9155
몬테로	-12.9155
무르익	-12.9155
뮤지션	-12.9155
미얀마	-12.9155
바스티안	-12.9155
밝힌다	-12.9155
범블비	-12.9155
베킨세일	-12.9155
보디가드	-12.9155
부잣집	-12.9155
불량배	-12.9155
뷰	-12.9155
브래들리	-12.9155
브루노	-12.9155
브릭스턴	-12.9155
블라디미르	-12.9155
블론디	-12.9155
뿔	-12.9155
사일런트	-12.9155
샤이닝	-12.9155
서슴없이	-12.9155
센티넬	-12.9155
스네이크	-12.9155
시즈쿠	-12.9155
실베스타	-12.9155
아드리앙	-12.9155
아르바이트	-12.9155
아마추어	-12.9155
아비규환	-12.9155
알래스카	-12.9155
알렉산드로	-12.9155
알카트라즈	-12.9155
애꾸눈	-12.9155
어리둥절	-12.9155
에드먼드	-12.9155
에르네스토	-12.9155
에메랄드	-12.9155
엑스칼리버	-12.9155
오케스트라	-12.9155
오필리아	-12.9155
움직임	-12.9155
웨이언스	-12.9155
유난히	-12.9155
유유히	-12.9155
으스스	-12.9155
익스프레스	-12.9155
인셉션	-12.9155
인크레더블	-12.9155
일루미나티	-12.9155
임파서블	-12.9155
자이언트	-12.9155
정태석	-12.9155
즐거움	-12.9155
천방지축	-12.9155
천신만고	-12.9155
침략자	-12.9155
카멜리아	-12.9155
캐스피언	-12.9155
캘러웨이	-12.9155
코렐라	-12.9155
코스트너	-12.9155
콘래드	-12.9155
크로스컨트리	-12.9155
클리프	-12.9155
토너먼트	-12.9155
파키스탄	-12.9155
페르디타	-12.9155
펠프스	-12.9155
프란시스	-12.9155
프랜차이즈	-12.9155
프로듀서	-12.9155
프로페셔널	-12.9155
플라잉	-12.9155
플레처	-12.9155
플렛처	-12.9155
필리핀	-12.9155
허니문	-12.9155
헤네시	-12.9155
헬리콥터	-12.9155
혼비백산	-12.9155
홀연히	-12.9155
확실히	-12.9155
흥미진진	-12.9155
건넨다	-12.9155
꽃다발	-12.9155
넨	-12.9155
도미니카	-12.9155
따돌린	-12.9155
로맨틱	-12.9155
리메이크	-12.9155
리본군	-12.9155
마히토	-12.9155
모니터	-12.9155
몰아친	-12.9155
무심코	-12.9155
미디안	-12.9155
배긴스	-12.9155
불면증	-12.9155
새겨진	-12.9155
소외감	-12.9155
스러울	-12.9155
아비게일	-12.9155
오스틴	-12.9155
요한슨	-12.9155
우술라	-12.9155
유부남	-12.9155
자메이카	-12.9155
중개업자	-12.9155
카운티	-12.9155
캄캄	-12.9155
코요미	-12.9155
토렌스	-12.9155
트위디	-12.9155
호킨스	-12.9155
히나타	-12.9155
달마티아	-12.9155
두려운	-12.9155
라운드	-12.9155
스캔들	-12.9155
싸이렌	-12.9155
아놀드	-12.9155
알퐁스	-12.9155
올라온	-12.9155
우르스	-12.9155
이루어져	-12.9155
졸지에	-12.9155
쥬만지	-12.9155
치카노	-12.9155
트루스	-12.9155
뛰어든	-12.9155
무방비	-12.9155
스니드	-12.9155
스프링	-12.9155
시달린다	-12.9155
야쿠자	-12.9155
우크라	-12.9155
테두리	-12.9155
파치노	-12.9155
그럴싸	-12.9155
끌어들여	-12.9155
머릿속	-12.9155
무너져	-12.9155
배운다	-12.9155
보너스	-12.9155
아름다움	-12.9155
외동딸	-12.9155
전지전능	-12.9155
질풍노도	-12.9155
힘겨운	-12.9155
강대국	-12.9155
미들랜드	-12.9155
알리시아	-12.9155
유색인	-12.9155
유치원	-12.9155
즐거워	-12.9155
코넬리우스	-12.9155
눈부시	-12.9155
다프네	-12.9155
매그니	-12.9155
배심원	-12.9155
파인즈	-12.9155
포크스	-12.9155
후유증	-12.9155
대홍수	-12.9155
더스티	-12.9155
도저히	-12.9155
햄버거	-12.9155
고고학	-12.9155
라모나	-12.9155
비스트	-12.9155
킬리언	-12.9155
타투인	-12.9155
골칫거리	-12.9155
골칫덩어리	-12.9155
기다려온	-12.9155
뉴잉글랜드	-12.9155
스위스	-12.9155
알아챈	-12.9155
웨딩	-12.9155
인신매매	-12.9155
타마라	-12.9155
테마파크	-12.9155
품평회	-12.9155
미디어	-12.9155
차크라	-12.9155
다행히	-12.9156
불어넣	-12.9156
알프스	-12.9156
죽여야	-12.9156
사사키	-12.9156
안간힘	-12.9156
콜럼	-12.9156
도미노	-12.9156
드니로	-12.9156
간병인	-12.9156
조력자	-12.9156
카지노	-12.9156
클로딘	-12.9156
가까워질수록	-12.9156
조나스	-12.9156
극악무도	-12.9156
마르셀	-12.9156
원자력	-12.9156
기호학	-12.9156
꼭대기	-12.9156
본거지	-12.9156
불러들여	-12.9156
슈레더	-12.9156
찌른	-12.9156
하느님	-12.9156
핸드폰	-12.9156
휴대폰	-12.9156
끈끈	-12.9156
베를린	-12.9156
신정수	-12.9156
발신자	-12.9156
잔꾀	-12.9156
시로우	-12.9156
키드먼	-12.9156
황급히	-12.9156
균형	-12.9156
센트럴	-12.9156
과감히	-12.9156
컴백	-12.9156
맥베인	-12.9156
사무라이	-12.9156
남겨둔	-12.9156
빠트리	-12.9156
빠졌	-12.9156
호가드	-12.9156
시니어	-12.9156
떠밀려	-12.9156
깃든	-12.9156
나눈다	-12.9156
규합	-12.9156
세이디	-12.9156
골탕	-12.9156
베이더	-12.9156
장난꾸러기	-12.9156
네이트	-12.9156
젠틀맨	-12.9156
놀이공원	-12.9156
요즘	-12.9156
포위망	-12.9156
찌질	-12.9156
화이트	-12.9156
매디슨	-12.9156
안기부	-12.9156
올리비아	-12.9156
따윈	-12.9156
펄먼	-12.9156
황궁	-12.9156
다국적	-12.9156
랜턴	-12.9156
힐링	-12.9156
발보아	-12.9156
페이스트리	-12.9156
헬싱	-12.9156
▁199	-12.9156
기착지	-12.9156
호스맨	-12.9156
네이비	-12.9156
덩달	-12.9156
띄워	-12.9156
일찍이	-12.9156
흐른	-12.9156
골룸	-12.9156
와일드	-12.9156
캔디	-12.9156
번번이	-12.9156
피난민	-12.9156
더치맨	-12.9156
액체	-12.9156
페이스북	-12.9156
부두교	-12.9156
궁극	-12.9156
물리칠	-12.9156
답답	-12.9156
멜먼	-12.9156
굴욕	-12.9156
종료	-12.9156
프로모터	-12.9156
내려진다	-12.9156
떠맡	-12.9156
들려주	-12.9157
세이야	-12.9157
케이블	-12.9157
게스트	-12.9157
와이파이	-12.9157
▁193	-12.9157
길러진	-12.9157
바쳐야	-12.9157
메이커	-12.9157
분수대	-12.9157
아카데미상	-12.9157
청춘	-12.9157
보라색	-12.9157
외로워	-12.9157
셔츠	-12.9157
애완용	-12.9157
자연재해	-12.9157
스포츠카	-12.9157
겁탈	-12.9157
모가도	-12.9157
가르쳐	-12.9157
웰런	-12.9157
공동체	-12.9157
합법	-12.9157
황홀	-12.9157
발명품	-12.9157
던져진	-12.9157
헬렌	-12.9157
세워진	-12.9157
시리아	-12.9157
아르고	-12.9157
마냥	-12.9157
센터	-12.9157
흥미	-12.9157
글렌	-12.9157
내려놓	-12.9157
IO	-12.9157
논란	-12.9157
사명감	-12.9157
몰려든	-12.9158
승승	-12.9158
물리쳐	-12.9158
랜디	-12.9158
피난길	-12.9158
초토화	-12.9158
폐업	-12.9158
셋째	-12.9158
애널리	-12.9158
윈터	-12.9158
딴판	-12.9158
떨쳐	-12.9158
황당	-12.9158
주성치	-12.9158
혼재	-12.9158
웃음거리	-12.9158
기도서	-12.9158
체험	-12.9158
처벌	-12.9158
꺼려	-12.9158
가로막	-12.9158
당사자	-12.9158
마시모	-12.9158
레나토	-12.9159
도가니	-12.9159
사춘	-12.9159
겸비	-12.9159
찍힌	-12.9159
어쩌면	-12.9159
슈즈	-12.9159
왜가리	-12.9159
가져다주	-12.9159
잇따라	-12.9159
겉모습	-12.9159
그리움	-12.9159
워커	-12.9159
▁Cra	-12.9159
질투심	-12.9159
이어진	-12.9159
가로채	-12.9159
▁27	-12.9159
냉담	-12.9159
추궁	-12.9159
침몰	-12.9159
정비공	-12.9159
맴도	-12.9159
잠재력	-12.9159
상관없이	-12.9159
조안나	-12.9159
남부러울	-12.9159
텐더	-12.9159
래디	-12.9159
벌써	-12.9159
웰드	-12.9159
동떨어진	-12.916
압박	-12.916
젖소	-12.916
덴트	-12.916
금기시	-12.916
잘생긴	-12.916
학창	-12.916
합쳐야	-12.916
교류	-12.916
해병대	-12.916
바닷속	-12.916
독수리	-12.916
태운	-12.916
싸울	-12.916
프릴	-12.916
마시바	-12.916
삭제	-12.916
길들이	-12.916
아만다	-12.916
용납	-12.916
트로이	-12.916
경호원	-12.916
돌려보내	-12.916
표식	-12.9161
이겨야	-12.9161
힐데	-12.9161
▁Ra	-12.9161
환심	-12.9161
맹세	-12.9161
묶여	-12.9161
브레인	-12.9161
친밀	-12.9162
둔갑	-12.9162
출입	-12.9162
심취	-12.9162
통증	-12.9162
예민	-12.9162
받아들인다	-12.9162
끌려오	-12.9162
익명	-12.9162
넘어간	-12.9162
핵전쟁	-12.9162
대장정	-12.9162
황실	-12.9162
콜터	-12.9162
액수	-12.9162
호크아이	-12.9162
절대절명	-12.9163
그리곤	-12.9163
행운	-12.9163
욕조	-12.9163
표면	-12.9163
널리	-12.9163
박탈	-12.9163
꾸려	-12.9163
하버드대	-12.9163
황야	-12.9163
목욕	-12.9163
공황	-12.9163
극비리	-12.9163
교도관	-12.9164
드래곤볼	-12.9164
손놀림	-12.9164
정령	-12.9164
질색	-12.9164
노신부	-12.9164
빼내	-12.9164
맞춰	-12.9164
외교	-12.9164
냉정	-12.9164
좀도둑	-12.9164
유언장	-12.9164
버논	-12.9164
인질극	-12.9165
수녀원	-12.9165
낙원	-12.9165
진흙	-12.9165
출구	-12.9165
헤비	-12.9165
앙신	-12.9165
기원전	-12.9165
감돌	-12.9165
백조	-12.9165
끊긴	-12.9165
쌓여	-12.9165
머론	-12.9165
모셔	-12.9166
절반	-12.9166
어린이집	-12.9166
르망	-12.9166
논리	-12.9166
징집	-12.9166
배닝	-12.9166
원시인	-12.9167
동유럽	-12.9167
동쪽	-12.9167
신분증	-12.9167
베른	-12.9167
장례식장	-12.9167
크리스티나	-12.9167
이어진다	-12.9167
동태	-12.9168
박힌	-12.9168
시험대	-12.9168
철학자	-12.9168
감출	-12.9168
먼데이	-12.9168
노동자	-12.9168
으라는	-12.9168
디제이	-12.9168
외형	-12.9168
잠옷	-12.9169
반물질	-12.9169
려왔	-12.9169
누워	-12.9169
찾아낸다	-12.9169
삭스	-12.9169
연령	-12.9169
허드	-12.917
화합	-12.917
동업자	-12.917
파이프	-12.917
유엔	-12.917
순서	-12.917
양육	-12.917
키튼	-12.9171
케이스	-12.9171
눈보라	-12.9171
술탄	-12.9171
장본인	-12.9171
진압	-12.9171
질린	-12.9172
소냐	-12.9172
정권	-12.9172
검객	-12.9172
환대	-12.9172
더우먼	-12.9172
워크	-12.9173
설계도	-12.9173
사로잡힌다	-12.9173
영역	-12.9173
크레인	-12.9173
난항	-12.9173
구루	-12.9173
외딴섬	-12.9173
잠긴	-12.9173
이시다	-12.9173
터틀	-12.9174
외우	-12.9174
첩자	-12.9174
마니아	-12.9174
독차지	-12.9174
코브	-12.9174
동작	-12.9174
바넬	-12.9174
조합	-12.9175
거주자	-12.9175
강림	-12.9175
쉬프	-12.9175
차세대	-12.9175
뒤집히	-12.9176
사우스	-12.9176
마리너	-12.9176
끼리	-12.9176
설계자	-12.9176
재현	-12.9176
왜군	-12.9176
유품	-12.9176
첫날밤	-12.9176
이민자	-12.9176
드러낸다	-12.9176
민간인	-12.9176
녹지	-12.9177
정책	-12.9177
리디아	-12.9178
자라나	-12.9178
탈주	-12.9178
그냥	-12.9178
창조자	-12.9179
본업	-12.9179
재미있	-12.9179
라켈	-12.9179
타피아	-12.9179
유학	-12.9179
연출	-12.9179
크레이그	-12.918
정찰기	-12.918
뒤바꾸	-12.918
계층	-12.918
엘리즈	-12.918
거주민	-12.918
애절	-12.9181
돌격	-12.9181
개척지	-12.9181
원령	-12.9181
소굴	-12.9182
발현	-12.9182
밤낮	-12.9182
신경전	-12.9182
깨워	-12.9182
근사	-12.9182
부랑아	-12.9182
다가갈수록	-12.9182
니암	-12.9183
왠지	-12.9183
실린	-12.9183
교양	-12.9183
러쉬	-12.9183
메론	-12.9183
카라스	-12.9183
검술	-12.9184
끈다	-12.9184
벗어난다	-12.9184
휴식	-12.9184
지났	-12.9185
끝나갈	-12.9185
오웬	-12.9185
에이바	-12.9185
도우러	-12.9186
체제	-12.9186
그루트	-12.9186
엘르	-12.9186
허치	-12.9187
모이라	-12.9187
경기장	-12.9187
메린	-12.9187
대지진	-12.9187
소환	-12.9188
공화	-12.9188
노타	-12.9188
작별	-12.9188
영토	-12.9188
별나	-12.9188
잔해	-12.9189
밀스	-12.9189
보컬	-12.9189
오션	-12.9189
처참히	-12.9189
운전수	-12.9189
메모	-12.9189
안내자	-12.919
우승자	-12.9191
담배	-12.9191
물색	-12.9191
생지옥	-12.9191
남겨진다	-12.9192
신대륙	-12.9192
갈구	-12.9192
코울	-12.9192
쇼맨	-12.9192
코츠	-12.9193
네임	-12.9193
루저	-12.9193
보웬	-12.9194
워치	-12.9194
중독자	-12.9194
열망	-12.9195
숨긴다	-12.9195
메리다	-12.9195
배너	-12.9195
선풍	-12.9195
본색	-12.9196
쇼코	-12.9196
했으나	-12.9197
금서	-12.9197
달래	-12.9197
정거	-12.9197
치른	-12.9197
포악	-12.9197
진출	-12.9198
우애	-12.9198
준우	-12.9198
악질	-12.9199
레이프	-12.9199
곧바로	-12.9199
산맥	-12.92
진술	-12.9201
무녀	-12.9202
극심	-12.9202
룩스	-12.9203
교전	-12.9203
벌목	-12.9204
코코	-12.9204
판타	-12.9204
악화	-12.9205
상대방	-12.9205
칼린	-12.9205
라몬	-12.9206
디노	-12.9206
두드리	-12.9206
모임	-12.9207
왕족	-12.9208
품위	-12.9208
간절	-12.9209
마음대로	-12.9209
보금	-12.9211
시켜야	-12.9211
입국	-12.9212
원천	-12.9212
달라도	-12.9212
비바람	-12.9212
살인극	-12.9212
바늘	-12.9213
잠식	-12.9213
마샤	-12.9213
유명세	-12.9214
빠져든	-12.9214
네버	-12.9214
드영	-12.9215
될까	-12.9215
연구실	-12.9215
사이퍼	-12.9216
천진	-12.9216
계왕	-12.9216
구두	-12.9216
토모	-12.9217
맞설	-12.9217
코린	-12.9219
빈더	-12.9219
잭맨	-12.9219
진범	-12.9219
라우리	-12.922
강도단	-12.922
포즈	-12.9222
에이치	-12.9223
폴터	-12.9223
본토	-12.9225
반정부	-12.9225
바로잡	-12.9227
위독	-12.9229
다가간다	-12.9229
스퍼	-12.923
음직	-12.923
바짝	-12.9232
모린	-12.9232
오언	-12.9233
전투력	-12.9234
간츠	-12.9235
말린다	-12.9236
단검	-12.9236
재건	-12.9237
걸친	-12.9238
키티	-12.9238
등교	-12.9238
날뛰	-12.9238
소망	-12.9238
완벽히	-12.9239
중앙	-12.9239
생포	-12.9239
강력계	-12.924
부임	-12.9241
크루스	-12.9242
구치	-12.9242
오브라이언	-12.9243
중령	-12.9244
원형	-12.9244
번져	-12.9245
진입	-12.9245
우물	-12.9248
무천	-12.9248
최선	-12.9248
안겨	-12.9249
휴일	-12.9249
정보원	-12.9249
소용	-12.925
연발	-12.925
신검	-12.9252
입히	-12.9252
천부	-12.9253
서약	-12.9254
바쳐	-12.9254
비교	-12.9254
유령선	-12.9254
레비	-12.9254
내릴	-12.9254
난파	-12.9254
코트	-12.9256
별명	-12.9256
신청	-12.9257
제자리	-12.9257
형식	-12.9258
버니	-12.9258
상경	-12.9258
방불	-12.9259
활약상	-12.926
연구원	-12.9261
호위	-12.9262
풀러	-12.9262
건조	-12.9262
재생	-12.9262
무당	-12.9264
레이번	-12.9264
재력	-12.9264
밤거리	-12.9265
신약	-12.9268
우편	-12.9269
건달	-12.9269
레더	-12.9271
저편	-12.9272
카린	-12.9275
카르	-12.9276
루비	-12.9278
수익	-12.9279
입력	-12.9281
조위	-12.9282
소질	-12.9283
마루	-12.9284
마코	-12.9286
조우	-12.9286
반티	-12.9287
키드	-12.9291
힘쓰	-12.9292
배려	-12.9295
호온	-12.9295
오천	-12.9296
마왕	-12.9296
온난	-12.9296
맞선	-12.9297
져간다	-12.9297
나올	-12.9297
남친	-12.9298
해파리	-12.9298
다이안	-12.93
괴상	-12.9301
볼일	-12.9301
막아서	-12.9303
마키	-12.9305
공포물	-12.9305
애비	-12.9307
범상	-12.9308
밤새	-12.9309
발동	-12.931
기옥	-12.9313
스즈	-12.9315
피드	-12.9316
파파	-12.9317
미카	-12.9318
단계	-12.9318
카카	-12.9318
단란	-12.932
자연사	-12.9322
시초	-12.9324
일어서	-12.9325
눈길	-12.9325
발발	-12.9327
위트	-12.933
다가온	-12.9333
끝없이	-12.9334
후빌	-12.9335
수소문	-12.9335
날씨	-12.9335
따라서	-12.9335
하나하나	-12.9337
저명	-12.9339
때려	-12.9341
대책	-12.935
임시	-12.935
대디	-12.9354
조직력	-12.9356
전처	-12.9357
마리오	-12.9359
치군	-12.9364
토라	-12.9367
다시금	-12.9375
수사망	-12.9378
마력	-12.938
우라	-12.9386
코라	-12.9387
일족	-12.9392
안티	-12.9399
스모	-12.94
제드	-12.94
진행자	-12.9402
소진	-12.9403
내키	-12.9404
제타	-12.9408
방치	-12.941
일약	-12.9411
호소	-12.9413
세트	-12.9422
안개	-12.9427
일자리	-12.943
지킴	-12.9434
반크	-12.944
이아고	-12.9446
방문자	-12.9465
매사	-12.947
으려다	-12.9471
후손	-12.9473
▁Ba	-12.9488
호보	-12.9497
형상	-12.9497
다시피	-12.9497
보르	-12.9503
밤비	-12.9507
물리학	-12.9521
수상자	-12.9522
더불	-12.9524
미용	-13.0035
학원	-13.0248
릴라	-13.0352
▁90	-13.0409
모모	-13.052
J	-13.0567
SS	-13.0572
XPN	-13.0577
찌	-13.1118
콧	-13.1147
픽	-13.1153
NG	-13.1153
즘	-13.1155
▁Ken	-13.1155
▁페번시	-13.1155
바구니	-13.1155
팔아넘기	-13.1155
뚱뚱	-13.1155
쓸어버리	-13.1155
서두르	-13.1155
if	-13.1155
고달프	-13.1156
ic	-13.1156
부러지	-13.1156
젠틀	-13.1156
man	-13.1156
슬럼	-13.1156
미워하	-13.1156
쫓아오	-13.1156
컨트리	-13.1156
몰아가	-13.1156
순찰	-13.1156
겨누	-13.1157
띄우	-13.1157
숨어들	-13.1157
다구요	-13.1157
닫히	-13.1158
곡예	-13.1158
쿠삭	-13.1158
탈영	-13.1159
아시아	-13.1161
넘어서	-13.1164
바닥나	-13.1164
유혈	-13.1165
회계	-13.1165
고장나	-13.1165
현관	-13.1166
설레	-13.1166
점프	-13.1166
놓친	-13.1166
창시	-13.117
탄탄	-13.1172
야영	-13.1175
잠복	-13.1177
디디	-13.1187
데이터	-13.121
연금	-13.121
▁Dr	-13.1213
타오르	-13.1222
휴양	-13.1224
송신	-13.1338
▁Po	-13.1473
▁180	-13.1506
앤드	-13.1695
빼돌	-13.1814
뒤섞	-13.185
lo	-13.294
탈리아	-13.3436
났	-13.3578
둠	-13.3615
쩌	-13.3642
알아낸	-13.3646
받아들인	-13.3646
따른	-13.3647
맴	-13.3648
부러울	-13.3649
옹	-13.3649
mb	-13.365
굶	-13.3652
뭇	-13.3653
에스텔	-13.3653
피비린	-13.3654
걱	-13.3654
튜	-13.3655
곽	-13.3655
스패로	-13.3655
세일즈	-13.3655
랍	-13.3655
누군지	-13.3655
나일강	-13.3655
급작스런	-13.3655
길들여진	-13.3655
뒷골목	-13.3655
빠트릴	-13.3655
염라대왕	-13.3655
일거수일투족	-13.3655
잊혀졌	-13.3655
짜여진	-13.3655
단조로운	-13.3655
깨어났	-13.3655
떨어졌	-13.3655
속삭인다	-13.3655
줄행랑	-13.3655
넘긴다	-13.3655
아닐까	-13.3655
양탄자	-13.3655
어설픈	-13.3655
캄	-13.3655
돌아갔	-13.3655
부턴가	-13.3655
넘어온	-13.3655
살아났	-13.3655
all	-13.3655
lar	-13.3655
개구쟁이	-13.3655
견습생	-13.3655
고스란히	-13.3655
글로버	-13.3655
급격히	-13.3655
김승기	-13.3655
꽃미남	-13.3655
나폴레옹	-13.3655
노르망디	-13.3655
놀러갔	-13.3655
닥쳐오	-13.3655
데이비슨	-13.3655
동고동락	-13.3655
디카프리오	-13.3655
떠올린다	-13.3655
떨어뜨린	-13.3655
라스푸틴	-13.3655
라플란드	-13.3655
래드클리프	-13.3655
레골라스	-13.3655
레베카	-13.3655
레티시아	-13.3655
로맨티스트	-13.3655
록산느	-13.3655
루돌프	-13.3655
루벤스타인	-13.3655
루이지애나	-13.3655
루즈벨트	-13.3655
룬드그렌	-13.3655
리얼리티	-13.3655
마드리갈	-13.3655
마드리드	-13.3655
마스코트	-13.3655
맥시멀	-13.3655
맥커너히	-13.3655
맥컬리	-13.3655
맹렬히	-13.3655
메리웨더	-13.3655
메릴랜드	-13.3655
메피스토	-13.3655
메피스토펠레스	-13.3655
모랄레스	-13.3655
물러난다	-13.3655
미시시피	-13.3655
바르보사	-13.3655
바르샤바	-13.3655
바퀴벌레	-13.3655
박스오피스	-13.3655
버라이어티	-13.3655
베리모어	-13.3655
베오울프	-13.3655
벨레로폰	-13.3655
보잘것없	-13.3655
볼드윈	-13.3655
부스러기	-13.3655
불태워	-13.3655
브라우닝	-13.3655
브래너	-13.3655
브래트	-13.3655
브롤린	-13.3655
블레이즈	-13.3655
비칸데르	-13.3655
빈털터리	-13.3655
빈틈없	-13.3655
빠트린	-13.3655
샌드맨	-13.3655
생필품	-13.3655
샹크스	-13.3655
세르게이	-13.3655
세일럼	-13.3655
셀리나	-13.3655
쇼트케이크	-13.3655
순순히	-13.3655
슈나이더	-13.3655
슈베르트	-13.3655
슈왈제네거	-13.3655
슈퍼플라이	-13.3655
스케줄	-13.3655
스코필드	-13.3655
스태덤	-13.3655
스털링	-13.3655
스테파노	-13.3655
스테파니	-13.3655
스튜어트	-13.3655
스트롱	-13.3655
슬레이드	-13.3655
슬로바키아	-13.3655
시끄러운	-13.3655
시끌벅적	-13.3655
시뮬레이션	-13.3655
시시각각	-13.3655
시행착오	-13.3655
식료품	-13.3655
신용카드	-13.3655
쓰러트리	-13.3655
아가멤논	-13.3655
아메리칸	-13.3655
아브라함	-13.3655
아웃사이더	-13.3655
아이스크림	-13.3655
아즈텍	-13.3655
알렉산더	-13.3655
알베르토	-13.3655
알츠하이머	-13.3655
애드리안	-13.3655
애드리언	-13.3655
애프터	-13.3655
얼어붙	-13.3655
얽매이	-13.3655
에스메랄다	-13.3655
엘리베이터	-13.3655
오리엔트	-13.3655
오리지널	-13.3655
오컬트	-13.3655
올드먼	-13.3655
올라탄다	-13.3655
올림포스	-13.3655
요리조리	-13.3655
요세프	-13.3655
요츠바	-13.3655
요하네스	-13.3655
위더스푼	-13.3655
윌리암스	-13.3655
유니버스	-13.3655
유목민	-13.3655
유토피아	-13.3655
이구아노돈	-13.3655
이리저리	-13.3655
이스라엘	-13.3655
이스탄불	-13.3655
이야말로	-13.3655
인디펜던스	-13.3655
인피니티	-13.3655
일망타진	-13.3655
일으킬	-13.3655
잡동사니	-13.3655
재클린	-13.3655
저널리스트	-13.3655
제럴드	-13.3655
제멋대로	-13.3655
종횡무진	-13.3655
죠슈아	-13.3655
주정뱅이	-13.3655
짝달싹	-13.3655
찢어질	-13.3655
천천히	-13.3655
체르노빌	-13.3655
첼리오스	-13.3655
카델리니	-13.3655
카츠모토	-13.3655
카타콤	-13.3655
칼립소	-13.3655
캄보디아	-13.3655
컨퍼런스	-13.3655
케네디	-13.3655
케네스	-13.3655
콘스탄틴	-13.3655
콘티넨탈	-13.3655
크로프트	-13.3655
크롬웰	-13.3655
크리스토프	-13.3655
크세르크세스	-13.3655
클라이맥스	-13.3655
클랜시	-13.3655
클루니	-13.3655
타이타닉	-13.3655
탈레반	-13.3655
털북숭이	-13.3655
털어놓	-13.3655
텍	-13.3655
토랜스	-13.3655
토착민	-13.3655
투리스모	-13.3655
투모로우	-13.3655
트라볼타	-13.3655
트란실바니아	-13.3655
트랙터	-13.3655
트루먼	-13.3655
파시스트	-13.3655
파운데이션	-13.3655
파헤친다	-13.3655
패트리샤	-13.3655
팩스턴	-13.3655
팬케이크	-13.3655
퍼부으	-13.3655
퍼포먼스	-13.3655
페레즈	-13.3655
펙	-13.3655
펜타곤	-13.3655
포카혼타스	-13.3655
프랑수아	-13.3655
프로그래밍	-13.3655
프로메테우스	-13.3655
프로페서	-13.3655
프린즈	-13.3655
플래너	-13.3655
피아니스트	-13.3655
허덕이	-13.3655
허큘리스	-13.3655
헤맨다	-13.3655
헤엄쳐	-13.3655
헨릭슨	-13.3655
헬레네	-13.3655
흑사병	-13.3655
히틀러	-13.3655
가톨릭	-13.3655
과잉보호	-13.3655
기회주의자	-13.3655
누빈다	-13.3655
대물림	-13.3655
데자뷰	-13.3655
뛰어다니	-13.3655
모조품	-13.3655
미라벨	-13.3655
베어울프	-13.3655
비즈니스	-13.3655
사교계	-13.3655
사이프리드	-13.3655
산산조각	-13.3655
상급생	-13.3655
스쿠비	-13.3655
스토커	-13.3655
스트레스	-13.3655
쓰러질	-13.3655
애나벨	-13.3655
앤서니	-13.3655
재커리	-13.3655
카운트	-13.3655
카츠키	-13.3655
카펠라	-13.3655
커티스	-13.3655
키메라	-13.3655
테렌스	-13.3655
테이텀	-13.3655
내세울	-13.3655
도널드	-13.3655
뜬금없	-13.3655
무너뜨리	-13.3655
무작정	-13.3655
미시족	-13.3655
박살내	-13.3655
브렌다	-13.3655
사츠키	-13.3655
아슬란	-13.3655
알렉사	-13.3655
알코올	-13.3655
재스민	-13.3655
제스처	-13.3655
지질학자	-13.3655
최상위	-13.3655
캐스트	-13.3655
크라운	-13.3655
타케시	-13.3655
파라즈	-13.3655
호타카	-13.3655
빠뜨린	-13.3655
무용단	-13.3655
미라즈	-13.3655
배관공	-13.3655
사쿠라	-13.3655
아랑곳	-13.3655
아이언스	-13.3655
엘비스	-13.3655
키리토	-13.3655
호루스	-13.3655
놓아준다	-13.3655
닥쳐올	-13.3655
등대지기	-13.3655
떨어뜨리	-13.3655
뜨거웠	-13.3655
마타타	-13.3655
망망대해	-13.3655
메두사	-13.3655
무미건조	-13.3655
물러날	-13.3655
미어캣	-13.3655
빼어난	-13.3655
사이코패스	-13.3655
삼합회	-13.3655
시끄럽	-13.3655
안테나	-13.3655
알카디	-13.3655
애리조	-13.3655
오라클	-13.3655
옥토퍼스	-13.3655
올로프	-13.3655
위노나	-13.3655
위조지폐	-13.3655
임산부	-13.3655
저질렀	-13.3655
종업원	-13.3655
차우더	-13.3655
책임져야	-13.3655
천진난만	-13.3655
철조망	-13.3655
친일파	-13.3655
크리티	-13.3655
통행증	-13.3655
허수아비	-13.3655
흥겨운	-13.3655
가면라이더	-13.3655
공무원	-13.3655
네이션	-13.3655
데려온다	-13.3655
뒤집어쓴	-13.3655
러스티	-13.3655
무일푼	-13.3655
변두리	-13.3655
불치병	-13.3655
안토니오	-13.3655
암파로	-13.3655
옥수수	-13.3655
키무라	-13.3655
피서객	-13.3655
다락방	-13.3655
뛰어드	-13.3655
러팔로	-13.3655
빠뜨려	-13.3655
삼지창	-13.3655
소림사	-13.3655
소용돌이	-13.3655
안드레아	-13.3655
에저튼	-13.3655
위원회	-13.3655
윤곽	-13.3655
쫓겨났	-13.3655
천문학	-13.3655
부추기	-13.3655
비춘다	-13.3655
조슈아	-13.3655
추기경	-13.3655
한결같이	-13.3655
기절초풍	-13.3655
나무늘보	-13.3655
넘어선	-13.3655
노랫소리	-13.3655
독립기념일	-13.3655
로웨나	-13.3655
백화점	-13.3655
소울메이트	-13.3655
솔깃	-13.3655
스트로베리	-13.3655
신성모독	-13.3655
아름다워	-13.3655
알리바이	-13.3655
얀센	-13.3655
음담패설	-13.3655
타임캡슐	-13.3655
태어날	-13.3655
펼쳐질까	-13.3655
합창단	-13.3655
헤로인	-13.3655
흘러나온다	-13.3655
cho	-13.3655
겨냥	-13.3655
나타내	-13.3655
눈부신	-13.3655
D	-13.6404
X	-13.6413
’	-13.6413
뢰	-13.6913
깃	-13.6967
균	-13.6988
냥	-14.1891
쩔	-14.1949
떤	-14.1949
얘	-14.1978
욱	-14.1987
앵	-14.1987
얽	-14.1987
닷	-14.1988
뮬	-14.1988
뚱	-14.1989
멕	-14.1989
펭	-14.1989
H	-15.1435
낌	-15.1675
v	-15.1676
옵	-15.1677
썬	-15.1678
릇	-15.1679
둡	-15.168
헝	-15.1681
탠	-15.1682
뭔	-15.1683
룹	-15.1684
됩	-15.1685
뀐	-15.1686
껴	-15.1687
겼	-15.1688
%	-15.1689
칫	-15.169
뿌	-15.1691
깥	-15.1692
횡	-15.1693
팽	-15.1694
즌	-15.1695
윽	-15.1696
셜	-15.1697
렘	-15.1698
녁	-15.1699
낭	-15.17
궤	-15.1701
혁	-15.1702
칵	-15.1703
챙	-15.1704
뜩	-15.1705
똘	-15.1706
깜	-15.1707
혜	-15.1708
혐	-15.1709
웠	-15.171
딜	-15.1711
흡	-15.1712
퀴	-15.1713
쿄	-15.1714
딪	-15.1715
틸	-15.1716
븐	-15.1717
쳤	-15.1718
쁨	-15.1719
뱅	-15.172
큘	-15.1721
쿵	-15.1722
콥	-15.1723
셉	-15.1724
럿	-15.1725
랐	-15.1726
룻	-15.1727
촬	-15.1728
붕	-15.1729
썽	-15.173
뤄	-15.1731
꿔	-15.1732
귄	-15.1733
첼	-15.1734
핑	-15.1735
흩	-15.1736
엽	-15.1737
옮	-15.1738
젝	-15.1739
섭	-15.174
숭	-15.1741
흘	-15.1742
헨	-15.1743
`	-15.1744
쁜	-15.1745
껏	-15.1746
늑	-15.1747
깝	-15.1748
픔	-15.1749
겐	-15.175
챔	-15.1751
뀌	-15.1752
큼	-15.1753
캡	-15.1754
듭	-15.1755
럭	-15.1756
떻	-15.1757
퓨	-15.1758
멈	-15.1759
낀	-15.176
렬	-15.1761
켓	-15.1762
슴	-15.1763
멤	-15.1764
렸	-15.1765
칙	-15.1766
섹	-15.1767
첨	-15.1768
염	-15.1769
룡	-15.177
렐	-15.1771
쇄	-15.1772
략	-15.1773
젤	-15.1774
뭉	-15.1775
렵	-15.1776
섯	-15.1777
농	-15.1778
념	-15.1779
렇	-15.178
몽	-15.1781
례	-15.1782
량	-15.1783
둥	-15.1784
응	-15.1785
엇	-15.1786
흔	-15.1787
휩	-15.1788
웅	-15.1789
숙	-15.179
확	-15.1791
갇	-15.1792
끔	-15.1793
앨	-15.1794
탁	-15.1795
득	-15.1796
훔	-15.1797
멸	-15.1798
택	-15.1799
혹	-15.18
획	-15.1801
닌	-15.1802
련	-15.1803
충	-15.1804
협	-15.1805
페	-15.1806
특	-15.1807
습	-15.1808
'	-15.1809
폭	-15.181
쟁	-15.1811
름	-15.1812
*	-15.1813
ᄇ	-15.1813
